#version: 0.2
ï ¼
ï¼ Į
ä ¸
ç ļ
çļ Ħ
æ ľ
å ı
ã Ģ
å ¤
ç Ĺ
ä º
ä »
æ ĺ
ä ¹
å Ĳ
ç ĸ
ç Ķ
ãĢ Ĥ
æ Ģ
æ ²
ä ½
æĺ ¯
æľ ī
ç »
è ¿
è Ĥ
æ² »
å °
æ Ĺ
è ĥ
å ®
å Ī
ä¸ į
çĸ Ĺ
å ħ
ä¹ Ī
æ²» çĸĹ
çĹ ħ
å Ń
ï¼ Ľ
è ¡
æĢ §
å Ĭ
ï¼ Ł
æ Ī
è ¯
å Į
å Ĩ
¦ ģ
è Ģ
ä¸ Ģ
è ¦ģ
åı ¯
å ¥
æ ī
å Ľ
ä» ¥
ä» Ģ
ä»Ģ ä¹Ī
è į
ä ¼
ãĢ ģ
çĶ Ł
å º
æĹ ¶
ç ī
æ ³
æ Ħ
è §
æ Ł
å ¸
åı ĳ
å ĩ
å ¹
ç Ĥ
å ¼
æ ĥ
å¥ ½
èį ¯
æ Ĥ
å ¾
å ¯
å ¿
å¤ ļ
ç §
è ħ
é ĩ
é Ļ
æ ĸ
è Ħ
çĹ ĩ
èĥ ½
é £
äº Ĩ
å İ
äº Ľ
ç İ
æ ŀ
é Ĺ
çĶ ¨
è ¾
å ľ
å ¦
è¡ Ģ
å Ĵ
å į
æ ķ
é£ Ł
æ °
æľ ¯
é ĺ
åĮ »
çĤ İ
æ £
æ Ń
æŁ ¥
èĢ ħ
ç Ļ
æ ł
åı¯ ä»¥
æĥ ħ
æ£ Ģ
åľ ¨
å ½
çİ °
çī ©
åĲ İ
æĤ £
é Ģ
é ĥ
å ī
æ Ŀ
è ĩ
å¸ ¸
æ Ĭ
ä½ ĵ
é ¢
åŃ Ĳ
å ģ
æ£Ģ æŁ¥
è ®
ä¼ ļ
åĽ ł
ç ´
æŀ ľ
ç Ľ
æ ¯
æī ĭ
å ·
ç Ĭ
é ģ
æľī äºĽ
æĪ ĳ
å¦ Ĥ
çĬ ¶
è¿ Ļ
æľīäºĽ ä»Ģä¹Ī
ç» ı
åĩ º
æĤ£ èĢħ
åĴ Į
å¿ ĥ
å¤ §
æľ Ł
æ İ
ç Ĳ
ä½ ł
ä¸ Ń
å¯ ¹
ä¸ ĭ
æĦ ı
ä¸ ª
ä¸ Ĭ
å ĳ
æ ¶
æ Į
åĲ ĥ
å° ±
æīĭ æľ¯
ç Ń
æ ´
çĲ Ĩ
é ħ
æĢ İ
ä¸ º
é Ŀ
å ĵ
ç ľ
å¤ į
é ķ
åī į
ç´ ł
é ľ
ç ĺ
å° ı
æĿ ¥
åĨ µ
è¿ ĩ
ç ²
åı Ĭ
ç ®
çĹ Ľ
å »
åĨ ħ
é «
æĸ ¹
é ¥
ç ĥ
æĦ Ł
çŃ ī
ç» Ĩ
æĥħ åĨµ
å¤ ĸ
åĪ °
ä¹ Ł
åĮ ĸ
æĪ ĸ
æ µ
éĻ ¢
éĩ į
åĲ Ī
äº İ
ç® ¡
éĥ ¨
æĢİ ä¹Ī
å» º
æ³ ¨
è¿ ĺ
éĹ ®
äº º
è® ®
å»º è®®
ä ¾
åĮ» éĻ¢
çĹĩ çĬ¶
æ ģ
æ į
æ ¬
æ ¸
åº Ķ
å¤ ©
èĤ ¿
éģ ĵ
é« ĺ
éľ Ģ
å® ļ
ç º
å¾ Ī
é¥ ®
æ° ´
åģ ļ
è Ī
è º
å° ¿
èħ º
è µ
æľ Ī
ç» ĵ
ç ³
æ Ķ
ç§ į
éĹ ´
ä ¿
å¼ ķ
èº «
åĬ ¨
æľ į
å¹ ´
ç ¡
æ´ »
åİ »
æ¬ ¡
éľĢ è¦ģ
ï¼ ļ
å Ħ
åĦ ¿
é ª
åĪ Ĩ
éķ ¿
åŃ ©
æĹ ©
èį¯ çī©
æ² ¡
æ³ ķ
è ´
æľ Ģ
åĲ Ĺ
è ¶
çĺ ¤
è °
å® Ŀ
è Ĩ
æł ·
ç ¥
æ³¨ æĦı
é¥® é£Ł
æ ĭ
å ĸ
ç ¼
çļ ®
åŃ ķ
å® «
çĻ Į
æĺ¯ ä»Ģä¹Ī
¾ çĹħ
è ī
ç Ŀ
éĺ ´
ç Ł
èµ ·
å¦Ĥ æŀľ
é ļ
èĤ Ŀ
èĩ ª
è ı
è¯ Ĭ
å ¢
è ½
çĸ ¾çĹħ
åĲ Į
æŃ £
æĹ ł
è¯ ´
ç§ ĳ
å½ ±
å¾ Ĺ
ä½ ľ
é Ĵ
åĬ ©
è Ļ
èĩ ´
æ ·
æĤ ¨
èĦ ĳ
æķ Ī
èĢ Į
æĪ Ĳ
åŃ© åŃĲ
è¿ Ľ
è¾ ĥ
å ±
éĩ ı
åı £
çľ ĭ
åİ Ł
æ Ļ
éĻ ¤
çĻ ½
å¢ ŀ
æŁ ĵ
ç² ¾
è¡ Į
éĥ ½
èħ ¹
å¯ ¼
æ ¿
å¹ ¶
æ¿ Ģ
å° ĳ
åº ·
åĩº çİ°
å¤ ´
èĪ ¬
ä¿ Ŀ
ä¸Ģ èĪ¬
å¹ ³
è¯ ·
åı¯ èĥ½
è Ĭ
é£Ł çī©
æ¸ ħ
æ° Ķ
éĺ ²
æ¯ Ķ
èĤ ł
æ¶ ²
åº ¦
ä¸ Ķ
ä½ Ĩ
åĬ Ľ
éª ¨
çĸ ¼
åĨ į
è¡ ¨
æł ¹
èĥ ĥ
ç ķ
è§ ī
ç¥ ŀ
çĶŁ æ´»
æĮ ģ
åħ į
å½ ĵ
æķ ĳ
æ²»çĸĹ æľīäºĽä»Ģä¹Ī
å Ŀ
å Ģ
åĽ Ĭ
ä½ ¿
ï¼Ł ï¼Į
åĬ Ł
æ¶ Ī
æī Ģ
èĤ ¾
åİ ĭ
é »
è§ £
è§ ģ
èĨ ľ
åĬ ł
æķĳ æ²»
æĬ Ĺ
éĿ ¢
è§ Ħ
æµ ģ
åħ ¶
çĤ ¹
ä¼ ¤
ä¸ »
è´ ¨
åĮ» çĶŁ
åħ ³
è¯· éĹ®
èĦ ī
æį ®
çĹħ æĥħ
ä½ İ
å ²
åıĬ æĹ¶
ä¹ ³
åĬŁ èĥ½
çĽ ´
åį µ
æĬ ¤
è° ĥ
ç ±
ç¡ ®
åħ »
æ ħ
èı Į
åı ĺ
äº §
è¯ ¥
æĸ¹ æ³ķ
æĦŁ æŁĵ
éĢ ļ
æĹ¶ éĹ´
å¼ķ èµ·
ä¾ ¿
æĥ ³
éħ ¸
ä» Ķ
ä½ł å¥½
ä»Ķ ç»Ĩ
æ Ľ
åĮ ħ
åº Ĭ
è¶ ħ
ä¸ ¥
å ŀ
åĪ º
åĪ ¶
ç ¨
æĺ İ
èĤ º
æł¹ æį®
æİ ¨
è Ĳ
è¡¨ çİ°
çĶ ²
èĥ ŀ
ç «
ä½ į
äº ĭ
è¿ ĳ
çļĦ æ²»çĸĹ
åŃ ¦
æŃ ¤
æĺ ĵ
å² ģ
å¥ ³
åĪ Ĺ
æŃ ¢
åĬ ŀ
é¢ Ī
ä¹ ĭ
ä¸į è¦ģ
çļĦ æĥħåĨµ
æħ ¢
åħ ¨
èī ¯
ç»Ĩ èĥŀ
æ¯ Ĵ
å ĥ
å® ¶
åı į
èĤ ²
ä¸¥ éĩį
è¿Ľ è¡Į
çĶ ·
èĢ ĥ
åĢ Ļ
åĵ į
ç ¢
ç§ ¯
æķĪ æŀľ
æ ı
èĤ Į
çī ĩ
æ¯Ķ è¾ĥ
ä»Ķç»Ĩ æ£ĢæŁ¥
å½± åĵį
ç» ´
æĬ¤ çĲĨ
åĥ ı
æĹ¶ åĢĻ
æŃ£ å¸¸
ç³ ĸ
åİŁ åĽł
æī į
æĹ ¥
æĸ Ń
« çĹ
æĮ ĩ
ä¸ ´
åĪ ĩ
åĩ ı
åīį åĪĹ
å®Ŀ å®Ŀ
è ĭ
å® ŀ
çİ° åľ¨
ä¸ ī
èħ Ķ
èº« ä½ĵ
è¿Ļ ç§į
çŁ ¥
è¾ ħ
å¼ Ģ
å¦ ĩ
èĻ ĳ
åīįåĪĹ èħº
åĩ ł
ç Ħ
å¸ ¦
é» Ħ
å £
æĢ Ģ
ç ª
çī ¹
å¹ ²
ä¸´ åºĬ
å §
æ ®
éĢ Ĥ
åĽ ŀ
åģ ¥
å¿ «
åĳ ¨
ç¥ŀ ç»ı
çĶ ±
å¯¼ èĩ´
ä¿Ŀ æĮģ
çĥ Ń
æ²¡ æľī
æ ±
æģ ¯
ä¸Ģ å®ļ
ä» ĸ
æľĪ ç»ı
å° Ħ
ä¸ İ
åĵ ª
ä½ ķ
æľ ¬
æ ¡
åŀ ĭ
èĬ Ĥ
è¾ħ åĬ©
çĻ «çĹ
çĻ«çĹ «
é Ķ
å¼ Ĥ
è¿Ļ ä¸ª
åĸ Ŀ
ä¸» è¦ģ
åĪº æ¿Ģ
è¯ Ŀ
ä½Ĩ æĺ¯
åĲ ¸
é¢ Ħ
éľĢè¦ģ æľī
æĸ ½
èĢĮ ä¸Ķ
æĢ ¥
å¹³ æĹ¶
é ¾
æ ¤
æİ Ĵ
å Ł
ç ģ
èį Ĳ
æİ¨ èįĲ
é¢ ĺ
éģ ¿
ä¸ ¤
éĹ® é¢ĺ
èĤ¿ çĺ¤
çļĦ çĹĩçĬ¶
ç± »
ç³ »
ç» Ļ
åĨį æ¬¡
åİ» åĮ»éĻ¢
èī ²
åı Ĺ
èĢĥ èĻĳ
ä¸ª æľĪ
çļĦ æİ¨èįĲ
çļĦæİ¨èįĲ èį¯
å¯¹ çĹĩ
ä¸į èĥ½
å¼ º
æį Ł
çĦ ¶
åĪ «
è¡Ģ ç®¡
è¡ ¥
çĸ¼ çĹĽ
çķ Ļ
å® ³
è¾ ĵ
å ķ
åħ Ī
æĢİä¹Ī åĬŀ
åĲĮ æĹ¶
èĢ ģ
åŃĲ å®«
æľĢ è¿ĳ
çļĦ è¾ħåĬ©
è¿ °
çĹħ åĽł
èĤ ī
ï¼ ģ
æ£ĢæŁ¥ æľīäºĽä»Ģä¹Ī
ä¸ ¸
çļĦ è¯Ŀ
çº ¢
æĶ ¾
å¸ ®
çĽ ¸
çļĦæİ¨èįĲèį¯ æľīäºĽä»Ģä¹Ī
åıĳ çĶŁ
å¥½ çļĦ
éĺ´ éģĵ
çĥ §
ä¸Ģ ä¸ĭ
è Į
è¾ £
åģ¥ åº·
ä¼ ł
è¾ Ľ
å½ ¢
åľ °
æ »
ç ¾
çļĦ æīĭæľ¯
åı ª
å ¡
é Ĥ
å· ²
éķ ľ
çĶŁ ç´ł
ç¼ ĵ
è ¥
çĽ ®
æ º
èĦ ı
è¥ ¿
å§ ĭ
å¦Ĥ ä½ķ
åı£ æľį
è ·
çĤİ çĹĩ
è Ľ
ä¸Ģ äºĽ
é ¼
çĿ Ģ
æĤ¨ å¥½
æĢ »
éĿ ŀ
é ¡
å¿ ħ
åº· å¤į
éĻ į
å® ¹
å®« é¢Ī
å° ½
â Ģ
å¤ ±
æ¯ ı
åıĳ çĹħ
åĳ ¢
çļĦæīĭæľ¯ æ²»çĸĹæľīäºĽä»Ģä¹Ī
åºĶ è¯¥
æ· ¡
å¡ ŀ
è¾Ľ è¾£
æ³ Ħ
èĥ Ĩ
çļĦè¾ħåĬ© æ²»çĸĹæľīäºĽä»Ģä¹Ī
ç» Ħ
çļĦ æĹ¶åĢĻ
çľ ¼
è ±
æĢĢ åŃķ
è½ ¬
åĮħ çļ®
æ³ Į
æŀ ģ
åĽł ç´ł
è¯Ĭ æĸŃ
éĩ ĩ
å· ±
æĦŁ è§ī
éĿ Ļ
çļĦ é£Łçī©
é£ İ
éĤ £
åħ ¥
å¸® åĬ©
è¿ĺ æĺ¯
æ ¢
éħ Ĵ
ç¼ º
èĩª å·±
å Ĺ
å¼ ł
å ©
ä» ¬
è¿Ļ æł·
åĩº è¡Ģ
æīĢ ä»¥
çĸ «
ä¸į æĺ¯
æĺ ¾
å£ °
æĻ ļ
ç ©
å°± æĺ¯
è½ »
èĥ ¸
å¤ Ħ
åĽŀ äºĭ
è° ¢
èĲ ¥
å· ¦
æħ¢ æĢ§
éĢ ł
çķĻ æĦı
åŁ º
çĶ± äºİ
é¢Ħ éĺ²
èĥ İ
çŁ¥ éģĵ
æľ Ľ
èĩª èº«
æĢ ģ
ç ½
èĲ¥ åħ»
å¾ ®
æĸ °
ä¸Ń èį¯
èĽ ĭ
éĺ² æŃ¢
è§ Ĩ
æģ ¢
æĹ© æ³Ħ
è¿Ļç§į æĥħåĨµ
æģ¢ å¤į
åī Ĥ
åĵ ģ
èĪ Ĵ
æĪ ¿
å°ı åĦ¿
æĶ ¯
æ¸ħ æ·¡
åĵª äºĽ
éĴ Ī
æľį çĶ¨
ä¸´åºĬ è¡¨çİ°
åĴ ³
å®¹ æĺĵ
äº Į
ç» ¼
å¦ĩ ç§ĳ
ä½ľ çĶ¨
æľĢ å¥½
ç»¼ åĲĪ
éļ ¾
ä¸Ģ çĽ´
è¿ Ĳ
è¶ ³
åº ķ
éģ¿ åħį
æĪĸ èĢħ
åĽł ä¸º
æģ ¶
éħ į
æĢİä¹Ī åĽŀäºĭ
èı ľ
æĦ Ī
å¤ļ åĲĥ
éĺ ³
ä¾ §
èĦ Ĥ
æķ °
æĢİ æł·
æĶ ¹
ç¡ ¬
éĿĻ èĦī
å± Ģ
éļ ľ
å·² ç»ı
çĿ ¡
è¡Ģ åİĭ
æ¶Ī åĮĸ
çİ ĩ
å· ¥
è £
åı ³
å®ŀ æĸ½
åĨįæ¬¡ åĩºçİ°
åį «
åĬ¨ èĦī
æİ §
å ĭ
æ ĳ
ç Ī
å· ´
ç¢ į
å¾ ģ
åį« çĶŁ
éĩ Į
çİ ¯
åıĳ çİ°
ç»ĵ æŀľ
æ® µ
ç¥ Ŀ
ç¼ĵ è§£
çŁ ³
åŃ¦ æ£ĢæŁ¥æľīäºĽä»Ģä¹Ī
é¼ »
çļĦ ä¸´åºĬè¡¨çİ°
å¤ ª
åĨ ·
å¥³ æĢ§
ä¸ ĵ
ä¹ ħ
ä¸Ģ ç§į
æĢ¥ æĢ§
ä½¿ çĶ¨
æ´ Ĺ
çĶ· æĢ§
åħ ħ
è¾ĵ åįµ
å¯¹ äºİ
å¼ķèµ· çļĦ
è¾ĵåįµ ç®¡
æľŁ éĹ´
éļľ ç¢į
æīĭæľ¯ æ²»çĸĹ
å¼Ĥ å¸¸
å½± åĥı
é º
çĿ ¾
æľ¯ åĲİ
æİ§ åĪ¶
æĢ§ çĶŁæ´»
éĢ ī
ä½ł çļĦ
ç¨ ĭ
æĢ» æĺ¯
ä¸į åĲĮ
åħ ·
èĢ ³
é ¦
ç» ĩ
åĪ Ļ
å±Ģ éĥ¨
çļĦä¸´åºĬè¡¨çİ° æľīäºĽä»Ģä¹Ī
æ ļ
è ģ
èĥ ¶
åħį çĸ«
éģ Ĺ
æīį èĥ½
ï¼ ī
ä¼ ĳ
åĪĩ éĻ¤
ç» Ł
åĪ ©
å¾Ĺ äºĨ
ç»Ħ ç»ĩ
ä» İ
å® Į
åı Ī
ç§¯ æŀģ
ï¼ Ī
é Ĩ
æı Ĳ
çĶ¨ èį¯
çĹħ æ¯Ĵ
çĶ µ
åĽĬ èĤ¿
æĮĩ å¯¼
éĻ¤ äºĨ
å Ļ
å¤ Ł
ä¼ ´
å¼ķ æĿ¥
èĤ ļ
åį ķ
æİ ¥
çļĦ å½±åĥı
ç ¬
èĤ ¤
åĽł æŃ¤
çļĦå½±åĥı åŃ¦æ£ĢæŁ¥æľīäºĽä»Ģä¹Ī
æĭ ī
åį ±
åĪĨ æ³Į
è¦ģ æ³¨æĦı
è¿Ĳ åĬ¨
ç§ »
æ· ĭ
³ å®ļ
èį¯çī© æ²»çĸĹ
èĩ´ ä½¿
å¯¹çĹĩ æ²»çĸĹ
åį ģ
æľ º
æī ĵ
è¶ħ å£°
æĺ¯ åı¯ä»¥
æ¸ ©
åĲ ¦
ä» Ĭ
åį Ĭ
æŃ£ è§Ħ
åĳ ¼
å¿ Į
ç»´ çĶŁç´ł
æ¿Ģ ç´ł
å¹¶ ä¸Ķ
Ġ Ġ
ä¹ ł
å¯ Ĵ
æľī åĵªäºĽ
æĥ ¯
é Ľ
æĽ ´
çĶ² çĬ¶
çĽ® åīį
éħį åĲĪ
åıĳ æĢ§
çļ® èĤ¤
è Ķ
éª Į
è½ ¯
èħ °
æ ¹
èĥ Ģ
ä¹³ èħº
åı ĸ
äº ¤
å¤ļ å°ĳ
è¯ ķ
åı¯èĥ½ æĺ¯
åĲ Ĳ
åĮĸ çĸĹ
å¹¶ åıĳ
ä¸Ń åĮ»
æľī çĤ¹
æĢ ķ
æŃ »
ä¸į ä¼ļ
å¾ ĭ
ä¸į èī¯
èĽĭ çĻ½
çĶ²çĬ¶ èħº
å¸¸ è§ģ
æķ ı
èĤļ åŃĲ
éº »
é¢ ĳ
æĺİ æĺ¾
è§ Ĥ
æĹ¥ å¸¸
æ¤ į
ç¬ ¬
ç²¾ ç¥ŀ
æµ ĭ
å® ¤
æĹ© æľŁ
åħ³ èĬĤ
èĻ ļ
å¥ ¶
èĩ ³
éĴ Ļ
æı ı
æ° §
çĤİ çļĦ
éĥ¨ ä½į
éķ¿ æľŁ
å Ķ
éĢļ è¿ĩ
å¼ ı
è İ
åı Į
ç ł
ç»ı å¸¸
ç» Ī
åħ ī
ç¼ ©
æ¢ Ĺ
è ¢
åĽ º
éĺ »
åĳ¼ åĲ¸
æĢİä¹Ī æ²»çĸĹ
åı¯èĥ½ ä¼ļ
éĹ ¨
éľ ī
æĦı è§ģ
ä¼ĳ æģ¯
æ¹ ¿
éĩĩ çĶ¨
æ·ĭ å·´
ç ¦ģ
çĹħ çļĦ
åĻ ¨
æĭ ©
å¤§ ä¾¿
æĸ¹ éĿ¢
åį ³
å¤į åıĳ
ä¹ł æĥ¯
éĢ Ģ
å¹¶åıĳ çĹĩ
1 0
åĲ «
åıĳ èĤ²
å¼Ģ å§ĭ
æįŁ ä¼¤
å± ŀ
æ¡ ĥ
çĹħ äºº
å· ¢
èĶ ¬
å¸¸ è§Ħ
è® ¸
ãĢĤ ï¼Į
åı ĭ
çī¹ åĪ«
æĿ¥ è¯´
éĢī æĭ©
å»ºè®® ä½ł
ç³» ç»Ł
åħ ĭ
åįµ å·¢
ä¸Ģå®ļ è¦ģ
å¿ħ è¦ģ
çª ģ
é¾ Ħ
çĹħ åıĳ
ä¸Ģ æ¬¡
å¢ŀ å¼º
åĪ° åĮ»éĻ¢
æľī ä»Ģä¹Ī
èĤ Ľ
å¿ĥ çĲĨ
å¢ŀ åĬł
è± ¡
èĶ¬ èıľ
åı ¦
åĽ Ľ
ä¸Ģ ä¸ª
ä»¥ åıĬ
ä¹ Ļ
ä¹Ł æĺ¯
å¿ĥ æĥħ
æ°´ æŀľ
éĢĤ å½ĵ
æł ¸
ç« ¥
æ¤ İ
ç³ĸ å°¿
åı Ĥ
ç¡® è¯Ĭ
åĩł å¤©
åĪºæ¿Ģ æĢ§
å¤ļ åĸĿ
ç £
å¾Ĺ åĪ°
å¢ŀ çĶŁ
æł ĵ
åķ Ĭ
å·¥ ä½ľ
èĤ ¢
çĿ¾ ä¸¸
æĤ£èĢħ çļĦ
çĹ Ĵ
éĿŀ å¸¸
åĨ Ĵ
ç´ §
æī ģ
ç² Ĵ
é¾ Ł
å¤ĸ éĺ´
å ¨
ç± ³
é ĵ
å½ »
ä¸ ļ
çĸ¾çĹħ çļĦ
æĦŁ åĨĴ
é«ĺ è¡Ģåİĭ
å® ī
åīįåĪĹèħº çĤİ
çĶŁæ´» ä¸Ń
å½» åºķ
èĮ İ
çº ¤
C T
ç² ĺ
åĦ¿ ç«¥
æľ ĭ
é¾Ł å¤´
çĹ Ķ
ç» Ń
æľĭ åıĭ
åıĳ çĥ§
å¾Ī å¤ļ
åĹ ½
ä» £
æ²»çĸĹ çļĦ
æľī åħ³
èĪĴ æľį
ä»¥ ä¸Ĭ
åĨħ èĨľ
ä¸į å¥½
è®¸ å¤ļ
æķ £
åĮ º
åĿ Ĺ
åĴ³ åĹ½
ç»¼åĲĪ å¾ģ
2 0
æ² ¹
çĽ Ĩ
è¿ ŀ
é ¸
åĬ ³
éĩ ĳ
æĪĳ ä»¬
èĥ¶ åĽĬ
æ Ĳ
ç ¦
èĤ ¥
çĥ Ł
æĭ ħ
èģ Ķ
æĪĳ çļĦ
è® ¤
åı¦ å¤ĸ
æĽ ²
åħ¶ ä»ĸ
åŃ ĺ
æ ĵ
æ¯ į
çŁ Ń
è¯ ¢
å¿ĥ èĦı
çļĦ åİŁåĽł
åºĶ å½ĵ
çº¤ ç»´
çº ¿
æī ©
ç³ ľ
çļĦ èį¯çī©
æıı è¿°
ç ĵ
èĦ ±
æĺİ ç¡®
ä¸į çŁ¥éģĵ
ä¼ł æŁĵ
åģ ľ
æ¡ Ī
å°± è¯Ĭ
éĢł æĪĲ
çļĦ åıĳçĹħ
ç³ĸå°¿ çĹħ
éĶ »
çļĦ çĹħåĽł
æīģ æ¡ĥ
ä»¥ åħį
èĦ ĵ
åĴ ½
æĬ ĳ
è® ©
è¢ «
å§ĭ ç»Ī
æīģæ¡ĥ ä½ĵ
è¡¥ åħħ
æį ¢
è§Ħ å¾ĭ
æ³¨ å°Ħ
å® ĥ
éĺ ¿
éĥ½ æĺ¯
æ®µ æĹ¶éĹ´
å¸ Į
åĿ ĩ
ç ĭ
é¦ ĸ
å§ĭç»Ī ä¿ĿæĮģ
åıĳ ä½ľ
çĸ ®
å¯ Ł
çĥ Ĥ
çĹħ åıĺ
ç»ĵ çŁ³
è°ĥ çĲĨ
åĽ °
ä¼ļ å¯¼èĩ´
ç© ¿
è¾ ¾
çĲ ĥ
è£ Ĥ
æĮ ī
åĳ ķ
åģ ı
æĿ ¾
æĬ ½
åĽ ´
æĶ ¶
âĢ ľ
åĲ ĳ
æİ ª
ç ħ
ä» ħ
æľī æķĪ
æŃ ¥
æ°Ķ ç®¡
é« ĵ
çĻ½ å¸¦
ç»Ĩ èıĮ
âĢ Ŀ
å¸Į æľĽ
ä»¥ åĲİ
å¹´ é¾Ħ
æİª æĸ½
æľŁ æľĽ
ç½ ®
å°½ å¿«
æĻ ķ
è¡ °
æĸ ĳ
åĸ Ħ
æĢ§ çļĦ
çł ´
æķ ´
é Ł
è¦ģ åıĬæĹ¶
å¼ķ åıĳ
ä¸į èĪĴæľį
åĪ Ľ
è¯ ģ
åĳ ³
è ŀ
èĢģ å¹´
èī¯ å¥½çļĦ
æĺ¯ åĲ¦
ç¡¬ åĮĸ
é¢ ħ
æĭħ å¿ĥ
æĬĹ çĶŁç´ł
æ± ¤
éĻ Ħ
åĪ ļ
è· ¯
å© ´
ç³ľ çĥĤ
åĲ Ħ
åĽ ¾
ä¸»è¦ģ æĺ¯
å¤§ çļĦ
ä¸ ľ
çĤ ¼
éĿ Ĵ
éļ ı
å¼ ±
èĦ ¾
éĢ Ł
çľ ł
çĽ Ĳ
å°ı åŃ©
åıį åºĶ
æ¯ Ľ
æ´» åĬ¨
ç« ĭ
ç» Ŀ
å° ¤
å ĺ
åĭ ĥ
æĻ ®
åĩı å°ĳ
ä¸įèĥ½ å¤Ł
æ²» æĦĪ
æ³ ¡
è± Ĩ
è¶ Ĭ
é ©
çĶŁ éķ¿
èĤ ª
å® ľ
èĦĤ èĤª
æĤ£èĢħ åľ¨
åħ· ä½ĵ
æĺ¯ ä¸įæĺ¯
ç¾ ¤
é ²
å®ļ æľŁ
¨ è¯¢
åĴ ¨è¯¢
éĺ´ èĮİ
åŃĲå®« åĨħèĨľ
è ĳ
çĦ¶ åĲİ
åı ¶
è§ Ĵ
æĪĳ æĥ³
æ´ ģ
åį ĩ
è¯´ æĺ¯
ä¾ ĭ
åıį å¤į
ä¿ ¡
æ° ¨
ç¦ »
éĺ´éģĵ çĤİ
èį ī
èĥİ åĦ¿
åĲĪ çĲĨ
æĶ¹ åĸĦ
çļĦæ²»çĸĹ æĸ¹æ³ķ
æĻļ æľŁ
å¤ļåĸĿ æ°´
çĸ Ŀ
åĲĥ ä»Ģä¹Ī
åĲĥ è¾Ľè¾£
å» ¶
èħ¹ éĥ¨
ä¸ĵ ä¸ļ
æĢ§ äº¤
B è¶ħ
ç»ĵ åĲĪ
æĮĩå¯¼ æĦıè§ģ
åı¯ä»¥ çĶ¨
éĶ» çĤ¼
æ¯Ķ å¦Ĥ
æĬ ĺ
æĸ¹ å¼ı
è¡Ģ æ¶²
æ» ´
è§Ĥ å¯Ł
å ł
çĽĨ èħĶ
æĺ¯ ä¸Ģç§į
ä¸į èĤ²
éħ ®
ç¨ ³å®ļ
çĸĹ æ³ķ
æĿ ¿
åħ ĥ
æī °
éĩį è¦ģ
èĬ ±
é¢ Ĺ
éľī ç´ł
ç§ °
éĻ ©
å±ŀ äºİ
é¦ĸ åħĪ
äº Ķ
å°¿ éģĵ
ç» §
åħ ¬
åıĳ è§ī
æŀ Ĳ
ä»Ĭ å¹´
ä¼ļ æľī
ç ı
çĸ ¹
é¥ Ń
æº ¶
ï ½
ä½ ı
åĨħ åĪĨæ³Į
éĥ¨ åĪĨ
çĪ ±
çļĦ æĸ¹æ³ķ
çķ ¸
å¦Ĥæŀľ æĺ¯
ä¸ľ è¥¿
æ² Ļ
æĹ© æĹ¥
å© ļ
ä¹ ±
æµģ äº§
æĺ¯ æĢİä¹ĪåĽŀäºĭ
å®«é¢Ī ç³ľçĥĤ
ä¹ ı
éĻį ä½İ
æģ¶ æĢ§
ç Ĩ
çİ° è±¡
å°¤ åħ¶
çĬ¶ æĢģ
åĩº æĿ¥
çº ¦
æĺ¯ å¤ļå°ĳ
èĥ °
æ¶Ī çĤİ
å°± åı¯ä»¥
ç²¾ åŃĲ
çī Ļ
å¤ĸ ç§ĳ
å·¦ åı³
èĻ «
çļĦçĹħåĽł æĺ¯ä»Ģä¹Ī
é¢Ĺ ç²Ĵ
åĩ ī
ä¹Ļ èĤĿ
æľ ª
ä¹Ł ä¸į
è¡ ¡
éĴĪ å¯¹
çĽ´ èĤł
åĭĥ èµ·
æ³ »
æĻļ ä¸Ĭ
å½ ©
åī ¯
éĩĩ åıĸ
ä¸į åŃķ
æĢİæł· çļĦ
ï½ ŀ
åĿ Ĳ
ä¹ İ
ç² ī
åĶ ĳ
æµ ·
éª¨ æĬĺ
ä¹ĭ åĲİ
é¡ »
éģĹ ä¼ł
ä¸Ģ æł·
åħ¨ èº«
æĶ¯ æ°Ķç®¡
ä¸į éĢĤ
èĦ Ĭ
æº ĥ
å¦ Ī
èģĶ åĲĪ
åĨ ł
çķ ħ
è¿ĩ æķı
å¾ Ģ
çľ Ł
æĸ° çĶŁ
èĨ ı
é» ĳ
éĹ Ń
éļ Ķ
æ¯ı å¤©
çĹ °
å¿ĥ æĢģ
åĬŁèĥ½ éļľç¢į
è¿ĩ åº¦
éĩį è§Ĩ
çľĭ éĩį
æģ¶ å¿ĥ
è°¢ è°¢
éĤ£ ä¹Ī
è¿ĩ éķ¿
éģ¿ åŃķ
æĺ Ł
ä¸ª äºº
åı Ļ
åıĬæĹ¶ æ²»çĸĹ
åĽ° éļ¾
äº Ĵ
å° Ĩ
ä½ĵ è´¨
æŀ Ĺ
çļĦ å¹¶åıĳçĹĩ
äºº æµģ
åıĻ è¿°
ç ¤
çĹħ çĲĨ
? ï¼Į
åĩ Ĩ
ä¾ Ľ
åĮ»çĶŁ çļĦ
å©´ åĦ¿
é² ľ
å¦Ĥä½ķ æ²»çĸĹ
é© ¬
åĳķ åĲĲ
æĤ£èĢħ è¿ĺ
æł¹æį® ä½łçļĦ
åħ ±
æĤ£èĢħ æĿ¥è¯´
èĤĮ çĺ¤
è½¬ ç§»
ç§ ĺ
éħ ¶
èħ¹ èħĶ
è ľ
çŃ Ķ
ä¼ļ å½±åĵį
ä¸º ä¸»
æ® ĸ
æĪ Ĵ
æľį é£Ł
çĺ «
åĸ ĺ
æ· ±
åĪºæ¿ĢæĢ§ é£Łçī©
å®Į åħ¨
å° Ķ
æŃ£å¸¸ çļĦ
èĭ ¦
å¼ķæĿ¥ çļĦ
æĤ£èĢħ åı¯ä»¥
æĶ¾ å°Ħ
çķ¸ å½¢
åĨ ³å®ļ
çĻĮ çļĦ
éĢł å½±
éķ¿ æĹ¶éĹ´
ç¾ İ
æł ¼
æıĲ é«ĺ
åĲ ¬
æľī æĹ¶
åģļ äºĨ
æĸ°çĶŁ åĦ¿
æ ½
è¿Ļ äºĽ
å¸¸è§ģ çļĦ
å¹² æī°
å°¤åħ¶ æĺ¯
ç´ ¢
åħĪ å¤©
é¡ ¹
æģ °
å± ķ
å¥ ¹
ç¾ Ĭ
åıª æľī
èħ¹ çĹĽ
æĶ¹ åıĺ
è¿ĺ æľī
æ¯Ķè¾ĥ å¥½
çĻ«çĹ« çĹħ
çļĦ åĮ»éĻ¢
çĸ ¡
æĸ¹ æ¡Ī
èħ ¿
æīĭæľ¯ åĲİ
åĨħ ç§ĳ
åį± å®³
è§ ¦
åĸ ī
é¸ ¡
èĥ ±
æ¸ħ æ´ģ
ä¾¿ ç§ĺ
çĿ¡ çľł
æģ° å½ĵ
å¤ ĩ
éĶ Ļ
ä¼´ æľī
æĭ ¬
æºĥ çĸ¡
å¿ĥ èĤĮ
èĥĥ çĤİ
åı ²
å°± ä¼ļ
åł µ
å¤ļ åıĳ
å· ®
éĥ¨ä½į æĺ¯ä»Ģä¹Ī
åĲĮ æĪ¿
è¡Ģ ç³ĸ
åĮ» æ²»
çĬ¶ åĨµ
å»ºè®® æĤ¨
æĽ ¾
åĮħçļ® è¿ĩéķ¿
åĪĨ æŀĲ
åĨ ²
çĽ Ĭ
ä¿ ĥ
ç¨ĭ åº¦
æĬ Ģ
ç´ ¯
äº ¢
èĨ Ģ
æĽ² å¼ł
é ±
è· Ł
çĹĶ çĸ®
èĩªèº« çļĦ
åİ»åĮ»éĻ¢ æ£ĢæŁ¥
æĢĢ ä¸Ĭ
è¿Ļæł· æīįèĥ½
çĶ ļ
é± ¼
0 0
æŀ Ħ
å¤´ çĹĽ
æ²»çĸĹ æĸ¹æ³ķ
æ Ĵ
æī ¾
èĢĥèĻĳ æĺ¯
ç§» æ¤į
åī¯ ä½ľçĶ¨
äºĴ çĽ¸
ç» ª
ä»¥ åīį
æĵ ¦
æĥħ ç»ª
æ°´ èĤ¿
èĲ İ
ç»Ļ åŃ©åŃĲ
å¤Ħ çĲĨ
ç¥Ŀ æĤ¨
åĲ¸ æĶ¶
å½»åºķ æģ¢å¤į
æĹ©æĹ¥ åº·å¤į
èĤº çĤİ
æł¹æį® ä½ł
æĢİæł·çļĦ å¸®åĬ©
æģ¯ èĤī
æĦ ī
åĿ ı
å¦ Ĭ
æĮ ¯
åĨįæ¬¡ åıĳçĶŁ
äº§ çĶŁ
çĵ £
èĨĢ èĥ±
èĦ ļ
å¢ ĥ
åĬł å¼º
ä¸ĭ éĻį
è´ «
äºĴçĽ¸ éħįåĲĪ
çªģ çĦ¶
èİ ·
åĨ ³
éĿĻèĦī æĽ²å¼ł
çľĭ çľĭ
èĥĥ èĤł
æīĢ èĩ´
é»Ħ çĸ
éĨ ĩ
èĥ º
æł· çļĦ
å± Ĥ
æĮģ ç»Ń
å¨ ł
1 2
ä¸Ĭ è¿°
æ¬ ²
ç¨ Ģ
ç© º
éĴ ł
æļ ´
ç´§ å¼ł
å¦Ĭ å¨ł
ä» ¶
åī ĸ
ä» ĭ
èĤ ¡
éĢ ı
æ³¨æĦı ä¼ĳæģ¯
è°ĥ åħ»
åľ¨ ä¹İ
ä¹Ł åı¯ä»¥
åĳ¨ æľŁ
é»Ħçĸ ¸
ä¹ĭ å¤ĸ
å½¢ æĪĲ
çļĦå¹¶åıĳçĹĩ æĺ¯ä»Ģä¹Ī
ç» ĥ
è¾ ¹
èĥĨ åĽĬ
åŁº ç¡
çĶŁ æ®ĸ
æ³Į å°¿
å¤ «
å¢ŀ å¤ļ
åĿ ļ
å¤ ľ
åĲĥ äºĨ
èĦĳ æ¢Ĺ
å¿ħè¦ģ æĹ¶
æķ Ļ
å¤į æŁ¥
çº ¯
é» ı
å®¶ éķ¿
å£ ģ
æĬĳ åĪ¶
ä» »
æĺ¯ æľī
çħ §
è´« è¡Ģ
åŁºç¡ Ģ
æĬĢ æľ¯
ç Į
ä¼¤ å®³
æľĪç»ı ä¸į
æľī æĹ¶åĢĻ
åĩı ä½İ
ä¿ ®
åİĭ åĬĽ
çļĦåıĳçĹħ éĥ¨ä½įæĺ¯ä»Ģä¹Ī
æ ¼
è¡ £
æ° Ł
èµ °
çİ¯ å¢ĥ
å¤± è°ĥ
èĤº çĻĮ
åĮħ æĭ¬
è¿Ľè¡Į æ²»çĸĹ
åŁ ¹
åĪĩéĻ¤ æľ¯
è Ĵ
æ³ ¢
å¤ļ æķ°
ä¹Ł æľī
è´ ¹
èĲİ ç¼©
ç»ĵ æł¸
ä¸¥éĩį çļĦ
èĤĽ éĹ¨
å¸ ĥ
ç»ĵ èĬĤ
éļ Ĳ
æ± Ĺ
åĸ Ĥ
åĬł éĩį
ä¸į è¶³
ä¸Ģ æŃ¥
å°ı æĹ¶
æĻ ĵ
ä¹³ æĪ¿
é¦ Ļ
æ·ĭå·´ ç»ĵ
èİ· å¾Ĺ
¥ æľī
åĽº å®ļ
æĺ¯ä»Ģä¹Ī åİŁåĽł
èħ¹ æ³»
åıĳ çĥŃ
æł ĩ
è¡Ģç®¡ çĺ¤
åłµ å¡ŀ
çĶļ èĩ³
çĺ Ļ
åĮĸ éªĮ
ç»ĵ èĤł
çŁ¥ æĻĵ
æĽ¾ ç»ı
æ° ı
éĴ Ł
ç½ ĳ
æĦī å¿«
ãĢ Ģ
åĲĥ èį¯
è®¤ ä¸º
åħĪå¤© æĢ§
æº Ĳ
ä¸Ģ æ®µæĹ¶éĹ´
å°½ éĩı
çĺĻ çĹĴ
ä¸ Ļ
æĹ ¦
è® Ń
åıª è¦ģ
çī Ľ
ç´ Ĭ
æĪĸèĢħ æĺ¯
äº ²
æľ¬ äºº
ç£ ģ
è¿ Ł
è¿Ļ æĺ¯
ä¸º ä»Ģä¹Ī
å¦Ĥæŀľ ä¸į
å¯¼èĩ´ çļĦ
æľ¬ åĵģ
å½© è¶ħ
ç´Ĭ ä¹±
ä¸Ń æ¯Ĵ
ç§¯ æ°´
ä»£ è°¢
æ°´ å¹³
èĩªå·± çļĦ
åħ Ń
åī §
åģļ ä¸ª
ç ĩ
æĬ µ
æ¸ Ĳ
çļĦ åı¯èĥ½
ä¸Ģ æĹ¦
åı¯ä»¥ åĲĥ
åĳ Ī
ä¹ĭ åīį
åºĶ çĶ¨
çĶµ åĽ¾
åŃ ¢
è§£ åĨ³
åĽłç´ł æľīäºĽä»Ģä¹Ī
æĤ£ æľī
æĿ ¡
èĮ ĥ
ä»Ĭ å¤©
å¯ Į
æĥħåĨµ åĴĮ
åŀ Ĥ
ä¸Ģ çĤ¹
èħ »
åŃķ å¦ĩ
çª Ħ
æľī å¸®åĬ©
è¡Ģ çĹĩ
å°¿ é¢ĳ
æĮĩå¯¼ ä¸ĭ
èĤĿ ç¡¬åĮĸ
åħįçĸ« åĬĽ
æ ¨
ä¹ Ĳ
æ¯ı æ¬¡
å®« å¤ĸ
è§ī å¾Ĺ
éĢļ å¸¸
ç¢ ±
éŁ ³
è¯ ¦
éĢ Ĳ
èĤĮ èĤī
çģ «
é¢Ħéĺ² æİªæĸ½
çĸĿ æ°Ķ
æ ¥
ç ¿
åŃ Ķ
è¿Ľ ä¸ĢæŃ¥
ç« Ń
å¤ĸ ä¼¤
å¹´ äºĨ
åħ· æľī
¤ Ĳ
æĭ ¥æľī
ç¡® å®ļ
æİĴ åįµ
è¯ Ħ
åİ ļ
èĤĿ èĦı
å¤ļ ä¹ħ
å®«å¤ĸ åŃķ
ä¸Ģ ä¸ªæľĪ
ä¹Ł åı¯
åĬŀ æ³ķ
èİ «
èĶ¬èıľ æ°´æŀľ
æī© å¼ł
Ġ Ċ
åĽ ½
åŃĲå®« èĤĮçĺ¤
åı£ èħĶ
å¤´ æĻķ
æľĪç»ıä¸į è°ĥ
åĪ Ŀ
æ° ¯
æĬ Ĭ
åĪĨ éĴŁ
çĻĮ çĹĩ
å¿ħ é¡»
ç¤ º
åĮ»çĶŁ è¯´
è¡° ç«Ń
æĬµ æĬĹ
è¯ ±
å¹² é¢Ħ
åĳ¨ åĽ´
éĥ ģ
ç´ «
å°ı èħ¹
åĳ ½
éĻ Ĳ
åį ¡
è¯Ĭ çĹħ
çģ ¶
ä½ ³
æĺ¯ çĶ±äºİ
é£İ éĻ©
åĲĦ ç§į
çļĦ éĹ®é¢ĺ
åı ·
åĵ Ń
èŀ º
èħ¹èħĶ éķľ
çĹ ¿
é£Ł ç®¡
ä»» ä½ķ
çģ ¸
é¾Łå¤´ çĤİ
5 0
æľī çļĦ
å¯ Ĩ
æĽ ¿
åİŁ ä½ĵ
åħ³ ç³»
¡ èĲ
æ¸ħæ·¡ é¥®é£Ł
æĥħåĨµåĴĮ æķĪæŀľ
è¿ĩ ç¨ĭ
çĥ Ī
æĪĸ æĺ¯
çĶ² äº¢
ä¸įè¦ģ åĲĥ
çª ¦
å°Ħ ç²¾
çĩ ¥
åĩ Ģ
å¥½ äºĨ
ç« ¯
æĳ Ħ
3 0
æ ¦
è°ĥ æķ´
æĸ° é²ľ
ç¥Ŀ ä½ł
ä¹³èħº å¢ŀçĶŁ
ä»Ģä¹Ī æł·çļĦ
åŃ©åŃĲ çļĦ
ç²ĺ èĨľ
åĩ Ŀ
åģ ¶
çĽ¸ åħ³
åı¯ä»¥ æľįçĶ¨
éĺ³ çĹ¿
æĢ§ çĸ¾çĹħ
å¤§ å°ı
åıĳ çĤİ
ä½ĵ åĨħ
å»ºè®® æĤ£èĢħ
æ· «
èī¯ å¥½
è£ ¤
å® ĺ
éķ ĩ
åĪ° æŃ£è§Ħ
å¯¹çĹĩ æķĳæ²»
â ħ
èĥ Į
è¯ Ĩ
åħ¶ å®ŀ
çĭ Ń
åįĩ é«ĺ
ä¸Ģå®ļ çļĦ
å°½ æĹ©
èĩªèº«çļĦ æĬ¤çĲĨ
è ĸ
æ²»çĸĹ æľŁéĹ´
å¾ ª
æ· ·
ç¼º è¡Ģ
ä¸ĢèĪ¬ æĺ¯
åıį åıįå¤į
æļ Ĥ
æĹ¥å¸¸ çĶŁæ´»ä¸Ń
å®³ æĢķ
å¹ ¼
æķ ·
æĮ Ľ
æľį èį¯
æľĢè¿ĳ æĢ»æĺ¯
èĮ ¶
è½» åº¦
çı Ń
æĹ ĭ
çŃ Ľ
çĶŁæ´» ä¹łæĥ¯
è¯¦ ç»Ĩ
éĹ®é¢ĺ çļĦ
åįķ çº¯
ç£ģ åħ±
ç ¹
è¡Ģ æłĵ
åĪĨæ³Į çī©
æ¢Ĺ éĺ»
åį³ åı¯
åıįåıįå¤į å¤į
ä¸Ģ çľĭ
æĹł åĬĽ
ç²¾ ç´¢
æł¹ æ²»
ç§¯ æ¶²
ç¹ ģ
ä¸Ģ å¹´
ä¼ļ ä¸įä¼ļ
çĺ Ģ
éĴ ±
æ²¹ èħ»
çĭŃ çªĦ
çļĦ å¦ĩç§ĳ
çĶŁ èĤ²
ç¥ĿæĤ¨ åģ¥åº·
ä¸į åħ¨
è¡¨çİ° åĩº
æīĭ æ·«
ä½ľ æģ¯
çī© çĲĨ
è´¨ éĩı
ç£ģåħ± æĮ¯
åı ¸
çĽ´ æİ¥
èĭ Ĺ
ä¿ĿæĮģ èī¯å¥½çļĦ
æįŁ å®³
çĽ® çļĦ
æ³¨å°Ħ æ¶²
å° ¼
åħ ´
è¦ģ çķĻæĦı
æ´ Ľ
èĨľ çĤİ
æ± ģ
æ» ŀ
çĶ ĺ
åį ı
æŃ ĩ
åĩ »
æĳ ĺ
Ĩ èıĮ
å¤ļ ç§į
æİ ī
å¯¹ æĤ¨
èĤĿ çĻĮ
çģ µ
çĸ¾çĹħçļĦ åĩºçİ°
ä¼ļå¯¼èĩ´ ä»Ģä¹Īæł·çļĦ
çĨ Ł
ä¼ļå¯¼èĩ´ä»Ģä¹Īæł·çļĦ ç»ĵæŀľ
çļĦ æ£ĢæŁ¥
æĺ¯ ä¸į
åĴ ĭ
ä½ĵ æ¸©
çľĭ ä¸Ģçľĭ
æĬµæĬĹ åĬĽ
æľĢ åĲİ
ä¸ĭ èĤ¢
è Ĺ
åį Ĺ
åĢ ¼
çĸĹ æķĪ
æĿ ĨèıĮ
äºº å·¥
è°ĥ èĬĤ
æİĴ éĻ¤
æļ ĸ
1 5
æ²» å¥½
çĥ ¦
åģļ ä¸Ģä¸ĭ
èĭ ¥
åħĥ ç´ł
èĦ ¸
ä¸įæĺ¯ å¾Ī
åİ» å¹´
äº Ī
éĺ³ æĢ§
ä¸įåĲĮ çļĦ
åĳ¼åĲ¸ éģĵ
è¾¾ åĪ°
çļĦ æĹ¶éĹ´
èĤ¿ åĿĹ
ç¡ Ŀ
çĹħæĥħ åĪĨæŀĲ
éĢĲ æ¸Ĳ
åı¯ æľī
çĶŁ çĲĨ
æĪĳ æĺ¯
æŃ¤ å¤ĸ
åģ ĩ
é«ĺ åį±
è½» å¾®
èĥ ĸ
èĳ ¡èĲ
åĲĪçĲĨ é¥®é£Ł
èĳ¡èĲ Ħ
æĪĳ å®¶
åĩı è½»
ä¸į ä»ħ
éĹ ·
åĲĪ å¹¶
ç§ĳ å®¤
èĤ¾ èĦı
åįµå·¢ åĽĬèĤ¿
4 0
å¤į è¯Ĭ
ä¹Ł æ²¡
èĪ Į
æ½ ®
é ½
çº §
æľ ¨
æĤ£ çĹħ
åĳ Ĭ
å¤į æ£Ģ
è¾ĥ å¥½
å¤´ åŃ¢
çĦ ¦
é£Ł åĵģ
åĵ ®
å¤į æĸ¹
ç® Ĺ
æķı æĦŁ
ä¸Ģ åĳ¨
åı¯ æĺ¯
é£Ł çĶ¨
æĳĺ éĻ¤
çĸ ²
äºĨ è§£
é¢ ¤
å¤§ å¤ļæķ°
ä¾ Ŀ
ä¸Ģ å¤©
ä»Ķç»Ĩæ£ĢæŁ¥ ç»ĵæŀľ
åŃĺ åľ¨
èŀ į
çļĦ å¿ĥæĢģ
åİŁ åıĳæĢ§
åıª æĺ¯
Ġ ï¼Į
æ² ī
å¿ §
å¾® éĩı
æĢİæł· æ²»çĸĹ
æī «
åıĳ å±ķ
å°± ä¸į
æĥħåĨµ ä¸ĭ
å± ±
çĹ ī
å°± åĮ»
æĺ¯ æĮĩ
èĤĿ çĤİ
åĩł ä¸ĭ
æ² Ł
å¾ Ħ
é¼ ł
å® Ī
è¯ ¯
ä½ł çļĦæĥħåĨµ
èĢģ åħ¬
å®«é¢Ī çĤİ
æİ¥ è§¦
ç¾¤ ä½ĵ
æĸ Ļ
çĺ ¦
éĩį åº¦
åıĬæĹ¶ æķĳæ²»
èĤ¥ å¤§
åľ¨ä¹İ æĢİæł·çļĦå¸®åĬ©
çĶŁ åĨ·
ä¹³ å¤´
æħ¢ æħ¢
åĵ® åĸĺ
æ» ĳ
èĥ½ åĬĽ
åĲİ æĿ¥
åĲİ éģĹ
æĤ£èĢħ ä»¬
éĴĪ çģ¸
ç» ¿
èį¯ åĵģ
è´¹ çĶ¨
è¿ ľ
ä¼ ĺ
ä¹Ł ä¼ļ
çĻ½ ç»Ĩèĥŀ
èıĮ æĢ§
éĢĤå½ĵ çļĦ
æīģæ¡ĥä½ĵ çĤİ
å¹ ¿
ç® Ģ
èĤł éģĵ
åħ» æĪĲ
åıĹ åŃķ
éĩ Ĭ
çŃĽ æŁ¥
æŀ ¶
é£Ł éģĵ
èĤ¿ å¤§
éª¨ é«ĵ
ä»Ķç»Ĩ è§Ĥå¯Ł
æĶ¾ çĸĹ
ç¼º ä¹ı
çĶŁ åŃĺ
çĸ« èĭĹ
ĠĠ ĠĠ
æ²Ļ æĺŁ
æģ¶æĢ§ èĤ¿çĺ¤
ç¿ »
ä¸ ģ
ä¸ ĥ
èĦ Ĳ
çļ® è´¨
ç¢ ĺ
å¹³æĹ¶ æ³¨æĦı
æĳ ©
çļĦ æĺ¯
æĢ Ŀ
åĩº çĶŁ
å¹¶ ä¸į
æ¿Ģ åħī
èĭ ¯
åŁº åĽł
åįģ åĪĨ
æ¯į ä¹³
ä¸įçŁ¥éģĵ æĢİä¹ĪåĽŀäºĭ
é ¤Ĳ
é£Ł æ¬²
èĨ Ŀ
èĤĿ åĬŁèĥ½
ä¼¤ åı£
åıĬæĹ¶ çļĦ
è¯¥ æĢİä¹ĪåĬŀ
é¢ĳ ç¹ģ
å¤ļåıĳ ç¾¤ä½ĵ
å¾®éĩı åħĥç´ł
æĺ¯ å¯¹
ä¸º åŁºç¡Ģ
çĿ¡ è§ī
éĨ Ĵ
å¸ ķ
é¥®é£Ł æ¸ħæ·¡
æĵ į
é©¬ ä¸Ĭ
å¾ª çİ¯
åŁº æľ¬
å¤§ éĩı
æĢİä¹Ī æł·
å¦Ĥæŀľ æľī
è¾ĵ æ¶²
çº¤ç»´ åĮĸ
èĢ Ĳ
å°± è¦ģåıĬæĹ¶
èĤ¾ åĬŁèĥ½
åĪ© äºİ
çĶŁéķ¿ åıĳèĤ²
ä¸ªäºº åį«çĶŁ
æģ°å½ĵ é¥®é£Ł
å¥½ è½¬
ä¸ĭ æĿ¥
çĺ ĺ
åģļ å¥½
åģļ æīĭæľ¯
å½ĵ åľ°
å®¹æĺĵ çĹħåıĳ
è¡Ģ å°ı
å¼ķ æµģ
æ´» æ£Ģ
èĢģå¹´ äºº
åī§ çĥĪ
èī¯ æĢ§
ä¸´åºĬ è¯ĬæĸŃ
æĶ¯ æĮģ
éĽ Į
ç²¾ç´¢ éĿĻèĦīæĽ²å¼ł
æĢ§ åĬŁèĥ½éļľç¢į
çĹĩ çļĦ
åį Ī
åı¯ä»¥ èĢĥèĻĳ
çĽ ĺ
ç²¾ æ¶²
åīĸ èħ¹
ä» ·
ä»¥ æ¸ħæ·¡
åİ ī
æ´» è¡Ģ
è¶ħ è¿ĩ
è¿Ļä¸ª æĥħåĨµ
æİĴ ä¾¿
ä¸¤ å¤©
åİ»åĮ»éĻ¢ ä»Ķç»Ĩæ£ĢæŁ¥
ç©¿ åĪº
æ¥ ļ
è¡Ģå°ı æĿ¿
çĽ ²
æµ ĵ
çĶ· ç§ĳ
åķ ¥
å¾® åĪĽ
çŃĶ æ¡Ī
æĭ ¿
é¡ º
åĲĥä»Ģä¹Ī èį¯
ä½ı éĻ¢
æĵ¦ æ´Ĺ
æĿ Ĥ
æīĭ è¶³
çļĦ å½±åĵį
åĨħ è£¤
æĤ¨ çļĦ
èĥ° èħº
åİī å®³
è¿ «
è¿ĩ å¤ļ
ä¾ µ
æ¸ħ æ¥ļ
çļĦè¾ħåĬ© æ£ĢæŁ¥æľīäºĽä»Ģä¹Ī
çĽĨèħĶ çĤİ
æł¹æį®ä½łçļĦ æııè¿°
çŃī çĹĩçĬ¶
è¯Ĭ æ²»
åĪºæ¿Ģ é£Łçī©
çģ Į
éĨ ī
éĻĦ çĿ¾
çĹī æĮĽ
éģ¿åŃķ èį¯
X çº¿
çĹĽ èĭ¦
æ²¡ ä»Ģä¹Ī
å¹² çĩ¥
èĽĭçĻ½ è´¨
çĶ¨ éĩı
èĬ ¬
ä½łçļĦ è¿Ļç§įæĥħåĨµ
ç£ ·
å°±è¯Ĭ ç§ĳå®¤
å°±è¯Ĭç§ĳå®¤ æĺ¯ä»Ģä¹Ī
åı «
æĢ§ åĪ«
å°ı ä¾¿
ä¿Ŀ æļĸ
æĺ ı
ä¸į çŁ¥æĻĵ
éĥ½ ä¼ļ
æ® ĭ
è¥¿ åĮ»
éĺ» å¡ŀ
åĻ¨ å®ĺ
æľīåħ³ ç³»
ä¿ĥ è¿Ľ
è¿ĺ ä¼ļ
æ¦ Ĥ
çĸ ı
æĤ£èĢħ æľĭåıĭ
æ¶ ¦
å¦ĩç§ĳ çĸ¾çĹħçļĦåĩºçİ°
ä¹ı åĬĽ
é ī
ä»¥ ä¸ĭ
æĢİä¹Ī æ²»
èµ· æĿ¥
æ¶Ī å¤±
ç²ĺ è¿ŀ
éī ´
1 4
ä¸ Ŀ
å¢ŀå¼º ä½ĵè´¨
å®ī åħ¨
ä¸ °
éĺ´ éĥ¨
æĪĲ åĪĨ
æ» ¡
å¤ļ æ³¨æĦı
çĲĨ è§£
æµ ħ
éº» éĨī
çĽĲ éħ¸
ä¿® å¤į
å¯¹æĤ¨ æľīå¸®åĬ©
éľ ²
æŃ£ ç¡®
éĥ½ æľī
åĩł çİĩ
éľĢè¦ģæľī çľĭéĩį
é£İ æ¹¿
çļĦ é¢Ħéĺ²æİªæĸ½
å¤ļ è§ģ
æ¶ Ĥ
é«ĺ çĥ§
åıĺ åĮĸ
æĥ³ è¦ģ
çļĦæ²»çĸĹ æĥħåĨµåĴĮæķĪæŀľ
è¿Ļä¸ª éĹ®é¢ĺçļĦ
çĽ¸ ä¿¡
éĵ ģ
æĽ¾ç»ı çļĦæ²»çĸĹæĥħåĨµåĴĮæķĪæŀľ
æ¨ ¡
æĺ ¨
ä¼ °
æĤ£ ä¸Ĭ
å°ĳ åĲĥ
ä¸Ńèį¯ æ²»çĸĹ
å·²ç»ı å¼Ģå§ĭ
æµ Ĩ
äº§ åĲİ
ç»Ŀ ä¸įä¼ļ
å° ĸ
å°¿ è·¯
åīĤ éĩı
æĶ¯ æŀ¶
çļĦ é¥®é£Ł
è¡¨çİ° ä¸º
èĭ ·
ç»Ļ äºĪ
æĢ§ èĦĳ
éĻ¤ æŃ¤
æ± Ĥ
ç±» åŀĭ
ä»İ èĢĮ
åįı åĬ©
æ£Ģ æµĭ
ç»ĵ å©ļ
èĤ¾ èĻļ
æĬĹ ä½ĵ
å© Ĩ
æĲ Ĳ
è®Ń ç»ĥ
è¿Ļä¸ªéĹ®é¢ĺçļĦ å»ºè®®
éĻ¤æŃ¤ ä¹ĭå¤ĸ
éĻ ·
éĹ ¹
å°¿ ç®¡
çĻĮ ç»Ĩèĥŀ
æĹł æ³ķ
æĺĵ æ¶ĪåĮĸ
ä¸ī å¤©
åĭ ¤
ç¬¬ äºĮ
åģľ èį¯
åĿļ æĮģ
3 8
æī ĺ
åı¯ä»¥ å¸®åĬ©
æĸ¹ æīįèĥ½
æĭī èĤļåŃĲ
é»ı èĨľ
åĲİéģĹ çĹĩ
åį §
åĨħ çª
äºº ä½ĵ
èĩ´ä½¿ çļĦ
çĵ ľ
æĬ½ æĲĲ
ä½ĵ éĩį
çĥ «
æ¶ĪåĮĸ ä¸įèī¯
èĦĳæ¢Ĺ å¡ŀ
M R
å¤ļ äºĨ
æ£ĢæŁ¥ ä¸Ģä¸ĭ
ç² Ĺ
èĤº éĥ¨
è¿Ļä¸ª çĹħ
èĤ¥ èĥĸ
å¹¼ åĦ¿
ä¸ ĩ
ä¸į çĿĢ
æŁ Ĳ
å¤ļ éķ¿æĹ¶éĹ´
é¢ Ŀ
ä¿Ŀ å®Ī
åĵª éĩĮ
ä»¥ä¸Ĭ æĺ¯å¯¹
çĽ´èĤł çĻĮ
ä» ģ
çĸ ±
å® ģ
åİŁ åĪĻ
çĻ½ æĸĳ
çľ¼ çĿ
è ¸
çļĦ æĤ£èĢħ
çī© è´¨
å¾Ī éļ¾
ä¹³èħº çĻĮ
èĦĬ é«ĵ
å¤§ èĦĳ
åĲĥ é¥Ń
å¾Ī å®³æĢķ
æĪĲ åĥı
åĢ Ĵ
éħĴ ç²¾
åį± éĻ©
åĿĩ è¡¡
éķĩ çĹĽ
å¿ĥ çĹħ
éĴ ¾
ç¡® è®¤
ä¸ĵ å®¶
æĬĳ éĥģ
å¸¸ çĶ¨
çŃī çŃī
æµ ´
è¿Ļç§į çĸ¾çĹħ
åĲ į
å¥ ĩ
ä¼´ åıĳ
é¢ħ åĨħ
¥ éķľ
ä¼ ¼
è® ¡
æľ¬ çĹħ
è½¯ éª¨
çĹ ķ
åħ «
å¸ Ī
çĲĨ åºĶ
èī² ç´ł
ç¦ģ æŃ¢
åĿı æŃ»
æŃĩ æģ¯
åĨħçª ¥éķľ
é ŀ
ä¸į å¤ª
æĤ£èĢħ çĹħæĥħ
æĿ¥ æľĪç»ı
çļĦ æĦŁè§ī
ç»ı æľŁ
å¦ĩ å¥³
çļĦçĹĩçĬ¶ æĺ¯ä»Ģä¹Ī
è¿ĺ æ²¡æľī
å®« èħĶ
è¾ĵåįµç®¡ åłµå¡ŀ
1 1
çĶ¨ æ³ķ
é¢Ī éĥ¨
è¡¥ èĤ¾
ä» ½
çĸ ĳ
ç»ı è¿ĩ
åĨħ éķľ
ä¸ĢèĪ¬ æĿ¥è¯´
å¿Į è¾Ľè¾£
æĺ¯ çĶ±
çĶŁ åĳ½
ä¸Ń èĢ³
æ¸ Ĺ
æĥ³ éĹ®
æĬ¤çĲĨ å¹²é¢Ħ
åĽĽ èĤ¢
å»¶ éķ¿
èĸ Ħ
ä¸° å¯Į
å¥ Ĺ
é¥®é£Ł ä¸Ĭ
èĤ¾ çĤİ
çĹħåĽł åĲİ
ç½ Ĺ
è¯ķ è¯ķ
åı¯ä»¥ åģļ
åĩı éĢĢ
çº¢ èĤ¿
æłĵ å¡ŀ
æĮī æĳ©
ä» į
åĲ §
å¥½ åĥı
æĻ ¨
ä¸ĢçĽ´ éĥ½
æİ¥ åıĹ
æŃ£è§Ħ çļĦåĮ»éĻ¢
é«ĺåį± åĽłç´łæľīäºĽä»Ģä¹Ī
èĤ ¾çĹħ
è¿Ļ åĩłå¤©
åĩº çļĦ
æİĴ å°¿
èĥ¸ éĥ¨
åĺ ±
æ¯Ķ ä¾ĭ
äº ¡
æķ ħ
ä¸Ń é£İ
è¡¥åħħ ç»´çĶŁç´ł
äº ļ
æĸ ĩ
çĶ¨ äºİ
è¯´ æĺİ
æĻ º
å² Ľ
å²ģ äºĨ
ä¸ī ä¸ªæľĪ
é¢Ħéĺ² å·¥ä½ľ
æĤ£èĢħçļĦ é¥®é£Ł
ç½® æį¢
å¿ µ
å¿ĥ çĶµåĽ¾
éĺ´ åĽĬ
èĢĥ éĩı
éĶ ģ
çĪ ¶
åĨł çĬ¶
ä¸Ĭè¿° çļĦ
ä»¥ éĺ²
èĻ ½
ä½İ çĥ§
åķ ¤
å¿ĥèĦı çĹħ
æĺ¨ å¤©
ä¸į è¿ĩ
é¢ Į
çĽ ĳ
æ¶Ī éĻ¤
å¹² åĩĢ
èħ° æ¤İ
èĥĢ çĹĽ
çĦ¦ èĻĳ
åķ¤ éħĴ
ä¸ ¹
åĪ Ģ
æ²»çĸĹ æĸ¹æ¡Ī
æĸ ľ
äºº çļĦ
éĶ ®
åºĶè¯¥ æĺ¯
æľĢå¥½ æĺ¯
åĭ Ĵ
åĲ¦ åĪĻ
èľ Ĥ
ä¸į å¿ħè¦ģ
æĤ£èĢħ éľĢè¦ģ
ä¸ĭ ä½ĵ
çĻ½ èī²
ä¿ĿæĮģ å¿ĥæĥħ
é¾ Ļ
åº·å¤į çļĦ
ç¼º æįŁ
é¥® æ°´
åħ³ éĶ®
æ® Ĭ
ç½ĳ èĨľ
éī´ åĪ«
æŁĵ èī²
çļĦæ²»çĸĹ æķĪæŀľ
èĪĴ çķħ
çĬ¶åĨµ åĴĮ
çļĦ çİ°è±¡
æ²»çĸĹ æķĪæŀľ
èĥ½ å¤Ł
æĹ© ä¸Ĭ
ä¹ĭ ä¸Ģ
èĩªèº« åį«çĶŁ
æľº ä½ĵ
æŃ£è§Ħ åĮ»éĻ¢
å¤ļå°ĳ éĴ±
è ĵ
æľī åı¯èĥ½æĺ¯
é¥ ±
åıĮ ä¾§
æķĻ èĤ²
å¾Ī æĭħå¿ĥ
éĢļ çķħ
çī¹ æ®Ĭ
åı£æľį æ¶²
éĢĢ çĥ§
åĸĤ åħ»
æī« æıı
c m
æľī åĪ©äºİ
åı¯ä»¥ éĩĩçĶ¨
æĿ Ł
è® º
å¯¹ èº«ä½ĵ
çĽ´ éĿ¢
å·¦ ä¾§
ä¸ĵ ç§ĳ
æĪĴ çĥŁ
ä¸Ĭè¿°çļĦ çŃĶæ¡Ī
æľ µ
æ²»çĸĹ åĲİ
å¦ »
ä¸Ń çļĦ
æ¬¡ æķ°
çĻ½ è¡Ģ
æĥ³ çŁ¥éģĵ
é¢Ī æ¤İ
åľ° æĸ¹
éģĹ ç²¾
åĪĽ ä¼¤
æī¾ åĩº
è¦ģ å¤ļ
èĩ Ń
çķ Į
æĬĹ çĤİ
æĦŁæŁĵ çļĦ
åķ ¡
æĤ£èĢħçļĦé¥®é£Ł çĬ¶åĨµåĴĮ
æ¯ «
å· ¨
å¢ŀ é«ĺ
çĪ ¸
çł´ çļ®
æĶ¯æ°Ķç®¡ çĤİ
çļĦ çĸ¾çĹħ
è® °
æĪĳ çİ°åľ¨
æ¯Ķè¾ĥ å¤§
åĹ ĵ
æĢķ åĨ·
è¯Ħ ä¼°
ä¼ļ åĩºçİ°
å¿ĥ å¾ĭ
è¯´ çļĦ
èĦĳ è¡Ģç®¡
èĢģ æĺ¯
ä¼ł ç»Ł
èĢ³ æľµ
ä½łçļĦè¿Ļç§įæĥħåĨµ åı¯èĥ½æĺ¯
æľī åı¯èĥ½
èĥĥ éķľ
çİĩ æĺ¯å¤ļå°ĳ
æľŁæľĽ å¯¹æĤ¨æľīå¸®åĬ©
å°ıèħ¹ çĸ¼çĹĽ
æīĭè¶³ åı£
çļĦ ä½ľçĶ¨
æĢ§ åĬŁèĥ½
çļĦæ²»çĸĹ æĸ¹å¼ı
åı¯èĥ½ä¼ļ æĺ¯
åĪºæ¿ĢæĢ§ çļĦé£Łçī©
åĬ³ ç´¯
æĻ® åĭĴ
æĺ¯ éĿŀå¸¸
å¾ ħ
å¤ļ æĻ®åĭĴ
èĥ½ ä¸įèĥ½
åĮĸ åŃ¦
äºº ç¾¤
ç¡ «
é¥®é£Ł æĸ¹éĿ¢
åħ¶ å®ĥ
èĲ ½
èĥ¸ éĹ·
èģ ļ
æĪĳæĥ³ éĹ®
æĶ¾å°Ħ æ²»çĸĹ
è¿ ·
çĶŁ çī©
æŁ ±
é£Ł ä»Ģä¹Ī
æ£ ®
å°± è¦ģ
æĿ¥ çļĦ
åı£æľį èį¯çī©
å¨ ©
ä¹ °
çĹħ åı²
å¥ ¥
åĪ° äºĨ
èĩªèº« æĬ¤çĲĨ
èĦĵ èĤ¿
è§Ħå¾ĭ ä½ľæģ¯
éĻĦ ä»¶
åīĸèħ¹ äº§
åĹĵ åŃĲ
æ¶ ķ
åĸ ·
èĩª çĦ¶
ç§¯æŀģ æ²»çĸĹ
åıĤ èĢĥ
éļı çĿĢ
åģ¶ å°Ķ
çĸĹ ç¨ĭ
çĺ¤ çļĦ
çĹħæĥħ åıĬ
çļĦæĥħåĨµ ä¸ĭ
æľĢå¥½ åİ»åĮ»éĻ¢
éĽ Ĩ
1 3
ä¸Ń æĪĲ
æ¸ ¸
å°½å¿« åº·å¤į
ç«ĭ åį³
å¦Ī å¦Ī
ä»ĭ åħ¥
æ·· åĲĪ
çĹħ çģ¶
å¦ ¥
æĤ£èĢħ è¦ģ
è¥¿ èį¯
ä¹ħ åĿĲ
çļĦ ä¸Ģç§į
æľī æ²¡æľī
ä¸į æĺĵ
æĢ§ èĥĥçĤİ
ä¸Ģ å®¶
éľĢè¦ģ éĩįè§Ĩ
èĦĳ çĺ«
éĿ¢ éĥ¨
æľĢè¿ĳ ä¸įçŁ¥éģĵæĢİä¹ĪåĽŀäºĭ
åºĶè¯¥ æ³¨æĦı
çĶ·æĢ§ ä¸įèĤ²
ä¸įä»ħ ä»ħ
æĪ ĺ
æī İ
ä½ĵ èĤ²
æĤ£èĢħ ä¸Ģå®ļè¦ģ
æµ ®
èŀº æĹĭ
æľī å½±åĵį
è¿Ļ æ®µæĹ¶éĹ´
è¿Ľè¡Į åĴ¨è¯¢
å¤ļåĲĥ æ¸ħæ·¡
åĲ« æľī
ç»§ ç»Ń
è¯ Ń
å¤ļ åıĳæĢ§
åİ Į
éľ ĩ
å°¿ æĢ¥
åĪĨ å¨©
åħ³ äºİ
åĹ ľ
åĺ ´
æ¶ĪçĤİ èį¯
m g
ç» ľ
ä¸į éľĢè¦ģ
ä¸į å®ļæľŁ
åıĬ æĹ©
éĩį çĹĩ
åİ» ä¸ĵä¸ļ
éĺ² å¯Ĵ
æīį å¥½
éĩĮ éĿ¢
çĹħæ¯Ĵ æĦŁæŁĵ
æ¯Ķå¦Ĥ è¯´
çĮ ª
åı¯ä»¥å¸®åĬ© åĪ°
å° ļ
èĥ½ åĲĥ
åĨħ åĽºå®ļ
ç»¼åĲĪ çĹĩ
åĽłæŃ¤ æĤ£èĢħ
åĨħçª¥éķľ æ£ĢæŁ¥æľīäºĽä»Ģä¹Ī
1 6
æľī å¾Īå¤ļ
ä¸į åĲĥ
æĮ º
éľĢè¦ģ æ³¨æĦı
æľĪç»ı éĩı
æĶ¾ åĮĸçĸĹ
æ¤į çī©
èĥ° å²Ľ
ä¸ŃèĢ³ çĤİ
çĹħåĽłåĲİ å¯¹çĹĩæ²»çĸĹ
æĺ¯ æĢİä¹Ī
éĺ µ
åı¯ä»¥ åı£æľį
æĤ£ äºĨ
è® ²
å¦Ĥæŀľ åŃ©åŃĲ
çģ ¼
å®«é¢Ī çĻĮ
æ¶ĪåĮĸ éģĵ
éĩĳ æ£®
éĢłæĪĲ çļĦ
çı ł
æĴ Ń
é½ ¿
è ļ
åħ ¸
åĮĸ èĦĵ
è´ ´
å¼Ĥ ä½į
èĤ¿çĺ¤ çļĦ
æ¯ı æĹ¥
æĺİæĺ¾ çļĦ
æł¹æį®ä½łçļĦ åıĻè¿°
é¸¡ èĽĭ
å¸ķ éĩĳæ£®
ä¸ŃæĪĲ èį¯
å¤ļ æľĪ
èĩª è¡Į
æĹł çĹĽ
åĬ© äºİ
æĪĲ å½¢
åīįåĪĹèħº å¢ŀçĶŁ
çī¹ å¾ģ
å¤ļåĲĥ æĸ°é²ľ
ä¼ļå½±åĵį åĪ°
æŀĦ æĪĲ
ä» ¤
è¿ĺ ä¼ļå¯¼èĩ´
å¾Ī å¤§
èĩª æĦĪ
ä¸İ æŃ¤
è¾ĵ å°¿ç®¡
æī© æķ£
æºĲ æĢ§
2 4
èĥ ļ
åŃ £
éħ ¯
æĿ¥ çľĭ
ä¿Ŀ åģ¥
ä¸ī çĶ²
å¿« éĢŁ
èĦĤèĤª èĤĿ
ä¸Ĭ çļĦ
ç¨ ³
é»Ħ èī²
æīģæ¡ĥä½ĵ åıĳçĤİ
çĸ² åĬ³
m m
åĪ »
æ³ Ľ
è¡Ģ å¸¸è§Ħ
æĦı è¯Ĩ
æĬĹ çĹħæ¯Ĵ
çĲĥ èıĮ
çļĦ ä»Ķç»Ĩæ£ĢæŁ¥
çļĦ å¿ĥæĥħ
æ² «
è¯ º
æī Ń
æĿ Ģ
è¿ĺ åı¯ä»¥
é¥®é£Ł éĹ®é¢ĺ
å¢ŀ è¿Ľ
æł¹æį® åĮ»çĶŁçļĦ
æİ¨ æµĭ
å¼Ģ æ°´
å¸¦ åŃ©åŃĲ
èĥĨ ç®¡
è¶ħå£° æ£ĢæŁ¥
åĶ ĩ
å¤ĸéĺ´ çĻ½æĸĳ
æľĢè¿ĳæĢ»æĺ¯ èĤļåŃĲ
çļĦå¦ĩç§ĳ åģļä¸Ģä¸ĭ
æī¾åĩº çĹħåĽłåĲİå¯¹çĹĩæ²»çĸĹ
æľĢå¥½åİ»åĮ»éĻ¢ çļĦå¦ĩç§ĳåģļä¸Ģä¸ĭ
ä¸įä»ħä»ħ ä¼ļå½±åĵį
è¿ĺä¼ļå¯¼èĩ´ å¦ĩç§ĳçĸ¾çĹħçļĦåĩºçİ°
æľī ä¸ª
è¡Ģ èĦĤ
æĬ ¥
éħ ļ
çª Ŀ
åĩĨ å¤ĩ
åıªæľī è¿Ļæł·æīįèĥ½
å¤ļ éķ¿
çĶ¨ ä»Ģä¹Ī
çŃ ĭ
èĤ¿ èĥĢ
è´¨ æĢ§
åĨł å¿ĥçĹħ
æĺŁ æľŁ
çĽ² çĽ®
ä¸İæŃ¤ åĲĮæĹ¶
åĲ ŀ
ä¸į æĦĪ
è¾ ¨
ä¸Ĭ çļ®
åĩºçİ° äºĨ
éĶ Į
æ» ĭ
æĲ ı
é£Łéģĵ çĻĮ
2 5
æ Ĩ
å¤§ å¤«
ä¸ĭ èį¯
æīĭæľ¯ çļĦ
å¢ŀ å¤§
æł¹æį® ä»Ķç»Ĩæ£ĢæŁ¥ç»ĵæŀľ
åħ¨ éĿ¢
ç¢ İ
æı Ĵ
ä¸¤ ä¸ªæľĪ
åıĹ æįŁ
éĴĻ åĮĸ
æľīæķĪ çļĦ
è¶Ĭ æĿ¥
æ°Ł æ²ĻæĺŁ
çļĦåı¯èĥ½ æĢ§
åº Ń
æŀ ¢
æ£ĢæŁ¥ ç»ĵæŀľ
çĬ ¯
å¿ĥ åĬ¨
å¤§ æ¦Ĥ
çº ¸
èĥĥ çĻĮ
èĢģ å©Ĩ
çļĦ èį¯
æĢ§ æ²»çĸĹ
åĴ ĸ
éĢ Ĩ
è¿ĺ èĥ½
æĥ³ å¾ĹåĪ°
æŃ£å¸¸ åĲĹ
åĲ¸ çĥŁ
å¯¹çĹĩ ä¸ĭèį¯
æĶ¯ åİŁä½ĵ
æ°§ åĮĸ
ç§° ä¸º
ä¹Ĳ è§Ĥ
è¶ĬæĿ¥ è¶Ĭ
é ³
å° ¾
ä¸į å®ľ
åľ¨ çĶŁæ´»ä¸Ń
ç² ¥
ä¹Ł è¦ģ
è¿ĺ è¦ģ
çĹĩçĬ¶ çļĦ
å± ħ
æĬ¤çĲĨ æĸ¹éĿ¢
ä¸¤ æ¬¡
è£ ħ
åĳ¼åĲ¸ åĽ°éļ¾
ä¾ĭ å¦Ĥ
åĮ»çĶŁçļĦ æĮĩå¯¼ä¸ĭ
åĨ² æ´Ĺ
MR I
æĺ ¥
æĥ Ĭ
è§Ħ èĮĥ
åĲ¸ åħ¥
ç»Ļ å®Ŀå®Ŀ
èľ ľ
éĽĮ æ¿Ģç´ł
1 8
¨ Ģ
è ¨Ģ
åı ī
æĹ ģ
ä¸į éĶĻ
åĨ ¬
åİ ķ
è¡Ģ æ¸ħ
åĮ» åŃ¦
ä½ĵ å¤ĸ
æĻ Ĵ
èĤ¾ ç»ĵçŁ³
å½±åĵį çĶŁèĤ²
ç¥ŀç»ı ç³»ç»Ł
çĥŃ æ°´
åı³ ä¾§
ï¼ī ï¼Į
å¾ĹåĪ° ç¼ĵè§£
è¯± åıĳ
æŁĵèī² ä½ĵ
åħ¸ åŀĭ
åĬ ¡
æŁ Ķ
å°ı äº§
ç¼ ĺ
å¹³ è¡¡
åİĭ åĪ¶
å¦ĩç§ĳ çĤİçĹĩ
ç¬¬ ä¸Ģæ¬¡
éĵ ¶
ä¸į åı¯ä»¥
åį ł
èħº çĺ¤
ç¼ĵ æħ¢
æīĵ åĩ»
æ·± åº¦
å¸ Ĥ
ä¼ļ èĩ´ä½¿
æīĭæľ¯ åĪĩéĻ¤
åĵ º
è¡Į ä¸º
å°ĳ éĩı
è¡¨ éĿ¢
åĿ ¦
å¹² åĳķ
åĽº éĨĩ
ç»ĨèıĮ æĢ§
å½© èī²
å¾Ģ å¾Ģ
å¿§ å¿ĥ
æľ «
ä¹ ¦
æĹ ı
åĪ° åºķ
é«ĺ åİĭ
ç»ĵ æŀĦ
è´ Ŀ
èĤĿ çĹħ
èĤł èĥĥ
åİĭ è¿«
åĸĿ åķ¤éħĴ
å¤± å¸¸
ç© ´
è¯ķ éªĮ
æ° ¢
å¾Ī é«ĺ
åĪĨ ä¸º
éķ¿ äºĨ
ä¸ĢèĪ¬ æĥħåĨµä¸ĭ
è§ī çĿĢ
æĿ¡ ä»¶
èĻ½ çĦ¶
ä¸į åĪ°
åİ ĺ
é¢ ľ
éħ °
çľ ©
é¥® éħĴ
è° ·
ä¸ĢèĪ¬ æ²»çĸĹ
ç¨ į
äºĭ é¡¹
å®¶ äºº
æ± Ģ
å®ŀæĸ½ æ²»çĸĹ
åįģ äºĮ
éĺ» æ»ŀ
çļĦ ä¸ľè¥¿
ä¹ ī
èĤ ©
åĮ» åĺ±
æĪĳ ä»Ĭå¹´
é« ĭ
åģļ è¿ĩ
æ¸ħ çĥŃ
åĿ ł
ä¸» åĬ¨èĦī
ä¹ĭ éĹ´
ä¸¤ ç§į
çº¢ æĸĳ
å¥¶ ç²ī
ç»§ åıĳæĢ§
åįģåĪĨ çļĦ
ï¼Į ï¼Į
åĳ Ģ
åĨħ è¡£
å¤© äºĨ
åĢ ¾
çļĦæ²»çĸĹ åĳ¨æľŁ
ä¸¤ ä¸ª
çĪ ·
æŃ» äº¡
éĶ»çĤ¼ èº«ä½ĵ
åĨħåĪĨæ³Į å¤±è°ĥ
çĶŁæ®ĸ åĻ¨
æļĤ æĹ¶
èŀį åĲĪ
çļĦé¢Ħéĺ²æİªæĸ½ æľīäºĽä»Ģä¹Ī
çľ¼çĿ Ľ
çĻ½è¡Ģ çĹħ
åİķ æīĢ
çĸ ¾
ä¸į å¤§
åİ ¥
åī ²
æĬĹ èıĮ
åĩı åİĭ
ä¸ī éĺ³
æĺ¯åı¯ä»¥ åĩıä½İ
çļĦæ²»çĸĹåĳ¨æľŁ å¤ļéķ¿
å¤ļ çķĻæĦı
æľ¯ åīį
æĪĳ åİ»å¹´
åĲĥ çĤ¹
å°ı åŃ©åŃĲ
å¾Ī å¥½
å¾Ī å¤§çļĦ
èĬ ½
éľĢè¦ģæľī éķ¿æľŁ
å¤ļåĲĥ èĶ¬èıľæ°´æŀľ
å¿ĥçĲĨ çĬ¶æĢģ
çļĦ åĲĮæĹ¶
ä¸į åı¯
æĤ£ åĦ¿
å¤į æĿĤ
æµ ¸
å¾Ī ä¸¥éĩį
ç»ĵ çļĦ
åıį å¤įåıĳ
çĿĢ åĩī
æĹ¥å¸¸ çĶŁæ´»
çī¹åĪ« çļĦ
äº ¦
æµ ĳ
åģļ çĪ±
å°¿ å¸¸è§Ħ
æķĪæŀľ å¥½
ä¸»è¦ģ çĹĩçĬ¶
åĴĸ åķ¡
æ²»çĸĹ å¥½
è¡Ģ æµģ
åı¯ä»¥ éĢļè¿ĩ
ç®¡ çĲĨ
åĬ¨ çī©
è¿Ľ é£Ł
åĪĩ å¼Ģ
çĻ«çĹ« çļĦ
ç© ¶
ç©¿ åŃĶ
éĢŁ åº¦
èĤ¡ éª¨
æİĴåįµ æľŁ
èī¯å¥½ çļĦæ²»çĸĹæķĪæŀľ
çļĦå¿ĥæĢģ åİ»
æł¹æį®åĮ»çĶŁçļĦ æĦıè§ģ
æĥ³å¾ĹåĪ° æĢİæł·çļĦå¸®åĬ©
åĵº ä¹³
åİĺ ç±³
6 0
ï¼ İ
åį ´
åľ¨ æ²»çĸĹ
å¹´ æľŁ
åĸ ľ
ç¢ °
çľŁ èıĮ
éģ µ
æĿ¥ äºĭ
éĩį æĸ°
è´ Ł
è¾ĥ å¤ļ
åħ¶ ä¸Ń
æħ Į
å¼Ĥ åĳ³
è¿Ĳ çĶ¨
ä¼ĳ åħĭ
å¯Ĵ åĨ·
ç»ĨèıĮ æĦŁæŁĵ
èĮĥ åĽ´
é£İéĻ© è¯Ħä¼°
åħ»æĪĲ èī¯å¥½çļĦ
Ġ 2
åĨ °
èį¯ æµģ
å¤´ çĸ¼
èĤł æ¢Ĺéĺ»
åľ° åĮº
éľī èıĮæĢ§
èĤ¢ ä½ĵ
CT æ£ĢæŁ¥
åĨłçĬ¶ åĬ¨èĦī
çļĦ é«ĺåį±åĽłç´łæľīäºĽä»Ģä¹Ī
æľī ä¸Ģ
å½ Ĵ
åĲĪ éĢĤ
æľĢ ä½³
èħ¹ æ°´
ä½İ äºİ
åĨįæ¬¡åĩºçİ° äºĨ
ä¸įèī¯ åıįåºĶ
æ·ĭå·´ çĺ¤
çī¹åĪ« æĺ¯
å°±åı¯ä»¥ äºĨ
ä¸īçĶ² åĮ»éĻ¢
æĺ¯åı¯ä»¥åĩıä½İ çĹħåıĳ
é£İéĻ©è¯Ħä¼° åĽłç´łæľīäºĽä»Ģä¹Ī
æ ¾
çļĦ å¤ļåıĳç¾¤ä½ĵ
æľī åĬ©äºİ
ä¸į çĶ¨
å¤ĸ çĶ¨
å¾Ī å¿«
åģļ å®Į
èī ¾
è¾ĥ å¤§
ä¿Ŀ æĬ¤
æİ¨ æĭ¿
åıį æµģ
ä¸Ģå®ļ èĥ½
åĲĥè¾Ľè¾£ åĪºæ¿Ģ
èĦĬ æŁ±
æĤ£èĢħåı¯ä»¥ å°½å¿«åº·å¤į
ä¿Ŀå®Ī æ²»çĸĹ
æ¯Ķä¾ĭ æĺ¯å¤ļå°ĳ
èħ Ĳ
çĻ ¾
æ¸ħ éĻ¤
æİ¨ è¿Ł
éĤ£ åĩłå¤©
éļ¾ åıĹ
å¯¹äºİ çĶ·æĢ§
ä½ĵèĤ² éĶ»çĤ¼
1 9
çĽ ĸ
åīį åĩłå¤©
å¾Ī å®¹æĺĵ
èĢĮä¸Ķ åįģåĪĨçļĦ
ä¸¤ å¹´
éº ¦
æĢķ å¯Ĵ
ä¿¡ å¿ĥ
æģ¶å¿ĥ åĳķåĲĲ
å°¤åħ¶æĺ¯ æĿ¥äºĭ
èĥĥèĤł éģĵ
ç¥Ŀä½ł æĹ©æĹ¥åº·å¤į
å¾Īå®³æĢķ å½±åĵįçĶŁèĤ²
æµ® èĤ¿
ä¸İæŃ¤åĲĮæĹ¶ æĤ£èĢħè¿ĺ
ç»ĵçļĦ å©ļ
èĢĮä¸ĶåįģåĪĨçļĦ æĢķåĨ·
å°¤åħ¶æĺ¯æĿ¥äºĭ éĤ£åĩłå¤©
å¤§ å®¶
åĮ»çĶŁ æĮĩå¯¼ä¸ĭ
å®¶ éĩĮ
å®Ŀå®Ŀ çļĦ
æ²¡æľī ä»Ģä¹Ī
è· ³
è¿Ļæł· ä¸Ģå®ļèĥ½
éĽ ¾
éĩįè¦ģ çļĦ
æĤ£çĹħ æ¯Ķä¾ĭæĺ¯å¤ļå°ĳ
å°¿è·¯ æĦŁæŁĵ
æīĭè¶³åı£ çĹħ
åĮ ¹
æ³ ª
ä¸Ń ä¸Ģå®ļ
éĿ¢ çĺ«
æĢĢåŃķ äºĨ
æĽ´ å¹´æľŁ
ä¸įåŃķ ä¸įèĤ²
çļĦ å®Ŀå®Ŀ
çĹ ¹
æĺ¯ æ¯Ķè¾ĥ
ä¼ļ å¼ķèµ·
ä¼ļ åĨįæ¬¡åĩºçİ°
åĽł åŃĲ
è½ ¦
è½¬ åĮĸ
èĩªèº« çļĦçĹĩçĬ¶
çĿ¾ä¸¸ çĤİ
æº¶ æ¶²
åĨħç§ĳ çĸ¾çĹħ
åĽłæŃ¤æĤ£èĢħ è¦ģåıĬæĹ¶
é ¹
åı¯ çĶ¨
æĪĲ äºº
ä½Ĩæĺ¯ çĶ±äºİ
å¹¶ä¸Ķ æĹ¥å¸¸çĶŁæ´»ä¸Ń
ç¦ģ å¿Į
å§ĭç»Īä¿ĿæĮģ å¿ĥæĥħ
çł´ è£Ĥ
æ²»æĦĪ çİĩæĺ¯å¤ļå°ĳ
æ¼ ı
é Ń
çļĦ çĹħ
çļĦ å°±è¯Ĭç§ĳå®¤æĺ¯ä»Ģä¹Ī
å¯¼ ç®¡
çĽ¸ å¯¹
ä¹ħ äºĨ
çĹħæ¯Ĵ æĢ§
éĽ ·
å¢ŀåĬł èĲ¥åħ»
æ¯Ľ çĹħ
æĻ® éĢļ
çļĦ äºº
çļĦ è¡¨çİ°
å¼ ¥
ä¸¥éĩį çļĦè¯Ŀ
ç¥ŀç»ı åħĥ
è½¯ èĨı
è§Ĵ èĨľ
æľĢè¿ĳæĢ»æĺ¯èĤļåŃĲ å°ıèħ¹çĸ¼çĹĽ
æĪĳåİ»å¹´ ç»ĵçļĦå©ļ
æľī ä¸Ģå®ļçļĦ
åĴ ª
ç»ı çļ®
ä¸Ń æŀ¢
é«ĺ çĥŃ
åĮħ èĮİ
æĺĵ åıįåıįå¤įå¤į
éĢĤ åĲĪ
æľ¬ èº«
è¥¿ æŀĹ
å¤± çľł
ç¼º æ°§
ç¡®è¯Ĭ ä¸º
å¿ĥçĲĨçĬ¶æĢģ ä¹Łæĺ¯
. .
e r
çļĦ åŃ©åŃĲ
å® ½
å¥ ĭ
ä»¥ æŃ¤
æĪĳ æľī
è¿ĺ ä¸į
éļ Ļ
è¯· æııè¿°
çĻ«çĹ« åıĳä½ľ
èĥĨ æ±ģ
å¦ĩç§ĳ çĹħ
åģľ æŃ¢
çĭ ¬
æĤ£èĢħçļĦé¥®é£ŁçĬ¶åĨµåĴĮ å¿ĥçĲĨçĬ¶æĢģä¹Łæĺ¯
èĥ°å²Ľ ç´ł
åĢ¾ åĲĳ
çĻ ľ
åľ¨ åĮ»çĶŁçļĦæĮĩå¯¼ä¸ĭ
ä½ĵ æ£Ģ
çº ³
åĬ¨ çĶ¨
æĹ© åŃķ
ä½İ ä¸ĭ
è¡¥ éĴĻ
å¤Ħ æĸ¹
åħħ è¶³
åįĬ å¹´
çħ İ
å®ļæľŁ å¤įæŁ¥
å¤« å¦»
çļ®è´¨ æ¿Ģç´ł
çļĦ å¥½
çļĦ ä¼¤å®³
çī µ
ç¼ Ŀ
èĤ¾ ä¸Ĭ
æħ İ
ç»Ħç»ĩ åŃ¦æ£ĢæŁ¥æľīäºĽä»Ģä¹Ī
çł Ķ
Bè¶ħ æ£ĢæŁ¥
åĵŃ éĹ¹
èĳ¡èĲĦ ç³ĸ
æ¾ ¡
çļĦ è¯ĬæĸŃ
èĤ ĭ
èĥ ¡
è´ ¥
å¼ķèµ· çļĦçĹĩçĬ¶
æŃ¤ çĹħ
åıĳçĶŁ æĶ¹åıĺ
éĻį æ¸©
âĢ Ķ
èĥ¸ èħĶ
è§Ĩ ç½ĳèĨľ
é¼» æ¶ķ
åŀĤ ä½ĵ
éĺ³çĹ¿ æĹ©æ³Ħ
éŀ ĺ
æŃ£è§ĦçļĦåĮ»éĻ¢ è¯ĬçĹħ
æĻº åĬĽ
æµĳ èº«
åĬ ¿
å¾Ī å¥½çļĦ
åģļ åĪ°
æ³¨æĦı ä¸ªäººåį«çĶŁ
èħ¹ èĥĢ
åĪĩ å¿Į
åĸĿ èį¯
åĲĮæĹ¶ å¤ļ
æĪĳæĥ³ çŁ¥éģĵ
æº¶ è¡Ģ
èĵ Ŀ
åİ»ä¸ĵä¸ļ æŃ£è§ĦçļĦåĮ»éĻ¢è¯ĬçĹħ
æ·±åº¦ çĿ¡çľł
ä½ł åı¯ä»¥
ä¸Ń åº¦
ä¹Ł å°±ä¸į
æĺ¯ä»Ģä¹Ī çĹħ
æ°Ķ è¡Ģ
åĬł çıŃ
æŃ¢ çĹĽ
éĺ²æŃ¢ è¾Ľè¾£
æĪ¿ äºĭ
æ¤į åħ¥
åĪ°åĮ»éĻ¢ åģļ
çĥŁ éħĴ
çļĦæ²»çĸĹæĸ¹å¼ı æĺ¯ä»Ģä¹Ī
- -
ä¸į æĸŃ
åı¯ è§ģ
è¡Ģ å°¿
ä¸¥éĩį åĲĹ
ä¾Ľ åıĤèĢĥ
å ´
èĥ½ æ²»
åľ¨ åĮ»éĻ¢
åī ¥
èĦĳ éĥ¨
ç« Ļ
é»Ħ ä½ĵ
é¢Ħ åĲİ
ç±» èį¯çī©
æĳ ¸
ä¸įåĲĮ æīĢä»¥
æ°§ æ°Łæ²ĻæĺŁ
è¯¢ éĹ®
çīĽ å¥¶
ä¿ĿæĮģèī¯å¥½çļĦ å¿ĥæĥħ
æĵį åĬ³
è ķ
çļĦ åĽłç´ł
è¯ ī
çĲĨ æĥ³
é¥® æļ´
èĢĮä¸Ķ å¯¹äºİçĶ·æĢ§
æ¤ Ĵ
çģ Ń
æ¹¿ çĸ¹
é¸ £
éĶ» ç»ĥ
è®© æĪĳ
éŁ ¦
ç¤ ¾
æŁĲ äºĽ
æĪĲå½¢ æľ¯
èĤ¾ä¸Ĭ èħº
ä¹Łå°±ä¸į ä¸Ģæł·
èĢĮä¸Ķå¯¹äºİçĶ·æĢ§ æĤ£èĢħæĿ¥è¯´
ç ŀ
çļĦæİ¨èįĲèį¯ æľīåĵªäºĽ
å¥³æĢ§ çļĦ
èĻļ å¼±
ä»¥åħį å¯¹
åħ´ å¥ĭ
3 5
i n
åı Ķ
å¤ ı
ä»Ģä¹Ī åİŁåĽł
çĲĨ çĸĹ
åĵ Į
æ¿Ģ åĬ¨
è§Ĩ åĬĽ
ç´§ æĢ¥
éľĢè¦ģæľīçľĭéĩį èĩªèº«çļĦæĬ¤çĲĨ
åĲŀ åĴ½
é¥®æļ´ é£Ł
åĲ »
è¦ģ å§ĭç»Īä¿ĿæĮģ
éĻ ħ
éĿ ł
åŃķ æľŁ
å£ ®
æĺ¾ ç¤º
å¤ļåĲĥ ä¸ĢäºĽ
ç§¯æŀģ çļĦå¿ĥæĢģåİ»
åħ³èĬĤ çĤİ
å¼ķåıĳ çļĦ
ä¾Ľ è¡Ģ
æļ´ é¥®æļ´é£Ł
çļ Ĥ
å¤ļ é¥®æ°´
äºĨ ä¸įå¿ħè¦ģ
åľ Ĩ
é£Ł çĸĹ
æīĭæľ¯ æķĳæ²»
åĦ¿ åŃĲ
è¾ĥ éķ¿
éĥ½ ä¸į
å¹³ å¸¸
çĹħæĥħ ä¸¥éĩį
çĹħæĥħ æĺĵåıįåıįå¤įå¤į
åĵª å®¶
éķľ æ£ĢæŁ¥
æ¢ °
çĸ± çĸ¹
æł¹æį®ä»Ķç»Ĩæ£ĢæŁ¥ç»ĵæŀľ åĨį
é¢ľ èī²
èħ ±
æĪĳ æľĢè¿ĳ
ä½ł æīĢ
å¾Ī å°ĳ
éĺ´ æĢ§
æĪĲ åĬŁ
çĹħæĥħ çļĦ
æľº åĪ¶
æ°¨ åŁº
çĨ ¬
æ³Įå°¿ ç³»
ĠĠĠĠ Ġ
å½©èī² å¤ļæĻ®åĭĴ
çĸ ¤
ãĢĤ (
ä¸Ģ ä¼ļ
æł ĳ
æ£Ģ éªĮ
å¤§ é¼ł
åĲĥ çļĦ
åĨħ çļĦ
èĤł çĤİ
åĮ»çĶŁ è¯´æĺ¯
åĪĩ åı£
çī¹ çĤ¹
ä¸´åºĬ ä¸Ĭ
èĢĥèĻĳ ä¸º
æĢĢåŃķ çļĦ
ç»´çĶŁç´ł B
è¿ĩæķı æĢ§
èĩªèº«çļĦæĬ¤çĲĨ å·¥ä½ľ
èĥļ èĥİ
åįģäºĮ æĮĩ
èĥ ľ
å¼ ¹
å°ı èĤł
åºĶ æ³¨æĦı
èĤ¾ å°ı
åħ¶ æ¬¡
ä»ĸ ä»¬
çº¢ ç´ł
åĭ ¿
ä»¥æ¸ħæ·¡ é£Łçī©
Ļ çĺ
ä¸į å½ĵ
çĹĽ ç»ı
èĤĿ ç»Ĩèĥŀ
ä¸Ģå®ļ è¦ģæ³¨æĦı
æİĴ åĩº
éĻį åİĭ
20 0
é¢ħ èĦĳ
åŃĲå®«åĨħèĨľ çĤİ
æĤ£èĢħè¿ĺ éľĢè¦ģéĩįè§Ĩ
åıįå¤įåıĳ ä½ľ
çĸ Ļçĺ
åĮ Ĺ
ä¸Ģ èµ·
éĺ ¶
åīį æ®µæĹ¶éĹ´
æģ ¼
çº µ
è¯´ çļĦæĥħåĨµ
æĪĲ çĨŁ
æ¸ħ æ´Ĺ
äº§ åīį
æ¡ Ĥ
åľ° é»Ħ
åĲ« éĩı
çĸĻçĺ ©
3 7
ç» ŀ
è¿ ħ
ï¼Ł ï¼Ł
å¤§ éĥ¨åĪĨ
è¯´ è¯Ŀ
èĦĳ çĶµåĽ¾
ä¸ªæľĪ äºĨ
ä¹ħ æ²»
æ¯į äº²
å¦Ĥæŀľä¸į åıĬæĹ¶æ²»çĸĹ
ä¸ĢæĹ¦ åıĳçİ°
ä¿ĿæĮģèī¯å¥½çļĦ å¿ĥæĢģ
ä¿ĿæĮģå¿ĥæĥħ èĪĴçķħ
æ ĩ
çļĦ æķĳæ²»
æľī ä¸Ģå®ļ
æľī ä¸ĢäºĽ
åħ °
ç§ ģ
æŁ¥ åĩºæĿ¥
åĳ ¤
å°¿ æ¶²
æľĪ ä»½
æĪĲ ä»Ģä¹Ī
å½ĵ æĹ¶
è§£ æ¯Ĵ
åĮ»çĶŁ è¯¢éĹ®
åĪ¶ åīĤ
çº¢ èī²
æłĩ åĩĨ
è¿ħ éĢŁ
åĪ ¤
å¤§ çº¦
æĦı æĢĿ
èº ģ
èµ ĸ
éª ¶
å± ģ
åĪ¶ åĵģ
èĭ ĵ
é¼ ĵ
åĮħçļ® æīĭæľ¯
è¶³ å¤Ł
æ¢Ĺ æŃ»
æĶ¶ ç¼©
æĤ£èĢħåľ¨ çĶŁæ´»ä¸Ń
ä¹ħæ²» ä¸įæĦĪ
æĺ¯ åľ¨
æĺ¯ åķ¥
åħ Ĩ
ä¼ļ è½¬åĮĸ
ä¸ĭ åİ»
ä¸Ĭ åįĩ
æ¶ ¨
æĮ Ĥ
çĻ½ å¤©
è¿Ļç§į çĹħ
æİĴ æ³Ħ
éĻ¤äºĨ è¦ģ
å¨ ģ
æĬ½ çĥŁ
åĪļ å¼Ģå§ĭ
æīĢèĩ´ çļĦ
æ¼ «
è¿ĩç¨ĭ ä¸Ń
éĢĢçĥ§ èį¯
éľīèıĮæĢ§ éĺ´éģĵçĤİ
ä¼ļè½¬åĮĸ æĪĲä»Ģä¹Ī
çļĦ æķĪæŀľ
ä» ª
ç¥ Ľ
çļ® ä¸ĭ
çĶ²çĬ¶èħº åĬŁèĥ½
å¿ĥçĲĨ æĬ¤çĲĨ
éĺ¿ èİ«
å¹´é¾Ħ æĺ¯å¤ļå°ĳ
ç»§ åıĳ
èľĤ èľľ
ä¸Ĭè¿°çļĦçŃĶæ¡Ī åı¯ä»¥å¸®åĬ©åĪ°
æ ©
Ġ 3
çļĦ åĩºçİ°
çļĦ çĤİçĹĩ
çĹ ĺ
æĢ§ è´«è¡Ģ
å¾ ·
åį ĥ
åĲĥ ä¸į
çĺ ¢
è¿ĺ éľĢè¦ģæľī
èĨ ³
çĻ½ æ²«
å®¶ åºŃ
ç¢ ³
åİ»åĮ»éĻ¢ åģļ
çľŁ çļĦ
ä¿® è¡¥
åŁ¹ åħ»
åŁ¹ è®Ń
èĨĿ åħ³èĬĤ
å¤ļè§ģ äºİ
çĶ¨æ³ķ çĶ¨éĩı
æĺ¯éĿŀå¸¸ å¤§çļĦ
æĪĺ èĥľ
åĲ» åĲĪ
æľī è¡Ģ
åĨ »
å¿ Ĺ
åĲİ çļĦ
æĪĳ å°±
æĤ£èĢħ æĹ¥å¸¸
æĭ Ķ
è¯¥ æĢİä¹Īæ²»çĸĹ
å¼Ĥ æĢ§
çº¢ ç»Ĩèĥŀ
è¯ģ æĺİ
éĩįè§Ĩ èĩªèº«çļĦæĬ¤çĲĨå·¥ä½ľ
åĴĭ åĬŀ
ç¡Ŀ åĶĳ
8 0
ä¸į æ¸ħ
å¤ļ åĽĬ
å¿ĥ å®¤
æİ ¢
é¥®é£Ł ä¸Ń
éļ Ĩ
éĥ½ çŁ¥éģĵ
æĦĪ åĲĪ
åĶ Ĳ
ç¦ģ çĶ¨
çªģ åĩº
è¿ŀ ç»Ń
æĮī æĹ¶
éŁ §
å©´ å¹¼åĦ¿
é¦ĸåħĪ è¦ģ
åĪĿ æľŁ
åĭ¤ æį¢
çľ© æĻķ
çĺ¢ çĹķ
æ²»çĸĹ åĲĹ
å¯ »
å¤į ä½į
çŃī åĪ°
æ²¡ äºĭ
æķĳæ²» æľŁéĹ´
éĢļ æ°Ķ
åıª èĥ½
åĹ ª
åħħ è¡Ģ
èħ° çĹĽ
æĺ¯åĲ¦ æľī
ä»ĭ æĺ¯
éĢı æŀĲ
æĳĦ åħ¥
çĶ·ç§ĳ çĹħ
ä»¥æŃ¤ æĿ¥
7 0
çļĦ åĨħçª¥éķľæ£ĢæŁ¥æľīäºĽä»Ģä¹Ī
æľī æīĢ
ä¸Ģ å¼Ģå§ĭ
å¤ļ çļĦ
åĴ ¬
åı¯ä»¥ åħĪ
å®ļ æĹ¶
æ³¨æĦı é¥®é£Ł
ç²¾ åĽĬ
ä¸įè¦ģ åĲĥè¾Ľè¾£
èº«ä½ĵ åģ¥åº·
ç±» çļĦ
åķ ¶
æıĲ ç¤º
èĶ¬èıľ åĴĮ
åĴ½ çĹĽ
éĺ¿ å¥ĩ
èįī èį¯
æ»´ èĻ«
ç®Ģ ä»ĭæĺ¯
æ¯įä¹³ åĸĤåħ»
æµĵ åº¦
åį§ åºĬ
ç ĳ
æĺ¯ æŃ£å¸¸çļĦ
æĭ Ĩ
æĭ į
æ¯Ĵ çĹĩ
ä¸¥éĩį äºĨ
å¾® æ³¢
ç´« çĻľ
æµħ è¡¨
çļĦ åıĳçĶŁ
çļĦ åī¯ä½ľçĶ¨
åı¯ å¼ķèµ·
åĲĥ ä¸ľè¥¿
çĹĽ é£İ
å± İ
éĥ½ éĿŀå¸¸
ä¿Ŀ è¯ģ
æ¶² ä½ĵ
å½ĵ çĦ¶
å¼Ģ äºĨ
é»Ħ çļĦ
çĥ§ ä¼¤
èĥĨ çº¢ç´ł
å¦ĩç§ĳ æ£ĢæŁ¥
è¯ķ çº¸
éģĹä¼ł åĽłç´ł
ç©º æ°Ķ
å¿ĥå¾ĭ å¤±å¸¸
æľī è®¸å¤ļ
è¦ģ æĺ¯
åıĳ çĥ«
åĮ» çĸĹ
æŁ¥ åĩº
æĬ ĸ
çŃī èį¯çī©æ²»çĸĹ
åĮĸ çĺĢ
æĪĸ å¤Ħæĸ¹
ç³ Ĭ
æĹ© äº§
ç»´ æĮģ
æ± ¡
åıĹ åĪ°
ä¼ł æĴŃ
ç¼º éĻ·
ç¦ ı
çħ ®
ç»Ŀ ç»ı
æĬĳåĪ¶ åīĤ
çĪ¶ æ¯į
åįģäºĮæĮĩ èĤł
äºĽ ä»Ģä¹Ī
æŀ ķ
è¡Ģ èĤ¿
èĩ Ĥ
ä¼ļ éĺ´éĥ¨
å¯¹ æĤ£èĢħä»¬
æµ İ
èµ Ħ
çŁ «
æĹł æķĪ
çĶ² åĩı
åĲĲ çĻ½æ²«
åģı æĸ¹
çļĦæĸ¹æ³ķ æ²»çĸĹ
åĳĬ è¯ī
éĻĦçĿ¾ çĤİ
æĪĲåĪĨ æĪĸå¤Ħæĸ¹
éŃ Ķ
å¯¹æĤ£èĢħä»¬ å¸¦
ä½ Ļ
ä¸į æĥ³
çĶ¨ ä¸įçĿĢ
åĮ» å¸Ī
éĢ ģ
æĤ£èĢħ èĥ½
åĮ»éĻ¢ æ£ĢæŁ¥
èĦĳ åĩºè¡Ģ
å± Ī
æ¶Ī çĺ¦
çĶ· åŃ©
æĭī ç¨Ģ
éº» æľ¨
éĵ ¾
èµ° è·¯
æĤ£èĢħæľĭåıĭ çĲĨåºĶ
è ¹
æĺ¯ åĽłä¸º
æĢ§ æ¬²
èħ ĭ
çĶ¨ æīĭ
æķ ¢
ä¸Ĭ çıŃ
åĬŁèĥ½ ç´Ĭä¹±
åĸĿ éħĴ
åľ° å¹³
èĥĨ åĽºéĨĩ
èĥ¸ çĹĽ
èĥİ çĽĺ
è®© åŃ©åŃĲ
ç¾Ĭ èĤī
èĤ¡ æ²Ł
æĺı è¿·
åĮ¹ æŀĹ
å´ ©
è Ŀ
å¥½ å¤Ħ
å¤ļ é£Ł
æŀ Ŀ
åĪ° çİ°åľ¨
å°¿ ä¸į
ç§ĳ åŃ¦
éª¨ è´¨
æł¹æį® æĤ¨
çī¹ åĪ
éĢĤ éĩı
æľĪç»ı åĳ¨æľŁ
è½¬ å¥½
ç¼º éĴĻ
æģ¢å¤į åģ¥åº·
æ¶ĪåĮĸ çļĦé£Łçī©
èħ° éħ¸
é¸ Ń
çĭ ¼
æĪĴ éħĴ
H C
åı¯ æĢķ
çİ »
èħ¹ èĤ¡æ²Ł
ä¸ĢèĪ¬ åľ¨
éª¨ éª
è¡¨ çļ®
è§Ħ åĪĻ
«çĹ Ĵ
åĸĿ æ°´
æ¢ ħ
éĺ²æŃ¢ æĢ§çĶŁæ´»
åıĪ ç§°
æĭī åĶĳ
åįĬ æľĪ
åĮº åĪ«
æĶ¾å°Ħ æ²»çĸĹæľīäºĽä»Ģä¹Ī
å¿ħè¦ģæĹ¶ åı¯ä»¥
ç¥Ŀä½ł åģ¥åº·
éĩįæĸ° è°ĥæķ´
å¢ŀåĬłèĲ¥åħ» è¡¥åħħç»´çĶŁç´ł
èĨ³ é£Ł
çī¹åĪ «çĹĴ
N A
ä¸ ĺ
çļĦ ä¸»è¦ģ
çļĦ åľ°æĸ¹
ä¹ Į
å¹ ½
æŀ ¸
åį İ
æ° ĳ
ä¸Ĭ æĢ»æĺ¯
å¤ĸ çĹĶ
èį¯çī© æķĳæ²»
è¿Ľ åħ¥
ç²¾ çĹĩ
çĶ² ç¡ĿåĶĳ
ä½į ç½®
åĵª ä¸ª
åıĹ åĩī
ä¸Ńèį¯ è°ĥçĲĨ
æľº æ¢°
éľī èıĮ
åĻ¨ è´¨æĢ§
çĽĬ æ°Ķ
æĤ£ä¸Ĭ äºĨ
ç Ĵ
ãĢĤ ãĢĤ
ç» µ
å¥½ åĩł
äºĨ æīĭæľ¯æ²»çĸĹ
å¿ĥ åĬĽ
ä¸Ĭ åİķæīĢ
çľ ¶
æľĢ å¥½çļĦ
é¥®é£Ł çļĦ
æ· ¤
æĻ ¶
å°ĳ æķ°
å¤´ éĥ¨
åįµ æ³¡
æľ¯åĲİ ä¸Ģå®ļè¦ģ
è½¯ çļĦé£Łçī©
çĹħäºº çļĦ
æľīä»Ģä¹Ī çĹĩçĬ¶
åŃĲå®«åĨħèĨľ å¼Ĥä½į
èĳ Ĺ
å°¿éģĵ åı£
åıĻè¿° çļĦæĥħåĨµ
ç¾Ĭ æ°´
è½»å¾® çļĦ
çĽĳ æµĭ
å¾Īé«ĺ åħ´
å¯ĴåĨ· é£Łçī©
çĶ ľ
èĤ ½
ä¸į å¿ħ
ä¸Ģ ä¾§
è¦ģ æł¹æį®
å¿ į
ä¹Ł å°±æĺ¯
æľĢ å¸¸è§ģçļĦ
æ¶Ī èŀį
å¸¦ è¡Ģ
å£° éŁ³
éº» çĹ¹
ç¨Ģ è½¯çļĦé£Łçī©
è¯± åĽł
èĹ ı
å¤ļåĲĥæ¸ħæ·¡ ç¨Ģè½¯çļĦé£Łçī©
ï¼ ħ
çļĦ é£İéĻ©è¯Ħä¼°åĽłç´łæľīäºĽä»Ģä¹Ī
æŀ £
çĶ¨ ç§¯æŀģçļĦå¿ĥæĢģåİ»
åľ¨ åĮ»çĶŁæĮĩå¯¼ä¸ĭ
æİ Į
å°ı çļĦ
å»ºè®® åİ»
æģ Ĳ
åģļ ä¸º
è° ±
æĺ¯ä»Ģä¹Ī çĸ¾çĹħ
éĴ ī
åıĺ åĬ¨
ä¸ī æ¬¡
è¾ĵåįµç®¡ ç§¯æ°´
æıĲ ä¾Ľ
ç²¾ç¥ŀ çĬ¶æĢģ
å°¿éģĵ çĤİ
èĦĳæ¢Ĺ æŃ»
çļĦå¦ĩç§ĳ çĸ¾çĹħ
ç»¿ èī²
è¿Ļç§įçĸ¾çĹħ ä¸įæĺĵ
çłĶ ç©¶
çĹħ éŃĶ
ä¸Ģ å²ģ
å¿ Ĩ
åľ¨ æĹ¥å¸¸çĶŁæ´»
ä¸ĭ åŀĤ
ä¸º äºĨ
æĿ¥ æ²»çĸĹ
å»ºè®® çĶ¨
å°¿ çĹĽ
å¦Ĥæŀľ éĢīæĭ©
ç¥ŀç»ı çĹĽ
æĺ¾ åĥı
ä¸ĵ å¿ĥ
ä¸ŃåĮ» æ²»çĸĹ
ç£ ¨
æĺİç¡® è¯ĬæĸŃ
åĳ¼åĲ¸éģĵ æĦŁæŁĵ
è¾¨ è¯ģ
çĭ¼ çĸ®
å¿ĥåĬĽ è¡°ç«Ń
1 7
åĲ ¡
çĸ £
æĺ¯ éľĢè¦ģæľī
ä¸į çŁ¥
åŃ Ĺ
èĥ½ æ²»å¥½
åı¯ä»¥ å¾ĹåĪ°ç¼ĵè§£
åĲİ åĨį
éĢ Ķ
æĬ ¹
æĤ£èĢħ åĪĩå¿Į
ä¸Ń èįīèį¯
ç² ª
æ³¨æĦı çļĦ
éĩı è¡¨
éĺ² æ²»
æł¹ æľ¬
èĥĥ èĥĢ
æĬĹ è¡¡
æĸ¹æ³ķ ä¹Łå°±ä¸įä¸Ģæł·
çĶ· äºº
æķĪæŀľ ä¸į
åīįåĪĹèħº æ¶²
çĽ¸ åºĶ
åĮħçļ® é¾Łå¤´çĤİ
åĽłæŃ¤ æ²»çĸĹ
æ¸© æ°´
ç£ º
éĴĪå¯¹ æĢ§
ç©º èħ¹
è¯´æĺİ ä¹¦
éĻĦä»¶ çĤİ
æľĪç»ıéĩı å°ĳ
ç»ŀ çĹĽ
éĺ¿èİ« è¥¿æŀĹ
çİ» çĴ
çİ»çĴ ĥ
å¤ļ å¹´
ä¹Ł å¾Ī
èº« å¿ĥ
åİ» äºĨ
éĥ½ åı¯ä»¥
åĪĩ æľ¯
åģ¥åº· æ£ĢæŁ¥
èĥĨ ç»ĵçŁ³
å¸ĮæľĽ æĤ£èĢħçĹħæĥħ
æ²»æĦĪ çļĦ
åĬłéĩį çĹħæĥħ
âħ ¡
çģĮ æ³¨
éķĩçĹĽ èį¯
é³ ŀ
éģµ åĮ»åĺ±
éĺ¶ æ®µ
å¹½ éĹ¨
æľ¯åĲİä¸Ģå®ļè¦ģ éĩįè§Ĩèĩªèº«çļĦæĬ¤çĲĨå·¥ä½ľ
å¦ĤæŀľéĢīæĭ© äºĨæīĭæľ¯æ²»çĸĹ
å¸ĮæľĽæĤ£èĢħçĹħæĥħ åı¯ä»¥å¾ĹåĪ°ç¼ĵè§£
ä¼ Ĳ
æīĭ æĮĩ
éĹ´ éļĶ
åı£ åĲĲçĻ½æ²«
ç« Ł
èĭ ı
çī¹ åıĳæĢ§
çº¢ éľīç´ł
æ¹¿ çĥŃ
éĺ¿ åı¸
æĮī çħ§
åģı çĺ«
å®ľ é£Łä»Ģä¹Ī
æĶ¹åĸĦ çļĦ
ä¸įæĺ¯å¾Ī å¥½
é½ Ĳ
æĨ ĭ
ä¹Ĳè§Ĥ çļĦå¿ĥæĢģ
çĨ¬ å¤ľ
4 5
å ļ
çļĦ èį¯çī©æ²»çĸĹ
æĢ§ æ¿Ģç´ł
å¿ Ļ
åĲİ å°±
æīĭ èĦļ
åĩº éĻ¢
çŃī åĪºæ¿ĢæĢ§é£Łçī©
çº ª
åģļ çļĦ
å°¿ éħ¸
éĺ´ èĻļ
èĩª æĪĳ
æ°Ķ èĤ¿
åĬŁ æķĪ
æł¹æį® æĤ¨çļĦ
æĺĵ åĲ¸æĶ¶
é»Ħ é»ĦçļĦ
ä½Ĩæĺ¯ ä¸ĢèĪ¬æ²»çĸĹ
å·¦ æ°§æ°Łæ²ĻæĺŁ
ç²Ĵ ç»Ĩèĥŀ
çĽĲ æ°´
æĤ£èĢħè¿ĺ éľĢè¦ģæľīçľĭéĩį
åĬłå¼º èĲ¥åħ»
æľĢåĲİ ç¥Ŀ
åĵºä¹³ æľŁ
éŁ§ å¸¦
èĶ¬èıľåĴĮ æ°´æŀľ
éĺ¿å¥ĩ éľīç´ł
éĥ½éĿŀå¸¸ å¤§
? ?
è ¤
æľī çĤİçĹĩ
çĤİ æĢ§
ä¸Ĭ æľī
æĢİä¹Ī å¤ĦçĲĨ
éĹ´ çĽĺ
åĲĮ ç§į
ä¸Ķ æ²»çĸĹåĲİ
åıĺ æĢ§
éħ¸ éĴł
è¿ĳ æľŁ
å§ ĳ
åıĹ ä½ĵ
èĩªå·± æĺ¯åı¯ä»¥
éģ¿åħį è¾Ľè¾£
é¼» çĤİ
å¤ª è¿ĩ
å¥³æĢ§ ä¸įåŃķ
èĤļåŃĲ çĸ¼
ç¼© çŁŃ
åıĳèĤ² ä¸įèī¯
æĬ½ åĬ¨
è¡° å¼±
éĹŃ å¡ŀ
åº·å¤įçļĦ åĩłçİĩ
è¦ģå¤ļ çľĭéĩį
èŀºæĹĭ CT
ç´§æĢ¥ éģ¿åŃķèį¯
åĪ¤ æĸŃ
æĪĺèĥľ çĹħéŃĶ
éĺ¿åı¸ åĮ¹æŀĹ
èĩªå·±æĺ¯åı¯ä»¥ æĪĺèĥľçĹħéŃĶ
èĩªå·±æĺ¯åı¯ä»¥æĪĺèĥľçĹħéŃĶ çļĦ
æĺ ł
åı¯ èĢĥèĻĳ
å¼ ĵ
æīĭ æ®µ
ä¸ĭ èħ¹
é¥ ¥
ä¹Ł æ²¡æľī
æ´» å¤ļä¹ħ
æķĪ çĶ¨
éĿ¢ å¯¹
æµģ è¡Ģ
å² Ķ
éħ¸ éĴ¾
åŃ¦ æ£ĢæŁ¥
é¡ ¿
é£İ å¯Ĵ
èĩªèº« åħįçĸ«
æľįçĶ¨ èį¯çī©
èģ Į
å¹¶ä¸Ķ æ³¨æĦı
çł´ åĿı
èĦ¾ èĥĥ
åĿĲ æµ´
æģ°å½ĵ çĶ¨èį¯
ä¼ĺ è´¨
ç½®æį¢ æľ¯
ä¸İæŃ¤åĲĮæĹ¶æĤ£èĢħè¿ĺ è¦ģæ³¨æĦı
åĽłæŃ¤æ²»çĸĹ ä¸Ńä¸Ģå®ļ
å¤ļ åģļ
æŁ¥ æĺİ
ä¸ĭ éĿ¢
ä½ľ ä¸º
èĬ Ŀ
åĮħ åĿĹ
èº«ä½ĵ çļĦ
åģ¥åº· æķĻèĤ²
åºĶè¯¥ æĢİä¹ĪåĬŀ
çľ¼ çĲĥ
ç¼ĵè§£ çļĦ
æĽ´ å¥½
è½¯ ç»Ħç»ĩ
çļĦåıĳçĹħ å¹´é¾Ħæĺ¯å¤ļå°ĳ
åħ·ä½ĵ æĥħåĨµ
éĤ£ä¹Ī å°±è¦ģåıĬæĹ¶
å¯Ĩ åĪĩ
åħ¶å®ŀ å¾ĹäºĨ
çĹħæĥħåıĬ åº·å¤įçļĦåĩłçİĩ
ä¸Ĭè¿°çļĦçŃĶæ¡Īåı¯ä»¥å¸®åĬ©åĪ° ä½ł
å¤ ¹
æĹ ¢
æĢ§ è´¨
æĪ ª
åı¯ä»¥ éĢīæĭ©
æĬ ±
å°± æľī
çŃī åĽłç´ł
è¿ĺ æ²¡
å»ºè®® åı£æľį
ä½İ çĽĲ
æŃ¢ è¡Ģ
èĢĮä¸Ķ åĨħè¡£
èĩªèº« é¥®é£Ł
æĢ»æĺ¯ æĦŁè§ī
ç§¯æŀģ äºĴçĽ¸éħįåĲĪ
ç²ĺ æ¶²
æĲ Ń
çļĦåİŁåĽł æĺ¯ä»Ģä¹Ī
äººæµģ åĲİ
æľ¬äºº ä¸ĭä½ĵ
åĪ°æŃ£è§Ħ åĮ»éĻ¢
ä¸ĬæĢ»æĺ¯ é»Ħé»ĦçļĦ
ä¸Ķæ²»çĸĹåĲİ å®¹æĺĵçĹħåıĳ
çĹħæĥħåıĬåº·å¤įçļĦåĩłçİĩ éĥ½éĿŀå¸¸å¤§
èĢĮä¸ĶåĨħè¡£ ä¸ĬæĢ»æĺ¯é»Ħé»ĦçļĦ
æľ¬äººä¸ĭä½ĵ çī¹åĪ«çĹĴ
2 8
Ġ æĽ¾ç»ıçļĦæ²»çĸĹæĥħåĨµåĴĮæķĪæŀľ
äº ı
åĪ ®
ä¸į éĢļ
å¤ļ æ¬¡
å· Ŀ
æĦı å¤ĸ
æīĭæľ¯ æĳĺéĻ¤
ä¸º å¥½çļĦ
å¼ķ äº§
å°ĳ åĲĥè¾Ľè¾£
æ¶Ī æ¯Ĵ
ç¡® ä¿Ŀ
ä¸įè¦ģ éģ¿
åıį æĺł
æİĴ åĩºæĿ¥
æĺ¾ èĳĹ
å®ŀæĸ½ æķĳæ²»
é¼» åĴ½
çĻ½å¸¦ å¢ŀå¤ļ
æĦīå¿« çļĦå¿ĥæĥħ
æ´»è¡Ģ åĮĸçĺĢ
å¿µ çıł
2 3
çļĦ çĶŁæ´»
å° ģ
çĤ ¸
åĴĮ æ²»çĸĹ
ä¸Ń å¿ĥ
åĳ ĺ
åĲĥ è¿ĩ
åĮħ è£ħ
å¥³ åĦ¿
æīį åı¯ä»¥
å®ŀ éªĮ
å§ ľ
æ¢ ¦
å¤ª éĺ³
éĢī çĶ¨
åıĮ æĸ¹
éĢĢ çĥŃ
å¸¸è§Ħ æ£ĢæŁ¥
åı¶ éħ¸
äº¢ è¿Ľ
è®¤ä¸º è¿Ļæł·ä¸Ģå®ļèĥ½
ä¸ĢçĤ¹ åĦ¿
æĢ§åĪ« åĢ¾åĲĳ
è®° å¿Ĩ
å¦Ĥæŀľä¸įåıĬæĹ¶æ²»çĸĹ ä¼ļå½±åĵįåĪ°
æĢ§åĪ«åĢ¾åĲĳ æĺ¯åķ¥
å Ĥ
åĬ ²
åľ Ł
é£Ł è¾Ľè¾£
è¿Ļ ä¹Ī
å¾Ī ä¹ħäºĨ
å¹´ åīį
è¯´ æĪĳ
éĥ½ æ²¡
æ¸ħ å®«
ä¸¥éĩį èĢħ
åĽŀ çŃĶ
æİ§åĪ¶ çĹħæĥħ
æĤ£èĢħåľ¨ æ²»çĸĹ
ç¦» åŃĲ
æĺ¯ä¸Ģç§į å®¹æĺĵçĹħåıĳ
å°¤åħ¶æĺ¯ æĬ¤çĲĨæĸ¹éĿ¢
çī©çĲĨ éĻįæ¸©
å¹¶ä¸į åı¯æĢķ
ä»¥æŃ¤æĿ¥ å¢ŀå¼ºä½ĵè´¨
æĺ¯ä¸Ģç§įå®¹æĺĵçĹħåıĳ çļĦå¦ĩç§ĳçĸ¾çĹħ
ĳ å°¾
ä¸ §
æľī æĹł
éĺ ĳå°¾
å¿ĥ è¡Ģç®¡
å¯¹ ä½ł
åĵ ¥
æ¸ ´
åº· åĶĳ
èĥĥ çĹĽ
æĬĹ æĦŁæŁĵ
åĬŁèĥ½ æĢ§
åıį å°Ħ
ä¸ī ç»´
åīįåĪĹèħº åĽĬèĤ¿
ä»ĸ æ±Ģ
åĵª ç§į
èĲ¥åħ» ä¸įèī¯
é¼» èħĶ
é¼» çª¦
10 0
æĺİç¡® çĹħåĽł
éĿĴ éľīç´ł
æĹ©æĹ¥ æģ¢å¤įåģ¥åº·
æĤ£èĢħåı¯ä»¥ åľ¨
è¯Ħ ä»·
å¹¶ä¸ĶæĹ¥å¸¸çĶŁæ´»ä¸Ń è¦ģ
çĹ Ĭ
ä¹ Ŀ
åı¯ä»¥ ä½¿çĶ¨
æĿ Ĳ
å¿ĥ æħĮ
å¯¹ æĤ£èĢħçļĦ
æĦı ä¹ī
èĻ ¾
èĦĳ èĲİç¼©
èĤ¾ çĽ
çļĦæ²»çĸĹ æĸ¹æ¡Ī
å¸¦ çļĦ
çī¹ å¼ĤæĢ§
å§ ¿
ç¥ŀç»ı åĨħç§ĳ
åĮħçļ® çİ¯
åĬ¨èĦī ç¡¬åĮĸ
å¥³æĢ§ éľĢè¦ģæľīçľĭéĩįèĩªèº«çļĦæĬ¤çĲĨ
ä¸ŃåĮ» ä¸Ńèį¯
æĦıè§ģ å»ºè®®
å¤ĸéĺ´ çĺĻçĹĴ
èĦ± ä½į
âĢĿ ï¼Į
æĬĹçĶŁç´ł æ²»çĸĹ
æµģäº§ åĲİ
ä¸Ģæł· çļĦ
éĹŃ ç»ı
åĩĨ ç¡®
æİ¥åıĹ æ²»çĸĹ
ä¸¹ åıĤ
æľīå½±åĵį åĲĹ
æĺ¯ä»Ģä¹Īçĸ¾çĹħ çļĦçĹĩçĬ¶
2 1
9 0
ãĢ ĭ
å¤ļ ä¸º
çİ ©
åī Ķ
æĪĳ ä¹Ł
å¤§ äºĨ
åĬ¨ åĬĽ
å®« åĨħ
åı¯èĥ½ æĺ¯ä»Ģä¹Īçĸ¾çĹħçļĦçĹĩçĬ¶
é¡ ¶
è½¬ æ°¨
èĤĽ è£Ĥ
çĲĥ èĽĭçĻ½
è¡Ģæ¶² å¾ªçİ¯
éļĶ ä»£
ä¸ĵç§ĳ åĮ»éĻ¢
æµ¸ æ¶¦
å§ĭç»Īä¿ĿæĮģå¿ĥæĥħ æĦīå¿«
ä¾Ľè¡Ģ ä¸įè¶³
ç§ģ å¤Ħ
åĶĲ æ°ı
çļĦ ä¸Ģ
çļĦ èº«ä½ĵ
ä¸į æĮ¯
åı¯ çĶ±äºİ
åĲİ æľŁ
éķ ģ
è§£ éĩĬ
åĬł å¿«
çĹħæĥħ å¾Īä¸¥éĩį
è¾ħåĬ© æ²»çĸĹ
å¼Ĥ çī©
éĺ´éģĵ åĩºè¡Ģ
æĢĢåŃķ åĲĹ
åıĤ åĬł
æĺİç¡® ç¡®è¯Ĭ
éª¨æĬĺ çļĦæīĭæľ¯æ²»çĸĹæľīäºĽä»Ģä¹Ī
é«ĭ åħ³èĬĤ
çĹĬ æĦĪ
çļĦ çĶ¨æ³ķçĶ¨éĩı
æľī ä¸įåĲĮçļĦ
å¤ļ æĺ¯
éĻ Ī
æĿ ŀ
å¯¹ èĥİåĦ¿
éĿ ¶
åĨħ çĹĶ
çŃī èį¯çī©
èĨ Ī
çĹħåĽł æĺ¯ä»Ģä¹Ī
è· ĳ
è¯ĬæĸŃ ä¸º
æĹ¥å¸¸ é¥®é£Ł
åĽ° æī°
å¤ľ éĹ´
è¡¨çİ°åĩº ä¸º
å¼¥ æ¼«
ä¸įåĲĮæīĢä»¥ éĩĩçĶ¨
å¢ŀåĬłèĲ¥åħ»è¡¥åħħç»´çĶŁç´ł å¾®éĩıåħĥç´ł
3 6
çĹħ ä¾ĭ
è¦ģ ä¿ĿæĮģ
ä»Ģä¹Ī çĸ¾çĹħ
å¤ļ ä¼ĳæģ¯
åĴ Ļ
åį ľ
å¸¸ å¸¸
æĬ ĵ
é¢ ŀ
å¤§ èĤł
æĪĸ åĲĳ
å°¿ æ¯ĴçĹĩ
åİ» æ£ĢæŁ¥
ä½ľ å¥½
æ· Ģ
èĦĳ å®¤
å¹³ åĿĩ
ä¼¤ æįŁ
äºĭ æĥħ
æŃ¢ åĴ³
è¿Ľè¡Į æ£ĢæŁ¥
åģ¥ èĦ¾
éĨ ĭ
èħ° éĥ¨
è¢ ĭ
å¾ĹåĪ° æİ§åĪ¶
éĿŀå¸¸ çļĦ
çº¤ç»´ çĺ¤
éĹŃ åĲĪ
åĸī åĴĻ
å¹¿ æ³Ľ
æĶ¯æĮģ æĢ§æ²»çĸĹ
æĺĵæ¶ĪåĮĸ æĺĵåĲ¸æĶ¶
éľĩ é¢¤
æł¹æį®ä»Ķç»Ĩæ£ĢæŁ¥ç»ĵæŀľåĨį èĢĥèĻĳ
åľ¨æĹ¥å¸¸çĶŁæ´» é¥®é£Łä¸Ń
æĺĵæ¶ĪåĮĸæĺĵåĲ¸æĶ¶ é¥®é£Ł
ãĢ Ĭ
è¦ģ åģļ
å¼ Ł
çĻ «
å¤© å·¦åı³
éĹ´ è´¨
åĪĨ åŃĲ
çĻĮ åıĺ
èħ¹ èĨľ
æ°Ķ èĻļ
åĬł åĩı
æľ¬ æĸĩ
åıĹ ç²¾
èĤī çĺ¤
åº·å¤į éĢŁåº¦
åıĳçİ° èĩªå·±
èĤĽ èĤł
ç«ĭ åĪ»
åıĬæĹ¶æ²»çĸĹ æĺ¯åı¯ä»¥åĩıä½İçĹħåıĳ
æĪĴ æİī
æľįé£Ł èį¯çī©
åīĸ å®«
éĢı æĺİ
æ·ĭå·´ç»ĵ èĤ¿å¤§
èī¯æĢ§ èĤ¿çĺ¤
å¤ļåĲĥæĸ°é²ľ èĶ¬èıľæ°´æŀľ
æĬ¥ åĳĬ
åľ¨çĶŁæ´»ä¸Ń çĶ¨
a n
ä¸ Ľ
çļĦ ä¹łæĥ¯
æĿ ĥ
ä½ĵ å¾ģ
å¤§ äºİ
éĩį å»º
æ¬ ¢
å¾Ī æĺ¯
å¹´ è½»
æ´» æĢ§
è§Ħ æł¼
ä¸¥ æł¼
ç»Ĩèĥŀ çĺ¤
ç³ĸ çļ®è´¨æ¿Ģç´ł
å¹² ç»Ĩèĥŀ
å°Ħ é¢ĳ
çĻ«çĹ« çĹħçļĦ
ç»Ļ æĪĳ
å¼º çĽ´
å¼ł åĬĽ
åħħ åĪĨ
ç¬¬ ä¸Ģ
æ¤İ ä½ĵ
å¯Ł è§ī
éĿĴ åħī
æ½® æ¹¿
åĿĩè¡¡ èĲ¥åħ»
2 6
b è¶ħ
è ¤Ĳ
ä¸ ¾
æĺ Ķ
ä¼ ı
æĸ ¯
æ£ĢæŁ¥ åĩº
ä¸Ĭ éĿ¢
åĲĥ ä¸ĢäºĽ
è¿ĩ äºİ
çľĭ äºĨ
çľĭ èį¯åĵģ
å¹³ æ»ĳ
è¯· åıĤ
è¯¥ å¦Ĥä½ķ
å®¶ æĹı
èº«ä½ĵ èĲ¥åħ»
èĢĮä¸Ķ è¿ĺ
è¾£ æ¤Ĵ
åıª ä¾ĽåıĤèĢĥ
åıĳçĹħ åİŁåĽł
æ¢ ¨
åŁº åºķ
è§Ĩ ç¥ŀç»ı
å®¹æĺĵ æ¶ĪåĮĸçļĦé£Łçī©
å·²ç»ı æľī
åĬ¨èĦī çĺ¤
éĽ Ħ
åįµå·¢ çĻĮ
éļı å¸¦çļĦ
åĺ Į
é»ĳ èī²ç´ł
æ³Įå°¿ å¤ĸç§ĳ
èĴ Ļ
å¦Ĥæŀľä¸į ç¡®å®ļ
èį¯åĵģ åı¯çĶ±äºİ
æĵį ä½ľ
åİĮ é£Ł
è¯´æĺİä¹¦ æĪĸåĲĳ
åĲĮç§į èį¯åĵģåı¯çĶ±äºİ
åĮħè£ħ è§Ħæł¼
çľĭèį¯åĵģ éļıå¸¦çļĦ
è¯·åıĤ çľĭèį¯åĵģéļıå¸¦çļĦ
è¯´æĺİä¹¦æĪĸåĲĳ åĮ»çĶŁè¯¢éĹ®
è¯·åıĤçľĭèį¯åĵģéļıå¸¦çļĦ è¯´æĺİä¹¦æĪĸåĲĳåĮ»çĶŁè¯¢éĹ®
çļĦ æ²»æĦĪçİĩæĺ¯å¤ļå°ĳ
æľī æ°§
è¿ Ķ
ä¸į äºĨ
æĢ§ æĹ©
ä»Ģä¹Ī æĺ¯
ä»Ģä¹Ī æĹ¶åĢĻ
ä¼ ¸
æ³ ¥
å¥½ åĲĹ
å¤ļ é¤Ĳ
åĨħ èĦı
åĲĪ æĪĲ
åĮ»éĻ¢ æ²»çĸĹ
é«ĺ èĽĭçĻ½
çº ¹
åĬ¨ ä½ľ
èĦĳ çĺ¤
æ¶Ī éĢĢ
æµģ æĦŁ
èĤº æ°ĶèĤ¿
ä¸»è¦ģ æľī
ç»Ļ ä¸İ
åıĹ å¯Ĵ
èĥĨ éģĵ
åĹ Ŀ
èĥ¸ åı£
äºĮ åįģ
éĿĻèĦī è¡Ģæłĵ
æļ Ĺ
åįĬ ä¸ªæľĪ
æľīåĵªäºĽ çĹĩçĬ¶
çĶ²çĬ¶èħº ç»ĵèĬĤ
è±Ĩ èħĲ
æµ· ç»µ
æ³Įå°¿ ç³»ç»Ł
çŃĽæŁ¥ æľīäºĽä»Ģä¹Ī
è¸ ı
åħħè¶³ çļĦ
éĿĴåħī çľ¼
â ĳ
æĦ ¿
å¤ļ å¤§
å· ŀ
å¿ĥ çİĩ
é« Ĥ
åŃķ åĽĬ
éĴ ¢
å¢ŀ åİļ
éħ¸ çĹĽ
æĮĩ æłĩ
æľĪç»ı æĿ¥
èĢģ äºº
éĤ ª
å¦Ĥä½ķ æľī
çĶµ è§£
ç»´çĶŁç´ł C
èİ ²
å¸¸è§Ħ æĬ¤çĲĨ
æ½ ľ
ç¢İ çŁ³
æ±¡ æŁĵ
HC G
å¾Īé«ĺåħ´ ä¸º
æľīæ°§ è¿ĲåĬ¨
c t
åĽ ¢
æ³ °
ç§ ĭ
æĿ ı
å¤§ ä¸īéĺ³
åĦ¿ ç§ĳ
åĪĨ æĪĲ
å¦Ĥæŀľ ä½ł
è¯´ èĩªå·±
éĢļ é£İ
æĦŁè§ī åĪ°
ä¸ĢçĽ´ åľ¨
åĪ© çĶ¨
å¤ĸéĺ´ æ¸ħæ´ģ
æ¯Ľ ç»Ĩ
èĻ« çĹħ
ä¸ªäºº çļĦ
çĵ£ èĨľ
è¡Ģå°ıæĿ¿ åĩıå°ĳ
éī´åĪ« è¯ĬæĸŃ
åĮĸèĦĵ æĢ§
. ï¼Į
Ŀ åįľ
ä¸į åĲĥè¾Ľè¾£
ä¸į è§ĦåĪĻ
ä¸Ģ æĹ¥
å¥½ äºĽ
æ° ®
å· ©
æĤ£èĢħ éľĢè¦ģæľī
æĤ£èĢħ å¹´é¾Ħ
åĳ Ĩ
ç®¡ çĶ¨
åĬ¨ æĢģ
èĨ ¨
ä¹³ éħ¸
åŀ ¢
åħ¨ éĥ¨
èĭ Ķ
ç±» ä¼¼
ç¼ĵ éĩĬ
çĿĢ æĢ¥
æŀģ åĨ·
å±Ģéĥ¨ çļĦ
æ¸© åº¦
å¿Į é£Łä»Ģä¹Ī
çĶ²çĬ¶èħº çĻĮ
ä¹Łæĺ¯ å¾Ī
èĤ¥ åİļ
åģı é«ĺ
åŃĲå®«åĨħèĨľ çĻĮ
æ²Ł éĢļ
åľ°é»Ħ ä¸¸
ä¼Ĳ ä»ĸæ±Ģ
çĶµè§£ è´¨
¾ è§£
çļĦ å°ı
çĹ £
æľī éĹ®é¢ĺ
æľī è§Ħå¾ĭ
ä¸į æĢİä¹Ī
åı¯ä»¥ åĲĹ
ä½ĵ åĬĽ
æĪĳ åĴĮ
ä¸ĭ åįĪ
éħ Į
çº ¾è§£
èĩª ä½ĵ
åĢ į
çĽ´ å¾Ħ
èĤº åĬ¨èĦī
åŀĭ èĤĿçĤİ
çģ °
ç³» èĨľ
å½¢ æĢģ
ä¸ĢçĽ´ æ²¡
éĺ³ èĻļ
å±Ģéĥ¨ æ²»çĸĹ
æİ¥ ç§į
è¦ģæ³¨æĦı ä»Ģä¹Ī
åĮĸçĸĹ æľīäºĽä»Ģä¹Ī
éĹ¨ è¯Ĭ
å¤§ä¾¿ éĢļçķħ
æ³¨å°Ħ çĶ¨
çĻ½å¸¦ å¼Ĥå¸¸
åĴ¨è¯¢ ä¸Ģä¸ĭ
æ°¨ éħ¸
åį¡ åĽł
å¯Ĩ åº¦
âħ ł
æĪĳå®¶ å®Ŀå®Ŀ
çĶ¨ä»Ģä¹Ī èį¯
éĽ¾ åĮĸ
äºĨä¸įå¿ħè¦ģ çļĦå½±åĵį
ä»¥æ¸ħæ·¡é£Łçī© ä¸ºä¸»
çļĦåĩºçİ° ä¸įä»ħä»ħä¼ļå½±åĵį
å²Ķ å¼Ģ
è½¬æ°¨ éħ¶
åīĸå®« äº§
ä¸į ä¸Ĭ
è¦ģ ä¿ĿæĮģèī¯å¥½çļĦå¿ĥæĥħ
éģ Ń
å¿ĥ éĩĮ
çŃī æ²»çĸĹ
è¿ĺ è¦ģæ³¨æĦı
åİ» åģļ
åİŁ åıĳ
èĬ ª
èĥĥ éħ¸
çİ°åľ¨ å·²ç»ı
åīįåĪĹèħº çĤİçļĦ
å§ Ĳ
çĥŃ æķ·
æľĪç»ı æİ¨è¿Ł
æ¡ ¥
æĢĢåŃķ æľŁéĹ´
å±Ģ éĻĲ
çĿ¡ ä¸įçĿĢ
ç¥Ŀ æĹ©æĹ¥åº·å¤į
åĴ½ åĸī
å¿ĥèĤĮ æ¢ĹæŃ»
ç»ĵèĤł çĻĮ
å¯Į åĲ«
ä¾Ŀ èµĸ
çģ¼ çĥŃ
æŀ¸ æĿŀ
èº«å¿ĥ åģ¥åº·
äº ĳ
æĺ¯ éľĢè¦ģ
ä¸į æŃ£å¸¸
æĥ ĳ
ä¸ª å¤ļæľĪ
ä¸º å¥½
çľ ģ
å¤į åĲĪ
çŃī æĥħåĨµ
é«ĺ çļĦ
èµ ¤
éª ĳ
åĪĨ å¸ĥ
æĹł çĹĩçĬ¶
éĩı çļĦ
éª¨ å¤´
æµģ åĩº
åĬŁèĥ½ ä¸įåħ¨
ç¥ŀç»ı è¡°å¼±
éĶ °
æº ¢
ä½¿çĶ¨ èį¯çī©
åħ· å¤ĩ
æĹ©æľŁ çĹĩçĬ¶
å¹¶åıĳçĹĩ æĺ¯ä»Ģä¹Ī
æııè¿° çļĦæĥħåĨµ
åħ·ä½ĵ çļĦ
æĢİæł·çļĦ åįıåĬ©
è¿ĩåº¦ çļĦ
æĤ£èĢħåı¯ä»¥ æł¹æį®åĮ»çĶŁçļĦæĦıè§ģ
æıĲé«ĺ æĤ£èĢħ
ç¾Ĭ è§Ĵ
åľ¨ä¹İ æĢİæł·çļĦåįıåĬ©
æĳĦ åıĸ
èĹ ¤
ä¿Ŀæļĸ å·¥ä½ľ
å¿ĥåĬ¨ è¿ĩ
èĤ¾çĽ Ĥ
åīĶ éĻ¤
æł¹æį®ä»Ķç»Ĩæ£ĢæŁ¥ç»ĵæŀľåĨįèĢĥèĻĳ æ²»çĸĹ
å¯Łè§ī åĪ°
o n
çļĦ æĬ¤çĲĨ
æľī è¿ĩ
çĹħ ç¨ĭ
è¦ģ å°½å¿«
åľ¨ æ²»çĸĹæľŁéĹ´
æĮ ¤
æ´ ¥
å°ı èħ¿
çľĭ ä¸Ģä¸ĭ
å¹³ çīĩ
èĥĥ éĥ¨
æĬĹ åİŁ
éĿ¢ ç¥ŀç»ı
ç¨ ł
åĥ µ
æķĪæŀľ ä¸įå¥½
å®ŀ éĻħ
åĽŀ å£°
åıª å¥½
åıĳçĹħ çİĩ
éħį ç½®
æıĲ åīį
æĹ©æľŁ çļĦ
éĢļè¿ĩ æīĭæľ¯
åĿĩ åı¯
çĽĨèħĶ ç§¯æ¶²
é¥Ń åĲİ
æĸ°çĶŁåĦ¿ é»Ħçĸ¸
å¤ĩ åŃķ
éĻĲ åĪ¶
æ¶Ĥ æĬ¹
ç¡« éħ¸
æ¸¸ ç¦»
æħİ çĶ¨
åĺĮ åĳ¤
e n
æ §
ä¸į æĺİ
æĢ§ çĹħåıĺ
èį ·
æĹ¶ æľº
å¦Ĥ æľī
æīĭæľ¯ åĲĹ
è´ µ
çļ® çĵ£
èĥĥ æºĥçĸ¡
èĤ¾ æ°Ķ
å¥³ æľĭåıĭ
æ¯Ķè¾ĥ ä¸¥éĩį
é»Ħ è¿ŀ
ä½Ĩæĺ¯ æĪĳ
ä¸¤ åĳ¨
ä¸¤ ä¾§
è· Ŀ
æľº ä¼ļ
æĽ´ æį¢
éħįåĲĪ åĮ»çĶŁ
çī©çĲĨ æ²»çĸĹ
èĦ¸ èī²
çĶŁçĲĨ æĢ§
æĪĴçĥŁ æĪĴéħĴ
ä¸įéĶĻ çļĦ
m l
çĸ ¯
è¿ ¹
æĪ ´
æī ¶
æĤ ¬
åı¯ä»¥ åľ¨
æĺ¯ä»Ģä¹Ī æĥħåĨµ
çľĭ è¿ĩ
ç²¾ ç®¡
åĬĽ æ°Ķ
æ¡ ¡
éĤ£ äºĽ
éļ¾ æ²»
åį«çĶŁ ä¹łæĥ¯
ç¼ĵè§£ çĹĩçĬ¶
æ´Ĺ æ¶²
ï¼ī ãĢĤ
æĥ¯ èī¯å¥½çļĦ
åį³ ä½¿
çī¹åĪ« ä¸įèĪĴæľį
æī© å¤§
çļĦåıĳçĹħ æĢ§åĪ«åĢ¾åĲĳæĺ¯åķ¥
åĩĿ è¡Ģ
æħ¢æħ¢ ä¼ļ
ç®Ģ åįķ
æ¨¡ å¼ı
å¥¥ ç¾İ
æĥĬ åİ¥
çļĦè¯ĬæĸŃ æĺ¯ä»Ģä¹Ī
å½©èī²å¤ļæĻ®åĭĴ è¶ħå£°
2 2
D NA
åĪ Ĵ
ä¸į çķħ
çĹħ çĹĩ
èĥ½ åĲ¦
çĶ¨ åĬĽ
æĪĳ èĢģåħ¬
è¿Ļ æĺ¯æĢİä¹ĪåĽŀäºĭ
ä¸Ń è¥¿åĮ»
åĲĥ å¥¶
åīį åĲİ
æĪĸ çĹħåĽł
å¹´ çºª
è¶ ¾
è¡¨ è¾¾
è§£ çŃĶ
çŁ¥ è¯Ĩ
ä»ĸ çļĦ
è¡Ģç®¡ åĨħ
è¡Ģç®¡ éĢłå½±
æģ¢å¤į æŃ£å¸¸
æĢİæł· æ²»
èĶ ĵ
äº¤ åıī
éº» çĥ¦
æµĭ å®ļ
æ·ĭå·´ ç»Ĩèĥŀ
ç»ĵèĤł çĤİ
âħ ¢
æ´Ľ èĬ¬
çĶŁåĨ· çļĦé£Łçī©
æ¿Ģåħī æ²»çĸĹ
å¤ļæ³¨æĦı èĩªèº«åį«çĶŁ
çļĦå¤ļåıĳç¾¤ä½ĵ æĺ¯
å¿µçıł èıĮ
ä¸§ å¤±
2 7
3 9
çļĦ åĬŁèĥ½
çļĦ æ£ĢæŁ¥æľīäºĽä»Ģä¹Ī
èĥ «
ä¸į éĢĢ
çĹħ åİŁ
çĹħ åİŁä½ĵ
åı¯ åĩºçİ°
å¥ Ī
çĶŁ èıĮ
æ³ ¼
èį¯ çĲĨ
å¤ļ åĬ¨
èħ ®
åĵ ĳ
æµ Ĭ
å»ºè®® åİ»åĮ»éĻ¢
çĶŁæ´» è´¨éĩı
å¼Ģ æĶ¾
å°Ħ äºĨ
çĻ«çĹ« æĤ£èĢħ
å¹³æĹ¶ çķĻæĦı
åİ»åĮ»éĻ¢ åģļäºĨ
è¿Ļæł· çļĦæĥħåĨµ
æĺ¾ å¾®
ç§¯æŀģ çļĦ
èħ° çĸ¼
éĢīæĭ© ä¸Ģå®¶
è±Ĩ ç±»
èĥİåĦ¿ çļĦ
æº¶ æłĵ
åħŃ åĳ³
åĴĭ åĽŀäºĭ
ä»¥æ¸ħæ·¡ ä¸ºä¸»
æ®ĭ çķĻ
æĻ¨ åĭĥ
ç¼Ŀ åĲĪ
èµĦ æĸĻ
çŁ« æŃ£
èģĮ ä¸ļ
) ï¼Ľ
C M
æĺ¯ ä¸Ģä¸ª
ä¸į è§ģ
åº ı
ä¸Ń åĽ½
ä¸ĭ é¢Į
åĮĸ çĹ°
æ¸ £
æ³¨æĦı ä¿Ŀæļĸ
å°ĳ è§ģ
æ°Ķ èĥ¸
åİĭ çĹĽ
ä½İ èĦĤ
ä½İ è¡Ģåİĭ
æĹ¶éĹ´ çŁŃ
ä¸¥ ä»¤
æ± Ł
è¿Ļä¸ª æĹ¶åĢĻ
æĶ¾ å¿ĥ
èĽ Ľ
æīĵ åĹĿ
ä»¥åħį åĬłéĩįçĹħæĥħ
ä¸ĵä¸ļ æ²»çĸĹ
çĨ ı
ä¹ĻèĤĿ çĹħæ¯Ĵ
00 0
çħ§ å°Ħ
å¸¸çĶ¨ çļĦ
ä½Ĩæĺ¯çĶ±äºİ æĤ£èĢħçĹħæĥħ
èĬĿ éº»
éĴ¢ æĿ¿
éħĮ æĥħ
) ï¼Į
åı ¤
æ² ³
æľī å¥½å¤Ħ
åĮ Ģ
æĹ¶ æľŁ
åĩ ¸
è® ¾
åĴĮ é¢Ħéĺ²
å»ºè®® åıĬæĹ¶
åºĶ åıĬæĹ¶
çľĭ åĪ°
åĨį çĶŁ
èĥĥ çĸ¼
ä¹³ èĨı
åįµ åŃĲ
ç¡® åĪĩ
åıĺ å¾Ĺ
è¯¥ æĢİä¹Ī
éħ¸ æĢ§
å½±åĵį çļĦ
å½±åĵį åĪ°
è¾ĵ ç²¾ç®¡
å¡ «
èĦı åĻ¨
çľ¼ åºķ
æģ¶ åĮĸ
é¼» å¡ŀ
èĤļ èĦĲ
åįķ ä¾§
è¯ķ ç®¡
ä¸įèī¯ åĪºæ¿Ģ
æ¤į éª¨
ä¸įåŃķ çĹĩ
çĹħçĲĨ æĢ§
é£Łæ¬² ä¸įæĮ¯
ä¸´åºĬè¯ĬæĸŃ ä¸Ĭ
èĥ°èħº çĤİ
çĸı æĿ¾
çĪ¸ çĪ¸
ç²¥ æł·
ç¢° è§¦
ç¦ģå¿Į çĹĩ
èĤ¾å°ı çĲĥ
çĳ ŀ
åŃĲå®«åĨħèĨľå¼Ĥä½į çĹĩ
å µ
è ¦
Ġ 4
æ²»çĸĹ å¤ĸ
çĹħ èıĮ
ä»¥ ä¸º
æ£ ī
ä½ł çİ°åľ¨
ä¸ª ä½ĵ
è¿ĩ é¥±
ä¹Ł ä¸įå¥½
è¿ĺ åı¯
èį¯çī© æµģäº§
é¥®é£Ł ä¹łæĥ¯
çļ® çĸ¹
èµ· åĪ°
è¾ĥ ä¸º
åı¯èĥ½ æĢ§
èĥĥ çĹħ
æĸ¹æ³ķ æ²»çĸĹ
æīį ä¼ļ
åĩı å°ı
å£ «
åĨįæ¬¡ çĹħåıĳ
ç¾ Ł
åº·å¤į æ²»çĸĹ
æīĭæľ¯æ²»çĸĹ çļĦ
èĢ³ é¸£
ç¦ģ åĲĥè¾Ľè¾£
åĪ°åĮ»éĻ¢ æ£ĢæŁ¥
å®ī æİĴ
åģı é£Ł
ç»Ŀ å¤§å¤ļæķ°
åĴ¨è¯¢ çĽ®çļĦ
æķĻ åŃ¦
è¯¦ç»Ĩ çĹħæĥħåıĬ
çĶĺ èįī
ç£· éħ¸
å¿Įè¾Ľè¾£ é£Łçī©
çĪ¶ äº²
æĸľ è§Ĩ
å¿ĥåĬ¨ åĽ¾
èķ ī
ç²¾åĽĬ çĤİ
é¥®é£ŁçļĦ è°ĥçĲĨ
æ³¨æĦıçļĦ äºĭé¡¹
ä¸¥ä»¤ ç¦ģæŃ¢
Î ²
çļĦ çĹħäºº
çļĦ åį±å®³
çļĦ åĮ»æ²»
æĪ ·
å¿ĥ æĪ¿
åĲĥ äºĽ
ä¹Ł è¦ģæ³¨æĦı
é«ĺ é¾Ħ
é«ĺ éĶ°
å¾Ī çĹĽ
å¾Ī çĸ¼
èº« ä¸Ĭ
åĲĮ äºĭ
æŃ£ åľ¨
éħ¸ ä¸Ńæ¯Ĵ
é¢Ī åĬ¨èĦī
åĪĩ åĭ¿
èĭ ±
åĩł ä¸ª
èĤī èĬ½
åıĳçĶŁ äºİ
é¡ ½
æħ¢æĢ§ çĤİçĹĩ
åįķ ä½į
å¹¶ä¸Ķ çķĻæĦı
å¾ĹåĪ° èī¯å¥½çļĦæ²»çĸĹæķĪæŀľ
ç±³ æĿ¾
çĭ Ĺ
èİ·å¾Ĺ èī¯å¥½çļĦæ²»çĸĹæķĪæŀľ
æ¨ ª
çº¢æĸĳ çĭ¼çĸ®
ä¸İæŃ¤åĲĮæĹ¶æĤ£èĢħè¿ĺè¦ģæ³¨æĦı éĢīæĭ©ä¸Ģå®¶
èħ® èħº
è¦ Ĩ
è¯¦ç»ĨçĹħæĥħåıĬ åĴ¨è¯¢çĽ®çļĦ
é«ĺéĶ° éħ¸éĴ¾
% ï¼Į
å ³
çļĦ ä¸Ńèį¯
çļĦ æĤ£çĹħæ¯Ķä¾ĭæĺ¯å¤ļå°ĳ
ä» Ļ
è¦ģ æĢİä¹Īæ²»çĸĹ
æĤ ¸
èĦ ĸ
åľ º
è¡Ģ æµĨ
éĢ ¸
æĬ ¬
æĪĳ èĩªå·±
å¿ĥ æĤ¸
ä¸Ĭ çģ«
åıĬ åħ¶
æĪĸ çĶ¨éĩı
äºº åıĤ
é«ĺ é¢ĳ
çº ł
å¤´ åıĳ
èĤł ç³»èĨľ
è§£ æĥĳ
æĦŁæŁĵ çļĦæİ¨èįĲèį¯æľīäºĽä»Ģä¹Ī
èĤº ç»ĵæł¸
æ¯Ĵ ç´ł
èº«ä½ĵ æĥħåĨµ
éĤ »
åıĳçĹħ æĹ¶éĹ´
å¤ļåĲĥ äºĽ
ï¼ī ãĢģ
åĪ© å°¿
è¶ħå£° å¿ĥåĬ¨åĽ¾
æµĭ è¯ķ
èĦ± åŀĤ
éģ¿åŃķ å¥Ĺ
æĶ¾å°Ħ æĢ§
çĽĬ çĶŁèıĮ
ä¸ĢæĹ¦ åıĳè§ī
é£Łç®¡ çĻĮ
ä¸įåĲĮçļĦ åĮħè£ħè§Ħæł¼
æľīåħ³ç³» çļĦ
çĶ¨æ³ķ æĪĸçĶ¨éĩı
åĸľ æ¬¢
é»Ħä½ĵ éħ®
çļĤ èĭ·
å§¿ åĬ¿
æľīä¸įåĲĮçļĦ çĶ¨æ³ķæĪĸçĶ¨éĩı
å¼¥æ¼« æĢ§
æľ¬æĸĩ åıªä¾ĽåıĤèĢĥ
åĲĮç§įèį¯åĵģåı¯çĶ±äºİ ä¸įåĲĮçļĦåĮħè£ħè§Ħæł¼
æħ¢æħ¢ä¼ļ æĶ¹åĸĦçļĦ
ç¦ģåĲĥè¾Ľè¾£ éħĴ
åĲĮç§įèį¯åĵģåı¯çĶ±äºİä¸įåĲĮçļĦåĮħè£ħè§Ħæł¼ æľīä¸įåĲĮçļĦçĶ¨æ³ķæĪĸçĶ¨éĩı
ä¸į ä½ı
åĴ ¯
åı¯ä»¥ åĸĿ
åľ¨ å®¶
æĪĳ åľ¨
è¿Ļ ä¸¤å¤©
æĮ ĳ
çĲĨ ä»Ģä¹Īçĸ¾çĹħ
é¥ ¿
å¦Ĥæŀľ æ²¡
è¾ĥ é«ĺ
éĥ½ èĥ½
å¤´ é¢ħ
æĬĹ çĻ«çĹ«
è¯¥ å¦Ĥä½ķæ²»çĸĹ
æĦŁæŁĵ æĢ§
åŃ¦ ä¹ł
çī¹ æķĪ
æĢ¥ è¯Ĭ
æĶ¾ çĶµ
éķľ ä¸ĭ
ç¼º å°ĳ
æ¸ħæ·¡ å®¹æĺĵæ¶ĪåĮĸçļĦé£Łçī©
çĿ¡ åįĪ
éĽ ¶
æł¸ æ¡ĥ
å®ļæľŁ å¤įè¯Ĭ
èĳ ±
è¿Ļæł·æīįèĥ½ å¾ĹåĪ°èī¯å¥½çļĦæ²»çĸĹæķĪæŀľ
è°ĥèĬĤ èº«å¿ĥåģ¥åº·
çĺ¦ èĤī
æĪĳæĥ³éĹ® ä¸Ģä¸ĭ
æ··åĲĪ çĹĶ
åŃ£ èĬĤ
ç©´ ä½į
å¤§å®¶ éĥ½çŁ¥éģĵ
èĥ½æ²» çĲĨä»Ģä¹Īçĸ¾çĹħ
åĭ¤æį¢ åĨħè£¤
è¤Ĳ èī²
ç¾Ĭè§Ĵ é£İ
3 4
çļĦ å¹²æī°
çļĦ ç»Ħç»ĩåŃ¦æ£ĢæŁ¥æľīäºĽä»Ģä¹Ī
ä¸į å¤ļ
ä¸į åĿļ
å¯ Ħ
åį Ĵ
çĻ £
åľ¨ æĹ©æľŁ
ä½ĵ ä½į
æĹ© æĻ¨
èĦĳ ç§¯æ°´
æµģ é¼»æ¶ķ
äº§ åĵģ
æł¹æį® èĩªèº«
æ¯Ĵ æĢ§
å½±åĵį äºĨ
åĩł ç§į
é¡ ¾
éĻį çĶŁ
åºĶè¯¥ æĢİä¹Īæ²»çĸĹ
çķĻæĦı æŃĩæģ¯
éĻ¤äºĨ åıĬæĹ¶æ²»çĸĹ
æ¿Ģç´ł æ°´å¹³
å¤ļåĸĿ çĥŃæ°´
çĶŁæ´»ä¸Ń è¦ģæ³¨æĦı
çĦ¶åĲİ åĨį
æ»´ çľ¼
é¡» æ³¨æĦıçļĦäºĭé¡¹
è¿Ļæł·æīįèĥ½ èİ·å¾Ĺèī¯å¥½çļĦæ²»çĸĹæķĪæŀľ
è¡£ åİŁä½ĵ
çĽ¸åħ³ æ£ĢæŁ¥
èĥĮ éĥ¨
æł¹æį®ä½łçļĦæııè¿° å±ŀäºİ
ä¸įåı¯ä»¥ åĲĥè¾Ľè¾£åĪºæ¿Ģ
éľĢè¦ģæľīéķ¿æľŁ çļĦèį¯çī©
éª¨éª ¼
çİ»çĴĥ ä½ĵ
ç²¥æł· ç¡¬åĮĸ
çĿ¡åįĪ è§ī
3 2
´ çķĻ
çļĦ ç»ĵæŀľ
æĺ¯ æľĢ
è¦ģ çľĭ
å¥½ è±¡
å°± æ²¡
è¿ĩ äºĨ
è¿ĺ éľĢè¦ģæ³¨æĦı
äºº æ°ĳ
å»ºè®® æĤ£èĢħåľ¨
æľĪ åŃĲ
ç»ĵ æīİ
åİ» æ²»çĸĹ
è´ ²
æł· åŃĲ
ç¼ Ķ
èĦĳ èĨľ
æīĢ åĲ«
è§ģ äºİ
äº§ ç§ĳ
ç« ¹
æŃ¤ æĹ¶
è¿Ľè¡Į ç³»ç»Ł
æ¯Ķè¾ĥ å¥½çļĦ
æľĪç»ı æľŁ
ç»Ļ çĤ¹
è¿Ļç§įæĥħåĨµ æĺ¯
éļ¾ ä»¥
æĢ¥æĢ§ æľŁ
ç¬¬ ä¸ī
è®¤ çŁ¥
å¸ĮæľĽ ä¸Ĭè¿°çļĦçŃĶæ¡Īåı¯ä»¥å¸®åĬ©åĪ°ä½ł
çº¦ èİ«
æ½ ´çķĻ
æł¹æį®ä½ł çļĦæĥħåĨµ
çĶŁæ®ĸ éģĵ
é»ı è¿ŀ
èĴ ¸
éļĲ çĹĽ
è¿ľ ç«¯
çĽĳ æĬ¤
çĪ· çĪ·
ä½łæīĢ è¿°
å¿ħè¦ģæĹ¶åı¯ä»¥ å®ļæľŁå¤įè¯Ĭ
éļĶä»£ éģĹä¼ł
åĿĩè¡¡èĲ¥åħ» å¤ļåĲĥæĸ°é²ľèĶ¬èıľæ°´æŀľ
ä¸įåı¯ä»¥åĲĥè¾Ľè¾£åĪºæ¿Ģ çĶŁåĨ·çļĦé£Łçī©
H P
çļĦ èĲ¥åħ»
åı °
ãĢĤ ï¼Ī
æĺ¯ åĵªéĩĮ
æľī äºĨ
ä¸į æ¸ħæ¥ļ
èĢ Ĺ
åı¯ ä½¿
çĶŁ äº§
åģ ¿
å· ¾
éģ ¥
å¿ĥ åĮħ
å¿ĥ ç»ŀçĹĽ
å°± æĥ³
æĦŁ åĪ°
åĪ° å½ĵåľ°
å°¿ å°¿
è¡Į äºĨ
å°ĳ é£Ł
æ°Ķ éģĵ
è§ģ æķĪ
èıĮ ç´ł
èĢĮä¸Ķ å¿ħè¦ģæĹ¶åı¯ä»¥å®ļæľŁå¤įè¯Ĭ
åŁ Ł
æĶ¾ æĿ¾
éĺ´éģĵ çĤİçļĦ
ä¼ł å¯¼
èĪĴ éĢĤ
å¦ĩç§ĳ çĸ¾çĹħ
ä¸įåĲĮ ç¨ĭåº¦
çĶ¨èį¯ æ²»çĸĹ
åĽłæŃ¤ è¦ģå°½å¿«
æŃ£è§Ħ çļĦ
å¿Į å°±è¯Ĭ
çĽ®åīį æ²»çĸĹ
åĽº ç²¾
èĦĤèĤª çĺ¤
å¹³æĹ¶æ³¨æĦı é¥®é£ŁçļĦè°ĥçĲĨ
çĽ¸ä¿¡ å¤§å®¶éĥ½çŁ¥éģĵ
å°ĸ çĵ£
é¢Īæ¤İ çĹħ
ä¼łç»Ł ä¸Ńèį¯
ä¸įå®ļæľŁ å¤įæ£Ģ
çīµ å¼ķ
ä¸įè¦ģéģ¿ å¿Įå°±è¯Ĭ
å¥¥ç¾İ æĭīåĶĳ
èį¯çĲĨ ä½ľçĶ¨
çĶŁæ´»ä¸Ńè¦ģæ³¨æĦı é¥®é£ŁéĹ®é¢ĺ
è´² éĹ¨
åĽłæŃ¤è¦ģå°½å¿« æİ¥åıĹæ²»çĸĹ
ä¸į æ´ģ
å¼ Ħ
å¿ ĺ
åĴ ¸
ä¼ļ éĺ´
æĤ£èĢħ çĹĩçĬ¶
ä¸ĭ èħ¹éĥ¨
èº º
å°¿ åºĬ
ç»ĵ ç¼Ķ
å¼ķ èĩ´
éľĢè¦ģ åģļ
çĿ ĳ
å¦Ĥæŀľ æ²¡æľī
è¿Ľ å±ķ
å¹¶ ä¸įæĺ¯
å°ĳ å¹´
åº¦ çļĦ
éĿ¢ ç§¯
æħ °
å²ģ çļĦ
èħĶ åĨħ
å¹³æĹ¶ éľĢè¦ģ
ï¼ģ ï¼ģ
éĤ£ ç§į
é¢Ħéĺ² åĴĮ
éĴĪ åĪº
æĶ¹ èī¯
åĨ· æķ·
æŃ£è§Ħ æ²»çĸĹ
æľīçĤ¹ çĸ¼
å¿ĥçĲĨ åĽłç´ł
èĥĨåĽĬ çĤİ
é¦Ļ èķī
èĩªå·±çļĦ èº«ä½ĵ
èĤ¾åĬŁèĥ½ ä¸įåħ¨
é£İæ¹¿ æĢ§
çļĦé¢Ħéĺ²æİªæĸ½ æľīåĵªäºĽ
ä»ĭåħ¥ æ²»çĸĹ
è¯Ń è¨Ģ
æ»´èĻ« æĢ§
è¸ı åħ¥
ç»ĵç¼Ķ ç»Ħç»ĩ
çļĦ é£Łåĵģ
äº ¬
çĤ Ĵ
å¼ ¯
èĥ½ æ´»å¤ļä¹ħ
åİ Ĩ
åı¯ä»¥ æ²»çĸĹ
åı¯ä»¥ éĩĩåıĸ
ä¸Ĭ ä¸ªæľĪ
æĺ¯ä»Ģä¹Ī æĦıæĢĿ
èı Ĭ
æĪĲ éķ¿
ä¹³ æ±ģ
ä¸¥éĩį æĤ£èĢħæĿ¥è¯´
å°½ åı¯èĥ½
å¤± ç¦ģ
è¿Ļæł· çļĦ
æĳ Ķ
åıĳçĥ§ çļĦæĥħåĨµ
æķ´ ä½ĵ
åĽ¾ åĥı
äºĶ å¤©
æ²Ļ åĿ¦
çĹħçĲĨ æ£ĢæŁ¥
èĴ ľ
å¤ļç§į ç»´çĶŁç´ł
ç¡Ŀ éħ¸
ä¾Ŀ æį®
æĥ³éĹ® ä¸Ģä¸ĭ
çļĦå¤ļåıĳç¾¤ä½ĵ æĺ¯ä»Ģä¹Ī
çŀ ³
èĿ ¶
ç¦ģå¿ĮçĹĩ æĺ¯ä»Ģä¹Ī
èĦĸ åŃĲ
å¯Ħ çĶŁ
a r
çļĦ çİ¯å¢ĥ
æĢ§ ä¸įåŃķ
è¦ģ åŃ©åŃĲ
è¦ģ æĢİä¹ĪåĬŀ
æĿ ľ
åĩº æ±Ĺ
å¤§ èħ¿
éĿ ©
å¤į åıĳæĢ§
å°ı é¼ł
èĤ¿ çī©
æ³¨æĦı ä»Ģä¹Ī
åĸ ¹
èĩª åĬ¨
éĥ½ è¦ģ
èĤ¾ ç§¯æ°´
æį® ä½łæīĢè¿°
è¿Ľè¡Į æĢ§
ä»Ķç»Ĩæ£ĢæŁ¥ åĩº
æĢĢ çĸĳ
åº·å¤į è®Ńç»ĥ
éĤ£ ä¸ª
ç»¼åĲĪ è¯Ħä»·
éģ¿åħį ä¸įèī¯åĪºæ¿Ģ
èĢ³ å±İ
èĥ¶ è´¨
æľº èĥ½
èĩ³ å°ĳ
å¢ŀå¼º èĲ¥åħ»
éĿĴ å¹´
åĺ §
éĺ´èĮİ åĭĥèµ·
é»ĳ èī²
é¸¡ èĤī
å¸ĥ æ´ĽèĬ¬
å¤ļåıĳç¾¤ä½ĵ æĺ¯
ç±»åŀĭ çļĦ
ä¿ĿæĮģå¿ĥæĥħ æĦīå¿«
çĽ´éĿ¢ å®ĥ
æ¸ħçĥŃ è§£æ¯Ĵ
æł¹æį®åĮ»çĶŁçļĦæĦıè§ģ æĿ¥
éª¨è´¨ çĸıæĿ¾
æ·Ģ ç²ī
åħŃåĳ³ åľ°é»Ħä¸¸
7 5
çļĦ åħ³ç³»
æĺ¯ å®¹æĺĵ
æľī æķĪæŀľ
æľī åı¯èĥ½ä¼ļ
å° ĺ
åľ Ī
åı¯ä»¥ ç»ĻåŃ©åŃĲ
å¤§ åĩºè¡Ģ
ä¸Ń æľŁ
ä¸º å®ľ
è¿ĩ åĬ³
å¤ĸ åĩº
åĪĨ è£Ĥ
æĹ© è¡°
èį¯çī© çļĦ
å¤´ æĺı
æ°Ķ çŁŃ
ä¹ĭ åĵģ
ä¸´åºĬ çĹĩçĬ¶
é¾ Ī
åħĪ åħĨ
çĽ¸ åĲĮ
äºĮ çĶ²
ï¼ī ï¼Ľ
ä¸Ģä¸ª å¤ļæľĪ
çŁŃ æļĤ
æī© å±ķ
èĦ± èĲ½
ä¸ĵä¸ļ çļĦ
æĻļä¸Ĭ çĿ¡è§ī
åĨł èĦī
åĨ³å®ļ ä¸Ģå®¶
åĲ¬ åĬĽ
ç´§å¼ł åĴĮ
å¦Ĭå¨ł æľŁ
å°½éĩı éģ¿åħį
åĩĿ èĥ¶
åŁºæľ¬ ä¸Ĭ
å¦ĩç§ĳçĸ¾çĹħçļĦåĩºçİ° ä¸įä»ħä»ħä¼ļå½±åĵį
è¸ Ŀ
æĻĴ å¤ªéĺ³
æ³Įå°¿ç³» æĦŁæŁĵ
çºµ éļĶ
çĶ¨ç§¯æŀģçļĦå¿ĥæĢģåİ» çĽ´éĿ¢å®ĥ
èĶĵ å»¶
¯ èĭĵ
çļĦ å¸®åĬ©
çļĦ ç®Ģä»ĭæĺ¯
æĺ¯ å¾Ī
èį ¡
æĹ¶ çļĦ
å¼ Ľ
åı¯ä»¥ åİ»
åı¯ä»¥ æľįé£Ł
éģ ĩ
ç»ı éªĮ
åĴĮ åĮ»çĶŁ
å°± å°ĦäºĨ
èħº ä½ĵ
çĸ¼ çļĦ
èĤ¾ çĻĮ
æķĳæ²» çļĦ
çĤ¹ æ»´
ç¡® å®ŀ
æĹ¶éĹ´ è¾ĥéķ¿
æ¯Ķè¾ĥ å¤ļ
åīįåĪĹèħº çĻĮ
åĩł ä¸ªæľĪ
çī¹ å®ļ
ä¸»è¦ģ è¡¨çİ°ä¸º
å¼º çļĦ
åŃĲå®« é¢Ī
æĶ¾ æŁĶ
èĮ ¯èĭĵ
å·² æľī
åħ¥ è·¯
å¤Ħ äºİ
çĶ¨èį¯ æľŁéĹ´
æīĵ äºĨ
å¹¶ä¸Ķ è¦ģå§ĭç»Īä¿ĿæĮģ
æįŁä¼¤ çļĦæİ¨èįĲèį¯æľīäºĽä»Ģä¹Ī
æ¤İ ç®¡
æĪĳä»¬ åºĶå½ĵ
çĻ½å¸¦ å¸¸è§Ħ
é¡¹ çĽ®
å¿ĥèĤĮ çĹħ
æĥħç»ª ç¨³å®ļ
èĴ Ĥ
é¢Ŀ å¤ĸ
èĥ½æ²»å¥½ åĲĹ
èĩªèº«é¥®é£Ł æĬ¤çĲĨ
åıĹç²¾ åįµ
æ»´çľ¼ æ¶²
ä¸į å®¹æĺĵ
ä¸į ç¨³å®ļ
çĹħ äºĨ
ï¼Ł âĢĿ
åıĳ é«ĺçĥ§
åĩ ¹
å¥½ å¤ļ
å¥½ åĳ¢
ä¼ļ å¾Ĺ
åĨħ å®¹
å¤ĸ ä¾§
æĪĸ æľī
é«ĺ åº¦
å¾Ī éĩįè¦ģ
èµ ¶
ç»ĵ æĿŁ
éĹ´ æŃĩ
åİ» ä»Ķç»Ĩæ£ĢæŁ¥
æ³¨æĦı åĬĽ
æ³¨æĦı äºĭé¡¹
è¡Į æĢ§
ä¸ĢèĪ¬ æĥħåĨµ
åĬł åī§
åĪº çĹĽ
ä¹ĭ åĨħ
æ¯Ķè¾ĥ å°ı
ä»Ķç»Ĩæ£ĢæŁ¥ è¯ĬæĸŃ
éĢĤ çĶ¨äºİ
èĥ¸ çīĩ
åĨ· åĨ»
æľīçĤ¹ çĹĽ
åĳ¼åĲ¸ ç³»ç»Ł
æĲ º
å§ĭç»Īä¿ĿæĮģ å¤ĸéĺ´æ¸ħæ´ģ
éĿĴ æĺ¥
å°±åı¯ä»¥ çļĦ
éĴĪå¯¹ æĢ§çļĦ
æµ· é²ľ
æł¹æį®ä½ł è¯´
ç¼ºè¡Ģ æĢ§
ä¸ĵå®¶ å»ºè®®
å®«èħĶ éķľ
å¤ļåĲĥæ¸ħæ·¡ çļĦé£Łçī©
å°ļ æľª
MRI æ£ĢæŁ¥
è´¥ è¡ĢçĹĩ
æ³¼ å°¼
è¯ķç®¡ å©´åĦ¿
åįĴ ä¸Ń
å»ºè®®æĤ£èĢħåľ¨ æĹ¥å¸¸çĶŁæ´»ä¸Ń
6 5
H B
ï¼ į
ä¸į åĩº
ä¸į å®ī
ä»¥ ä¾¿
æĹ¶ å¸¸
åıĳ é»Ħ
æ£ ĺ
åľ¨ æĹ¥å¸¸çĶŁæ´»ä¸Ń
çĺ «çĹ
å°ı ä¸īéĺ³
æĿ¥ äºĨ
è¿ĩ é«ĺ
èħº çĻĮ
éĹ´ éļĻ
åĪĨ åĮĸ
èĦĳ çĤİ
çĹħæĥħ å°½å¿«
äº§ å¦ĩ
ä¾¿ è¡Ģ
ç»Ĩèĥŀ çĻĮ
èĤĮ æĹłåĬĽ
åĩł ä¹İ
å¹³æĹ¶ è¦ģ
ç±» çļĦèį¯çī©
è¾Ľè¾£ é£Łçī©
æħ¢æĢ§ åīįåĪĹèħºçĤİ
å¹¶ä¸Ķ åĲĪçĲĨé¥®é£Ł
æĸ¹éĿ¢ çļĦ
ä¹Ļ éħ°
CT æī«æıı
çļĦåıĳçĹħ åİŁåĽł
ç»Ŀ å¯¹
ç¨³å®ļ çļĦ
èĬ± çĶŁ
èĨĢèĥ± çĤİ
å¼ķæµģ æľ¯
æĹłçĹĽ äººæµģ
çĸ¾ æĤ£
çĸ¤ çĹķ
åĤ ¬
åµ Į
çºł æŃ£
æĮĳ é£Ł
çĺ«çĹ ª
è ł
ä¸į æŃ¢
è¦ģ æ±Ĥ
æĸ ¤
åľ¨ å½ĵåľ°
è¿Ļ éĩĮ
ä¸Ń æĻļæľŁ
å°ı èĦĳ
ç² ®
é«ĺ èĦĤ
åİ» éĻ¤
åŃķ éħ®
éĩı å°ĳ
éĥ½ å¾Ī
æķĳæ²» åĲİ
éĿ¢ èī²
èĭ į
èº«ä½ĵ çĬ¶åĨµ
ç¥ŀç»ı æįŁä¼¤
ç»Ļ ä»ĸ
æ» ¤
ä¸ĢçĽ´ æ²¡æľī
å¤ļåĲĥ æ°´æŀľ
ç¡¬ åº¦
çĿ¡ åīį
åĲĲ å¥¶
éĵ Ĥ
æ»´ æ³¨
çīĻ é½¿
æĥħç»ª æ¿ĢåĬ¨
æł¹æį®ä½ł æīĢ
å½¢æĪĲ çļĦ
åĮ»çĶŁè¯´ æĪĳ
ä»· æł¼
åıªæľīè¿Ļæł·æīįèĥ½ éĻįä½İ
åħ»æĪĲèī¯å¥½çļĦ çĶŁæ´»ä¹łæĥ¯
æ¯Ľç»Ĩ è¡Ģç®¡
é¡½ åĽº
i s
k g
â Ħ
çĹ ´
ä¼ļ æĺ¯
å¤§ åŃ¦
ä¸ĭ çļĦ
è¿ĩ å¤§
çŃī çĸ¾çĹħ
æĤ¨ çļĦæĥħåĨµ
åŃ©åŃĲ å¦Ĥæŀľ
èĬ ¦
æĮģ ç»§
åĮ»çĶŁ ä¼ļ
ä¸įè¦ģ éĶĻ
æĮĩ çĶ²
ç³» åĪĹ
æº ´
ä¸įåĲĮ çĹħåĽł
æĺ¯åı¯ä»¥ åº·å¤įçļĦ
æľīçĤ¹ åıĳçĥ§
éķ¿æľŁ çļĦ
ç³ĸå°¿ çĹħçļĦ
æ²»çĸĹçļĦ å¥½
éĿĴ å°ĳå¹´
éģ¿åŃķ æİªæĸ½
å¤ļåıĳ åľ°åĮº
å½»åºķæģ¢å¤į å¼ķåıĳ
åĪ°æŃ£è§Ħ ä¸īçĶ²åĮ»éĻ¢
äººå·¥ æµģäº§
èĥ°èħº çĻĮ
éĹ¹ èĤļåŃĲ
æĬĳéĥģ çĹĩ
æĤ£èĢħåľ¨çĶŁæ´»ä¸Ń è¿ĺéľĢè¦ģæ³¨æĦı
åĳĬè¯ī æĪĳ
âĦ ĥ
å¤ļåıĳåľ°åĮº æĺ¯åĵªéĩĮ
æľī å¿ħè¦ģ
ä¸į ä½³
è¦ģ æĢİä¹Ī
èĩ Ģ
ä½ĵ ç§¯
å· §
ä¸Ń éĹ´
å¯¹ çĸ¾çĹħçļĦ
ä¸Ĭ èħ¹éĥ¨
åĲĥ å®Į
è¿ĩ æĿ¥
å»ºè®® æľĢå¥½
åĪĨ ç±»
åĪĨ æķ£
çļ® çĤİ
èĤĿ è¡Ģç®¡çĺ¤
æĹł æĺİæĺ¾
å± ĳ
çľĭ è§ģ
ä¸ĢèĪ¬ éľĢè¦ģ
åĽĬ æĢ§
æīĢ æľī
æĹ¶éĹ´ éķ¿
è¿Ľè¡Į æ²»çĸĹçļĦ
å¸¦ æĿ¥
åĸĿ äºĨ
åİ»åĮ»éĻ¢ è¿Ľè¡Į
çº¢ çĤ¹
çĤİçĹĩ çļĦ
åıĳçĹħ æľºåĪ¶
ä¸ĢçĽ´ è§īå¾Ĺ
è¾ĵåįµç®¡ éĢłå½±
éĥ¨ä½į çļĦ
åħĭ æĭī
æ²»çĸĹçļĦ åĲĮæĹ¶
éĩĳ çīĩ
éĩĳ å±ŀ
åĪĽ éĿ¢
å®ľ æ¸ħæ·¡
çļĦæ²»çĸĹæĸ¹æ³ķ æľīè®¸å¤ļ
æľīçļĦ è¯´æĺ¯
éķĩ éĿĻ
èĳ¡èĲĦ çĲĥèıĮ
èĢĲ åıĹ
æ¨¡ ç³Ĭ
æ¯« åįĩ
åĲĮæĹ¶å¤ļ éĩįè§Ĩ
ç¤¾ ä¼ļ
åĵªå®¶ åĮ»éĻ¢
å¼¹ æĢ§
æĢ§æĹ© çĨŁ
å¿ĥåĬ¨è¿ĩ éĢŁ
¹ æŀľ
Î ±
Ġ 5
į éģ¥
ä¸ ĸ
åı ®
çĹ ¢
æĺ¯ ä¸Ģ
æĺ¯ æ²¡
æľī çĹ°
èĤ ĺ
ä¸į çĦ¶
åħ ¼
åĨ ľ
æĥ §
èį¯ æ²»çĸĹ
éĢ įéģ¥
æĤ£èĢħ æĢ§åĪ«
å¤§ åĲĹ
å¯¹ æĬĹ
ä¸Ĭ ç¿»
åĪ° ä½ł
æľį åĬ¡
éķ¿ çļĦ
èĤĿ ç§»æ¤į
èĦĳ ç»Ĩèĥŀ
å¹¶ æ²¡æľī
ä¸ĢèĪ¬ ä¸į
å½ĵ å½Ĵ
æĬĹ åĩĿ
åĬŁèĥ½ çļĦ
äº§ æ£Ģ
æĥ³ åĲĲ
è¶ħ è¶Ĭ
èĭ ¹æŀľ
é»Ħ èĬª
èĢĮä¸Ķ ä¹Łä¸į
å¹³æĹ¶ è¦ģæ³¨æĦı
åķ ī
é¼» åŃĲ
èĤĽ åĳ¨
æł¸ ç£ģåħ±æĮ¯
åĬ³ éĢ¸
æĲ ŀ
çĵ ¶
è¡¥åħħ èº«ä½ĵèĲ¥åħ»
æĸĳ åĿĹ
è±Ĩ åĪ¶åĵģ
æľª è§ģ
èĲİç¼© æĢ§èĥĥçĤİ
çĶĺ æ²¹
çľ¼çĿ ĳ
è§ĦèĮĥ çļĦæ£ĢæŁ¥
åĿł èĥĢ
ç¢³ éħ¸
æĤ£èĢħæľĭåıĭçĲĨåºĶ å§ĭç»Īä¿ĿæĮģ
ä¸Ńè¥¿åĮ» ç»ĵåĲĪ
å¤ļåĬ¨ çĹĩ
çļĦåĮ»æ²» æĸ¹æ³ķä¹Łå°±ä¸įä¸Ģæł·
% ãĢĤ
åĲ ĵ
ä¸į è§Ħå¾ĭ
å¿ ½
éĩ İ
èĥ½ éĩı
è¡Ģ çº¢
è¿Ļ æ¬¡
æĤ£èĢħ çĽ´éĿ¢
å¯¹ åŃ©åŃĲ
ä¸ª å°ıæĹ¶
ç³ Ļ
èĢĮ å¯¼èĩ´
è¿Ľ åİ»
è¾ĥ å¥½çļĦ
åı¯èĥ½ ä¸İ
èĥĥ åı£
ä¸įè¦ģ å¤ª
å¼Ģ èħ¹
çª Ĵ
éĢĤ åºĶ
åĽŀ å®¶
æľ¬ çĹħçļĦ
ä¸»è¦ģ è¿ĺæĺ¯
è¾Ľè¾£ åĪºæ¿ĢæĢ§é£Łçī©
æĻļ é¥Ń
æĹ©æ³Ħ çļĦ
å®ŀæĸ½ ä»Ķç»Ĩæ£ĢæŁ¥
ç¥Ŀ åģ¥åº·
ç»´çĶŁç´ł D
èĥĢ æ°Ķ
æ¢Ĺ å¡ŀ
åįµå·¢ æĹ©è¡°
çªģ åıĺ
çļĦåİŁåĽł å¾Īå¤ļ
èĦ± æ°´
åĿĩ åĮĢ
ä¸»è¦ģæĺ¯ çĶ±äºİ
éĺ´èĮİ å¤´
è¿Ļæł·æīįèĥ½ å¯¹çĹĩæ²»çĸĹ
è¾¹ ç¼ĺ
èİ·å¾Ĺ åº·å¤į
ä¸Ļ èĤĿ
åıªè¦ģ åľ¨æĹ©æľŁ
æĳĦ æ°ı
çĥ¦ èºģ
è®¡ ç®Ĺ
æĤ£èĢħéľĢè¦ģ æł¹æį®èĩªèº«
åĲĮæĹ¶å¤ļ çľĭéĩį
å°¿ä¸į å°½
è®°å¿Ĩ åĬĽ
é»ĳèī²ç´ł çĺ¤
è¿Ľè¡Įç³»ç»Ł è§ĦèĮĥçļĦæ£ĢæŁ¥
çĹħæĥħå°½å¿« åĪ°æŃ£è§Ħä¸īçĶ²åĮ»éĻ¢
èł ķ
æĤ£èĢħéľĢè¦ģæł¹æį®èĩªèº« çĹħæĥħå°½å¿«åĪ°æŃ£è§Ħä¸īçĶ²åĮ»éĻ¢
æĤ£èĢħéľĢè¦ģæł¹æį®èĩªèº«çĹħæĥħå°½å¿«åĪ°æŃ£è§Ħä¸īçĶ²åĮ»éĻ¢ è¿Ľè¡Įç³»ç»Łè§ĦèĮĥçļĦæ£ĢæŁ¥
3 1
çļĦ æĬĹçĶŁç´ł
åĲ Ĭ
æĺ¯ ä¸ª
æľī èĬĤ
è¦ģ ç§¯æŀģ
å¤ļ åľ¨
å¤ļ åĴ¨è¯¢
ä¸Ĭ èĤ¢
ä¸Ĭ åĳ¼åĲ¸éģĵæĦŁæŁĵ
å°± èĥ½
ç² ĳ
åĲĪ çĶ¨
çĹĩçĬ¶ æĺ¯ä»Ģä¹Ī
é«ĺ äºİ
é¥® æĸĻ
é¥®é£Ł ä»¥æ¸ħæ·¡ä¸ºä¸»
æ· »
èĤł èĥĥçĤİ
æ¶Ī èĤ¿
æį® è¯´
ä¸įè¦ģ æľī
çĶ· å®Ŀ
æĮĩ æķ°
å¼Ģ é¢ħ
ä¿ĿæĮģ æ²ŁéĢļ
åŀĭ ç³ĸå°¿çĹħ
éľĢè¦ģæľī åıĬæĹ¶
éĹ®é¢ĺ è¡¥åħħ
éĨ Ľ
çļ®èĤ¤ æ¸ħæ´ģ
éĢĤå½ĵ è¿ĲåĬ¨
å¾ĹåĪ° ä¸ĵä¸ļæ²»çĸĹ
è¡¥åħħ å¤ļç§įç»´çĶŁç´ł
æĶ¯æ°Ķç®¡ æī©å¼ł
äº§çĶŁ çļĦ
å¤ĸä¼¤ æĢ§
èħ¹èħĶéķľ æīĭæľ¯
æ²¹èħ» é£Łçī©
å°±åĮ» è¯Ĭæ²»
ç»¿ è±Ĩ
å°±è¦ģåıĬæĹ¶ å°±åĮ»è¯Ĭæ²»
å¾Īéļ¾ åıĹ
ä¸°å¯Į çļĦ
æĤ£èĢħéľĢè¦ģ å¤ļåĴ¨è¯¢
ä¹ħåĿĲ ä¹ħ
åįł ä½į
èĤ¡éª¨ å¤´
çĹħæĥħä¸¥éĩį å°±è¦ģ
ä¸ĢæĹ¦åıĳçİ° èĩªèº«çļĦçĹĩçĬ¶
æĤ£èĢħèĥ½ å¾ĹåĪ°ä¸ĵä¸ļæ²»çĸĹ
éĢĶ å¾Ħ
æī¶ æŃ£
æĻ¨åĭĥ äºĨ
äººæ°ĳ åĮ»éĻ¢
åĴĮåĮ»çĶŁ ä¿ĿæĮģæ²ŁéĢļ
çªĴ æģ¯
æĤ£èĢħéľĢè¦ģå¤ļåĴ¨è¯¢ ä¸ĵå®¶å»ºè®®
çļ ±
çļĦ éĥ¨ä½į
æľī åĲ¦
ä¸į åĪ©
çĶŁ åŃ©åŃĲ
ä¼ļ å¼ķæĿ¥
çĽ Ľ
æĤ£èĢħ åı¯ä»¥çĶ¨
ä½ł è¯´çļĦ
ä¸ª æĺŁæľŁ
æ´ ĭ
åīį å¤©
å°ı å¿ĥ
åĨħ æľī
çĥ ¯
å¤ĸ çķĮ
èº ¯
æĹ© åıĳçİ°
é¥®é£Ł è¦ģ
èµ· äºĽ
æĪĲ ä¸º
åİŁ åıĳçĹħ
èħ¹ èĨľçĤİ
åĢ ¦
èĨľ ç©¿åŃĶ
åħ» è¡Ģ
åŀ «
å¥³ äºº
ä¸įè¦ģ çĽ²çĽ®
æ¡ ĳ
ä½Ĩæĺ¯ æľĢè¿ĳ
åķ ¼
ä¸¸ è°ĥçĲĨ
çº¢ ç³ĸ
ç¡¬ èĨľ
æĳ Ĩ
ç¼ĵè§£ çĹħæĥħ
è¾ĵåįµç®¡ ä¸įéĢļ
å®Į æĪĲ
äº¤ æµģ
æĤ£èĢħçļĦ æĹ¥å¸¸
æ²»çĸĹçļĦ æĸ¹æ³ķ
ä»¥ä¸Ĭ çļĦ
æ²¹ çĤ¸
çŁŃ æľŁ
åĪļ åĪļ
æ³¡ æ¾¡
å¹²æī° ç´ł
æ¸ħæ´ģ åį«çĶŁ
å¿ĥèĤĮ ç¼ºè¡Ģ
åĸĤ å¥¶
æľ¬äºº æľĢè¿ĳä¸įçŁ¥éģĵæĢİä¹ĪåĽŀäºĭ
åįķçº¯ æĢ§
åıĬæĹ¶æķĳæ²» æĺ¯åı¯ä»¥åĩıä½İçĹħåıĳ
è¿ľ ç¦»
æµĵ èĮ¶
é¡º äº§
é¡º åĪ©
ä¸ĭä½ĵ çī¹åĪ«ä¸įèĪĴæľį
æĪĴçĥŁ éħĴ
ä»¤ å¾Ĺ
éħ° èĥº
åıĶ åıĶ
åį§åºĬ ä¼ĳæģ¯
æĹ©äº§ åĦ¿
éĿ¶ åĲĳ
ç¼ĵéĩĬ çīĩ
éģŃ åĪ°
èĤīèĬ½ èĤ¿
çĹ´ åĳĨ
èĢĮä¸Ķä¹Łä¸į æĻ¨åĭĥäºĨ
è¡Ģçº¢ èĽĭçĻ½
æľ¬äººæľĢè¿ĳä¸įçŁ¥éģĵæĢİä¹ĪåĽŀäºĭ ä¸ĭä½ĵçī¹åĪ«ä¸įèĪĴæľį
© å®¤
æľī å®³
çĹħ çļĦæİ¨èįĲèį¯æľīäºĽä»Ģä¹Ī
ä»Ģä¹Ī èį¯
è¿ĩ é¥¥
æľĢ å¸¸è§ģ
çļ® æįŁ
èĦĳ èĦĬ
éĥ½ æ²¡æľī
æ°Ķ ä½ĵ
å¡ŀ ç±³æĿ¾
çľ¼ ç§ĳ
çİĩ é«ĺ
å¤ª å¤ļ
å¥³æĢ§ æĤ£èĢħåı¯ä»¥å°½å¿«åº·å¤į
å±Ģéĥ¨ åį«çĶŁ
çĶµ èĦĳ
éº» çĸ¹
åģľ ç»ı
éĻĦ è¿ĳ
ç¦» å©ļ
åĲĥä»Ģä¹Ī å¥½
å·® å¼Ĥ
æĽ¾ç»ı æ²»çĸĹ
è®¤ä¸º èĩªå·±æĺ¯åı¯ä»¥æĪĺèĥľçĹħéŃĶçļĦ
èĪĮ å¤´
èĢĲ èį¯
æĤ£èĢħè¦ģ è®¤ä¸ºèĩªå·±æĺ¯åı¯ä»¥æĪĺèĥľçĹħéŃĶçļĦ
æĨ ©å®¤
èĳ¡èĲĦç³ĸ éħ¸
åľĨ å½¢
æĭĨ çº¿
æĪ· å¤ĸ
éľĢè¦ģæľīéķ¿æľŁçļĦèį¯çī© ä¿ĿæĮģ
ä¸įè¦ģéĶĻ è¿ĩ
P D
çļĦ æŃ£å¸¸
çĹ Ĥ
åĲ ī
æĺ¯ è¦ģ
èĤ ¯
åħ Ķ
èħ ķ
è¡Ģ åŀĭ
è¡Ģ ä¸Ŀ
æĪĳ å¾Ī
è¿Ļ ä¸Ģ
è¿ĩ éĩı
è¿ĩ æĢ§çĶŁæ´»
çĥ ¤
æĹ© æ²»çĸĹ
æľĢ å¤§
èĤĿ èĤ¾
èĦĳ ç»Ħç»ĩ
çĹħæĥħ æııè¿°
ä½İ è¡Ģç³ĸ
å£ ³
çĻ«çĹ« çĹħäºº
éĶ Ĳ
åĲĮæĹ¶ çľĭéĩį
å¥½çļĦ å¿ĥæĥħ
æħ¢æĢ§ èĥĥçĤİ
æģ¢å¤į çļĦ
æĪ¿ é¢¤
éĿĻèĦī çĤİ
ä¸įåĲĮ çļĦçĹĩçĬ¶
å¿Į é£Ł
âĢĿ ãĢĤ
éļı æĦı
è¡Ģæ¶² éĢıæŀĲ
åĩºæĿ¥ çļĦ
è¿ĩæķı èĢħ
åĲ¬ è¯´
æĴ ķ
å¦Ĥæŀľä¸į åıĬæĹ¶æķĳæ²»
è¯± å¯¼
å°±è¦ģåıĬæĹ¶ å°±è¯Ĭ
çĽ´éĿ¢ çĸ¾çĹħ
éľĩ èį¡
ä¸ĺ çĸ¹
æģĲ æĥ§
æĲº å¸¦
åĬ³éĢ¸ ç»ĵåĲĪ
I C
çļĦ åĨįæ¬¡åıĳçĶŁ
çļĦ çŃĽæŁ¥æľīäºĽä»Ģä¹Ī
ãĢ ĳ
æĺ¯ å¾ĹäºĨ
çĶŁ æĪĲ
å¤ļ å·´
èħ ĵ
è¾ Ĳ
åı¯ä»¥ åºĶçĶ¨
åĲİ å¤©
æĪĳ åĦ¿åŃĲ
ç´ł è´¨
æĪĸ åħ¶ä»ĸ
è¿ĺ éľĢè¦ģ
æľĢ ç»Ī
è½ ®
èĦĳ ä¸Ńé£İ
çĻ½ çļĦ
ä½į äºİ
çļĦæ²»çĸĹ åĴĮé¢Ħéĺ²
ä¸įè¦ģ é£ŁçĶ¨
çĶ· æĸ¹
åİŁåĽł å¼ķèµ·çļĦ
èº«ä½ĵ æĹ©æĹ¥æģ¢å¤įåģ¥åº·
åīįåĪĹèħº éĴĻåĮĸ
ç¥ŀç»ı æĢ§
çĸ¼çĹĽ æĦŁ
æľĢè¿ĳ æĦŁè§ī
æĶ¾ æħ¢
è· Į
æ¯ı å¹´
ç¼º å¤±
æľĢå¥½ ä»¥æ¸ħæ·¡é£Łçī©ä¸ºä¸»
ç»¼åĲĪ æ²»çĸĹ
æ´Ĺ æ¾¡
çĶ·æĢ§ æĤ£èĢħåı¯ä»¥å°½å¿«åº·å¤į
çĶ¨èį¯ æĸ¹æ¡Ī
åĻ »
ç¬¬ ä¸īå¤©
ç²¾ç¥ŀ ä¸Ĭ
ç²¾ç¥ŀ ç´§å¼ł
æµĭ éĩı
å¢ŀå¼º æĬµæĬĹåĬĽ
åĽĽ ä¸ªæľĪ
èĨĢèĥ± çĻĮ
æľīæĹ¶åĢĻ ä¼ļ
è¡£ æľį
è¿ĩç¨ĭ ç¼ĵæħ¢
æķıæĦŁ æĢ§
åģļå¥½ éĺ²å¯Ĵ
å¾®åĪĽ æīĭæľ¯
çģĮ èĤł
æĤ£èĢħæľĭåıĭ ä»¬
ä»į çĦ¶
ä¸įå¿ħè¦ģ çļĦä¼¤å®³
çĽ²çĽ® é¥®é£Ł
ä¸įæĸŃ å¢ŀå¤ļ
æĤ£èĢħåĪĩå¿Į çĽ²çĽ®é¥®é£Ł
åĽłæŃ¤æ²»çĸĹä¸Ńä¸Ģå®ļ ç§¯æŀģäºĴçĽ¸éħįåĲĪ
è¿Ķ æµģ
éļ¾æ²» æĢ§
ä¸ĢæĹ¦åıĳè§ī èĩªèº«çļĦçĹĩçĬ¶
åĺ§ åķ¶
2 9
o l
Ġ ãĢĤ
çļĦ åīį
çļĦ æ°´
çļĦ æĸ¹å¼ı
æľī äºº
æľī çļĦæĹ¶åĢĻ
æľī å¤ļå°ĳ
ä¸į å»ºè®®
ä¸į ä¸¥éĩį
åĬ ±
è¯ ¾
åĨ Ļ
ä¼ Ĭ
ä¼ ŀ
çİ ī
åľ¨ æľĪç»ı
åĲİ æŀľ
åĲİ åıĪ
åŃĲ ä»ģ
çĬ¶ ä½ĵ
æĤ£èĢħ å°½å¿«
éľĢè¦ģ è§Ħå¾ĭä½ľæģ¯
èį¯çī© çŃī
å¦Ĥæŀľ çĹĩçĬ¶
è½ ´
åı£ èĩŃ
éĥ½ æľīåĵªäºĽ
èĤł çĻĮ
åıĺ å¤§
ä¹ĭ ä¸º
çĶ· æľĭåıĭ
èĤĮ èħ±
å®ŀ è¡Į
èº«ä½ĵ ä¸įèĪĴæľį
è¡¥ æ°Ķ
åºĶè¯¥ åģļåĪ°
çľ¼ çľ¶
è¾ĵåįµç®¡ çĤİ
åı¯èĥ½æĺ¯ çĶ±äºİ
éĵ ľ
æĬ½ è¡Ģ
çº¦ æĿŁ
éĴĪå¯¹ æĤ£èĢħæĿ¥è¯´
åĿĲ éª¨
åİ»åĮ»éĻ¢æ£ĢæŁ¥ ä¸Ģä¸ĭ
åħŃ é¡¹
æ°¯ åĮĸ
éħĴç²¾ èĤĿ
åĨħéķľ ä¸ĭ
ç»ĨèıĮæĢ§ éĺ´éģĵçĤİ
æĬĹèıĮ èį¯çī©
ä¸Ńæŀ¢ ç¥ŀç»ıç³»ç»Ł
ç¤¾ åĮº
æ¢ħ æ¯Ĵ
ç²ª ä¾¿
è®¤ä¸ºè¿Ļæł·ä¸Ģå®ļèĥ½ èİ·å¾Ĺåº·å¤į
æĤ£èĢħåı¯ä»¥åľ¨ çĲĨè§£
æĹ¥å¸¸é¥®é£Ł å¤ļåĲĥæ¸ħæ·¡ç¨Ģè½¯çļĦé£Łçī©
æĿĥ å¨ģ
éĢļé£İ åĴĮ
å°±è¦ģåıĬæĹ¶å°±è¯Ĭ è¯ĬçĹħ
åģļå¥½éĺ²å¯Ĵ ä¿Ŀæļĸå·¥ä½ľ
a l
i c
çļĦ å¸¸è§ģ
çļĦ ä¿¡å¿ĥ
æĺ¯ ä¸įèĥ½
èĤ ±
ä¸į å¥½çļĦ
ä¸į è¶ħè¿ĩ
æ²»çĸĹ äºĨ
æĪ ļ
å¹ ¸
çĶ¨ çĤ¹
å¸¸ æľī
æ¯ ķ
æĸ¹ ä¾¿
å»ºè®® åħĪ
æ¬ ł
åģļ äººæµģ
èº« é«ĺ
åİ» è¿ĩ
èı ĩ
éĴ Ŀ
èĦĳ èĨľçĤİ
ä¿Ŀ èĤĿ
èĤ¾ éĺ³èĻļ
è¯·éĹ® åĮ»çĶŁ
èĤº çĤİçļĦ
è¿ĳ è§Ĩ
å¥³ åŃ©
æ¯Ķè¾ĥ çļĦ
æĬ¤çĲĨ ä¹Łæĺ¯å¾Ī
è¾ħ é£Ł
æ± ī
å¹³æĹ¶ åºĶè¯¥æ³¨æĦı
åľ° å¡ŀç±³æĿ¾
å®«é¢Ī æģ¯èĤī
åºĶè¯¥ åıĬæĹ¶
éĺ²æŃ¢ ä¹ħåĿĲ
æģ¢å¤į éĢłæĪĲ
æķ° æį®
éĿĻèĦī æ»´æ³¨
åħįçĸ« åĬŁèĥ½
ç§» ä½į
åĬ³ åĬ¨
æĵ ħ
é¦ĸ éĢī
æľŁæľĽ çĶ·æĢ§æĤ£èĢħåı¯ä»¥å°½å¿«åº·å¤į
æĻ® åĪ©
ä½ı äºĨ
ä¹ĻèĤĿ çĸ«èĭĹ
éĴĪå¯¹ æĢ§æ²»çĸĹ
æıĲé«ĺ åħįçĸ«åĬĽ
äº² æĪļ
ç¢± æĢ§
å»ºè®®æĤ£èĢħ åıĬæĹ¶
çĶŁçĲĨ çĽĲæ°´
äºĨè§£ ä¸Ģä¸ĭ
é¢ĳç¹ģ çļĦ
åī§çĥĪ è¿ĲåĬ¨
åĲ¦åĪĻ ä¼ļèĩ´ä½¿
å¦» åŃĲ
æĤ£èĢħçļĦé¥®é£ŁçĬ¶åĨµåĴĮ æĬ¤çĲĨä¹Łæĺ¯å¾Ī
æ¯« åħĭ
æ¯« ç±³
æıĴ æīĭ
åī² åĮħçļ®
é¹ ¿
ä½Ĩæĺ¯çĶ±äºİ æĤ£èĢħçĹĩçĬ¶
å±ģ èĤ¡
æĤ£èĢħåľ¨çĶŁæ´»ä¸Ń è¿ĺéľĢè¦ģæľī
åĲĥä¸į ä¸ĭåİ»
å°Ħé¢ĳ æ¶Īèŀį
éĿĴæĺ¥ æľŁ
èĦĳèĦĬ æ¶²
å¦Ĥæŀľä¸įåıĬæĹ¶æķĳæ²» ä¼ļå½±åĵįåĪ°
çļĦæ²»çĸĹåĴĮé¢Ħéĺ² æĸ¹æ³ķ
æģ¢å¤įéĢłæĪĲ äºĨä¸įå¿ħè¦ģçļĦå½±åĵį
S A
ãĢ Ĳ
æĺ¯ æ²¡æľī
ä¸į çĸ¼
ä¸į ç¨³
æĢ§ èħº
æĢ§ èĤºçĤİ
åı¯ åĪĨä¸º
çī ¡
åĲİ èĢħ
æ¯ ģ
å¿ĥ è·³
ä½ł è¿Ļç§įæĥħåĨµ
åĲĥ æĻļé¥Ń
å°± å¥½äºĨ
æĿ¥ éĢīæĭ©
è¿ĩ æĹ©
åĨħ ä¾§
å°¿ è¡Ģ
èĤĿ ç´ł
èı ł
éª¨ çĽĨ
èĤ¾ åĽĬèĤ¿
è¯¥ çĹħ
ä¸¥éĩį æĹ¶
æīį æĺ¯
åīįåĪĹèħº èĤ¥å¤§
ä¿ĿæĮģ ä¼ļéĺ´éĥ¨
å¹³æĹ¶ å¤ļæ³¨æĦıèĩªèº«åį«çĶŁ
ç»Ļ èį¯
æĶ¾ åľ¨
å¸® ä½ł
åıĳçĶŁ åľ¨
æĤ¨å¥½ åĮ»çĶŁ
æħ¢æĢ§ å®«é¢ĪçĤİ
åĽłä¸º æĹ©æľŁçļĦ
å¼Ĥå¸¸ æĶ¾çĶµ
åįģ å¤©
æ·ĭå·´ ç®¡
æ·ĭå·´ çĻĮ
æľīä»Ģä¹Ī å¥½
å¿ĥçĲĨ åİĭåĬĽ
å½»åºķ æ¸ħéĻ¤
æį¢ èį¯
éĺ¿ æīĺ
æĿ¾ å¼Ľ
è¡° èĢģ
æ¯Ľ å·¾
æĤ£èĢħåľ¨ æķĳæ²»
é² ģ
æ»´ èĢ³
æĢĢä¸Ĭ äºĨ
çĶŁæ®ĸ ç³»ç»Ł
å°¿é¢ĳ å°¿æĢ¥
å°Ħç²¾ å¿«
æĤ£èĢħä»¬ ä¸įè¦ģéĶĻè¿ĩ
éª¨é«ĵ çĺ¤
åĭ¤ éĢļé£İåĴĮ
ä»¥éĺ² è¿ĩåĬ³
æĺ¯æĢİä¹Ī äºĨ
åħ»æĪĲèī¯å¥½çļĦ åį«çĶŁä¹łæĥ¯
èī¾ æ»ĭ
åĲ»åĲĪ æľ¯
æĤ£èĢħæĹ¥å¸¸ éľĢè¦ģè§Ħå¾ĭä½ľæģ¯
å¯¹æĤ£èĢħä»¬å¸¦ ç»Ļ
éĵ¾ çĲĥèıĮ
åĮħçļ®çİ¯ åĪĩæľ¯
éĨĭ éħ¸
æĥ¯èī¯å¥½çļĦ çĶŁæ´»ä¹łæĥ¯
äº¤åıī æĦŁæŁĵ
æ²»çĸĹçļĦå¥½ æĹ¶æľº
æĤ£èĢħæľĭåıĭä»¬ åºĶè¯¥åģļåĪ°
æĤ£èĢħä»¬ä¸įè¦ģéĶĻè¿ĩ æ²»çĸĹçļĦå¥½æĹ¶æľº
åĭ¤éĢļé£İåĴĮ å¤ļåĸĿçĥŃæ°´
) ãĢĤ
C O
èĤ Ł
æĹ §
å® £
ä¸į çĪ±
èĥ½ åĸĿ
æ£ Ĵ
åı¯ä»¥ éĢĤå½ĵ
åĳ ĭ
éħ Ĳ
åĨħ éļľ
åĲĪ åīĤ
å¤© æ°Ķ
é«ĺ ä½į
å®ļ éĩı
éª ¤
åĪĨ è§£
è´ ®
é¥®é£Ł å®ľæ¸ħæ·¡
æĹł è®º
çľĭ åĮ»çĶŁ
åİŁ æĿ¥
æł¹ éĥ¨
æµģ è´¨
ä½İ çĥŃ
åħ¨ æĦĪ
è¿Ļä¸ª éĹ®é¢ĺ
åķ ¦
åºĶè¯¥ æĢİä¹Ī
é¢Ħéĺ² æĦŁæŁĵ
å°ıåĦ¿ æīģæ¡ĥä½ĵçĤİ
ä¸ĢçĽ´ æľī
å¤ª å°¼
è¾ĵåįµç®¡ éĢļ
åĻ ľ
çĶ²çĬ¶èħº ç´ł
çĶ²çĬ¶èħº çĺ¤
æĹ¥å¸¸ æ¸ħæ·¡é¥®é£Ł
è¢ Ń
èĤĽ çĺĺ
æķ£ ç»ĵ
åŃĺ æ´»
çº¤ç»´ ç´ł
ä»¥åħį å¼ķåıĳ
å®ĥ çļĦ
çĭ Ĥ
ç½® åħ¥
ç»Ŀ å¤§éĥ¨åĪĨ
å¤ĸç§ĳ çĸ¾çĹħ
åĭĥèµ· ä¸įåĿļ
æĶ¯æ°Ķç®¡ åĵ®åĸĺ
è¿Ł ç¼ĵ
ä¸įè¦ģåĲĥ åĪºæ¿ĢæĢ§é£Łçī©
å»ºè®®æĤ£èĢħ å¤ļçķĻæĦı
æľįèį¯ æľŁéĹ´
èĬ¬ å¤ªå°¼
ç£· èĦĤ
éĺ´éĥ¨ åį«çĶŁ
æ¨¡ åŀĭ
éħĴç²¾ æĢ§
æĥ³éĹ® éĹ®
åĹĵåŃĲ çĸ¼
è´Ł æĭħ
æµħè¡¨ æĢ§èĥĥçĤİ
åļ ¼
è¦ģå¤ļçľĭéĩį èĩªèº«é¥®é£ŁæĬ¤çĲĨ
å¹¶ä¸ĶæĹ¥å¸¸çĶŁæ´»ä¸Ńè¦ģ ä»¥éĺ²è¿ĩåĬ³
éĽ¾åĮĸ åĲ¸åħ¥
è¿ĩåº¦çļĦ ç´§å¼łåĴĮ
èĭį çĻ½
èłķ åĬ¨
æ·» åĬł
å¥½çļĦå¿ĥæĥħ å¯¹çĸ¾çĹħçļĦ
ç²¾ç¥ŀä¸Ĭ è¿ĩåº¦çļĦç´§å¼łåĴĮ
ä½Ĩæĺ¯çĶ±äºİæĤ£èĢħçĹĩçĬ¶ ä¸įåĲĮæīĢä»¥éĩĩçĶ¨
ä¿ĿæĮģä¼ļéĺ´éĥ¨ çļ®èĤ¤æ¸ħæ´ģ
çļĦ åĩłçİĩ
æľī åįıåĬ©
æľī å¼Ĥåĳ³
æĹ º
ä¸į åĩºæĿ¥
ä¸į æķ¢
æ²»çĸĹ åºĶè¯¥
æ²»çĸĹ æĸ¹å¼ı
æĪ Ĭ
åı¯ éĩĩçĶ¨
æĤ ¦
äºĨ ä¸ĢäºĽ
æľ¯ ä¸Ń
åı¯ä»¥ åĪ°åĮ»éĻ¢
è® ¿
æĤ£èĢħ åºĶ
æĤ£èĢħ ä¸įè¦ģ
å¤§ åĮ»éĻ¢
ä¸Ĭ ä¸ĭ
å°± éľĢè¦ģ
ä¸º ä¸»è¦ģ
åĵ ¦
éľ į
å°ı äºİ
å»ºè®® åģļ
æ¬¡ åıĳçĹħ
æ³¨æĦı åį«çĶŁ
èĦĳ ä¾Ľè¡Ģä¸įè¶³
æĪĲ å¹´
åŃ©åŃĲ çļĦæĥħåĨµ
è¾ĥ è½»
ä¿Ŀ åŃĺ
èĤł æº¶
éª¨ éª¨æĬĺ
èĥĥ çª¦
è¯·éĹ® å®Ŀå®Ŀ
èĤº çº¤ç»´åĮĸ
å¸¦ ç»Ļ
èĤ¿çĺ¤ çĸ¾çĹħ
èĮ Ħ
çľ¼ éĥ¨
æħ¢æĢ§ çĸ¾çĹħ
è¿Ļç§įæĥħåĨµ ä¸ĭ
éļ¾ è¿ĩ
æĢ§çĶŁæ´» çļĦ
æīĵ éĴĪ
æĺ¯åı¯ä»¥ çļĦ
æĽ´ åĬł
çł Ĥ
æĬĳ æŃ¢
æķ´ ä¸ª
çīĻ é¾Ī
éģĹä¼ł æĢ§
æ¯ıå¤© éĥ½
åĮ»çĶŁçļĦ çĶ¨èį¯æĸ¹æ¡Ī
çĹĶçĸ® èĨı
èĥĨåĽĬ ç»ĵçŁ³
é»ı æ¶²
å°½æĹ© å°±åĮ»
æľ¨ èĢ³
èĦĲ å¸¦
è¾ĵæ¶² æ²»çĸĹ
æİĴå°¿ åĽ°éļ¾
èĩªèº«åį«çĶŁ æĥħåĨµ
æīŃ è½¬
æĩ Ī
æİ¢ æŁ¥
åĥµ ç¡¬
æ»´èĻ«æĢ§ éĺ´éģĵçĤİ
æł¹æį®ä½łè¯´ çļĦçĹĩçĬ¶
è¿ĩé¥¥ æĪĸ
æĽ¾ç»ıæ²»çĸĹ æĥħåĨµåĴĮæķĪæŀľ
è¾Ĳ å°Ħ
C D
I g
S T
çļĦ åĪºæ¿Ģ
çĹ «
ä¸į ä¸Ģå®ļ
åı¯ åı£æľį
ä»¥ å¾Ģ
åº Ĺ
äºĨ ä¸Ģ
åı¯ä»¥ åĨ³å®ļ
ä¼ļ æľīåĵªäºĽ
å¦Ĥ ä¸ĭ
åĴĮ èĶ¬èıľ
æĮ «
å¾Ī ä¸įèĪĴæľį
çĻ½ åĨħéļľ
èħ¹ å£ģ
ä¸ĢèĪ¬ çļĦ
éª¨ ç§ĳ
èĥĥ ç²ĺèĨľ
æł¹æį® æĥħåĨµ
åıį éħ¸
çīĩ åĴĮ
æ¯Ķè¾ĥ é«ĺ
åĩı èĤ¥
èĭ Ħ
ä¸ī ä¸ĥ
å¦ĩ äº§ç§ĳ
åĩł åĳ¨
çĥŃ éĩı
ä½Ĩæĺ¯ å¦Ĥæŀľ
åĲĮæĹ¶ è¦ģå¤ļçľĭéĩįèĩªèº«é¥®é£ŁæĬ¤çĲĨ
çĿĢ åºĬ
è¿ĺæĺ¯ æľī
è¿ĺæĺ¯ è¦ģ
èĥ¸ èĨľ
éĢł è¡Ģ
èĥİ å¿ĥ
èĲ¥åħ» æĶ¯æĮģ
æľĢå¥½ ä¸įè¦ģ
å¤ļåĲĥ èĶ¬èıľ
å¯Ĵ æĪĺ
è½¯ åĮĸ
åĽĽ å¤©
å½»åºķ æ¶ĪéĻ¤
æį¢ æĸ°
æľŁæľĽ æĤ£èĢħåı¯ä»¥æł¹æį®åĮ»çĶŁçļĦæĦıè§ģ
éŁ Ń
é© ±
åıįå¤į åĩºçİ°
ç§° ä¹ĭä¸º
æº¶ è§£
çĽĬ æ¯į
åİ»åĮ»éĻ¢æ£ĢæŁ¥ è¯´æĺ¯
åĪ°æŃ£è§Ħ çļĦåĮ»éĻ¢
å¤ļç§į ä¸įåĲĮ
æĬµæĬĹåĬĽ ä¸ĭéĻį
æĤ£èĢħä»¬ æĹ©æĹ¥åº·å¤į
èĤ¾åĬŁèĥ½ è¡°ç«Ń
ç¬¬ä¸Ģæ¬¡ éĹ®é¢ĺè¡¥åħħ
æľīä¸Ģå®ļ æķĪæŀľ
å¤ļåĽĬ åįµå·¢
æľºæ¢° éĢļæ°Ķ
å·© åĽº
è¿ĩé¥¥æĪĸ è¿ĩé¥±
A B
P A
Ġ 1
Ġ æĤ¨å¥½
çļĦ çĽ®çļĦ
åı ł
å° º
ä¸į ç®¡
æ²»çĸĹ ä¸Ĭ
æĢ§ æºĥçĸ¡
èĢ ½
åı¯ è¡Į
åı¯ å¯¼èĩ´
èĦ ²
éĹ »
å¦ ¹
è® ¨
çĬ ¬
å¤§ å¤ļ
åĳ Ľ
æĢİä¹Ī äºĨ
å»ºè®® éĩĩçĶ¨
å»ºè®® åĪ°åĮ»éĻ¢
ç»ĵ çĸ¤
éľĢè¦ģ éħįåĲĪåĮ»çĶŁ
æĭ ĩ
æĭ ĸ
çĻ½ éħĴ
å¹¶ æľī
åĬł ä¸Ĭ
åĮ»çĶŁ ç»Ļ
èıĮ ç¾¤
åıĺ å½¢
ä½į åŃĲ
å¥³ å®Ŀå®Ŀ
çĶ· å¥³
ä¿ĿæĮģ å¤§ä¾¿éĢļçķħ
å¹³æĹ¶ ç¦ģåĲĥè¾Ľè¾£éħĴ
æİĴ çŁ³
ä¸¤ å²ģ
åĪ« äºº
çļĦè¯Ŀ åı¯ä»¥
åıª è¦ģåıĬæĹ¶
å¦Ĥä½ķ æ²»
éĻį ç³ĸ
åĮħçļ® åŀ¢
ä¸įæĺ¯ çī¹åĪ«çļĦ
çķĻæĦı é¥®é£Ł
èĲ¥åħ» ç¥ŀç»ı
åıĳçİ° çĹĩçĬ¶
èĢ³ èĨľç©¿åŃĶ
è§Ĥ æ³¨
å®ī ç¥ŀ
åħ¶ä»ĸ çļĦ
ä¼łæŁĵ æĢ§
ä¸įéĢĤ çĹĩçĬ¶
ç¾Ĭ çĻ«
åĵŃ åķ¼
æł¹æ²» æĢ§
èĦ¸ ä¸Ĭ
æĪĳå®¶ åŃ©åŃĲ
åįģåĪĨ éĩįè¦ģ
ä½ıéĻ¢ æ²»çĸĹ
éĺ»å¡ŀ æĢ§
èĤºéĥ¨ æĦŁæŁĵ
ä¸°å¯Į çļĦé£Łçī©
ä¸ĢçĽ´éĥ½ æ²¡
æĬĹçĤİ æ²»çĸĹ
å·¨ å¤§
çģŃ èıĮ
æĤ£èĢħæľĭåıĭçĲĨåºĶ ä¿ĿæĮģèī¯å¥½çļĦå¿ĥæĢģ
æľĢåĲİç¥Ŀ æĤ£èĢħä»¬æĹ©æĹ¥åº·å¤į
é¼»åĴ½ çĻĮ
éħįç½® æķĳæ²»
è¿¹ è±¡
åĴ¯ è¡Ģ
ä¹ħåĿĲä¹ħ éªĳ
éŁŃ èıľ
Â °
â ī
çļĦ æĢ§çĶŁæ´»
æ²» å¥½çļĦ
ä¸į èµ·
ä¸į å¤Ł
ä¸į é½Ĳ
ä»Ģä¹Ī çĹĩçĬ¶
åº Ĩ
æŃ ª
åı¯ä»¥ åįıåĬ©
ä½ĵ çİ°
æ£ĢæŁ¥ ç¡®è¯Ĭ
æĤ£èĢħ æĬĹè¡¡
å¯¹ å®Ŀå®Ŀ
å» ĵ
åĨħ å¤ĸ
åĨħ æľį
çŃī é£Łçī©
åģļ ä¸ĢäºĽ
èħº æł·
ç§į æ¤į
è° ĵ
èĩª è§ī
èĩª ä¸»
å¹¶ åħ»æĪĲèī¯å¥½çļĦåį«çĶŁä¹łæĥ¯
çķ ¥
è§£ åīĸ
èĤº æ³¡
èī¯ æĢ§çļĦ
å¹³æĹ¶ å¤ļ
çĽ¸ å½ĵ
åģ¥åº· æĥħåĨµ
å¤± åİ»
åħ¥ ä¾µ
åĴ³ çĹ°
å¼Ĥå¸¸ çļĦ
èĢ³ çĹĽ
åħįçĸ« çĲĥèĽĭçĻ½
éĻ¤äºĨ åıĬæĹ¶æķĳæ²»
åıĸ çŁ³
çĶ²çĬ¶èħº èĤ¿
èĤļåŃĲ çĹĽ
å®¤ åĨħ
åįµå·¢ åĬŁèĥ½
åı¦ ä¸Ģ
æĤ£èĢħçļĦ åħįçĸ«åĬĽ
å¨ ĥ
çŁŃ æĹ¶éĹ´
è®© æĪĳä»¬
è§Ĵ åĮĸ
åħ¬ åı¸
ç¾İ åĽ½
å¿ĥèĤĮ çĤİ
æĦī æĤ¦
å±Ĥ èŀºæĹĭCT
åģĩ æĢ§
å¹¿ åĳĬ
æĢ§èĦĳ çĹħ
ç¬¬äºĮ å¤©
åį§ ä½į
æŁĲ ç§į
è¿Ľè¡ĮåĴ¨è¯¢ ä¸Ģä¸ĭ
ä¸ŃèĢ³çĤİ èĢ³æľµ
å¥³æĢ§çļĦ åģ¥åº·
èĤ¾å°ı ç®¡
éĴĪå¯¹æĢ§ çļĦæ²»çĸĹ
é³ŀ çĬ¶
å°ģ éĹŃ
åľ¨çĶŁæ´»ä¸ŃçĶ¨ åģıæĸ¹
) ãĢģ
a s
çļĦ åĬŁæķĪ
çĹ ¤
æľī çĽĬ
ä¸į åĬ¨
çĶŁ æ°Ķ
æ³ ³
æŁ ´
å¤ļ æ±Ĺ
æĪĳ ä¸įçŁ¥éģĵ
æĪĳ èĢģå©Ĩ
æĤ£èĢħ å¥³
ä½ł æııè¿°
åıĬ æĮģç»Ń
æģ ©
åĪĨ ç¦»
èµ· æĲı
æĹł çī¹æ®Ĭ
åŃ©åŃĲ è¿ĺ
æ¶² åĮĸ
ä¹ĭ ç±»çļĦ
é»Ħ æ°´
çª Ĺ
ç¥ŀç»ı çĤİ
æľ¬ æ¬¡åıĳçĹħ
ä½Ĩæĺ¯ ä¸ĢèĪ¬
åıĹ ç´¯
ä¸¸ æ²»çĸĹ
éĺ´éģĵ åı£
è¾Ľè¾£ åĪºæ¿Ģ
éĤ£ éĩĮ
è¿ĺæĺ¯ æ¯Ķè¾ĥ
ç¡¬ åĿĹ
åıĳçİ° äºĨ
ç¥Ŀ æĤ£èĢħ
æĢ»æĺ¯ è¯´
æĢ»æĺ¯ åĩºçİ°
éħįåĲĪ èĤłèĥĥ
æ¹ ĸ
éĺ» æĸŃ
ç³»ç»Ł æĢ§
ä¹Ļ åŀĭèĤĿçĤİ
ä»£ åģ¿
è¢« åį´
æķ´ å½¢
å¼ķåıĳ ä¸įåĲĮçļĦçĹĩçĬ¶
åĪļ åĩºçĶŁ
å¼± è§Ĩ
ä¿¡ åı·
ä¹Łä¸į æĥ³
éļĶ ç¦»
åħ± æµİ
æļ´ éľ²
å®¶éķ¿ éľĢè¦ģéħįåĲĪåĮ»çĶŁ
æłĩ æľ¬
å¥½äºĨ ä¸Ģæ®µæĹ¶éĹ´
è¦ģçķĻæĦı é¥®é£Ł
å¤´åŃ¢ åħĭ
çĸı èĤĿ
åĪĽä¼¤ æĢ§
èĩŃ åĳ³
æľĢè¿ĳä¸įçŁ¥éģĵæĢİä¹ĪåĽŀäºĭ æĢ»æĺ¯æĦŁè§ī
å¦ĤæŀľåŃ©åŃĲ è¢«åį´
æĶ¯åİŁä½ĵ æĦŁæŁĵ
é«ĺåİĭ æ°§
çļĦå¥½ ä¹łæĥ¯
æĻºåĬĽ ä½İä¸ĭ
æ© ĺ
æĭį çīĩ
æķĪæŀľä¸į æĺİæĺ¾
æľĢåĲİç¥Ŀ å¥³æĢ§æĤ£èĢħåı¯ä»¥å°½å¿«åº·å¤į
éĺĳå°¾ çĤİ
æĪĴæİī æĢ§äº¤
èĥ« éª¨
å¤ĸåĩº è¿ĲåĬ¨
ä¸įåĲĮçĹħåĽł å¼ķåıĳä¸įåĲĮçļĦçĹĩçĬ¶
éĢįéģ¥ ä¸¸
æľ¬æ¬¡åıĳçĹħ åıĬæĮģç»Ń
éħįåĲĪèĤłèĥĥ åĩıåİĭ
åħ±æµİ å¤±è°ĥ
å¦ĤæŀľåŃ©åŃĲè¢«åį´ ç¡®è¯Ĭä¸º
3 3
C I
e s
Ġ ä½łå¥½
æľī ä¸ĢçĤ¹
èĥ ģ
ä¸į å¯¹
ä¸į é«ĺ
æŁ ¿
èĥ½ å¥½
çĶ¨ æĿ¥
åį ļ
æĿ ¨
æĪĳ å¾ĹäºĨ
è¿Ļ ç±»
åĴĮ å·¥ä½ľ
ä¸Ĭ æµ·
åĵ Ī
å¤ĸ åĳ¨
èµ· çĹħ
æĹł çī¹å®ļ
èĤ¾ éĺ´èĻļ
åĮ»çĶŁ å»ºè®®
éĢļ éģĵ
æķĪæŀľ è¾ĥå¥½
æīį è¡Į
æĸŃ è£Ĥ
çİ°åľ¨ æĺ¯
ä¸ī å¹´
åĳ¨ å²ģ
ç±» é£İæ¹¿
ç±» åĽºéĨĩ
èĤī ç±»
éĺ´éģĵ åĨħ
èĥĨ ç¢±
åĽłç´ł æĪĸçĹħåĽł
äºĮ æ¬¡
æĪĸèĢħ æĽ´æį¢
çĶ²çĬ¶èħº æ¿Ģç´ł
æ¹¿ çĸ£
æįŁä¼¤ çļĦè¾ħåĬ©æ²»çĸĹæľīäºĽä»Ģä¹Ī
æľīä»Ģä¹Ī åĬŀæ³ķ
åģı ä½İ
æĿ¾ æĩĪ
å¸ĮæľĽ æĪĳçļĦ
ä¸ĵä¸ļ åĮ»éĻ¢
åł Ĩ
ç²¾åŃĲ çļĦ
å·® ä¸įå¤ļ
åĲĮæĪ¿ åĲİ
èĥĨåĽĬ æģ¯èĤī
ä¼¤å®³ æ¯Ķè¾ĥå¤§
éļĲ çªĿ
åı¯ä»¥åĲĥ çĤ¹
æ¥ ¼
è¿Ľä¸ĢæŃ¥ æ£ĢæŁ¥
æĸ°é²ľ çļĦ
èĥĮ çĹĽ
æŃ¤å¤ĸ æĤ£èĢħæĹ¥å¸¸éľĢè¦ģè§Ħå¾ĭä½ľæģ¯
ä¹³å¤´ çĬ¶
æĤ£èĢħæľĭåıĭ åºĶå½ĵ
åģľèį¯ æĪĸèĢħæĽ´æį¢
æ¸Ĺ åĩº
èį¯æµģ åĲİ
å¹¶ä¸ĶæĹ¥å¸¸çĶŁæ´»ä¸Ń è¦ģå¤ļçľĭéĩį
åĲŀåĴ½ åĽ°éļ¾
éĻįåİĭ èį¯
æĤ£èĢħè¿ĺéľĢè¦ģéĩįè§Ĩ é¥®é£Łæĸ¹éĿ¢
æĤ£èĢħåĪĩå¿Į åģľèį¯æĪĸèĢħæĽ´æį¢
éĹ´çĽĺ çªģåĩº
åĶĲæ°ı çŃĽæŁ¥
å¹²ç»Ĩèĥŀ ç§»æ¤į
èĩªåĬ¨ åħįçĸ«
æ³¼å°¼ æĿ¾
å¹³æĹ¶åºĶè¯¥æ³¨æĦı å¤ļåĸĿæ°´
ä»¥åħįå¼ķåıĳ ä¸įå¿ħè¦ģçļĦä¼¤å®³
æĤ£èĢħä¸įè¦ģ ä¹ħåĿĲä¹ħéªĳ
å¹¶ä¸ĶæĹ¥å¸¸çĶŁæ´»ä¸Ńè¦ģå¤ļçľĭéĩį èĩªèº«æĬ¤çĲĨ
æĤ£èĢħåĪĩå¿Įåģľèį¯æĪĸèĢħæĽ´æį¢ èį¯çī©æ²»çĸĹ
å ª
çļĦ è¡¨çİ°åĩº
çļĦ æĶ¾å°Ħæ²»çĸĹæľīäºĽä»Ģä¹Ī
åĲ ¹
æĺ¯ å±ŀäºİ
ç» ķ
ä¸į æĺİæĺ¾
ä¸į æİĴéĻ¤
æĢ§ çĹħ
ä¸Ģ ç³»åĪĹ
çĶŁ ç²¾
çĶŁ å®Į
åĩ ĭ
å¯ ¿
ç§ Ĵ
é£ ŀ
çĶ¨ çļĦ
æľ¯ æ²»çĸĹ
æĪĳ è¿Ļ
æĪĳ æĦŁè§ī
åĴĮ åħ¶ä»ĸ
ä¸Ĭ èħ¹
å¤ĸ çº¿
å»ºè®® å°½æĹ©
åĮ»éĻ¢ çļĦ
æ¬ £
å¾Ī æľīå¸®åĬ©
èĪ ħ
å¼ķ å¯¼
æĭ ľ
çļ® å±Ĥ
å¾Ĺ çŁ¥
èĦĳ æ°´èĤ¿
å¢ŀ éķ¿
æ°Ķ åĳ³
èĤł åĨħ
ä¸» æ²»
åĮ»çĶŁ ä½łå¥½
èĤº çĻĮçļĦ
å¥³ æĸ¹
æŃ£å¸¸ äºº
èĭ Ľ
æľ¬ æĿ¥
è¿Ļä¸ª æľĪ
éľĢè¦ģæľī æģ°å½ĵé¥®é£Ł
èĽ ĩ
èĲ¥åħ» åĿĩè¡¡
å¾® å°ı
èĪĴ å¼ł
éĩĮ æľī
çĶ·æĢ§ çĸ¾çĹħ
æ¸© å¼Ģæ°´
ç»´çĶŁç´ł A
ç²¾ç¥ŀ éļľç¢į
å¥¶ æ°´
åĶ ¯
ç¦ģ çĥŁéħĴ
åĽĽ ç»´
åĽ´ äº§
æĭħå¿ĥ çļĦ
ä¿¡ å¿µ
æĺ¯ä¸Ģç§į å¸¸è§ģçļĦ
ç´¯ ç§¯
åĪĿ æŃ¥
èŀº æĿĨèıĮ
èĸ ¯
åıįåıįå¤įå¤į å¤įåıĳ
æ²ī çĿĢ
åıĹåŃķ æĥħåĨµ
åĲĥä»Ģä¹Īèį¯ å¥½
çĽ¸ä¿¡ è¿Ļæł·ä¸Ģå®ļèĥ½
è®¡ æķ°
ç¼ºæįŁ çļĦæīĭæľ¯æ²»çĸĹæľīäºĽä»Ģä¹Ī
åıªæľīè¿Ļæł·æīįèĥ½ æıĲé«ĺæĤ£èĢħ
ä¸įåĪ° çļĦ
èĥ¸èħĶ ç§¯æ¶²
éŀĺ èĨľ
éĺ²æŃ¢è¾Ľè¾£ é£Łçī©
åįĥ ä¸ĩ
å¹½éĹ¨ èŀºæĿĨèıĮ
å¹¶ä¸Ķæ³¨æĦı è¡¥åħħç»´çĶŁç´ł
æĲŃ éħį
é¼»çª¦ çĤİ
åµĮ é¡¿
åıªæľīè¿Ļæł·æīįèĥ½éĻįä½İ æĤ£èĢħæĬĹè¡¡
æĳĦæ°ı åº¦
çĽĬæ¯į èįī
âī ¥
R h
r o
çļĦ æ¯ĽçĹħ
å¤ ®
ä¸į çĹĽ
ä¸Ģ åĲĮ
åĽ Ń
ä»Ģä¹Ī çĹħ
åıĳ äºİ
èħ Į
çĹĩ çļĦæİ¨èįĲèį¯æľīäºĽä»Ģä¹Ī
çĶ¨ äºĨ
çĶ¨ åĲĹ
è¡Ģ åĿĹ
æŁ¥ ä¸Ģä¸ĭ
æł ¡
åľ¨ é¥®é£Łä¸Ĭ
å¿ĥ è¡°
éĥ¨ çļĦ
è¿ĺ éľĢè¦ģéĩįè§Ĩ
äºº åĳĺ
é«ĺ çļĦé£Łçī©
é«ĺ èĦĤèĤª
é«ĺ è¡Ģç³ĸ
é«ĺ æ½®
éĹ´ æĸŃ
èº« çĲĨ
åİ» æŃ£è§ĦåĮ»éĻ¢
èį¯çī© æĿ¥
éĺ´ åĶĩ
è½ ½
åŃ©åŃĲ æľĢè¿ĳæĢ»æĺ¯
çĻ½ çĻ½çļĦ
å¢ŀ æ®ĸ
åĩºçİ° è¿Ļç§įæĥħåĨµ
ä¿Ŀ åħ»
æīĢ å¼ķèµ·çļĦ
ä¼¤ åıĬ
æł¹æį® çĹħæĥħ
åıį èĢĮ
æı ¡
åĳ¨ åĲİ
ç¥ŀç»ı åĬŁèĥ½
å¸® æĪĳ
ä¸ĢäºĽ éĢĢçĥ§èį¯
å¿ħ åĪ©
å®«é¢Ī èĤ¥å¤§
æ¯ı åĳ¨
åĩºè¡Ģ éĩı
éģ¿åħį åĬ³ç´¯
éģ¿åħį çĿĢåĩī
ç»ĵæŀľ æĺ¯
çĶ·æĢ§ çļĦ
è¾ĵåįµç®¡ ç²ĺè¿ŀ
èħ° éª¶
çĶ²çĬ¶èħº çĤİ
èĩ³ äºİ
å¤ļåĸĿ å¼Ģæ°´
çĤ¼ åĮĸ
å®ļæľŁ æ£ĢæŁ¥
åħ¬ åĪĨ
çīĻ åĳ¨
æĴ ĳ
ç¥ĿæĤ¨ æĹ©æĹ¥åº·å¤į
èĴ ²
åįĹ çĵľ
é¢¤ åĬ¨
è¯ķè¯ķ çľĭ
åĹľ çĿ¡
æīĵåĩ» é£Łçī©
åĮĹ äº¬
æĻ¶ çĬ¶ä½ĵ
æĤ£èĢħè¿ĺéľĢè¦ģæľīçľĭéĩį é¥®é£Łæĸ¹éĿ¢
åľ¨æĹ¥å¸¸çĶŁæ´»é¥®é£Łä¸Ń ä¸Ģå®ļè¦ģ
æľĪç»ıæĿ¥ æ½®
ç»ĻçĤ¹ éķĩçĹĽèį¯
è§ģæķĪ å¿«
çŀ³ åŃĶ
åĪĨæķ£ çīĩ
æ¯ķ ç«Ł
èħºæł· ä½ĵ
åĩĭ äº¡
èĭĽ åĪ»
4 9
M S
å «
çļĦ åķĬ
çļĦ åİīå®³
çļĦ éī´åĪ«è¯ĬæĸŃ
äº ī
æľī ä¸Ģä¸ª
è¿ ģ
èĥ į
ä¸į éľĢ
ä¸į å°ĳ
ä¸į æĬ½çĥŁ
è¦ģ å¦Ĥä½ķ
å¥½ å¥½
å¤ļ ç³ĸ
è¡Ģ ä¾¿
æ° ¸
æł Ģ
æĤ£ å¤Ħ
æĿ ¯
ä¼ļ éĢłæĪĲ
æĪĳ å¦Īå¦Ī
è¿Ļ çĹħ
è¿Ļ æĥħåĨµ
å¤§ åīĤéĩı
ä½ł ä»¬
å¯¹ æľ¬åĵģ
å¯¹ äººä½ĵ
å¯¹ å¾ħ
ä¸ĭ åĿł
å°± éľĢè¦ģæľī
ä¸º éĩįè¦ģ
è¿ĩ åĲİ
å»ºè®® åı¯ä»¥
åĮ»éĻ¢ ä»Ķç»Ĩæ£ĢæŁ¥
å¤© å¤©
çº ±
é¥® çĶ¨
æĹ© åº·å¤į
èį¯çī© çĽ¸
æľĢ å¤ļ
éĴ ¡
ä¿Ŀ èĥİ
èĤł éķľ
æĬĹ èĤ¿çĺ¤
è´¨ çĸĳ
ä¹³ ç³ĸ
è¯¥ æĢİä¹Īæł·
ä¾¿ åĲİ
åĪ¶ å®ļ
æīį çŁ¥éģĵ
å®ŀ è´¨
åĩł å¹´
æľĪç»ı å¤±è°ĥ
çļĦçĹĩçĬ¶ æľīåĵªäºĽ
ä¸ªæľĪ å®Ŀå®Ŀ
çķĻ ä¸ĭ
éĿŀ çī¹å¼ĤæĢ§
è½» è½»
èĥİ åģľ
ä¸ĢçĽ´ åĽ°æī°
æĳ ĩ
çİ¯ ç´ł
å®Į åĸĦ
çĶµ è§Ĩ
ç¼© å°ı
æįŁä¼¤ çļĦæīĭæľ¯æ²»çĸĹæľīäºĽä»Ģä¹Ī
å»ºè®®ä½ł æľĢå¥½
çªģ åıĳæĢ§
åĪ°åĮ»éĻ¢ åģļä¸ª
å¿ĥçĲĨ æ²»çĸĹ
èĦĵ æĢ§
éĺ¿ ç±³
æĺ¯åĲ¦ æŃ£å¸¸
èĳ µ
åĲĪçĲĨ èĨ³é£Ł
èĭ¦ åıĤ
èĭ¦ æģ¼
å¤ĩ æĦŁ
ç´¯ åıĬ
æ·ĭå·´ç»ĵ çĤİ
çīĽ èĤī
ç£ģåħ±æĮ¯ æĪĲåĥı
å¤§éĩı çļĦ
çĸı éĢļ
åĿļæĮģ æ²»çĸĹ
ä¸įå¤ª èĪĴæľį
æ¸Ĺ è¡Ģ
éĽĨ ä¸Ń
æ¸¸ æ³³
éĺµ åıĳæĢ§
æ¤įåħ¥ æľ¯
äºĨä¸įå¿ħè¦ģ çļĦå¹²æī°
è¶³å¤Ł çļĦ
è¹ ²
åĬłå¿« åº·å¤įéĢŁåº¦
å¾Īé«ĺåħ´ä¸º ä½ł
ä½İèĦĤ é¥®é£Ł
ä¸įåĲĮç¨ĭåº¦ çļĦ
å¯ĦçĶŁ èĻ«
æĶ¾æħ¢ åº·å¤įéĢŁåº¦
ç¾ĬçĻ« çĸ¯
% -
çļĦ åģ¥åº·
çļĦ å¤§å°ı
ä¸į ä¹ħ
ä¸į ä¸Ģæł·
æĢ§ çĬ¶
æĢ§ åĩºè¡Ģ
åĮ ®
å¤ļ å¤©
èĥ½ åģļ
å¿ĥ èĦĳè¡Ģç®¡
å¯¹ åŃ©åŃĲçļĦ
ä¸Ĭ æ¶ĪåĮĸéģĵ
å»ºè®® å°½å¿«
å¤© åĲİ
ç§į ç±»
éķ¿ å¤§
ä½ľ çĹĽ
èĦĳ å¤ĸä¼¤
è¾ĥ å°ı
å± ı
åı£ æ°´
çĻ½ æľ¯
æ°Ķ æ»ŀ
æĬĹ çĻĮ
åıĬæĹ¶ å¾ĹåĪ°
åıĺ æĪĲ
å¥³ äººçļĦ
åħ¨ éº»
æķĪæŀľ çļĦ
é»Ħ æĸĳ
åŀĭ çļĦ
ä¸įèĥ½ åĲĥ
åıĳçĶŁ çļĦ
åģ¥åº· çļĦ
æ¯ı æĻļ
ç»Ħ çļĦä¸´åºĬè¡¨çİ°æľīäºĽä»Ģä¹Ī
æŀģ å°ĳéĩı
åĹ ³
æģ¢å¤į æľŁ
åĪĻ åºĶ
ç»Ħç»ĩ çļĦ
æĺ¯åı¯ä»¥ ç¨³å®ļçļĦ
çĽ®åīį ä¸ĢèĪ¬æĥħåĨµ
éĿŀå¸¸ æĭħå¿ĥ
æĻķ åĢĴ
æ¯Ľ åĽĬ
ä¾ĭ åģĩ
åĨħåĪĨæ³Į ç´Ĭä¹±
å¤ĸç§ĳ æīĭæľ¯
èĦĬ æ¤İ
è¿ĩåº¦ åĬ³ç´¯
å¥¹ çļĦ
åĨ² åīĤ
æī¾ åĪ°
è¿Ľä¸ĢæŃ¥ ä»Ķç»Ĩæ£ĢæŁ¥
åı£èħĶ çĻĮ
çĽ¸åħ³ æĢ§
çĶŁåĨ· é£Łçī©
ä¾µ è¢Ń
ç²Ĺ ç³Ļ
èĩªèº«æĬ¤çĲĨ å·¥ä½ľ
åı¯ä»¥å¸®åĬ©åĪ° æĤ¨
åĬ¡ å¿ħè¦ģ
éľĢè¦ģæľīéķ¿æľŁ çļĦ
ä¸İæŃ¤åĲĮæĹ¶æĤ£èĢħè¿ĺ è¦ģçķĻæĦı
èĵĿ åħī
çĶľ é£Ł
æł¹æľ¬ ä¸Ĭ
è¤ ¥
ä½İçĽĲ é¥®é£Ł
ä»¥æŃ¤æĿ¥å¢ŀå¼ºä½ĵè´¨ åĬłå¿«åº·å¤įéĢŁåº¦
åĬłåĩı æ²»çĸĹ
èĨ¨ èĥĢ
èĤºåĬ¨èĦī é«ĺåİĭ
å±ĢéĻĲ æĢ§
çĹħåİŁ èıĮ
éĽ¶ é£Ł
å·§ åħĭ
æĲºå¸¦ èĢħ
èıł èıľ
4 2
C R
P E
i l
è Ń
ä¸ ²
æĢ Ĵ
èĥ ¡èĲ
å® Ĺ
æĢ§ åĮĸ
çĶŁ äºĨ
å¹ ħ
å¤ļ ä¸ª
åİ ¿
æĪĳ å¾Īæĭħå¿ĥ
ä¸Ń èĢģå¹´
ä¸Ń è¿ĺéľĢè¦ģéĩįè§Ĩ
å°± å¼Ģå§ĭ
çĥ ·
çŃī æ£ĢæŁ¥
å¤ĸ åĽºå®ļ
ä¹Ł ä¸įè¦ģ
éĩį åŀĭ
å»ºè®® æľįçĶ¨
åºĶ åľ¨
èĤ¿ çĹĽ
é«ĺ è¡ĢèĦĤ
åĸ Ĭ
å¦Ĥæŀľ æĤ¨
èĩª åıĳæĢ§
åŃ©åŃĲ çļĦçĹĩçĬ¶
å¹¶ éĿŀ
å¤´ çļ®
ä¿Ŀ çķĻ
è¯¥ åıĬæĹ¶æķĳæ²»
éħ¸ å¥¶
çĶ² åŁº
å²ģ ä»¥ä¸ĭ
ä¸ī åıī
éľĢè¦ģæľī åģļ
èĤ¿çĺ¤ ç»Ĩèĥŀ
å¼º åĮĸ
è¡¥ è¡Ģ
åĲĮæĹ¶ æĤ£èĢħæĹ¥å¸¸
æ¯ı ä¸ª
ç¼º éĵģ
å·¦ è¾¹
èĥİ åĬ¨
æģ¶ åıĺ
æĶ¹ è¿Ľ
èģ ĭ
æıĲ éĨĴ
ä¹³èħº çĤİ
èĽĭçĻ½ å°¿
çĸ¾çĹħçļĦ ä¿¡å¿µ
ä»£ è¡¨
åĮº åŁŁ
æĪĳä»¬ éĥ½çŁ¥éģĵ
æĭħ å¿§
éĢłæĪĲ å°ıåĦ¿
æľīæķĪ çļĦæ²»çĸĹ
ç½® ç®¡
æĺ¯åĲ¦ æĺ¯
åĺ ¶
åĲĪçĲĨ çĶ¨èį¯
çļĦæ²»çĸĹæĸ¹æ³ķ æľīå¾Īå¤ļ
å»¶ åĲİ
é©¬ è¥¿
æĤ£èĢħåı¯ä»¥ åıĬæĹ¶å¾ĹåĪ°
ä¼´æľī ä½İçĥ§
æ³¢ åĬ¨
æĽ¿ ä»£
èĮ¶ ç¢±
è½»åº¦ çļĦ
æ²ī ç§¯
çĽ² çĽ®çļĦ
è®¡ åĪĴ
éĩįçĹĩ èĤĮæĹłåĬĽ
æĤ£èĢħçļĦé¥®é£ŁçĬ¶åĨµåĴĮå¿ĥçĲĨçĬ¶æĢģä¹Łæĺ¯ åįģåĪĨéĩįè¦ģ
ä¸ĢæĹ¦åıĳçİ° åĲİå°±
çĹĺ çĹĺ
æľīæīĢ å¸®åĬ©
åģļä¸º éħįç½®æķĳæ²»
ä»¥æŃ¤æĿ¥å¢ŀå¼ºä½ĵè´¨ æĶ¾æħ¢åº·å¤įéĢŁåº¦
èĤ¾æ°Ķ ä¸¸
é«ĺèĦĤ è¡ĢçĹĩ
æĤ£èĢħçļĦåħįçĸ«åĬĽ ä»¥åıĬ
ä½Ĩæĺ¯ä¸ĢèĪ¬ æķĳæ²»
éļĲçªĿ åĨ²æ´Ĺ
å·§åħĭ åĬĽ
èĥ¡èĲ Ŀåįľ
åĲĮæĹ¶æĤ£èĢħæĹ¥å¸¸ ä¸Ńè¿ĺéľĢè¦ģéĩįè§Ĩ
æĤ£èĢħåı¯ä»¥åıĬæĹ¶å¾ĹåĪ° æķĳæ²»
ä¸ĢæĹ¦åıĳçİ°åĲİå°± è¯¥åıĬæĹ¶æķĳæ²»
c h
u s
çļĦ å¥³æĢ§
ä¸į å®Įåħ¨
ä»¥ åĨħ
ä»¥ å¤ĸ
ä¼ ¯
èħ ĳ
éĻ ª
æŁ¥ äºĨ
åĲİ åı¯
ä¼ļ åıĳçĶŁ
æīĭ æ³ķ
æĪĳ å¥³åĦ¿
å¦Ĥ æŃ¤
è¿Ļ æĹ¶
è¿Ļ ä½į
ç»ı æµİ
ä½ł è¯´çļĦæĥħåĨµ
å°± çĸ¼
å°± æ²¡äºĭ
æ´ ŀ
åīį åºŃ
éľ ľ
å°ı åı¶
ä¹Ł ä¸įæĺ¯
ä¹Ł æĢ»æĺ¯
æĪĸ çĶ¨
éĩį å¤į
æ³¨æĦı è¦ģä¿ĿæĮģèī¯å¥½çļĦå¿ĥæĥħ
æĭ Ł
åŃķ åīį
èĢĮ å¼Ĥ
è¾ĥ éĩį
è¾ĥ è¿ĳ
åı£ å¹²
çľĭ çĿĢ
åĩºçİ° çļĦ
æ¸ħ èĤº
ä¸Ķ æķĳæ²»åĲİ
éª¨ çĵ£
æ¶Ī çĤİçļĦ
æīĢ è°ĵ
çĹħæĥħ å¾ĹåĪ°
è°ĥ ç»ı
èĤĮ å¼łåĬĽ
ä¸ī ä¸ª
ä¸ī åįģ
ä¿ĿæĮģ èĩªèº«åį«çĶŁ
è¿Ļä¸ª æĺ¯
åĲ¸ æ°§
éĹ®é¢ĺ ä¸ĢçĽ´åĽ°æī°
åĪ« çļĦ
è¡Ģç®¡ çĤİ
åķ Ĩ
åĲĮæĹ¶ è¦ģ
è· ĥ
æĢĢåŃķ åĲİ
æīĢä»¥ æĪĳ
äºĮ ç»´
å¤ļåĲĥ çĤ¹
æĢİæł· æīįèĥ½
åıĳçİ° æľī
éĻ¤äºĨ å¯¹çĹĩæ²»çĸĹ
è¶ħå£° éĢłå½±
æŃ» ç²¾çĹĩ
ç²¾ç¥ŀ åİĭåĬĽ
ç»Ī èº«
å¢ŀå¼º æī«æıı
åĬ³ æįŁ
çŁŃ å°ı
æĺİç¡® çļĦ
éļı è®¿
æĺ¯ä¸įæĺ¯ æľī
å»¶ è¿Ł
éĶĻ æŀĦ
åĬłå¼º éĶ»çĤ¼
æĮģç»Ń æĢ§
ä¸Ĭè¿° æĥħåĨµ
å°½éĩı ä¸įè¦ģ
é¢Ħéĺ²æİªæĸ½ æľīåĵªäºĽ
å»ºè®®æĤ£èĢħ å¤ļæ³¨æĦı
çĶŁåŃĺ è´¨éĩı
è¥¿åĮ» æ²»çĸĹ
æ¶Ĥ çīĩ
ç²Ĺ ç²®
é¢Ŀ åı¶
è¸ ª
èĸĦ å¼±
æĬĹçĤİ èį¯
çĹħæ¯ĴæĢ§ èĤĿçĤİ
è¿ĺä¸į å¤Ł
èĤ¾ä¸Ĭèħº ç´ł
ä»¥æ¸ħæ·¡é£Łçī© ä¸ºåŁºç¡Ģ
é¼ĵ åĬ±
éģ¿åħįè¾Ľè¾£ åĪºæ¿Ģé£Łçī©
å¹¶ä¸ĶæĹ¥å¸¸çĶŁæ´»ä¸Ńè¦ģ è§Ħå¾ĭ
æ¡¡ éª¨
é¢Ħéĺ²åĴĮ æ²»çĸĹæĸ¹æ³ķ
åıªè¦ģåıĬæĹ¶ åıĳçİ°çĹĩçĬ¶
å¦ĤæŀľåŃ©åŃĲè¢«åį´ç¡®è¯Ĭä¸º å°ıåĦ¿
åĹ³ æ°Ķ
ä¸Ķæķĳæ²»åĲİ å®¹æĺĵçĹħåıĳ
% ï½ŀ
4 6
4 8
S H
è Ł
Ġ ,
çļĦ åı¯èĥ½ä¼ļ
çļĦ æĳĦåħ¥
çĶ °
èĥ ³
ä¸į æ²»
åŃ ¤
è¦ģ èĢĥèĻĳ
åı¯ åľ¨
åĩ ¡
èį¯ æ°´
èĦ Ĩ
è¡Ģ è±¡
ä¸Ń åįĪ
ä¸Ń å¤®
åīį ä¸¤å¤©
æĥħåĨµ çļĦ
ä¹Ł èĥ½
ä¹Ł å°±
çĹĩçĬ¶ åĴĮ
åºĶ éģ¿åħį
å°¿ æ½´çķĻ
ç»ĵ èĨľ
æľĢ ä¸»è¦ģ
çŁ ¿
å¦Ĥæŀľ åĨįæ¬¡åĩºçİ°
èĤĿ æ²¹
åĲĮ åŃ¦
èĦĳ è¡Ģæłĵ
éĥ½ ä¼ļæľī
æ¸ħ æī«
çķ ı
æ¶Ī èĢĹ
æķĳæ²» ä¸Ńä¸Ģå®ļ
çĹħæĥħ å¾ĹåĪ°æİ§åĪ¶
èĲ Ŀåįľ
æ¯Ĵ åī¯ä½ľçĶ¨
æı ī
æŃ£å¸¸ æĥħåĨµä¸ĭ
éĶ ¥
åĸĿ çĤ¹
è¡¥ ä¸Ń
è¾ĵ è¡Ģ
çĽ¸ äºĴ
è· ĸ
æĢ» ç®¡
æ¢ ¢
å¤Ħ åľ¨
å·¦ å¿ĥå®¤
å®¹æĺĵ èĩ´ä½¿
äºĮ å°ĸçĵ£
çİ¯ ä¸Ļ
å¤ª å¤§
è¾ĵåįµç®¡ éĺ»å¡ŀ
ä»İ å°ı
æ¸© çĥŃ
å¸¸è§ģ äºİ
åĳ¼åĲ¸ è¡°ç«Ń
åıĳèĤ² ä¸įåħ¨
ä¸Ģæ¬¡ æĢ§
æĦŁåĨĴ äºĨ
è®© ä»ĸ
åıĳä½ľ æĹ¶
ä»ħ ä¾ĽåıĤèĢĥ
çĻ½å¸¦ æ£ĢæŁ¥
åĩī è¡Ģ
ä¹Łä¸į çŁ¥æĻĵ
ä¸įéĢĤ æĦŁ
æ·± éĥ¨
ä¿ĥ ä½¿
é±¼ èĤĿæ²¹
çĶŁæ®ĸ åĻ¨å®ĺ
æ°Ł åĵĮ
å¿ħé¡» è¦ģ
åį¡ é©¬è¥¿
åĪ°æŃ£è§Ħ çļĦ
å±± èį¯
å¤ļåıĳç¾¤ä½ĵ æĺ¯ä»Ģä¹Ī
åī§çĥĪ çĸ¼çĹĽ
æŃ£ç¡® çļĦ
çĽ¸ä¿¡ èĩªå·±æĺ¯åı¯ä»¥æĪĺèĥľçĹħéŃĶçļĦ
å°ĸ éĶĲ
ç¬¬äºĮ æ¬¡
åĸ· åļ
æıĴ ç®¡
æŁĵèī²ä½ĵ å¼Ĥå¸¸
å£® éĺ³
ä¿®è¡¥ æľ¯
èħĭ ä¸ĭ
ä¸ĺ èĦĳ
ç£º éħ¸
éĹ´éļĶ ç¼ºæįŁ
è¤ ª
å¦Ĥæŀľä¸įåıĬæĹ¶æ²»çĸĹä¼ļå½±åĵįåĪ° èº«ä½ĵæĥħåĨµ
è±ĨèħĲ æ¸£
æĿı ä»ģ
è·Ŀ ç¦»
å¥Ī å¾·
çĭĹ èĤī
å½»åºķæģ¢å¤įå¼ķåıĳ äºĨä¸įå¿ħè¦ģçļĦå¹²æī°
èĤ¯ å®ļ
å¸®ä½ł å°½å¿«
çĹ¤ çĸ®
æľ¬æ¬¡åıĳçĹħåıĬæĮģç»Ń çļĦæĹ¶éĹ´
åĶ¯ ä¸Ģ
éŀĺèĨľ ç§¯æ¶²
èį¯çī©çĽ¸ ä½ľçĶ¨
ä¸İæŃ¤åĲĮæĹ¶æĤ£èĢħè¿ĺè¦ģçķĻæĦı åĨ³å®ļä¸Ģå®¶
åĸ·åļ ı
9 9
I I
æ² ¿
æ²»çĸĹ ä¸»è¦ģæĺ¯
æĢ§ åĴĮ
æ³ Ĭ
èį¯ çļĦ
åľ¨ æĢ§çĶŁæ´»
ä½ĵ æł¼
å°± ä¼ļæľī
è¿ĺ å¥½
è¿ĺ æľīçĤ¹
è¿ĺ ä¼ļæľī
éĹ´ æİ¥
åŃķ æ£Ģ
çŁ ®
èĤĿ åĽĬèĤ¿
æĹł ç²¾åŃĲ
ä¸ĢèĪ¬ åı¯ä»¥
æ¸ħ åĪĽ
åĨį çĶ¨
èĥĥ é»ıèĨľ
èĦī åĨ²
åĬŁèĥ½ å¤±è°ĥ
è¿ĳ ç«¯
è¿Ľè¡Į è¯¦ç»Ĩ
æŃ£å¸¸ çİ°è±¡
ä¸ī éĩĳçīĩ
èħĶ éļĻ
å§ ¨
éĢĤ å®ľ
è¿Ļä¸ª çĸ¾çĹħ
è¡¥ æ¶²
è· µ
èĩªå·± ä¹Ł
å¤Ħ å¥³
çķĻæĦı éĺ²å¯Ĵ
æĹ©æ³Ħ çļĦåİŁåĽł
æĪ¿ å®¤
çĪ ¬
åıĳçİ° èĩªå·±çļĦ
åħįçĸ« æĢ§ä¸įåŃķ
ç»´çĶŁç´ł E
æĽ´ ä¸º
çļ®èĤ¤ çĹħ
ä¸įèī¯ çļĦ
ç²¾ç¥ŀ åĽłç´ł
èĩ³ ä»Ĭ
çĹħçļĦ åıĳçĹħ
çī¹åĪ« éĩįè¦ģ
ç³ĸå°¿ çĹħäºº
é¸ ½
æĿ¾ è§£
ä»¥åĲİ çļĦ
è¦ģåıĬæĹ¶ åİ»ä¸ĵä¸ļæŃ£è§ĦçļĦåĮ»éĻ¢è¯ĬçĹħ
é¢ħ éª¨
èĦ¾ èĦı
çı į
åĭĥèµ· åĬŁèĥ½éļľç¢į
æµ· å¸¦
è¿ĻäºĽ çĹĩçĬ¶
æ¯Ķè¾ĥå¥½ åĳ¢
æºĥçĸ¡ æĢ§
ä»¥åīį å¤ļäºĨ
å½»åºķæģ¢å¤į çļĦ
æł¹æį®ä½ł è¯´çļĦæĥħåĨµ
çĮ ´
æĦīå¿« ä¹Ĳè§ĤçļĦå¿ĥæĢģ
çīĽ é»Ħ
æĹĭ è½¬
éĩĬ æĶ¾
ä¸´åºĬè¯ĬæĸŃ çĹĩçĬ¶
æ®ĭ åŃĺ
æ¦Ĥ çİĩ
æ»¡ æĦı
æĺĵæ¶ĪåĮĸ çļĦé£Łçī©
13 1
æĤ£èĢħä¸Ģå®ļè¦ģ é¥®é£Łæ¸ħæ·¡
é»Ħèī² çļĦ
æ»ĭ éĺ´
éĢĨ è¡Į
ä¸»åĬ¨èĦī çĵ£
åĪĩå¼Ģ å¤įä½į
åĲĥè¾Ľè¾£åĪºæ¿Ģ çļĦé£Łçī©
å®¶éĩĮ äºº
æ³ª éģĵ
æĤ£èĢħçļĦé¥®é£ŁçĬ¶åĨµåĴĮå¿ĥçĲĨçĬ¶æĢģä¹Łæĺ¯ çī¹åĪ«éĩįè¦ģ
èĤĭ éª¨
åıįå¤įåıĳä½ľ çļĦ
ç²¾ç¥ŀçĬ¶æĢģ ä¸įæĺ¯å¾Īå¥½
é£İå¯Ĵ æĦŁåĨĴ
èĤĽèĤł ç§ĳ
å¾Īæĺ¯ æĭħå¿ĥ
ä¸įåĲĥè¾Ľè¾£ åĪºæ¿ĢæĢ§çļĦé£Łçī©
æ§ Ĳ
èĦ¸èī² ä¹ŁæĢ»æĺ¯
çĨı æ´Ĺ
ä»¥ä¸º æĺ¯
äººåıĤ çļĤèĭ·
éĿ© åħ°
æĭĩ æĮĩ
æŁ´ èĥ¡
èĦ¸èī²ä¹ŁæĢ»æĺ¯ çĻ½çĻ½çļĦ
a t
h c
çļĦ åĲ¸æĶ¶
çļĦ è¯ĬçĹħ
çļĦ æķĪçĶ¨
çĶ ¾
æĺ¯ ä¸ºä»Ģä¹Ī
ä¸į æĿ¥
è¡ į
æĢ§ çŁ¥è¯Ĩ
çĶŁ å§ľ
äºĨ åĲĹ
è¡Ģ çĺĢ
é¢ Ĩ
æ£ĢæŁ¥ åĴĮ
ä¼ļ å¯¹
æĪĳ èĩªå·±çļĦèº«ä½ĵ
çĬ¶ è¡Ģç®¡çĺ¤
åĩº äºĨ
æĤ£èĢħ çĶ·
åĴĮ è¾Ľè¾£
çĲ ¥
ä¸Ń åĮ»éĻ¢
ä¸ĭ æ¬¡
ä¸Ĭ äºĨ
ä¸º çī¹å¾ģ
åĨħ éĻ·
æĦŁ æĥħ
ä¹Ł ä¸įçŁ¥éģĵ
ç®¡ èħĶ
æĢİä¹Ī è§£åĨ³
å»ºè®® æĥ¯èī¯å¥½çļĦçĶŁæ´»ä¹łæĥ¯
åºĶ æ¿Ģ
å®ļ ä½į
éĹ´ è´¨æĢ§
æ´» åĬĽ
è´ Ń
èĨ Ĭ
èĤĿ èĦ¾
ä¸ĢèĪ¬ éĥ½æĺ¯
åħ³ æ³¨
çĹħæĥħ å¥½è½¬
ä½İ èĦĤèĤª
ä¸¥éĩį ç¨ĭåº¦
èĤĮ æ³¨
æĸŃ å±Ĥ
å®ŀ è·µ
çİ°åľ¨ çļĦæĥħåĨµ
è¿Ļä¸ª æ¯ĽçĹħ
ç±» çļĦé£Łçī©
ç»Ļ äºº
æĢİä¹ĪåĬŀ åĳ¢
åıĳçĶŁ çİĩ
æ» ¨
å¡ ĳ
æĢ» æĦŁè§ī
å¿ħ éĢī
å¤± è¡¡
èĥĨ æĢ»ç®¡
çļĦæĹ¶åĢĻ åıĬæĹ¶æ²»çĸĹ
è¯ĬæĸŃ æĺ¯
æĦŁè§ī æ²¡æľī
å®¹æĺĵ å¯¼èĩ´
åĬ¨èĦī æłĵå¡ŀ
å¤ª å¥½
ä»İ æĿ¥
ä»İ æł¹æľ¬ä¸Ĭ
çĶµ åŃĲ
åįķ èĥŀ
åĽłæŃ¤ æķĳæ²»ä¸Ńä¸Ģå®ļ
è¦ģæ³¨æĦı é¥®é£Ł
ĠĠ Ġ
éħįåĲĪ ä¸ĢäºĽ
äº¤ æĦŁ
ç²ĺ ç¨ł
è®¸å¤ļ æ¬¡
çº¤ç»´ èħºçĺ¤
ç³ĸå°¿çĹħ æĤ£èĢħ
ç»ĨèıĮ åħ¥ä¾µ
ç«ĭ åĮ»éĻ¢
è§Ĵ åº¦
å»¶ ç¼ĵ
ä¸ĵä¸ļ çļĦåĮ»éĻ¢
Bè¶ħ ä»Ķç»Ĩæ£ĢæŁ¥
åıĻè¿° çļĦ
æĤ£èĢħè¿ĺ éľĢè¦ģ
åĨ² è¡Ģ
ç§»æ¤į æľ¯
çĮ Ŀ
ç½ĳ ä¸Ĭ
ä¸ºä»Ģä¹Ī ä¼ļ
çª¦ æĢ§
å¤§å°ı ä¾¿
æ·· æĤ¬
æļĤ åģľ
åįķçº¯ çļĦ
èĤĿçĻĮ æĻļæľŁ
åĩºçĶŁ åĲİ
ä¾µ åħ¥
ä¾µ çĬ¯
ä¸Ĭçļ® ç»Ĩèĥŀ
ä¸įåĲĮæīĢä»¥ éĩĩåıĸ
æĭĨ åĪĨ
è®¤ä¸ºè¿Ļæł·ä¸Ģå®ļèĥ½ å°Ĩ
åıĤåĬł ä½ĵèĤ²éĶ»çĤ¼
è·ĳ æŃ¥
å¾Īé«ĺåħ´ä¸º æĤ¨
äºĳ åįĹ
ä¸ĢçĽ´è§īå¾Ĺ æĪĳèĩªå·±çļĦèº«ä½ĵ
åħĭæĭī éľīç´ł
ç¡¬èĨľ å¤ĸ
ä¸įæĺ¯çī¹åĪ«çļĦ èĪĴæľį
å¯¿ åĳ½
èĥ³ èĨĬ
ä¸ĢçĽ´è§īå¾ĹæĪĳèĩªå·±çļĦèº«ä½ĵ ä¸įæĺ¯çī¹åĪ«çļĦèĪĴæľį
A C
A L
µ èµ°
çļĦ å¼Ĥå¸¸
çļĦ ä¸įåĲĮ
æľī é«ĺè¡Ģåİĭ
æ²» åĲĹ
ä¸į å¹²åĩĢ
æĪ ı
ä¸Ģ åĪ°
ä¸Ģ éĺµ
ä»Ģä¹Ī çļĦ
æĹ¶ ä¸į
æĸ ¥
åı¯ä»¥ éĢĤå½ĵçļĦ
åľ¨ ä¸Ģèµ·
åĲİ éĿ¢
åĩº åİ»
åĴĮ çĶŁæ´»
å¤§ èĴľ
ä¸Ń æĢ§
ä¸Ĭ æĸ¹
ä¸Ĭ æ¬¡
åīį èĢħ
åĨħ ç¿»
åĪ° æĤ¨
ä¹Ł æĺ¯åı¯ä»¥
éĩį ç»Ħ
çĹĩçĬ¶ æľīåĵªäºĽ
å¤© åĨħ
å¾Ī å°ı
èµ Ľ
åĪĨ æľŁ
èį¯çī© æĺ¯
è° ģ
éĺ´ æ¯Ľ
èĤĿ èĥĨ
æĹł èıĮ
æĹł åĪĽ
çĻ½ å¼Ģæ°´
éĺ² æĬ¤
èĥĥ ä¸ĭåŀĤ
åĬł éĢŁ
æķĳæ²» ä¸»è¦ģæĺ¯
éĢļ ä¾¿
è¡¨çİ° çļĦ
çĶ· åŃ©åŃĲ
èº«ä½ĵ æĬµæĬĹåĬĽ
åīįåĪĹèħº çĹĽ
åīįåĪĹèħº çĸ¾çĹħ
ä½Ĩæĺ¯ ä¸įçŁ¥éģĵ
ä¸¤ èĢħ
ç»Ļ ä½ł
åİ»åĮ»éĻ¢ åģļä¸ª
åı£æľį æĬĹçĶŁç´ł
æ¯ı ä¸ªäºº
æīĢä»¥ è¯´
éĢł çĺĺ
äºĮ èĥİ
è¶³ éĩı
åĬ¨èĦī ç²¥æł·ç¡¬åĮĸ
é¼» ä¸Ń
åħįçĸ« æĬĳåĪ¶åīĤ
åĪ© å¤ļ
ç§¯æŀģ å¯¹çĹĩæ²»çĸĹ
éĻ¤äºĨ æľįèį¯
ä¼´ éļı
æĺ¯åı¯ä»¥ ç¼ĵè§£çļĦ
é¢ĳ çİĩ
ç²¾ç¥ŀ ä¸įå¥½
åı¯èĥ½ä¼ļ èĩ´ä½¿
å¤įåıĳ çİĩ
åĪ°åĮ»éĻ¢ ä»Ķç»Ĩæ£ĢæŁ¥
èģĶ ç³»
è®¤ è¯Ĩ
çļĦåİŁåĽł æľī
èĦ± ç¦»
éĺ¿ èĥ¶
å¸ĮæľĽ å¯¹æĤ¨æľīå¸®åĬ©
ä¿¡ æģ¯
åħ¨èº« çĹĩçĬ¶
æĴ µèµ°
èĥĥèĤł çĤİ
ä¸¥éĩįçļĦ çĸ¾çĹħ
èŀº éĴī
ä»»ä½ķ çļĦ
ä½ĵåĨħ çļĦ
æĮĽ ç¼©
æ´Ľ å°Ķ
æ²ī æ²ī
æĢİæł·æ²»çĸĹ å¥½
ç¢ĺ ä¼ı
åī§çĥĪ çļĦ
å¾®åĪĽ æīĭæľ¯æ²»çĸĹ
æĥ³è¦ģ å¾ĹåĪ°
åĲĥé¥Ń æĦŁè§īæ²¡æľī
èĥĥéķľ æ£ĢæŁ¥
æĤ£èĢħè¦ģ çĽ¸ä¿¡èĩªå·±æĺ¯åı¯ä»¥æĪĺèĥľçĹħéŃĶçļĦ
éĺ»æ»ŀ åīĤ
èĥĨæ±ģ åıįæµģ
æ¡Ĥ æŀĿ
çĶ¨ç§¯æŀģçļĦå¿ĥæĢģåİ» éĿ¢å¯¹
ç«Ł çĦ¶
ä½Ĩæĺ¯ä¸ĢèĪ¬æ²»çĸĹ æĹ¶éĹ´è¾ĥéķ¿
æĦıå¤ĸ æĢĢåŃķ
åľ¨çĶŁæ´»ä¸ŃçĶ¨ é£ŁçĸĹ
ä¸¾ åĬŀ
æĤ£èĢħéľĢè¦ģæľī æ¸ħæ·¡é¥®é£Ł
ä½Ĩæĺ¯çĶ±äºİæĤ£èĢħçĹħæĥħ ä¸įåĲĮæīĢä»¥éĩĩçĶ¨
å»ºè®®æĤ£èĢħåľ¨æĹ¥å¸¸çĶŁæ´»ä¸Ń è¦ģçķĻæĦıé¥®é£Ł
çĹ¢ çĸ¾
ç¥ĿæĤ£èĢħ èº«ä½ĵæĹ©æĹ¥æģ¢å¤įåģ¥åº·
æĢ»æĺ¯è¯´ åĲĥä¸įä¸ĭåİ»
è¿ģ å»¶
çļĦè¯ĬçĹħ æĸ¹æ³ķä¹Łå°±ä¸įä¸Ģæł·
åįķèĥŀ èıĮ
åĲĥé¥ŃæĦŁè§īæ²¡æľī ä»¥åīįå¤ļäºĨ
Ġ 6
Ġ ãĢĢ
çļĦ ç¨ĭåº¦
ä½ Ŀ
æĺ¯ ä¸įä¼ļ
ç» į
ç» Ĵ
æ²»çĸĹ è¿ĩ
è¦ģ åĲĥ
è¦ģ å¤ļå°ĳéĴ±
åı¯ éĢĤå½ĵ
æī ¿
ä»¥ éĺ²æŃ¢
åº ĵ
å¥½ åıĳäºİ
å¾ ¡
å¤ļ æł·
èħ Ń
è¡Ģ æĢ§
åľ¨ çĶ¨èį¯æľŁéĹ´
çİ° ä»£
ä½ĵ æ¶²
åĽł äºº
åĽł èĢĮ
å¿ĥ åĨħèĨľ
å¤§ ç±»
ä¸Ń æĸŃ
ä¸ĭ èħĶ
ä¸Ĭ éķ¿äºĨ
æīĭæľ¯ ä¹ĭåĲİ
åīį æľŁ
è¿ĩ åİ»
åĨħ çļ®
å¤© çĦ¶
æ°´ åĪĨ
æ°´ æ³¡
åĪĨ æµģ
è´ £
æĺ¯ä»Ģä¹Ī æĹ¶åĢĻ
èµ· åºĬ
èĤĿ æįŁä¼¤
èĤĿ åĮº
èĤĿ èħ¹æ°´
èĢĮ å®ļ
èĢĮ å¼ķèµ·çļĦ
æĪĲ ä»½
åŃ©åŃĲ æīģæ¡ĥä½ĵåıĳçĤİ
éĥ½ æľīä»Ģä¹Ī
æ¿Ģ éħ¶
éª¨ åħ³èĬĤ
åĨį åģļ
åĬł çĶ¨
æķĳæ²» å¤ĸ
æĬĹ è¿ĩæķı
æµģ é£Ł
æĬ¤ èĤĿ
æĸ¹æ³ķ æĺ¯ä»Ģä¹Ī
ä»Ķç»Ĩæ£ĢæŁ¥ åĩºçļĦ
æŃ£å¸¸ èĮĥåĽ´
ä¸ī èģĶ
æľĪç»ı æľŁéĹ´
éľĢè¦ģæľī çķĻæĦı
ä¸¤ å¹´äºĨ
å¯¹çĹĩ ä½¿çĶ¨èį¯çī©
çķĻ ç½®
æľĢè¿ĳ åĩłåĳ¨
éĺ´éģĵ æµģè¡Ģ
æħ¢æĢ§ çĽĨèħĶçĤİ
çķĻæĦı ä¸ªäººåį«çĶŁ
éģ¿åħį åĽł
å¤ļåĲĥ åĲ«
æķ° éĩı
å·²ç»ı æĺ¯
æľ¯åĲİ æĬ¤çĲĨ
ç»Ħç»ĩ çĹħçĲĨ
åįķ åıĳ
è¶ħå£° è¯ĬæĸŃ
åįĬ å¤ľ
å¿Į é£Łè¾Ľè¾£
æľīçĤ¹ ä¸įèĪĴæľį
æŃ» äºĨ
éĴĻ çīĩ
å¤§ä¾¿ åĩºè¡Ģ
æľīä»Ģä¹Ī å½±åĵį
æľīä»Ģä¹Ī åį±å®³
ç±³ éĿŀ
é¾Łå¤´ æķıæĦŁ
æľĭåıĭ è¯´
æķ£ æŃ¥
æķ£ æĴŃ
éĩĳ åĮ®
æīģæ¡ĥä½ĵ éļĲçªĿåĨ²æ´Ĺ
æľīæķĪ çļĦæ²»çĸĹæĸ¹æ³ķ
æľŁæľĽ æĪĳçļĦ
éĿĴ èıľ
èĦ¾ æ°Ķ
æ·± éĿĻèĦīè¡Ģæłĵ
ç¾İ æīĺ
åĨ² åĩ»
åİ»åĮ»éĻ¢æ£ĢæŁ¥ äºĨ
æĴ ŀ
åĳ¨æľŁ è¾ĥéķ¿
è¡£ çī©
ç»ĵèĬĤ æĢ§
æ´Ľ éŁ¦
çĥ¦ æģ¼
åģļæīĭæľ¯ åĲĹ
ç©¿åĪº æ´»æ£Ģ
çĥ« ä¼¤
è½¯éª¨ çĺ¤
æĥ³éĹ® ä¸ĭ
èĢĥéĩı æķĳæ²»
éĶģ éª¨
åħ³éĶ® çļĦ
æĪĳæĥ³éĹ® éĹ®
ä¸įåĲĥ åĪºæ¿ĢæĢ§çļĦé£Łçī©
å®¶äºº ç²¾ç¥ŀçĬ¶æĢģä¸įæĺ¯å¾Īå¥½
äº¦ åı¯
æĹ©åŃķ è¯ķçº¸
åī¥ èĲ½
éĻ¤äºĨè¦ģ é©¬ä¸Ĭ
å¯¹æĤ£èĢħä»¬å¸¦ æĿ¥çļĦ
å¿į èĢĲ
æĬ± æĭ¬
æĬĹæĦŁæŁĵ æ²»çĸĹ
å¼Ł å¼Ł
å¼ºçĽ´ æĢ§
åħħè¶³çļĦ æ·±åº¦çĿ¡çľł
ä½Ĩæĺ¯çĶ±äºİæĤ£èĢħçĹħæĥħ ä¸įåĲĮæīĢä»¥éĩĩåıĸ
å³ °
HP V
å°ĳé£Ł å¤ļé¤Ĳ
æĶ¾æŁĶ çĹħæĥħ
éĹ´æŃĩ æĢ§
é¡½åĽº æĢ§
ä¸įè¦ģé£ŁçĶ¨ åĪºæ¿Ģé£Łçī©
èī¾æ»ĭ çĹħ
ä½łæııè¿° çļĦ
ä¸įæĬ½çĥŁ åĸĿåķ¤éħĴ
çº± å¸ĥ
èħĶéļĻ æĢ§
å¾Īæĺ¯æĭħå¿ĥ åĳ¢
5 5
æ ª
Ġ æĮĩå¯¼æĦıè§ģ
çļĦ æįŁä¼¤
ä» ĳ
æĺ¯ éĢļè¿ĩ
æĢ§ éª¨æĬĺ
æĢ§ ç´«çĻľ
ä¸Ģ å°ı
ä¸Ģ åĪĩ
å¤ļ æ³¨æĦıä¼ĳæģ¯
çİ ĭ
çĶ¨ ä¸Ńèį¯
åľ¨ äºİ
åľ¨ åģļ
åľ¨ æŃ¤
åĲİ è·¯
æĿ ī
åģ »
çĽ Ĺ
æĪĳ çĪ¶äº²
è¿ĩ ä¸Ģæ¬¡
è¿ĩ ä¸Ģä¼ļ
çŃī æĸ¹æ³ķ
åºĶ ç«ĭåį³
åĪĨ åĪ«
æľĢ ä¸º
çĺ¤ ä½ĵ
è° Ĳ
èµ· å±ħ
å¦Ĥæŀľ è¯´
èĤĿ åĨħ
èĩ´ çĹħèıĮ
èĦĳ å¹²
è¿Ľ èĢĮ
åı¯èĥ½ åĴĮ
åı¯èĥ½ å¯¼èĩ´
æ°Ķ æ²īæ²ī
éª¨ è½¬ç§»
èĥĥ çĤİçļĦ
èĦī ç»ľ
çĹħæĥħ å¾ĹåĪ°ç¼ĵè§£
åıĺ æĢģ
èĤº åĬŁèĥ½
æķĪæŀľ æ¯Ķè¾ĥ
ç³ĸ æµĨ
çİ°åľ¨ çļĦ
ä»ĸ æľī
ä»ĸ æĢ»æĺ¯è¯´åĲĥä¸įä¸ĭåİ»
å¹³æĹ¶ è¦ģçķĻæĦı
æİĴ æ°Ķ
åŁ ĥ
åıĹ ä¼¤
èĮ µ
æĤ¨å¥½ ä¸Ģä¸ĭ
éĤ£ å°±
èĩªèº« åħįçĸ«åĬĽ
ç½ ķ
è¿Ļç§įæĥħåĨµ èĢĥèĻĳ
æĢİæł· åĮ»æ²»
æ¶ĪåĮĸ åĨħç§ĳ
æİ§åĪ¶ è¡Ģç³ĸ
åĪĩéĻ¤ æīĭæľ¯
åįĬ èº«
æŃ» æ°Ķæ²īæ²ī
åıĮ èĥį
ç»ıå¸¸ çļĦ
å»ºè®®ä½ł çĶ¨
ç´§ ç¼©
è¿ŀ æİ¥
èĦ± èĤĽ
ä¼łæŁĵ çĹħ
ä»¥åħį å¼ķèµ·
æīģæ¡ĥä½ĵ åĨħ
åĽ° æģ¼
æĬ½ çŃĭ
åĨħåĪĨæ³Į ç§ĳ
éĴĪå¯¹ çĹħåĽł
å¦Ī åĴª
éļĲ éļĲ
ä»£è°¢ ç´Ĭä¹±
åĳĪ çİ°
æ²¹èħ» çļĦé£Łçī©
çī©çĲĨ çĸĹæ³ķ
åĳ¼åĲ¸éģĵ çĸ¾çĹħ
æħ¢æħ¢ çļĦ
éĢĤå½ĵçļĦ è¿ĲåĬ¨
ä»· åĢ¼
Xçº¿ çīĩ
æľīåħ³ç³» åĲĹ
æĶ¯æŀ¶ ç½®åħ¥
å¥½åĥı æľīçĤ¹
æľºä½ĵ çļĦ
è®º æ²»
å¿ĥå¾ĭ ä¸įé½Ĳ
èģļ éĽĨ
å¤ļåıĳæĢ§ éª¨é«ĵçĺ¤
æĦıè¯Ĩ éļľç¢į
æĬĹçĹħæ¯Ĵ æ²»çĸĹ
çĬ¯ äºĨ
éĽĮæ¿Ģç´ł æ°´å¹³
æŁĶ è½¯
ç¨į å¾®
åĽłæŃ¤æĤ£èĢħè¦ģåıĬæĹ¶ å¯¹çĹĩä¸ĭèį¯
åģľæŃ¢ ä¸ĭæĿ¥
æĳ¸ åĪ°
æł¹æį®ä»Ķç»Ĩæ£ĢæŁ¥ç»ĵæŀľåĨį èĢĥéĩıæķĳæ²»
æĩ Ĥ
æĤ£èĢħèĥ½ èİ·å¾Ĺ
åĽłæŃ¤æ²»çĸĹä¸Ńä¸Ģå®ļ å¯¹çĹĩä½¿çĶ¨èį¯çī©
æĺĶ æ´ĽéŁ¦
åħħè¶³çļĦ çĿ¡çľł
èĽĽ ç½ĳèĨľ
è¦Ĩ çĽĸ
èĪĴéĢĤ æĬ¤çĲĨ
èĥ¶è´¨ çĺ¤
åħĪåħĨ æµģäº§
åı® åĺ±
æ°¯åĮĸ éĴł
è®©æĪĳä»¬ å¾Īæĺ¯æĭħå¿ĥåĳ¢
åıĳçİ°äºĨ å®¶äººç²¾ç¥ŀçĬ¶æĢģä¸įæĺ¯å¾Īå¥½
å¾ĹçŁ¥ æĺ¯
çĹħæĥħå¾ĹåĪ°æİ§åĪ¶ çļĦæĹ¶åĢĻ
è¡¥ä¸Ń çĽĬæ°Ķ
hc g
ç»Ļäºº æŃ»æ°Ķæ²īæ²ī
çĮĿ æŃ»
ä½Ŀ åģ»
ç»ĻäººæŃ»æ°Ķæ²īæ²ī çļĦæĦŁè§ī
4 7
C A
M P
ĺ è¿«
çļĦ å¤ļåıĳåľ°åĮºæĺ¯åĵªéĩĮ
ä» °
åĪ ·
ä¸į å½±åĵį
ä¸į åģľ
æ²»çĸĹ çļĦè¯Ŀ
åı¯ éĢļè¿ĩ
æī ĳ
ä»Ģä¹Ī æ£ĢæŁ¥
æ³ ½
æŁ ı
å¤ļ å°¿
å¤ļ å±ĤèŀºæĹĭCT
äºĨ å¾Īå¤ļ
åį ·
ä¼ļ ä½¿
ä¼ļ ä¼łæŁĵ
éģ į
æĪĳ è¯¥æĢİä¹ĪåĬŀ
æľŁ æĬ¤çĲĨ
ä¸ª åĪ«
ä¸Ĭ åİ»
ä¹Ł åı¯ä»¥çĶ¨
è¿ĺ éľĢè¦ģæľīçľĭéĩįèĩªèº«çļĦæĬ¤çĲĨ
å»ºè®® å®¶éķ¿
çĹĩçĬ¶ æĢ§
ç»ĵ çĽ´èĤł
æ²¡ åĬĽæ°Ķ
ç¥ ¸
æŃ£ æ°Ķ
æł¹ ç®¡
å½ĵ ä¸Ń
èĤ¾ è¡°ç«Ń
ä¼¤ å¯Ĵ
ä½İ æ¸©
åĮħ èĨľ
åĬŀ åĪ°
ä¸įè¦ģ æĭħå¿ĥ
èĤĮ éħĲ
çīĩ æĪĲåĪĨæĪĸå¤Ħæĸ¹
ä¸ī ç§į
æ± ½
èĬĤ æ®µ
ä½Ĩæĺ¯ çİ°åľ¨
é¾ ĭ
çļĦçĹĩçĬ¶ æĺ¯
å¼º çĥĪ
ï¼ģ ï¼Į
æĶ¾ å±ģ
å¸® å¿Ļ
éĺ´éģĵ æ£ĢæŁ¥
ç½ ©
éĺ²æŃ¢ åĪºæ¿ĢæĢ§é£Łçī©
æģ¢å¤į å¾Īæľīå¸®åĬ©
æ¶ĪåĮĸ ç³»ç»Ł
è¾ĵåįµç®¡ çĤİçĹĩ
æıĲ åıĸ
æīĵ èĥİ
ä¸ŃåĮ» è®¤ä¸º
ç»Ī æŃ¢
åħī æ»ĳ
éĹ¨ éĿĻèĦī
çĹħçļĦ çĹħåĽłæĺ¯ä»Ģä¹Ī
çī¹åĪ« éļ¾åıĹ
èĤĽ ç®¡
ä¸Ģä¸ª æĺŁæľŁ
å¤ĸéĺ´ çĤİ
éĵ Ŀ
æľīåħ³ çļĦ
åģı å¤´çĹĽ
æ²»æĦĪ åĲĹ
ä¹ĻèĤĿ å¤§ä¸īéĺ³
ä¾Ľ åºĶ
åħĪå¤© æĢ§çļĦ
å¿ĥèĤĮ æ¢Ĺå¡ŀ
æł¹æį®ä½ł åıĻè¿°çļĦæĥħåĨµ
ä»ĭ ç»į
æĺ¯ä»Ģä¹ĪåİŁåĽł å¼ķèµ·çļĦ
æĽ¾ç»ı çļĦæķĳæ²»
åħŃ ä¸ªæľĪ
ä¸Ģä¸ªæľĪ åĨħ
åģ¶ æľī
è¯¦ç»Ĩ æ£ĢæŁ¥
åı¸ éħ®
èĨĿ çĽĸ
èĢĲ å¿ĥ
Xçº¿ æ£ĢæŁ¥
æ®ĭ ä½Ļ
æĢ§èĦĳ èĨľçĤİ
é»ıèĨľ ä¸ĭ
åĨħåĽºå®ļ æľ¯
æľĢå¥½åİ»åĮ»éĻ¢çļĦå¦ĩç§ĳåģļä¸Ģä¸ĭ å¸¸è§Ħæ£ĢæŁ¥
æĹģ èħº
æľ« æ¢¢
èĤĭ è½¯éª¨
åīįæ®µæĹ¶éĹ´ èº«ä½ĵ
å¨ģ èĥģ
å´© è£Ĥ
éª¨éª º
ä¹Į é¸¡
ä½Ĩæĺ¯ä¸ĢèĪ¬æ²»çĸĹ è¿ĩç¨ĭç¼ĵæħ¢
æŁ¥æĺİ åİŁåĽł
äºı èĻļ
åĮħçļ®çİ¯ åĪĩ
æµ·ç»µ ä½ĵ
æĪĳä»¬åºĶå½ĵ ç§¯æŀģ
èĩĢ éĥ¨
åĲĮæĹ¶å¤ļéĩįè§Ĩ èĩªèº«æĬ¤çĲĨå·¥ä½ľ
èĢĮå¯¼èĩ´ ç»ĨèıĮåħ¥ä¾µ
æĴķ è£Ĥ
æĬµæĬĹåĬĽä¸ĭéĻį èĢĮå¯¼èĩ´ç»ĨèıĮåħ¥ä¾µ
åģļä¸ĢäºĽ æľīæ°§è¿ĲåĬ¨
èĳµ èĬ±
èŃ ¦
å°ĸéĶĲ æ¹¿çĸ£
é¼»ä¸Ń éļĶ
éģ¿åħįåĽł æĬµæĬĹåĬĽä¸ĭéĻįèĢĮå¯¼èĩ´ç»ĨèıĮåħ¥ä¾µ
T P
e p
i t
Ġ æľ¬åĵģ
ï¼ »
ï¼ ½
çļĦ åħ³éĶ®
æĺ¯ çĽ®åīį
æĺ¯ æĭ¥æľī
ä¸į ä½Ĩ
ä¸į çĹĴ
æĢ§ è¡Įä¸º
è¯ ¸
è¦ģ ä¸įè¦ģ
åı¯ ä¸įåı¯ä»¥
åĩ ¤
å¤ļ çĶ±
èħ ¥
èĥ½ æ²»çĸĹ
åľ¨ æľįèį¯æľŁéĹ´
æĿ ĳ
çĽ Ł
å°± æ²¡æľī
æīĭæľ¯ çļĦæĸ¹æ³ķ
å°ı åŃ¦
çŃī åİŁåĽł
å»ºè®® è¦ģ
å»ºè®® åľ¨
åĲĹ åķ¡
è¶ ĭ
è° Ī
æ³¨æĦı èĩªèº«æĬ¤çĲĨ
åŃķ æ¿Ģç´ł
èĤĿ åĬŁ
åĲĮ æł·
æĤ¨ åı¯ä»¥
åŃ©åŃĲ æīģæ¡ĥä½ĵ
çľĭ ä»Ģä¹Ī
åİŁ çĲĨ
æ¸ħ æ°´
æ°Ķ åĸĺ
åĮ»çĶŁ æĤ¨å¥½
åĬŁèĥ½ éĶ»çĤ¼
äº§ çī©
çĶ² é±¼
ä¸´ äº§
è¿Ļç§į çĹĩçĬ¶
ç±» é£Łçī©
æĢİä¹ĪåĬŀ åķĬ
æľĢè¿ĳ å°±æĺ¯
çº¢ æŀ£
çĥ§ çģ¼
è¥¿ çĵľ
åı£æľį æº¶æ¶²
å¸®åĬ© åĦ¿ç«¥
æĸ° çļĦ
ä¸´åºĬè¡¨çİ° ä¸º
å®¹æĺĵ å¼ķèµ·
éļ¾ åº¦
å¤ļåĲĥ è®¸å¤ļ
å¤ª å¤§çļĦ
å¥³æĢ§ æĤ£èĢħ
æıĲ æĹ©
æĽ´ å¥½çļĦ
ä¸ŃåĮ» èį¯
ä¸ŃåĮ» è¾¨è¯ģ
æĢİä¹Īæ²»çĸĹ åĳ¢
éĢīæĭ© æĢ§
èĶ¬èıľ ä¸İ
æ°´æŀľ èĶ¬èıľ
èģĶ æīĭ
æ¯į ä½ĵ
åĴ½ çĤİ
åĽ´ æīĭæľ¯
å¸ĮæľĽ åĨħç§ĳçĸ¾çĹħ
æľŁæľĽ å¯¹æĤ¨
å°½å¿« å¸®åĬ©åĦ¿ç«¥
éĹŃ éĶģ
åħ± åĲĮ
èľ ¡
æł¼ åĪĹ
è¿ĺæľī å°±æĺ¯
åİ»åĮ»éĻ¢æ£ĢæŁ¥ å¾ĹçŁ¥æĺ¯
èĤºçĻĮ æĻļæľŁ
ä»Ĭå¤© æĹ©ä¸Ĭ
åİļ åº¦
åĲĦç§į ä¸įèĪĴæľį
åģ¶ è§ģ
è¡Ģæłĵ å½¢æĪĲ
æł¹æ²» æľ¯
ä¸Ģåĳ¨ åĲİ
å°±åĮ» æ²»çĸĹ
çĻ½ç»Ĩèĥŀ åĩıå°ĳ
é¥®é£Łæ¸ħæ·¡ ä¸ºåŁºç¡Ģ
é¡º éĵĤ
åİŁåĪĻ æĺ¯
ä¼¼ çļĦ
äºļ æĢ¥æĢ§
æľĢå¥½åİ»åĮ»éĻ¢çļĦå¦ĩç§ĳåģļä¸Ģä¸ĭ Bè¶ħæ£ĢæŁ¥
åľ¨çĶŁæ´»ä¸Ń æ³¨æĦıè¦ģä¿ĿæĮģèī¯å¥½çļĦå¿ĥæĥħ
åħ¸åŀĭ çļĦ
èī¾ çģ¸
åĨħç§ĳçĸ¾çĹħ å¯¹æĤ£èĢħçļĦ
çħİ æľį
å¤«å¦» åıĮæĸ¹
èĤĭ éĹ´
å¤ı å¤©
åĲĥä¸į ä¸ĭ
å¤ļåĽĬ èĤ¾
åĴ¬ ä¼¤
éģĹä¼łåĽłç´ł æĺ¯ä»Ģä¹Ī
é¸Ń èĽĭ
çļĦä¸»è¦ģ åİŁåĽł
æĨĭ å°¿
æľīå¥½å¤Ħ çļĦ
äºĮçĶ² åıĮèĥį
ä¼ŀ ç«¯
æĹłçī¹æ®Ĭ äººç¾¤
æĹłçī¹å®ļ äººç¾¤
éĿŀå¸¸æĭħå¿ĥ èĥ½æ´»å¤ļä¹ħ
ç¼ºéĵģ æĢ§è´«è¡Ģ
æĪĳä»¬éĥ½çŁ¥éģĵ åĨħç§ĳçĸ¾çĹħå¯¹æĤ£èĢħçļĦ
æ§Ĳ è§Ĵ
åĪ©å¤ļ åį¡åĽł
ç±³éĿŀ åı¸éħ®
åıĺæĢģ åıįåºĶ
å¦ĪåĴª çĪ±
æĽ¾ç»ıçļĦæķĳæ²» æĥħåĨµåĴĮæķĪæŀľ
åīįæ®µæĹ¶éĹ´èº«ä½ĵ åĲĦç§įä¸įèĪĴæľį
å¸ĮæľĽåĨħç§ĳçĸ¾çĹħ æĤ£èĢħåı¯ä»¥åıĬæĹ¶å¾ĹåĪ°æķĳæ²»
åİ»åĮ»éĻ¢æ£ĢæŁ¥å¾ĹçŁ¥æĺ¯ èĤ¿çĺ¤çĸ¾çĹħ
6 4
8 5
S D
e l
o r
çļĦ å¾Ī
æĺ¯ æ²»çĸĹ
æľī æĺİæĺ¾çļĦ
è¿ ½
ä¸į åĲ¬
çĹħ çļĦè¾ħåĬ©æ²»çĸĹæľīäºĽä»Ģä¹Ī
ä¸Ģ çīĩ
çĶŁ çĹħ
çĶŁ åĮĸ
æĹ¶ åºĶ
å¤ļ æ¢¦
çĹĩ çļĦè¾ħåĬ©æ²»çĸĹæľīäºĽä»Ģä¹Ī
æł ½
æł Ĺ
åľ¨ æĦı
æ£ĢæŁ¥ åĩºæĿ¥
è® ¢
å¯¹ æĤ£èĢħ
ä¸Ĭ èį¯
å°ı ç»Ĩèĥŀ
è¿ĩ åĪĨ
éĹ® ä¸Ģä¸ĭ
äºº ç±»
å»ºè®® åĪ°
å¾Ī çĹĴ
ç¡ ħ
ç¡ Ĵ
æĹ© æĻļ
æľĢ é«ĺ
æĭ ®
æĺ¯ä»Ģä¹Ī åĳ¢
éĺ´ éĺ³
éĴ ©
èĢĮ æĪĲ
èĢĮ è¨Ģ
åŃ©åŃĲ æľī
ä½Ĩ ä¸į
åĬł åħ¥
åıĺ å¼Ĥ
ä¸įè¦ģ åĬłçıŃ
è¿Ľè¡Į è°ĥçĲĨ
æķĪæŀľ æ¯Ķè¾ĥå¥½
çīĩ æ²»çĸĹ
æ¯Ķè¾ĥ å¸¸è§ģçļĦ
ç»´ ç´ł
åĪĩ æĸŃ
åĩı å¼±
èº«ä½ĵ èĻļå¼±
ä¿ĿæĮģ æĥħç»ªç¨³å®ļ
æľĪç»ı çļĦ
æľĪç»ı åīį
ç»Ļ æĤ£èĢħ
æľĢè¿ĳ ä¸Ģæ®µæĹ¶éĹ´
å¦Ĥä½ķ åĮ»æ²»
ä¸ĢäºĽ åı£æľįèį¯çī©
éĿŀ çĶ¾
çļĦæĹ¶åĢĻ åıĪ
æ¢ ¯
è¿Ļæł· åı¯ä»¥
ç½ Ĳ
å°ıåĦ¿ èĤ¥èĥĸ
éģ¿åħį åĪºæ¿Ģé£Łçī©
åĨįæ¬¡åĩºçİ° ä¸¥éĩį
å·´ éŁ¦
æİ§åĪ¶ é¥®é£Ł
èĥ¶ åİŁ
éĻ¤äºĨ æķĳæ²»
åįķ æĬĹ
ç¬ ¦
åĽłæŃ¤ å»ºè®®æĤ£èĢħ
è¿ĲåĬ¨ éļľç¢į
åĳ¼ æģ¯
æľīåĵªäºĽ åĳ¢
å¸¸è§ģ çĹĩçĬ¶
èĩ³ åħ³
ç¦ģ éħĴ
æĲ Ķ
ç¦ ½
èĤ¥ çļĤ
èģĶ çĽŁ
ä»¥åħį æĶ¾æŁĶçĹħæĥħ
ç»ĨèıĮ åŁ¹åħ»
ä¸įèĥ½å¤Ł åĲĥ
åħ¨èº« æĢ§
çľŁ æŃ£
å®Įåħ¨ åı¯ä»¥
åģļäºĨ æīĭæľ¯
æľīæĹ¶åĢĻ æĦŁè§ī
éļĲ çĿ¾
åĮĸéªĮ æ£ĢæŁ¥ç»ĵæŀľ
çĽ¸åħ³ çļĦ
ä¸ĭèĤ¢ éĿĻèĦīæĽ²å¼ł
èĹ ¿
èĦ¸ éĥ¨
ç¡Ŀ èĭ¯
è¯¯ çĹħæĥħ
éĩįåº¦ å®«é¢Īç³ľçĥĤ
åīĸèħ¹ äº§åĲİ
æĵ¦æ´Ĺ å¤ĸéĺ´
é¢ħåĨħ åĩºè¡Ģ
æ¸Ĺ éĢı
èĤ¾çĹħ ç»¼åĲĪå¾ģ
æĺ¨å¤© æĻļä¸Ĭ
é¾Ļ èĥĨ
åĹľ éħ¸æĢ§
éľĢè¦ģæ³¨æĦı ä»Ģä¹Ī
åĩıåİĭ æľ¯
å®½ æĿ¾
åħ´å¥ĭ æĢ§
åħ¶æ¬¡ æĺ¯
ä»ĸä»¬ çļĦ
ç¥Ľ éĤª
æķĪæŀľä¸į ä½³
ç£º èĥº
æł¹æį®æĤ¨çļĦ æııè¿°
æł¹æį®æĤ¨çļĦ åıĻè¿°
æĪª éª¨
åľ¨æĹ¥å¸¸çĶŁæ´»é¥®é£Łä¸Ń éľĢè¦ģæľīæģ°å½ĵé¥®é£Ł
å¹³æ»ĳ èĤĮ
èİ² åŃĲ
å®ŀéĻħ æĥħåĨµ
æĬ¬ é«ĺ
åĿĩè¡¡èĲ¥åħ»å¤ļåĲĥæĸ°é²ľèĶ¬èıľæ°´æŀľ å¤ļåĸĿæ°´
HB V
è¦ģç§¯æŀģ åİ»ä¸ĵä¸ļæŃ£è§ĦçļĦåĮ»éĻ¢è¯ĬçĹħ
è¿ĩæķıèĢħ ç¦ģçĶ¨
èĤ± éª¨
éĺ¿æīĺ ä¼Ĳä»ĸæ±Ģ
å¥½çļĦå¿ĥæĥħå¯¹çĸ¾çĹħçļĦ æģ¢å¤įå¾Īæľīå¸®åĬ©
èµ·æĲı åĻ¨
åłĨ ç§¯
åĽĽç»´ å½©è¶ħ
åĺ¶ åĵĳ
çİ¯ä¸Ļ æ²ĻæĺŁ
å¸®ä½łå°½å¿« è¿ľç¦»
çĹħæĥħå¥½è½¬ åĲİ
äº¤æĦŁ ç¥ŀç»ı
åĽłäºº èĢĮå¼Ĥ
ç½ķ è§ģ
æ§Ĳè§Ĵ ä¸¸
A D
¹ èıľ
Â ·
çļĦ ä¸į
çļĦ è¡Ģç®¡
çļĦ åĬŀæ³ķ
æľī å°ı
æľī çĻ½èī²
ä¸į å°ıå¿ĥ
çĹħ çļĦä¸´åºĬè¡¨çİ°æľīäºĽä»Ģä¹Ī
æĢ§ é£Łçī©
èĢ »
è¦ģ æľī
ä»¥ æĿ¥
å¥½ çĤ¹
å¤ļ è¿ĲåĬ¨
å¤ļ é£ŁçĶ¨
èĢħ æħİçĶ¨
åı¯ä»¥ åĨį
åı¯ä»¥ æ²»å¥½
åľ¨ åľ°
æĬ ļ
æīĭ éĥ¨
åĩº å¤ĸ
æĤ£èĢħ éĿ¢å¯¹
å¿ĥ çĥ¦
ä½ł è¿Ļä¸ª
å¯¹ æŃ¤
ä¸ª åŃĲ
ä¸Ĭ é¢Į
åīį è·¯
å°ı èĤļåŃĲ
ä¹Ł ä¸įèĥ½
æ³¨ åħ¥
è¿ĺ ä¼´æľī
åĮ»éĻ¢ åģļ
å°¿ éĩı
éľĢè¦ģ å¤ļå°ĳéĴ±
æĹ© å°Ħ
èĤĿ çĤİçļĦ
æĹł é¡»
æĹł èıĮæĢ§
éĴ »
èĦĳ ç¥ŀç»ı
è¿Ľ æŃ¥
çĻ½ è´¨
ä¸ĢèĪ¬ å»ºè®®
è¯· åĮ»çĶŁ
çĶŁæ´» æĬ¤çĲĨ
çĶŁæ´» è§Ħå¾ĭ
æĬĹ ç»ĵæł¸
æµģ é¼»
åħ³ å¿ĥ
æĦŁæŁĵ äºĨ
æĦŁæŁĵ å¼ķèµ·çļĦ
æĦŁæŁĵ æĢ§çĸ¾çĹħ
èĤº å¤§
èĤº æ°´èĤ¿
å²ģ ä»¥ä¸Ĭ
å¥³ å®Ŀ
åĥı æĺ¯
åĽŀ åİ»
åĽŀ éŁ³
ä¸Ģå®ļ ä¸įèĥ½å¤Ł
æİĴ æĸ¥
çļĦçĹĩçĬ¶ æľīäºĽä»Ģä¹Ī
æľĢè¿ĳ æĪĳ
èĮ ħ
å¤± è´¥
åĮħçļ® åĮħèĮİ
éĤ£ æķı
è¿ĺæĺ¯ éľĢè¦ģæľī
æīĢä»¥ æĤ£èĢħ
æħ¢æĢ§ åĴ³åĹ½
è¶³ æľĪ
è¡Ģåİĭ é«ĺ
åı³ è¾¹
å®ŀæĸ½ æīĭæľ¯
åĨ· æ·¡
åĪ© å·´éŁ¦
åįķ ä¸Ģ
æīĵ å®Į
çĽ®åīį çļĦæĥħåĨµ
ä¹³èħº ç»ĵèĬĤ
èĻļ æ±Ĺ
å¹¶åıĳçĹĩ çļĦ
å¿ĥçĲĨ å¹²é¢Ħ
éĢĤå½ĵ ä¼ĳæģ¯
éĵ µ
20 13
çĽĨ åºķ
ç³ľ ä¹±
èĦ± çŁ³
åĴ½ éĥ¨
åĴ½ ä¸ľè¥¿
çĻ½å¸¦ å¼Ĥåĳ³
è¦ģåıĬæĹ¶ çļĦ
éļı æĹ¶
èĦ¾ èĻļ
å°¤ ä¸ºéĩįè¦ģ
æ°¨ èĭĦ
ç²¾åŃĲ è´¨éĩı
æģ¶å¿ĥ æĥ³åĲĲ
å¦Ĥä½ķæ²»çĸĹ å¥½
éħ¶ æĬĳåĪ¶åīĤ
è¿ĻäºĽ èį¯çī©
çĻ«çĹ«çĹħ æĤ£èĢħåľ¨
åĸī çĻĮ
éĶĻ è¯¯
éĢı æ°Ķ
åİĭåĬĽ å¤§
çİ¯å¢ĥ åĽłç´ł
æ·ĭå·´ç»ĵ æ¸ħæī«
å½©è¶ħ ä»Ķç»Ĩæ£ĢæŁ¥
åı£èħĶ æºĥçĸ¡
æĽ¿ ä¸ģ
åħ³ç³» çļĦ
ç²ĺèĨľ ä¸ĭ
å°½æĹ© åº·å¤į
ä¸ĢèĪ¬æĺ¯ éľĢè¦ģ
çĶĺ éľ²
åģĩ ä½ĵ
å®Ī æĬ¤
æ»¡ æľĪ
æ»¡ è¶³
é«ĺçĥ§ ä¸įéĢĢ
ç¦ģæŃ¢ æĢ§çĶŁæ´»
è¿Ļåĩłå¤© èĢģ
èĦĳè¡Ģç®¡ çĹħ
æľĢå¥½åİ»åĮ»éĻ¢çļĦå¦ĩç§ĳåģļä¸Ģä¸ĭ å¦ĩç§ĳæ£ĢæŁ¥
èĦĬæŁ± çĤİ
éĽ¾ åīĤ
å§ĭç»Īä¿ĿæĮģå¿ĥæĥħ èĪĴçķħ
æĻ®éĢļ å¤ĸç§ĳçĸ¾çĹħ
å¼¥ æķ£
é«ĺçĥŃ éĩı
åī¥ ç¦»
è¿ĩæķıæĢ§ ç´«çĻľ
æµħè¡¨ æĢ§
åĻ¨è´¨æĢ§ çĹħåıĺ
è¿Ļç§įçĸ¾çĹħä¸įæĺĵ åº·å¤į
å¹½éĹ¨ èŀºæĹĭ
æĤ£èĢħè¿ĺéľĢè¦ģæľīçľĭéĩį æĬ¤çĲĨæĸ¹éĿ¢
éģ¿åħįè¾Ľè¾£ å¯ĴåĨ·é£Łçī©
å¤¹ å±Ĥ
èĴĻ èĦ±çŁ³
çĶµè§£è´¨ ç´Ĭä¹±
ä½ĵåĬĽ åĬ³åĬ¨
æĶ¾å¿ĥ å¥½äºĨ
å³ ¡
åĩ¹ éĻ·
èº¯ ä½ĵ
æĤ£èĢħçļĦæĹ¥å¸¸ æķĳæ²»ä¸»è¦ģæĺ¯
æĮ« ä¼¤
æľŁæľĽæĤ£èĢħåı¯ä»¥æł¹æį®åĮ»çĶŁçļĦæĦıè§ģ å¯¹çĹĩæķĳæ²»
å¸ĮæľĽæĪĳçļĦ åĽŀçŃĶ
åį¡é©¬è¥¿ å¹³
ä½ĵæł¼ æ£ĢæŁ¥
çĹħæĥħå¾ĹåĪ°ç¼ĵè§£ çļĦæĹ¶åĢĻ
åĪ©å·´éŁ¦ æŀĹ
1 50
5 00
ķ çĮ´
ä¸ ½
çļĦ ä½¿çĶ¨
æĢ ª
æĺ¯ ä»¥
æľī æĿ¡ä»¶
æľī çģ¼çĥŃ
æĢ§ èĤ¾çĤİ
åĮ ¿
è¦ģ é©¬ä¸Ĭ
åı¯ èĩ´
åº ľ
æŀ ¯
çĻ ĸ
è® ³
ä¼ļ åľ¨
ä¼ļ å¹²æī°
æĪĳ è¿Ļç§įæĥħåĨµ
æĪĳ å¦Ī
æĪĳ çĪ¸çĪ¸
åĴĮ æħ¢æĢ§
åĴĮ è°Ĳ
å¿ĥ åĬŁèĥ½ä¸įåħ¨
å¤§ è±Ĩ
æ´ ²
ä¸º ä½ķ
åīį æĪ¿
é« Į
çŃī å¾ħ
å¤ĸ èĢ³
å¤ĸ æķ·
å¤ĸ ç¿»
ä¹Ł çĸ¼
æĪĸ èį¯
éĩį èĢħ
å»º ç«ĭ
åºĶ æĢ§
æ°´ åĸĿ
è¶ £
é¥®é£Ł ä»¥åıĬ
å¦Ĥæŀľ åľ¨
ä½ľ ä¸ļ
èĻ ¹
èĦĳ çĹħ
èĦĳ èĤ¿çĺ¤
èĦĳ åįĴä¸Ń
åŃ©åŃĲ åľ¨
è¡Į èµ°
æ¿Ģ æ´»
ä¸ĢèĪ¬ ä¸įä¼ļ
èĬ ¹èıľ
éª¨ åĮĸ
è¡¨ ç¤º
æ¶Ī è¤ª
éħ¸ ç¢±
æł¹æį® æ£ĢæŁ¥ç»ĵæŀľ
èĲ ĺ
å¥³ çĶŁ
æŃ¢ æ³»
é¢Ī åĨħ
ä¸įè¦ģ åĲĮæĪ¿
å½±åĵį èº«ä½ĵ
åĥı åĽ¾
åĩı æħ¢
ä¸ī å²ģ
é»Ħ ç´ł
ä¸´åºĬ å®ŀè·µ
ä¿ĿæĮģ æĦīå¿«çļĦå¿ĥæĥħ
æ± ł
æĢ¥ æķĳ
èĤ¿çĺ¤ çļĦå½±åĥıåŃ¦æ£ĢæŁ¥æľīäºĽä»Ģä¹Ī
åıĹ éĻĲ
è¡Ģç®¡ æĢ§
çº¢ èĬ±
åľ° å°Ķ
å¦Ĥä½ķ é¢Ħéĺ²
æŀģ å°ĳæķ°
å°±æĺ¯ æľī
çķĻæĦı èĩªèº«åį«çĶŁæĥħåĨµ
ä½ľçĶ¨ çļĦ
æľĢå¥½ è¿ĺæĺ¯
éļ¾ å¿į
èĦĤ è´¨
æĶ¹ æŃ£
å·²ç»ı å¾Īä¹ħäºĨ
éļľç¢į æĢ§è´«è¡Ģ
åħįçĸ« æ²»çĸĹ
å®Į æķ´
åĻ ¬
ç¬ ĳ
åĽłæŃ¤ éľĢè¦ģ
æīĵ åĸ·åļı
éħįåĲĪ æ²»çĸĹ
çļ®èĤ¤ ç§ĳ
éķ¿æľŁ æľįçĶ¨
å¤§ä¾¿ æ¬¡æķ°
åıĳèĤ² å¼Ĥå¸¸
å»ºè®®ä½ł åı¯ä»¥
æ°´æŀľ åĴĮèĶ¬èıľ
å½»åºķ æ²»æĦĪ
å¾Īå¤ļ å¹´äºĨ
è¿ŀ ä¸²
é«ĵ éŀĺ
å¹´é¾Ħ çļĦ
ä¸ĵä¸ļ æķĳæ²»
æĻļä¸Ĭ æĢ»æĺ¯
è¿ĩæķı åıįåºĶ
æĢĢä¸Ĭ çļĦ
ä¸Ĭè¿° çĹĩçĬ¶
å¢ŀå¤ļ çĹĩ
å¤ľ å°¿
å®¶éķ¿ ä»¬
çĮ ķçĮ´
æ°Ł åº·åĶĳ
ä¹Łæľī åı¯èĥ½æĺ¯
å°ıæĹ¶ åĨħ
ä¸Ģä¸ªæľĪ äºĨ
èħ¹èħĶéķľ ä¸ĭ
æĺ¯ä¸į éľĢè¦ģ
ä¼ĺ çĶŁ
çĶŁåŃĺ æľŁ
æĢĿ æĥ³
é¤Ĳ åĲİ
çĺĺ ç®¡
è¿Ļä¸ªæĥħåĨµ èĢĥèĻĳä¸º
é¢ħåĨħ åİĭ
æĸĩ åĮĸ
åĮĸåŃ¦ åĲį
åºĶè¯¥æ³¨æĦı ä»Ģä¹Ī
åĽłæŃ¤æĤ£èĢħ éľĢè¦ģæľīåıĬæĹ¶
æ¤įçī© ç¥ŀç»ı
ç¨³ åĽº
æľĢå¥½åİ»åĮ»éĻ¢çļĦå¦ĩç§ĳåģļä¸Ģä¸ĭ çĻ½å¸¦æ£ĢæŁ¥
çŃĭ èĨľ
è°· ç»´ç´ł
èŀįåĲĪ æľ¯
æ²»çĸĹå¥½ åĲĹ
åľ¨æ²»çĸĹ ä¸Ĭ
è´Ł èį·
ç«Ļ ç«ĭ
å£® å¹´
æ°¨åŁº éħ¸
ä¿ĿæĮģå¿ĥæĥħèĪĴçķħ æ³¨æĦıä¼ĳæģ¯
éĻ¤äºĨè¦ģ æľįèį¯
åĴĭåĬŀ åĳ¢
æ²¡äºĭ åĦ¿
èĩĤ ä¸Ľ
è¹ Ħ
èħĭ çªĿ
è¡Ģå°ıæĿ¿åĩıå°ĳ æĢ§ç´«çĻľ
æĤ£èĢħåı¯ä»¥çĶ¨ ä¸ĢäºĽåı£æľįèį¯çī©
æĵħ éķ¿
è¾ĵåįµç®¡éĢļ æ¶²
æĦīæĤ¦ çļĦå¿ĥæĥħ
éĶĻæŀĦ çĺ¤
ç»Ĵ æ¯Ľ
æĭ® æĬĹ
éĿŀçĶ¾ ä½ĵ
èĩ³åħ³ éĩįè¦ģ
ç¡Ŀèĭ¯ åľ°å¹³
åĽłæŃ¤æĤ£èĢħéľĢè¦ģæľīåıĬæĹ¶ ä»Ķç»Ĩæ£ĢæŁ¥è¯ĬæĸŃ
I V
e t
§ åħī
ï¼Į ãĢĤ
çļĦ äºĨ
çļĦ è¡Ģ
çļĦ çĸĹæ³ķ
çļĦ æľĢä½³
çļĦ æł·åŃĲ
æĺ¯ çĶ·
æľī èĲ¥åħ»
æľī æĢ§çĶŁæ´»
åı¯ æł¹æį®
èį §åħī
åıĳ çī©
åıĳ çº¢
å¤ļ äºİ
äºĨ å°±
çĶ¨ è¿ĩ
çĶ¨ èį¯çī©
éĺ Ī
åľ¨ è¿Ļ
æīĭ èĩĤ
ç»ı å°¿éģĵ
æĤ£èĢħ åıĬæĹ¶
åĴĮ èħ¹
åĴĮ è½¬ç§»
ä¸Ń å¹´
ä¸Ń éĩįåº¦
ä¸Ĭ éķ¿
æĮ ¥
å°± åºĶè¯¥
æīĭæľ¯ çļĦè¾ħåĬ©æ²»çĸĹæľīäºĽä»Ģä¹Ī
æĿ¥ å®ŀæĸ½
æĿ¥ è®²
è¿ĩ å¿«
æĦŁ è°¢
ä¹Ł åı¯èĥ½ä¼ļ
å»ºè®® å¹³æĹ¶
å¾Ī ä¹ħ
æ°´ çĸ±
å°¿ å¤±ç¦ģ
ç»ĵ çĹĤ
æĹ© æĲı
æ²¡ æ³ķ
é¥®é£Ł ä¹Łè¦ģ
å¦Ĥæŀľ ä¸¥éĩįäºĨ
èĤĿ çĻĮçļĦ
å¾Ĺ çĹħ
éĥ½ åľ¨
ä¸ĢèĪ¬ ä»¥
èĬ į
èĤł çĹīæĮĽ
ä½¿ å¾Ĺ
åĬŁèĥ½ å¼Ĥå¸¸
æĦŁæŁĵ çļĦè¾ħåĬ©æ²»çĸĹæľīäºĽä»Ģä¹Ī
çĶ² æ°¨
åħ¨ é«ĭåħ³èĬĤ
è¿Ľè¡Į æīĭæľ¯æ²»çĸĹ
çīĩ æĪĸ
å¼Ģ å¡ŀ
å¼Ģ åĪĢ
åĩł åĪĨéĴŁ
åĲ¸ èĻ«
åŁ ĭ
åĨįæ¬¡ å¤įåıĳ
ä¸ªæľĪ åĲİ
çĽ¸ éī´åĪ«
åĮħçļ® æīĭæľ¯åĲİ
æĦŁè§ī èĩªå·±
ç¼º éĶĮ
è¶³ è§ģ
æ¶ĪåĮĸ ç»´çĶŁç´ł
çİ¯ åŃ¢
ä½¿çĶ¨ æľ¬åĵģ
çĿ¾ éħ®
çĶµ åĪºæ¿Ģ
éĻ¤äºĨ æ²»çĸĹ
éĻ¤äºĨ æŃ£è§Ħæ²»çĸĹ
è¦ģæ³¨æĦı å¤ļä¼ĳæģ¯
å¯Ĵ åĩī
éĽ ª
æĽ´ å¤ļ
çĶ²çĬ¶ æĹģèħº
ç¬¬ åĽĽ
éķ¿æľŁ ä¸´åºĬå®ŀè·µ
å¤§ä¾¿ å¹²çĩ¥
å¤§ä¾¿ å¸¦è¡Ģ
æ¤İ éĹ´çĽĺ
å¾Īå¤ļ åĮ»éĻ¢
20 10
20 12
éĩĳ éĶģ
å®ĥ æĺ¯
éĥ½æĺ¯ ä¸įéĶĻçļĦ
æĺ¯åĲ¦ æĢĢåŃķ
æĶ¹åĸĦ çļĦæĹ¶åĢĻ
æ¯Ķå¦Ĥ é¥®é£Łæ¸ħæ·¡
èĬ± å¤ļå°ĳéĴ±
åıĳè§ī æľī
éĥ¨åĪĨ æĤ£èĢħ
ä¾Ľ ç»Ļ
ä¸ºä¸» çļĦ
ä¼´æľī è½»å¾®çļĦ
ä¼´æľī åıĳçĥ§çļĦæĥħåĨµ
é±¼ ç±»
åĨįæ¬¡åıĳçĶŁ åľ¨
ç»ĵæł¸ æĢ§
èİ·å¾Ĺ æĢ§
é¢Ħéĺ²æİªæĸ½ æľīäºĽä»Ģä¹Ī
ç¿ ¼
å¤ļä¹ħ åı¯ä»¥
åĳ¨åĽ´ çļĦ
æĽ¿ å°¼
åħ¶å®ŀ æĪĳ
ç¹ģ æ®ĸ
çĸ² ä¹ı
å¿§ èĻĳ
åıĳå±ķ åĪ°
ä¸ĥ å¤©
éĨĴ æĿ¥
é©¬ä¸Ĭ æ²»çĸĹ
çļĦå½±åĵį æĺ¯éĿŀå¸¸å¤§çļĦ
çģĮ æ´Ĺ
æ¶¦ èĤł
çĻĮç»Ĩèĥŀ çļĦ
èī²ç´ł æ²īçĿĢ
åĨħåĽºå®ļ æ²»çĸĹ
ä¹ĭéĹ´ çļĦ
è´Ł åİĭ
çĻ¾ åĪĨ
å¾®æ³¢ æ²»çĸĹ
ç©ºèħ¹ è¡Ģç³ĸ
æĬ½åĬ¨ çĹĩ
ä¼ĺè´¨ æĬ¤çĲĨ
ä¸ŃåĮ»ä¸Ńèį¯ éķ¿æľŁä¸´åºĬå®ŀè·µ
éĽĦ æ¿Ģç´ł
èĤ¾çĽĤ èĤ¾çĤİ
æĮ¤ åİĭ
åĪĩåĭ¿ è¿ĩé¥¥æĪĸè¿ĩé¥±
åĽºç²¾ ä¸¸
èĿ¶ åĳ¤
åıªè¦ģåľ¨æĹ©æľŁ åıĳè§ī
æĤ£èĢħåľ¨çĶŁæ´»ä¸Ńè¿ĺéľĢè¦ģæľī çķĻæĦı
æĿ¥éĢīæĭ© æ²»çĸĹæĸ¹æ³ķ
è®¨ åİĮ
çŁŃæĹ¶éĹ´ åĨħ
çĹħæĥħå¾ĹåĪ° æĶ¹åĸĦçļĦæĹ¶åĢĻ
è´Ń ä¹°
æĥ³è¦ģå¾ĹåĪ° çĹħæĥħ
æľŁæľĽæĪĳçļĦ è§£éĩĬ
èĶ¬èıľä¸İ æ°´æŀľ
æłĹ åŃĲ
å¸®ä½łå°½å¿«è¿ľç¦» æŃ¤çĹħ
èĴĻèĦ±çŁ³ æķ£
è¦ģé©¬ä¸Ĭ åİ»ä¸ĵä¸ļæŃ£è§ĦçļĦåĮ»éĻ¢è¯ĬçĹħ
çĮķçĮ´ æ¡ĥ
7 2
B åŀĭ
o m
Ġ æĪĳ
ä¸ Ī
çļĦ åĮ»çĶŁ
æĺ¯ å¸¸è§ģçļĦ
æľī å¾Īå¤§çļĦ
ä¸į å¾Ĺ
ä¸į åĨį
æĢ§ çĪ±
ä¸Ģ æĺ¯
ä¸Ģ åĪĨéĴŁ
åı¯ çĶ±
åı¯ å¢ŀåĬł
æī §
ä»Ģä¹Ī æĥħåĨµ
ä»Ģä¹Ī éĥ½
æĹ¶ æľī
æĹ¶ åı¯ä»¥
æ³ µ
åıĳ éº»
èį¯ èĨı
è¡Ģ ä¸Ń
è¡Ģ ç²¾
å½ ķ
åĲİ åľ¨
æĤ£ èĤ¢
åī ª
é¢ Ĭ
åŃĲ çļĦ
æĪĳ å·²ç»ı
ç»ı è¡Ģ
ä¸ĭ èħ¹çĹĽ
ä¸Ĭ åĮ»éĻ¢
åĲĥ éģ¿åŃķèį¯
æĿ¥ èĩª
æĿ¥ æºĲ
æĿ¥ éĶ»çĤ¼èº«ä½ĵ
çĹĽ æĦŁ
é¥ ²
åĲĪ çī©
è¿ĺ åľ¨
äºº ä»¬
åģļ Bè¶ħ
ä¿ ©
åĪĨ è¾¨
åĪĨ åıī
çĺ¤ çļĦæīĭæľ¯æ²»çĸĹæľīäºĽä»Ģä¹Ī
é¥®é£Ł æľīèĬĤ
æĹł éľĢ
å¾Ĺ å¿«
è¾ĥ å°ĳ
ä¸ĢèĪ¬ éľĢè¦ģæľī
èĬ ¥
æ¸ħ åįķ
åĨį å°±æĺ¯
èĥĥ åĬ¨åĬĽ
ä½¿ åħ¶
éĿ¢ èĤĮ
è´¨ åľ°
åĮ»çĶŁ çļĦæ²»çĸĹ
çĹħæĥħ å¤įåıĳ
ä¸»è¦ģ ä»¥
ä¸¤ å¤§ç±»
èĤ¿çĺ¤ çļĦæīĭæľ¯æ²»çĸĹæľīäºĽä»Ģä¹Ī
åİ»åĮ»éĻ¢ å°±è¯Ĭ
è¡¥ çĽĬ
åĲĮæĹ¶ æľįçĶ¨
èĢģ å¸Ī
åŃĲå®« åĩºè¡Ģ
æĶ¾ åħ¥
çĽ¸ ç»ĵåĲĪ
éĺ´éģĵ åĪĨæ³Įçī©
âĢ ¦
ç»Ħ æĪĲ
å¸®åĬ© è¯ĬæĸŃ
æĢģ åº¦
èĽĭ é»Ħ
éĺ²æŃ¢ è¿ĩåº¦
éĺ²æŃ¢ ç²¾ç¥ŀä¸Ĭè¿ĩåº¦çļĦç´§å¼łåĴĮ
å®¹æĺĵ åĨįæ¬¡åĩºçİ°
æ¶ĪåĮĸ æĢ§æºĥçĸ¡
è£ ¹
æĳ §
æĢ¥æĢ§ çĤİçĹĩ
æļ ĳ
åħįçĸ« ç³»ç»Ł
ä»İ ä½łçļĦ
éĻ¤äºĨ å°±æĺ¯
åįķ çĭ¬
è½¯ èĥ¶åĽĬ
æľīçĤ¹ çĹĴ
ç²¾ç¥ŀ çĹħ
æĹ©æľŁ æ²»çĸĹ
æĢİä¹Īæ²»çĸĹ å¥½
æ·ĭå·´ åłµå¡ŀ
ä¹łæĥ¯ æĢ§
åħĭ ç½Ĺ
ä¼łæŁĵ çļĦ
çĹħåıĺ çļĦå½±åĥıåŃ¦æ£ĢæŁ¥æľīäºĽä»Ģä¹Ī
è·¯ å¾Ħ
æĢ§äº¤ æĹ¶
é¥Ń åīį
å¦Ĥæŀľæĺ¯ ä»¥
æ²Ļ åĵĳ
çĽ´èĤł çĻĮçļĦ
çĽ´èĤł æģ¯èĤī
åĸĺ æģ¯
é±¼ èĤī
å¦Ĭå¨ł åĲĪå¹¶
åĳ¨æľŁ æĢ§
åŁ¹ èĤ²
ä¹³æĪ¿ èĥĢçĹĽ
åĲĥèį¯ æİ§åĪ¶
ä¸ĢçĤ¹ çĤ¹
åĽ½ éĻħ
ä»»ä½ķ ä¸Ģç§į
ç£ģåħ±æĮ¯ ä»Ķç»Ĩæ£ĢæŁ¥
çģµ æ´»
ä¹Łæ²¡ çĶ¨
åı¯æĺ¯ æĪĳ
ä¸ģ åķī
å¹¼åĦ¿ åĽŃ
é¢Ŀ å¤´
åĪĢ åı£
æĿĢ èıĮ
æľĢå¥½åİ»åĮ»éĻ¢çļĦå¦ĩç§ĳåģļä¸Ģä¸ĭ éĺ´éģĵæ£ĢæŁ¥
æĬ¥ éģĵ
æĬĹèıĮ ç´ł
è½¦ ç¥¸
èĥ¸èħĶ éķľ
éĺ²æŃ¢è¾Ľè¾£ åĪºæ¿Ģé£Łçī©
åĮ»éĻ¢æ£ĢæŁ¥ è¯´æĺ¯
å¥½åĩł å¹´äºĨ
æ·¤ è¡Ģ
æ·¤ ç§¯
å¿ĥæħĮ æħĮ
è¦ģä¿ĿæĮģ æĦīå¿«çļĦå¿ĥæĥħ
è¯´èĩªå·± åĴ½ä¸ľè¥¿
ä¾Ŀèµĸ æĢ§
ç¾Ł åŁº
æĪĳèĩªå·± çŁ¥éģĵ
ä¼łå¯¼ éĺ»æ»ŀ
æĮĳé£Ł åģıé£Ł
è¡¥åħħå¤ļç§įç»´çĶŁç´ł å¢ŀå¼ºæĬµæĬĹåĬĽ
æī¶æŃ£ ç¥ĽéĤª
çŁŃæľŁ åĨħ
åĽłæŃ¤æ²»çĸĹä¸Ńä¸Ģå®ļç§¯æŀģäºĴçĽ¸éħįåĲĪ åĮ»çĶŁçļĦçĶ¨èį¯æĸ¹æ¡Ī
è´® èĹı
åľ¨æĹ¥å¸¸çĶŁæ´»é¥®é£Łä¸Ńä¸Ģå®ļè¦ģ åĪĩåĭ¿è¿ĩé¥¥æĪĸè¿ĩé¥±
éĺ¿ç±³ å·´
å¹¶ä¸ĶæĹ¥å¸¸çĶŁæ´»ä¸Ńè¦ģè§Ħå¾ĭ æĢ§çĶŁæ´»
çĶ¨ç§¯æŀģçļĦå¿ĥæĢģåİ»éĿ¢å¯¹ å®ĥ
å¿ĥåĨħèĨľ çĤİ
ä¸įåĲ¬ è¯Ŀ
èĢ» éª¨
å¹½éĹ¨èŀºæĹĭ æĿĨèıĮ
èĻ¹ èĨľ
æĻļä¸ĬæĢ»æĺ¯ çĿ¡ä¸įçĿĢ
éĺ²æŃ¢ç²¾ç¥ŀä¸Ĭè¿ĩåº¦çļĦç´§å¼łåĴĮ æĭħå¿§
è¯´èĩªå·±åĴ½ä¸ľè¥¿ çĸ¼
) ,
4 1
u r
± åŃĲ
¼ éħ¸
Ġ å»ºè®®
çļĦ éĩįè¦ģ
çļĦ åıĺåĮĸ
æ² ¥
æĢ§ éħ¸ä¸Ńæ¯Ĵ
æĢ§ å¿ĥåĬ¨è¿ĩéĢŁ
æĢ§ åĨ·æ·¡
ä¸Ģ æľŁ
è¦ģ åħ»æĪĲèī¯å¥½çļĦçĶŁæ´»ä¹łæĥ¯
åı¯ åĽł
åı¯ åıĳçĶŁ
åı¯ è¾¾
èį ¨
çĤ ĸ
å¥½ åĩłå¤©
éĻ Ĩ
åĴ ķ
çĤİ çļĦæİ¨èįĲèį¯æľīäºĽä»Ģä¹Ī
æł ª
åı¯ä»¥ ä¸į
åı¯ä»¥ å¼ķèµ·
ä¼ļ å¼ķåıĳ
æŀľ ç³ĸ
å¿ĥ çĹĽ
ä¸Ń æľī
ä¸ª åįĬæľĪ
æ¶ ī
åĲĥ ä¸Ńèį¯
å°± è¡Į
å¤į åĪ¶
çĺ ¾
åıĬ åħ¶ä»ĸ
éĥ¨ çĸ¼çĹĽ
å»ºè®® éĩĩåıĸ
å¾Ī éķ¿æĹ¶éĹ´
æ°´ æĿ¨
åİ» æŃ£è§ĦçļĦåĮ»éĻ¢
éķ¿ åº¦
åŃ© ç«¥
é¥®é£Ł ä¸įå½ĵ
æĺ¯ä»Ģä¹Ī çĹĩçĬ¶
éĴ Ľ
è¾ĥ ä½İ
å¹³ æī«
åı¯èĥ½ åĩºçİ°
èĤ¾ åĬ¨èĦī
åİĭ ç¼©
è§£ éĻ¤
æĬĹ çľŁèıĮ
åıĬæĹ¶ åĪ°åĮ»éĻ¢
ä¾¿ ä¾¿
æĺĵ åıĳ
ä¸įè¦ģ ä¹±
ä¸įè¦ģ çĽ²çĽ®çļĦ
çīĩ çŃī
æ¯Ķè¾ĥ åī§çĥĪ
èº«ä½ĵ ç´łè´¨
åīįåĪĹèħº çĤİçĹĩ
åĽŀ å¤į
æ± ŀ
èĢĮä¸Ķ è¿ĺæľī
åŁ İ
ç±» æĬĹçĶŁç´ł
å¼º åº¦
æľĢè¿ĳ åĩłå¤©
çĹħåĽł ç´ł
èĤī çľ¼
çº¢ è±Ĩ
éĿŀ æīĭæľ¯æ²»çĸĹ
å®¹ éĩı
çļĦæĹ¶åĢĻ å°±
çľ¼ åİĭ
è¿Ļæł· åı¯ä»¥å¸®åĬ©
æīĢä»¥ æĥ³
å£° åĥıåĽ¾
èĥ¸ èħº
èĥ¸ éª¨
èĲ¥åħ» ä¸°å¯Į
å¾® çĶŁçī©
å°ıåĦ¿ æīģæ¡ĥä½ĵåıĳçĤİ
å®¹æĺĵ å¤įåıĳ
éĺ³ åħī
æķ° åŃĹ
ç¼ĵè§£ çļĦè¯Ŀ
ä½¿çĶ¨ æ¶ĪçĤİ
èĢ³ é¼»
éģĹ å°¿
ç»Ħç»ĩ ç»Ĩèĥŀ
ç§¯æŀģ åıĤåĬłä½ĵèĤ²éĶ»çĤ¼
éĻ¤äºĨ è¦ģåıĬæĹ¶
åĳ¼ åĻľ
å¹¶ä¸Ķ è¦ģ
å¹¶ä¸Ķ è¦ģä¿ĿæĮģæĦīå¿«çļĦå¿ĥæĥħ
ä¸ŃåĮ» çļĦ
åıĮ çľ¼
ç»ıå¸¸ ä¼ļ
åı¯èĥ½ä¼ļ æľī
æĦıè§ģ ä»ħä¾ĽåıĤèĢĥ
æ¹¿ æ¶¦
ç¦ģ é£Ł
10 00
å¿ħè¦ģ çļĦ
å¾ĹåĪ° åº·å¤į
çĸ¾çĹħçļĦ åıĳçĶŁ
æĦŁåĨĴ èį¯
åħ¶ä»ĸ çĹĩçĬ¶
èĦ± åıĳ
ä¸įçŁ¥éģĵ æĺ¯ä¸įæĺ¯
å®ĥ ä»¬
èĢģå¹´ æĢ§
éĿĴ å£®å¹´
æĻ® å¤ĸç§ĳ
æ³¡ èĦļ
çĶŁéķ¿ åĽłåŃĲ
åĲĪçĲĨ çļĦé¥®é£Ł
èħ¹éĥ¨ çĸ¼çĹĽ
æĿ¿ è¯´æĪĳ
äºĶ å²ģ
çĬ¶æĢģ ä¸ĭ
éª¨æĬĺ çļĦè¾ħåĬ©æ²»çĸĹæľīäºĽä»Ģä¹Ī
å°±ä¼ļ åĩºçİ°
èĩªèº«çļĦ é¥®é£Łä»¥åıĬ
ç»ĻåŃ©åŃĲ åģļå¥½
ç¨Ģ éĩĬ
è¾¹ çķĮ
æ¼ Ķ
éļĲ åĮ¿
æľ¬åĵģ ä¸º
ç¿ ĺ
æİĴåįµ éļľç¢į
åĲĦç§į åİŁåĽł
æ¢Ĺéĺ» æĢ§
çĶŁçĲĨ æĢ§çļĦ
éĴĪçģ¸ æ²»çĸĹ
ĠĠĠĠ ĠĠĠĠ
æĢİä¹Īæł· æ²»çĸĹ
æİĴä¾¿ ä¹łæĥ¯
é£İæ¹¿ çĹħ
åĿĩè¡¡ è¡¥åħħèº«ä½ĵèĲ¥åħ»
å¾Īæĭħå¿ĥ å½±åĵįèº«ä½ĵ
ä¸Ĭè¿°çļĦçŃĶæ¡Ī å¸ĮæľĽ
åĸ· åīĤ
æīŃ ä¼¤
æĿĢ çģŃ
ä¸¤ä¸ªæľĪ äºĨ
ä¾ĭå¦Ĥ åĲĪçĲĨé¥®é£Ł
åĬ¨çī© åĨħèĦı
çļĦä¼¤å®³ æ¯Ķè¾ĥå¤§
éĥ½ä¸į æķ¢
æĤ£èĢħè¿ĺéľĢè¦ģéĩįè§Ĩ æĬ¤çĲĨæĸ¹éĿ¢
äº§åīį æ£ĢæŁ¥
ä¸ĬçıŃ çĬ¶æĢģ
çĽĳæµĭ æķ°æį®
ç£¨ çīĻ
èĩªèº«åħįçĸ« æĢ§
æĪĳä¹Ł ä¸įçŁ¥éģĵ
å½±åĵįäºĨ ä¸ĬçıŃçĬ¶æĢģ
è´²éĹ¨ çĻĮ
èĤĺ åħ³èĬĤ
åħ¼ æ²»
æĤ£èĢħæľĭåıĭçĲĨåºĶå§ĭç»Īä¿ĿæĮģ ä¹Ĳè§ĤçļĦå¿ĥæĢģ
çº¢ç³ĸ æ°´
èĳ¡èĲĦç³ĸéħ¸ éĴĻ
æĿĥå¨ģ åĮ»éĻ¢
åİ»è¿ĩ å¾Īå¤ļåĮ»éĻ¢
æĤ£èĢħçļĦé¥®é£ŁçĬ¶åĨµåĴĮæĬ¤çĲĨä¹Łæĺ¯å¾Ī éĩįè¦ģçļĦ
åĪĨè§£ ä»£è°¢
åºĨ å¤§
ä¹Łä¸įæĥ³ çļĦ
å¤´åŃ¢åħĭ èĤŁ
éĴ¡ é¤Ĳ
ä½Ĩæĺ¯çĶ±äºİæĤ£èĢħçĹħæĥħä¸įåĲĮæīĢä»¥éĩĩåıĸ çļĦåĮ»æ²»æĸ¹æ³ķä¹Łå°±ä¸įä¸Ģæł·
ä½Ŀåģ» çĹħ
æľīæĹ¶åĢĻæĦŁè§ī å¿ĥæħĮæħĮ
åĿĩè¡¡èĲ¥åħ»å¤ļåĲĥæĸ°é²ľèĶ¬èıľæ°´æŀľå¤ļåĸĿæ°´ å¿Įè¾Ľè¾£é£Łçī©
æµģé¼» è¡Ģ
ä¸Ģå®ļä¸įèĥ½å¤Ł æļ´é¥®æļ´é£Ł
è¿Ļåĩłå¤©èĢģ æĿ¿è¯´æĪĳ
å¦Ĥæŀľä¸¥éĩįäºĨ å¾Īæĭħå¿ĥå½±åĵįèº«ä½ĵ
çİ¯åŃ¢ ç´ł
ä¼´æľīè½»å¾®çļĦ åĴ³åĹ½
åħ¶å®ŀæĪĳ ä¹Łä¸įæĥ³çļĦ
èĩªèº«çļĦé¥®é£Łä»¥åıĬ å¿ĥçĲĨæĬ¤çĲĨ
è¿Ļåĩłå¤©èĢģæĿ¿è¯´æĪĳ ç²¾ç¥ŀä¸įå¥½
å¦Ĥæŀľä¸¥éĩįäºĨå¾Īæĭħå¿ĥå½±åĵįèº«ä½ĵ åĴĮå·¥ä½ľ
M D
M M
T SH
Ġ åĴ³åĹ½
çļĦ æĦŁæŁĵ
çļĦ æħ¢æĢ§
çļĦ åį«çĶŁ
çļĦ çļ®èĤ¤
çļĦ å©´åĦ¿
ä½ Ĳ
ä¸į ä¸Ģ
ä¸į åıĬæĹ¶
æ²»çĸĹ æĹ©æ³Ħ
ä¸Ģ éĥ¨åĪĨ
åı¯ åĪĨæĪĲ
æī £
å¹ »
èį¯ åºĹ
å¤ļ åĽł
èĦ ĺ
çĶ¨ æ¸©æ°´
åı¯ä»¥ è¿Ľè¡Į
åĲİ æľī
èĩ ¼
æĪĳ ä»¥åīį
æĪĳ æľĢè¿ĳæĢ»æĺ¯
æĤ£èĢħ ç¼ĵè§£
å¯¹ ç§°
ä¸ª çĸĹç¨ĭ
åĲĥ åķ¥
éħ Ĭ
è¿ĩ æĢ§
åıĬ èĲ¥åħ»
é« ģ
é¥ ¼
çŃī çļĦ
ä¹Ł åı¯èĥ½
å¤© åīį
æ´» èıĮ
åİ» çľĭ
éĺ´ å½±
å¦Ĥæŀľ åĩºçİ°
åĲĮ æŃ¥
éĩı å¤ļ
åı£ æ¸´
æĻ ¯
çĻ½ èĽĭçĻ½
èħ¹ åĨħ
æ¯Ķ å¦¥
åĨį æľįçĶ¨èį¯çī©
çĶŁæ´» æĸ¹å¼ı
æīĢ æľīçļĦ
èĤ¾ çĤİçļĦ
åĬł åİĭ
æĬĹ è¡°èĢģ
æµģ æ±Ĺ
åįµ ç£·èĦĤ
éĢļ ç»ľ
èĤº å¿ĥçĹħ
åŃ¦ æł¡
çļĦæĥħåĨµ çļĦ
ç§¯ è¡Ģ
æķĪæŀľ æīįå¥½
æĸŃ çĦ¶
æĮĩ å¾ģ
çİ°åľ¨ åıĪ
åĩł æ¬¡
èĬĤ é£Ł
èĬĤ åĪ¶
èĬĤ èĤ²
ä½Ĩæĺ¯ æĪĳæĥ³
æİĴ ç©º
èĢĥèĻĳ æľī
åĲĮæĹ¶ è¦ģå§ĭç»Īä¿ĿæĮģ
çº¢ æŁ¿
å½¢ çĬ¶
è¥¿ çº¢æŁ¿
å¦Ĥä½ķ ç¼ĵè§£
éĤ£ æł·
è¿Ļæł· çļĦè¯Ŀ
è¿Ļæł· å¯¹ä½ł
å£° å¸¦
äºĮ æĺ¯
ç»¼åĲĪ æĬ¤çĲĨ
ä¸ĢçĽ´ ä¸į
éģ¿åħį æ²¹èħ»
å®ŀæĸ½ è¯ĬæĸŃ
å·´ æ¯Ķå¦¥
ç¥Ŀ å®Ŀå®Ŀ
å¼ķèµ·çļĦ åİŁåĽł
éº Ŀ
éĨ ļ
çĶµ è¯Ŀ
éĻ¤äºĨ åĨįæľįçĶ¨èį¯çī©
åį± åıĬ
æľº æŀĦ
æīĵ éĢļ
åįĬ å°ıæĹ¶
å¹¶ä¸Ķ å¯¹çĹĩæ²»çĸĹ
èħ° èĤĮ
åĮĸçĸĹ åĲİ
æµĭ éªĮ
åıĳèĤ² è¿Łç¼ĵ
å¿ħè¦ģ çļĦæĹ¶åĢĻ
ä¹Łæĺ¯ éĿŀå¸¸
æłĵ åīĤ
çĿ¾ä¸¸ çĸ¼çĹĽ
æĤ£èĢħçļĦ çĶŁæ´»
æīģ å¹³
å®ī å®ļ
ä»¥ä¸Ĭ æĦıè§ģä»ħä¾ĽåıĤèĢĥ
åĴ³åĹ½ æ¯Ķè¾ĥåī§çĥĪ
20 14
20 11
çĽĨ æµ´
éĩĳ åĪļ
éĩĳ é»Ħèī²
éĢłæĪĲ å½±åĵį
èĦĵ æ°´
è®© å®Ŀå®Ŀ
éĥ½æĺ¯ æľīå¥½å¤ĦçļĦ
æĮī åİĭ
åĲĦ ç±»
éļı ä¾¿
å°ıåŃ© åĦ¿
æ²»æĦĪ çİĩ
åĴ¨è¯¢ åĮ»å¸Ī
åŃĲå®«åĨħèĨľ å¢ŀçĶŁ
æ°¨ éħļ
åĲĪçĲĨ çļĦ
çļĦæ²»çĸĹæĸ¹æ³ķ æľīä¸ĢäºĽ
äºĶ åĳ³
åħ¬ ç«ĭåĮ»éĻ¢
çº¦ ä¸º
é¢Ĺç²Ĵ æ²»çĸĹ
ä¸įéĢĤ åĲĪ
çľŁ èıĮæĢ§
çľŁ çļĦæĺ¯
é»ĳ ç´ł
æ¯ıå¤© æĻļä¸Ĭ
çķ¸å½¢ çļĦæīĭæľ¯æ²»çĸĹæľīäºĽä»Ģä¹Ī
è·Ł æĪĳ
çħ§ é¡¾
çĮ «
æ¼ ĵ
æłĩ å¿Ĺ
æľĪç»ıä¸įè°ĥ çļĦåĩºçİ°ä¸įä»ħä»ħä¼ļå½±åĵį
æ°¯ èĬ¬
åĪĨéĴŁ å·¦åı³
åįı è°ĥ
èĭ¥ æĺ¯
ä¹Łæ²¡ ä»Ģä¹Ī
è¯¯ ä¿¡
å®īåħ¨ æľŁ
å®ģ çīĩ
ä¼¼ ä¹İ
éŀ ĭ
æĪĳæĥ³éĹ® ä¸ĭ
åºĶè¯¥æ³¨æĦı ä¸įè¦ģ
æĤ£èĢħä¸Ģå®ļè¦ģ éĺ²æŃ¢ç²¾ç¥ŀä¸Ĭè¿ĩåº¦çļĦç´§å¼łåĴĮæĭħå¿§
æľīå¾Īå¤ļ ç§į
è®² è¿°
èļ Ģ
å¸ķéĩĳæ£® çĹħ
æŀĦæĪĲ çļĦ
èĥĨç®¡ ç»ĵçŁ³
æľĢè¿ĳæĢ»æĺ¯èĤļåŃĲ çĸ¼
åĨ¬ å¤©
çľŁèıĮ æĦŁæŁĵ
éº¦ èĬ½
ç»ıçļ® èĤ¾
çļĦåĽłç´ł æĪĸçĹħåĽł
çĹħæĥħçļĦ åıĳå±ķ
çĶ²çĬ¶èħºåĬŁèĥ½ äº¢è¿Ľ
åĴ½çĹĽ çĹĩçĬ¶
å±Ī åħī
åĵºä¹³æľŁ å¦ĩå¥³
åĪ® å®«
å¹³æ»ĳ èĤĮçĺ¤
å®¶æĹı åı²
æ³Įå°¿ç³»ç»Ł æĦŁæŁĵ
ä¸İæŃ¤åĲĮæĹ¶æĤ£èĢħè¿ĺè¦ģæ³¨æĦıéĢīæĭ©ä¸Ģå®¶ æŃ£è§ĦåĮ»éĻ¢
èµ¶ ç´§
æľīçļĦè¯´æĺ¯ çĸĿæ°Ķ
æľīçļĦè¯´æĺ¯ æ·ĭå·´åłµå¡ŀ
çĶĺæ²¹ ä¸ī
èĢĲèį¯ æĢ§
çº¦æĿŁ æĢ§çĶŁæ´»
æ»´èĢ³ åīĤ
æłĩæľ¬ åħ¼æ²»
åª ³
ä¸īåıī ç¥ŀç»ıçĹĽ
æıĲéĨĴ æĤ£èĢħä»¬
å°±æ²¡äºĭ äºĨ
èŁ ¹
æľŁæľĽå¯¹æĤ¨ æľīåįıåĬ©
åĽłæŃ¤éľĢè¦ģ æĤ£èĢħå°½å¿«
èį¨ éº»çĸ¹
è¿Ļæł·åı¯ä»¥å¸®åĬ© æĤ£èĢħç¼ĵè§£
åºĨå¤§ éľīç´ł
! !
4 3
C H
M I
Ġ æľī
Ģ åļ¼
çļĦ çĸ¼çĹĽ
çļĦ åıĳèĤ²
çļĦ äºĭæĥħ
çļĦ åĮĸçĸĹæľīäºĽä»Ģä¹Ī
çļĦ æĳĦåıĸ
æĺ¯ ä¼ļ
æĺ¯ ä¸įèĥ½å¤Ł
æľī çĹĩçĬ¶
æľī åķ¥
æľī å¾Īå¤§
æľī å¾Īå¥½çļĦ
æľī çĶ¨åĲĹ
è¿ ª
å® ¿
æĢ§ æł¼
åıĳ æĬĸ
èĥ½ çĹĩ
åĴ Ģåļ¼
åı¯ä»¥ çļĦ
æĿ İ
éģ ®
æĪĳ æľĭåıĭ
æĪĳ åĽ½
å¤§ äºº
å¤§ åıĳä½ľ
ä¸ĭ æĸ¹
ä¸ĭ ä¸ĺèĦĳ
ä¸Ĭ åįĪ
ä¸Ĭ å°ıåŃ¦
åĲĥ å¾Ĺ
éħ µ
ä¸º ä¸Ģ
æĿ¥ åĨ³å®ļ
è¿ĩ å°ĳ
ä¹Ł æ²¡æľīä»Ģä¹Ī
çĹĩçĬ¶ åĲİ
å°¿ å´©
æĶ »
éľĢè¦ģ å¢ŀåĬłèĲ¥åħ»è¡¥åħħç»´çĶŁç´łå¾®éĩıåħĥç´ł
è° ¨
èĦĳ æįŁä¼¤
èĦĳ çĸĿ
èĦĳ åŀĤä½ĵ
åŃ©åŃĲ åĩºçİ°
åŃ©åŃĲ æĮĳé£Łåģıé£Ł
åı£ èĭ¦
åİŁ ä½į
æĻ °
éĥ½ è§īå¾Ĺ
èħ¹ ä¸»åĬ¨èĦī
ä¸ĢèĪ¬ éĩĩçĶ¨
èĤł ç®¡
åĨį éĢł
èĥĥ é£Łç®¡
åĬł åĳ³
åħ³ éĹŃ
è¯·éĹ® ä¸Ģä¸ĭ
åıĺ å°ı
è¯¥ æĢİæł·æ²»çĸĹ
æĸ¹æ³ķ æĺ¯
ä¾¿ æĦı
æĥ³ äºĨè§£
åĮħ è£¹
ä¹ĭ ç±»
åħ¨ ç¨ĭ
èĤĮ å±Ĥ
çīĩ çĬ¶
æŃ£å¸¸ åĢ¼
çİ°åľ¨ æĪĳ
å¦ĩ çĤİ
å¸¦ å®Ŀå®Ŀ
å¸¦ ä»ĸ
é»Ħ è±Ĩ
çª į
ä¸¤ èĻļ
åİ»åĮ»éĻ¢ ä¹Ł
å¯¹çĹĩ è§£åĨ³
åŃĲå®« åĨħ
æľĢè¿ĳ èĥ¸åı£
çº¢ å¤ĸçº¿
éĺ´éģĵ çĤİçĹĩ
å¦Ĥä½ķ å¤ĦçĲĨ
èĽ İ
ä¸ĢäºĽ æľī
éĿĻ æ»´
è½» éĩį
åĨįæ¬¡åĩºçİ° çļĦ
åıĳçİ° æĺ¯
å¯¹äºİ å®¶éķ¿
å¾ĹäºĨ çĻ«çĹ«
äº¤ éĢļ
ä¸ŃåĮ» ä¸Ńèį¯æ²»çĸĹ
çĶ²çĬ¶èħº èĤ¿å¤§
åħ³èĬĤ çĸ¼çĹĽ
å¥¶ å¥¶
éĴĻ è´¨
åı¯èĥ½ä¼ļ å¯¼èĩ´
å¤§ä¾¿ å¸¸è§Ħ
åį³ ä¾¿
åĲ« ç³ĸ
çī¹åĪ« æ³¨æĦı
å»ºè®®ä½ł è¿ĺæĺ¯
éĢĤå½ĵ æ´»åĬ¨
æł¸ ç´ł
æĪĳçļĦ åŃ©åŃĲ
æĪĳçļĦ å®Ŀå®Ŀ
æĽ² å®ī
å¿ĥèĦı ä¸įèĪĴæľį
ç³ĸå°¿çĹħ è¶³
åĽ´ æľ¯
å¸ĮæľĽ æĤ£èĢħåı¯ä»¥æł¹æį®åĮ»çĶŁçļĦæĦıè§ģ
åĳ³ éģĵ
æĺ¯åĲ¦ éľĢè¦ģ
éĻĦ å±ŀ
æ²»æĦĪ åĲİ
çĶŁéķ¿ æ¿Ģç´ł
æĤ£èĢħåľ¨ æ²»çĸĹæľŁéĹ´
æĤ£èĢħåľ¨ æķĳæ²»æľŁéĹ´
äºĶ åŃĲ
æ²Ļ å¿ħåĪ©
æ¶ĪçĤİ æ²»çĸĹ
å¤ĸç§ĳ æ²»çĸĹ
è½¬ç§» æĢ§
çĻĮçļĦ æĶ¾å°Ħæ²»çĸĹæľīäºĽä»Ģä¹Ī
éķ¿æĹ¶éĹ´ çļĦ
åĲĥäºĨ èį¯
å®¶éķ¿ åºĶè¯¥æ³¨æĦıä¸įè¦ģ
é¦Ļ èıĩ
éĢĲ æŃ¥
æĬĬ æĪĳ
æ¦ ´
åı¯ä»¥æľįçĶ¨ ä¸ŃæĪĲèį¯
è¯¦ç»Ĩ çļĦ
çĶŁèĤ² èĥ½åĬĽ
æĪĳå®¶ å¥³å®Ŀ
ä¹³å¤´ åĨħéĻ·
ç®Ģ ç§°
åħ»æĪĲ åŃ©åŃĲæĮĳé£Łåģıé£Ł
çĶŁåŃĺ ä¸Ń
èĭ¯ å¦¥
é£Łæ¬² åĩıéĢĢ
æĶ¯æĮģ æ²»çĸĹ
è¿ĩå¤ļ çļĦ
å¾Īå®³æĢķ åķĬ
å¥½åĥı ä½İçĥ§
éĺ´åĽĬ æ½®æ¹¿
æĤ£èĢħéľĢè¦ģ åģļåĪ°
åĺ´ åĶĩ
èļ Ĭ
å¤ļåĲĥæĸ°é²ľ çļĦ
çĬ¯ çĹħ
æĤ£èĢħçļĦé¥®é£ŁçĬ¶åĨµåĴĮå¿ĥçĲĨçĬ¶æĢģä¹Łæĺ¯ å°¤ä¸ºéĩįè¦ģ
æĪĲåĬŁ çİĩ
è¯´è¯Ŀ çļĦæĹ¶åĢĻ
èĦĳçĶµåĽ¾ æ£ĢæŁ¥
æł¹æį®æĤ¨ æīĢ
ç¾Ĭæ°´ ç©¿åĪº
è¿Ļç§įçĸ¾çĹħä¸įæĺĵ ç¼ĵè§£
æĬĹè¡¡ çĸ¾çĹħçļĦä¿¡å¿µ
çĽ¸åºĶ çļĦ
éĺ¿èİ«è¥¿æŀĹ èĥ¶åĽĬ
åıĹä½ĵ éĺ»æ»ŀåīĤ
åħ¶å®ŀå¾ĹäºĨ æĻ®éĢļå¤ĸç§ĳçĸ¾çĹħ
æĿĲ æĸĻ
ãĢĭ ï¼ļ
å·© èĨľ
ä¸ªå¤ļæľĪ äºĨ
éĤ» å±ħ
æĶ¾æĿ¾ å¿ĥæĥħ
ç»ĵç¼Ķç»Ħç»ĩ çĹħ
æĿľ ç»Ŀ
å¼ºçļĦ æĿ¾
åĮ»çĶŁä¼ļ å»ºè®®
ç²ĳ ç²ĳ
å¤ļå·´ èĥº
èħĵ éª¨
çī¡ èĽİ
ä¸ĢçĽ´éĥ½æ²¡ éĢĢ
æĤ£èĢħæľĭåıĭåºĶå½ĵ ä¿ĿæĮģèī¯å¥½çļĦå¿ĥæĢģ
çĽ¸ä¿¡è¿Ļæł·ä¸Ģå®ļèĥ½ å¾ĹåĪ°åº·å¤į
åıªæľīè¿Ļæł·æīįèĥ½æıĲé«ĺæĤ£èĢħ å¯¹æĬĹ
æĤ£èĢħçļĦåħįçĸ«åĬĽä»¥åıĬ æĬĹè¡¡çĸ¾çĹħçļĦä¿¡å¿µ
çŁ® å°ı
å¾Īé«ĺåħ´ä¸ºæĤ¨ è§£æĥĳ
çĶ²æ°¨ èĿ¶åĳ¤
éĩĳéĶģ åĽºç²¾ä¸¸
éºĿ é¦Ļ
å®¶éķ¿åºĶè¯¥æ³¨æĦıä¸įè¦ģ åħ»æĪĲåŃ©åŃĲæĮĳé£Łåģıé£Ł
å¥½åĥıä½İçĥ§ ä¸ĢçĽ´éĥ½æ²¡éĢĢ
æĤ£èĢħéľĢè¦ģåģļåĪ° é¥®é£ŁæľīèĬĤ
åħ¶å®ŀå¾ĹäºĨæĻ®éĢļå¤ĸç§ĳçĸ¾çĹħ å¹¶ä¸įåı¯æĢķ
å®¶éķ¿åºĶè¯¥æ³¨æĦıä¸įè¦ģåħ»æĪĲåŃ©åŃĲæĮĳé£Łåģıé£Ł çļĦæ¯ĽçĹħ
0 5
5 8
o s
Ġ ï½ŀ
ä¸ ¢
çļĦ çĹħæĥħ
çļĦ è´¹çĶ¨
çļĦ å¦ĩå¥³
çļĦ æľºä¼ļ
äº ®
çĶ Ļ
æĺ¯ æĹ©æ³Ħ
æľī äºĭ
æľī è¿Ļä¸ªæ¯ĽçĹħ
ç» Ģ
ä¸į å°½
ä¸į å¤įåıĳ
æ²»çĸĹ åĴĮ
æĢ§ åħ³èĬĤçĤİ
è¦ģ çĶ¨
è¦ģ å¦Ĥä½ķæ²»çĸĹ
è¦ģ ç«ĭåĪ»
åı¯ å¯¹çĹĩ
èħ ¾
èĥ½ ç¼ĵè§£
å¦ Ħ
æŃ §
åı¯ä»¥ äºĴçĽ¸éħįåĲĪ
åĲİ åĩºè¡Ģ
å¤§ èĩ´
å¤§ éĿ¢ç§¯
ä¸Ń èĢģå¹´äºº
å¯¹ çĹħæĥħ
å¯¹ çĶ·æĢ§
æ¶ İ
åĲĥ è®¸å¤ļ
å°± å¥½
çĲĨ æ°Ķ
éħ ŀ
çŃī è¡¨çİ°
æĢİä¹Ī ç¼ĵè§£
æĢİä¹Ī è°ĥçĲĨ
æ³¨ éĩį
å»ºè®® å¤ļé¥®æ°´
æģ Ĵ
å¾Ī æŃ£å¸¸
åİ» åģļäºĨ
åİ» å½ĵåľ°
éľĢè¦ģ åĲĪçĲĨé¥®é£Ł
èį¯çī© å¦Ĥ
æ²¡ ä»»ä½ķ
æ²¡ æĿ¥æľĪç»ı
åĲĹ ä¸ģåķī
é¥®é£Ł åĴĮ
æĺ¯ä»Ģä¹Ī éĹ®é¢ĺ
çĿ «
è¯´ ä»ĸ
èĦĳ åĨħ
çĻ½ å¡ŀ
å¢ŀ æ¶¨
éĥ½ æĺ¯åı¯ä»¥
å¹³ ç¨³
èĬ ©
æ¸ħ çĲĨ
ä½Ĩ åľ¨
ä½Ĩ å¦Ĥæŀľ
éª¨ èĨľ
åĢ ¡
åħ¶ åıį
ä½İ ç³ĸ
ä½İ æ°§
æĽ ¼
åºĬ ä¸Ĭ
æł¹æį® æĤ£èĢħçļĦ
æķĪæŀľ å¾Īå¥½
æ¯Ķè¾ĥ å¿«
æ¯Ķè¾ĥ ä¸¥éĩįçļĦè¯Ŀ
æīį çŁ¥æĻĵ
èº«ä½ĵ ä¸įéĢĤ
åīįåĪĹèħº çļĦ
å¸¦ çĿĢ
æĢĢ ä¸įä¸Ĭ
çª ĺè¿«
ç¥ŀç»ı å®ĺ
ä¿ĿæĮģ æ¸ħåįķ
æľĪç»ı ç´Ĭä¹±
è¾ħåĬ© æ£ĢæŁ¥
ä¸»è¦ģ çļĦ
ä¸»è¦ģ åİŁåĽł
ä¸»è¦ģ æĪĲåĪĨ
ä¸»è¦ģ è¡¨çİ°åĩºä¸º
åĪºæ¿Ģ å¯ĴåĨ·é£Łçī©
æĸ½ æ²»
èĢĮä¸Ķ æľŁéĹ´
æİĴ åĪĹ
çģ ¯
ä¸¤ ä¸īå¤©
åİ»åĮ»éĻ¢ çľĭè¿ĩ
èĢĥèĻĳ æīĭæľ¯æ²»çĸĹ
åĪ« æīŃ
è¡Ģç®¡ ç´§å¼ł
åĲĮæĹ¶ é¥®é£Łä¹Łè¦ģ
åŃĲå®« èĦ±åŀĤ
éĿŀ åħ¸åŀĭ
å¤± è¯Ń
æ¯ı ä¸ªäººçļĦ
åĮħçļ® éķ¿
èĩªå·± åĴĮèħ¹
å·¦ å®¤
å·¦ æĹĭ
éĺ²æŃ¢ å¤įåıĳ
éĺ²æŃ¢ æĵįåĬ³
äºĮ éĨĩ
æģ¶ éľ²
éħį æĸ¹
å·¥ ä¸ļ
è£ ¸
åı³ æīĭ
çĪ Ĩ
åıĳçİ° çļĦæĹ¶åĢĻåıĬæĹ¶æ²»çĸĹ
å¥³æĢ§ æĤ£èĢħåı¯ä»¥
ä¸ĵ éĹ¨
æ´Ĺ åĩĢ
å½±åĥı åŃ¦æ£ĢæŁ¥
ä½łçļĦ åŃ©åŃĲ
å±Ģéĥ¨ çĶ¨èį¯
ç§¯æŀģ æķĳæ²»
çĶ¨èį¯ åĲİ
åĽłæŃ¤ éľĢè¦ģæľī
æīĵ ç®Ĺ
çĽ®åīį è¿ĺæ²¡æľī
æľīçĤ¹ æ²Ļåĵĳ
çĶ²çĬ¶èħº çĸ¾çĹħ
æĹ©æľŁ è¯ĬæĸŃ
èĻļ å¯Ĵ
åĳ¼åĲ¸ æľº
åı¯èĥ½ä¼ļ åĨįæ¬¡åĩºçİ°
åĻ¨ è´¨
éĢĢ è¡ĮæĢ§
å»ºè®®ä½ł åħĪ
æ¤İ å¼ĵ
ç¡®è¯Ĭ æĺ¯
æīģ è±Ĩ
åºĶå½ĵ çķĻæĦı
è¡¥åħħ èĽĭçĻ½è´¨
æ³¨å°Ħ èį¯çī©çŃī
çĲĥ åĽĬ
æľŁæľĽ ä¸Ĭè¿°çļĦçŃĶæ¡Īåı¯ä»¥å¸®åĬ©åĪ°ä½ł
çł´ äºĨ
åĲĦ ä¸ª
åĺ Ľ
æ´ģ å°Ķ
èįī èİ
èĥİåĦ¿ éĥ½æĺ¯æľīå¥½å¤ĦçļĦ
æ¯Ķå¦Ĥ æĹ¥å¸¸æ¸ħæ·¡é¥®é£Ł
æĶ¯æ°Ķç®¡ éķľ
èģĶåĲĪ æ²»çĸĹ
èľ ĺ
çĻ«çĹ«çĹħ æĤ£èĢħ
èħ¿ çĸ¼
ç»ĻåŃ©åŃĲ å®īæİĴ
äºĴçĽ¸éħįåĲĪ è®¸å¤ļ
åĨ³ äºİ
æĮģç»Ń æĹ¶éĹ´
åľ¨ä¹İ çļĦå¸®åĬ©
åŁºç¡Ģ ä¸Ĭ
ä¼¤å®³ æ¯Ķè¾ĥå°ı
æİĴåįµ æĹ¥
ä¸Ģä¸ªæľĪ åīį
åĽ½ å®¶
èĸ ı
è¯¦ç»Ĩ çļĦæ£ĢæŁ¥
è¡Ģæłĵ æĢ§
åħ´ è¶£
çĸĹæķĪ ç¡®åĪĩ
å¤´åŃ¢ èıĮç´ł
ç¿» èº«
çĿ¡è§ī æĹ¶
åı¯ä»¥èĢĥèĻĳ åģļ
é¥®é£Łä¸Ĭ ä¸Ģå®ļè¦ģæ³¨æĦı
å¹²åĩĢ åĲİ
ä¸ŃçļĦ èĥİåĦ¿éĥ½æĺ¯æľīå¥½å¤ĦçļĦ
æĤ£èĢħè¦ģ åĿĩè¡¡è¡¥åħħèº«ä½ĵèĲ¥åħ»
çĮª èĤī
èļ ķ
è¾ĵå°¿ç®¡ ç»ĵçŁ³
ä¾ĭå¦Ĥ é¥®é£Łæ¸ħæ·¡
éĵ¶ æĿı
éľĢè¦ģæľīéķ¿æľŁ çļĦèį¯çī©æ²»çĸĹ
çīµ æĭī
è§Ĩç½ĳèĨľ çĹħåıĺ
-- --
å¼¹ åĬĽ
æĩ Ĵ
éª¶ é«Ĥ
å¯» åĪ°
æĹłæķĪ æĹ¶
åĵªä¸ª åĮ»éĻ¢
ä¸įå¿ħ æĭħå¿ĥ
å£°éŁ³ åĺ¶åĵĳ
å£°éŁ³ æľīçĤ¹æ²Ļåĵĳ
æģĲ æĢķ
é¥¥ é¥¿
å¦Ĥæŀľä¸įåıĬæĹ¶æ²»çĸĹä¼ļå½±åĵįåĪ° åıĹåŃķæĥħåĨµ
è¾ĵç²¾ç®¡ åłµå¡ŀ
èĤ¾å°ıçĲĥ èĤ¾çĤİ
ä¹Łè¦ģæ³¨æĦı ç»ĻåŃ©åŃĲå®īæİĴ
éĿ¢èī² èĭįçĻ½
ä¸ĸ çķĮ
åıªè¦ģåľ¨æĹ©æľŁ åıĳçİ°çļĦæĹ¶åĢĻåıĬæĹ¶æ²»çĸĹ
ä¸įè¦ģæľī ä»»ä½ķçļĦ
åĲĮæĹ¶çľĭéĩį èĩªèº«çļĦæĬ¤çĲĨ
åĿĲéª¨ ç¥ŀç»ıçĹĽ
åı¦ä¸Ģ æĸ¹éĿ¢
é³ŀçĬ¶ ç»ĨèĥŀçĻĮ
æ°¸ ä¹ħ
å¤Ħå¥³ èĨľ
ä¸ŃæĢ§ ç²Ĵç»Ĩèĥŀ
çĽĹ æ±Ĺ
åĩºå¤ĸ æ´»åĬ¨
ä¸Ī å¤«
ä¸Ĭè¿°çļĦçŃĶæ¡Īå¸ĮæľĽ åı¯ä»¥å¸®åĬ©åĪ°æĤ¨
æĸŃçĦ¶ ä¸įåı¯
è¿Ļæł·å¯¹ä½ł èĩªå·±åĴĮèħ¹
éģ¿åħįæ²¹èħ» åĴĮè¾Ľè¾£
ä¸İæŃ¤åĲĮæĹ¶æĤ£èĢħè¿ĺè¦ģæ³¨æĦıéĢīæĭ©ä¸Ģå®¶æŃ£è§ĦåĮ»éĻ¢ è¯Ĭæ²»
è¯´è¯ĿçļĦæĹ¶åĢĻ å£°éŁ³æľīçĤ¹æ²Ļåĵĳ
è¦ģç«ĭåĪ» åİ»ä¸ĵä¸ļæŃ£è§ĦçļĦåĮ»éĻ¢è¯ĬçĹħ
èĢĮä¸ĶæľŁéĹ´ è¦ģæ³¨æĦıå¤ļä¼ĳæģ¯
åĲĮæĹ¶é¥®é£Łä¹Łè¦ģ ä¿ĿæĮģæ¸ħåįķ
ä¸įè¦ģæľīä»»ä½ķçļĦ å¿ĥçĲĨåİĭåĬĽ
è¿Ļæł·å¯¹ä½łèĩªå·±åĴĮèħ¹ ä¸ŃçļĦèĥİåĦ¿éĥ½æĺ¯æľīå¥½å¤ĦçļĦ
4 4
5 3
u l
ï¼ ĭ
çļĦ å°±æĺ¯
ä¹ ĥ
ä¹ ĺ
åĲ Ľ
çĸ ½
æĺ¯ æŃ£å¸¸
æĺ¯ çĶ·æĢ§
ä¸į åºĶ
ä¸į åħ¸åŀĭ
åĨ Ľ
è¦ģ å¤ļåĲĥæ¸ħæ·¡ç¨Ģè½¯çļĦé£Łçī©
çī Į
æ³ ®
å¥½ ä¹łæĥ¯
èį¯ æķĪ
å¤ļ åĻ¨å®ĺ
å¤ļ æĻĴå¤ªéĺ³
å¤ļ åĩºå¤ĸæ´»åĬ¨
äºĨ ä¸Ģä¸ĭ
åį °
åľ¨ æĢĢåŃķ
åĲİ èĥĮ
æĪĳ å¹³æĹ¶
æĪĳ åĪļ
æĪĳ æ¯įäº²
å¤§ é»Ħ
å¤§ è¡¥
å¤§ æŀ£
ä½ł æĺ¯
æ¶ ©
åĲĥ å¤ļäºĨ
çŃ ĸ
è¿ĩ é¢ĳ
åıĬ æķĪæŀľ
çĹĽ çļĦ
åĨħ éĥ¨
æĸ¹ åĲĳ
çŃī ç¦»åŃĲ
æĪĸ ä¸į
å»ºè®® åıĬæĹ¶çļĦ
æį ı
å°¿ ç´ł
å°¿ èĽĭçĻ½
å°¿ å¸ĥ
åĬ¨ æīĭæľ¯
åĬ¨ éĿĻèĦī
èį¯çī© æĢ§
çŁ ¾
èĤĿ è½¬ç§»
èĩª ä»İ
è¯´ åĹĵåŃĲ
å¾Ĺ åħ¶åıį
è¾ĥ å¤§çļĦ
åı£ åĶĩ
çľĭ çĹħ
éĥ½ æŃ£å¸¸
è¡¨ æĺİ
åĬł ä»¥
åĬł æĿĥ
éĿ¢ æĿ¡
æµģ èĦĵ
æµģ é»Ħæ°´
è¯·éĹ® æĢĢåŃķ
èĦī ç®¡
ä½İ è¡Ģ
ä¹³ æĻķ
åĬŁèĥ½ åĩıéĢĢ
åĪº åĩ»
èĤº åĨħ
ä¸įè¦ģ éļıæĦı
è¿Ľè¡Į æīĭæľ¯
èĤĮ åĬĽ
æ¯Ķè¾ĥ å¸¸çĶ¨çļĦ
åĩı ç¼ĵ
å¹² åĴ³
ä¸Ģå®ļ ç¨ĭåº¦
å°Ħ çº¿
ä¸İ åħ¶ä»ĸ
è¿Ļä¸ª çĹĩçĬ¶
ä½Ĩæĺ¯ åĲĥèį¯
ä¸¤ æĿ¡
éĹ®é¢ĺ æııè¿°
åıĹ åİĭ
åıĹ éĺ»
ä¸ªæľĪ çļĦå®Ŀå®Ŀ
è¾ĵ æ³¨
çº¢ èĸ¯
å¸® åĪ°ä½ł
å®«é¢Ī çĤİçļĦ
è¾Ľè¾£ çļĦé£Łçī©
æ³Į ä¹³
é£İ çĥŃ
æīĢä»¥ è¦ģ
è½» èĢħ
æħ¢æĢ§ èĤ¾çĤİ
æħ¢æĢ§ æĶ¯æ°Ķç®¡çĤİ
å°ıåĦ¿ çĻ«çĹ«
å°ıåĦ¿ èĤºçĤİ
å°ıåĦ¿ çĸĿæ°Ķ
äºĮ æ°§åĮĸ
æľĢå¥½ åľ¨
æķ° åĢ¼
æĢİæł· è¯Ĭæ²»
å·²ç»ı ç»ĵæĿŁ
æ¶ĪåĮĸ èº«ä½ĵèĲ¥åħ»
ç¥Ŀ æĦ¿
æ´Ĺ åīĤ
æľ¯åĲİ çļĦ
å¯¹çĹĩæ²»çĸĹ åİŁåĪĻ
åįģ åħ«
åıĸ åĨ³äºİ
äº¤ çķĮ
å¸¸è§ģ çļĦçĹĩçĬ¶
åıĮ é»Ħè¿ŀ
ç»ıå¸¸ åĬłçıŃ
åĲ« éĴĻ
æįŁä¼¤ çļĦçĹħåĽłæĺ¯ä»Ģä¹Ī
åįµå·¢ çĤİ
ä¹Ļ åŀĭ
æ¤İ æĿ¿
å¤ĸéĺ´ éĥ¨
å¿ĥèĦı å½©è¶ħ
åıĳä½ľ çļĦ
è£Ĥ ä¼¤
æľŁæľĽ ä¸Ĭè¿°çļĦçŃĶæ¡Ī
æĸĳ çĤ¹
åĲĦ ä½į
åĲĦ é¡¹
å¼± éĺ³æĢ§
è±Ĩ æµĨ
èĳ ¡
çļĦæ²»çĸĹæĸ¹æ³ķ ä¹Łå°±ä¸įä¸Ģæł·
å¤ļåĸĿæ°´ ä¹Łè¦ģ
æ¯Ķå¦Ĥ æģ°å½ĵé¥®é£Ł
åıĳè§ī çĹĩçĬ¶åĲİ
éĥ¨åĪĨ åĪĩéĻ¤æľ¯
æĺ¯æĢİä¹ĪåĽŀäºĭ åķĬ
è¿ĩæķı ä½ĵè´¨
çľŁ æĢ§
çĹ° æ¶²
æģ¶å¿ĥ å¹²åĳķ
ç¤ ¼
å®Įåħ¨ æģ¢å¤į
ç¾İ å®¹
éĶĻ çļĦ
è¡Ģç³ĸ é«ĺ
åĬłå¼º è¿ĲåĬ¨
å¤ľ éĩĮ
ç»ĵèĤł æģ¯èĤī
åħĪå¤©æĢ§ å¿ĥèĦıçĹħ
è¿Ł åıĳæĢ§
èĤĮèĤī èĲİç¼©
æ¥ Ĥ
ç¼ºè¡Ģ ç¼ºæ°§
ä¸Ģå¹´ å¤ļäºĨ
çĺĢ è¡Ģ
åĴĭ æ²»
çļĦæĹ¶éĹ´ äºĨ
åģĩ åįķèĥŀèıĮ
æĪĳå®¶ çļĦåŃ©åŃĲ
å±± æ¥Ĥ
æ»ĳ ç²¾
æĳ© æĵ¦
æĺı åİ¥
èµ·æĿ¥ äºĨ
æĸ¹æīįèĥ½ å¯¹çĹĩä¸ĭèį¯
ä¸įå¤ª å¥½
åĽĽèĤ¢ æĬ½æĲĲ
å»¶éķ¿ çĶŁåĳ½
ä¸ĢçĽ´éĥ½ æľīçĤ¹åıĳçĥ§
èĢĥéĩı æĺ¯
çĻ½è¡Ģ çĹħçļĦ
å·¨ ç»Ĩèĥŀ
èĥ¸éĹ· çļĦæĥħåĨµ
èģļ çĦ¦
ç§¯æŀģæ²»çĸĹ ä¹ĭå¤ĸ
åĺ´ éĩĮ
å¦ĤæŀľåŃ©åŃĲ å¾ĹäºĨ
éĵ¶ å±ĳ
ä¸»è¦ģçĹĩçĬ¶ æĺ¯
åĨłçĬ¶åĬ¨èĦī éĢłå½±
ä¸¤å¹´ åīį
çĭ¬ çī¹
éĺ²æŃ¢è¾Ľè¾£ æīĵåĩ»é£Łçī©
åĳĬè¯ī æĤ¨
èĥ¸çĹĽ èĥ¸éĹ·çļĦæĥħåĨµ
æĢ§æ¿Ģç´ł åħŃé¡¹
æĲŃ æ¡¥
ä¸įè¦ģéģ¿ è®³
å¦Ĥæŀľä¸įåıĬæĹ¶æ²»çĸĹä¼ļå½±åĵįåĪ° åģ¥åº·æĥħåĨµ
é¢ŀ åı¶
ä¸įæĢİä¹Ī ç®¡çĶ¨
ä¸įæĺİ åİŁåĽł
èĽĽ çĹ£
ä¸ªä½ĵ åĮĸ
é«ĺé¢ĳ è¶ħå£°
åľ¨æĹ¥å¸¸çĶŁæ´»ä¸Ń æĤ£èĢħè¦ģåĿĩè¡¡è¡¥åħħèº«ä½ĵèĲ¥åħ»
çĭĤ çĬ¬
æĹº çĽĽ
æĢ»æĺ¯åĩºçİ° èĥ¸çĹĽèĥ¸éĹ·çļĦæĥħåĨµ
èħºæł·ä½ĵ èĤ¥å¤§
éľĢè¦ģæľīéķ¿æľŁçļĦ æľįé£Łèį¯çī©
æ°ŁåĵĮ éħ¸
è¿Ľè¡Įè¯¦ç»Ĩ æ£Ģæµĭ
èĤºå¤§ æ³¡
çĶĺéľ² éĨĩ
éĻ¤äºĨè¦ģæľįèį¯ æ²»çĸĹå¤ĸ
æĭ®æĬĹ åīĤ
å¼Ģå¡ŀ éľ²
åĮ»éĻ¢æ£ĢæŁ¥è¯´æĺ¯ åĳ¼åĲ¸éģĵçĸ¾çĹħ
èĢ³é¼» åĸī
åĿĩè¡¡èĲ¥åħ»å¤ļåĲĥæĸ°é²ľèĶ¬èıľæ°´æŀľå¤ļåĸĿæ°´å¿Įè¾Ľè¾£é£Łçī© æ³¨æĦıä¼ĳæģ¯
ĠåĴ³åĹ½ åĬłéĩį
åª³ å¦ĩ
åĽłæŃ¤éľĢè¦ģæĤ£èĢħå°½å¿« åİ»ä¸ĵä¸ļ
ä¸Ĭå°ıåŃ¦ äºĨ
æľĢè¿ĳèĥ¸åı£ æĢ»æĺ¯åĩºçİ°èĥ¸çĹĽèĥ¸éĹ·çļĦæĥħåĨµ
æ´ģå°Ķ éĺ´
èįīèİ ĵ
èľĺ èĽĽçĹ£
ä½Ĩæĺ¯åĲĥèį¯ ä¸įæĢİä¹Īç®¡çĶ¨
ä¸įè¦ģéģ¿è®³ å°±åĮ»
P T
e m
çļĦ çĶŁéķ¿åıĳèĤ²
æľ Ĺ
ä» ²
æĢ ł
æĺ¯ åĽł
æľī åĪ©
æľī æľº
ä¸į åĲĪ
ä¸į ä¼ĳ
ä¸į æŃ£ç¡®
ä¸į æ¶²åĮĸ
æ²»çĸĹ æİªæĸ½
æ²»çĸĹ è¯ķè¯ķ
æĢ§ æĬ¤çĲĨ
ä¸Ģ ç²Ĵ
åı¯ åģļ
åı¯ éĢīæĭ©
ä»Ģä¹Ī éĹ®é¢ĺ
çĤ Ķ
å¼ ĥ
æĥ ķ
æĤ ²
å¤ļ é¥®
èĥ½ å¸®åĬ©
èĥ½ æľīæķĪ
è¡Ģ HCG
æ£ ķ
èĢħ åºĶ
åı¯ä»¥ æł¹æį®
åı¯ä»¥ æīĭæľ¯æ²»çĸĹ
æĥħ å¿Ĺ
åĲİ ä¼ļ
æ£ĢæŁ¥ çļĦ
æ£ĢæŁ¥ æĺ¯
è¿Ļ æĺ¯ä¸įæĺ¯
ç»ı ç»ľ
åĴĮ èĢģåħ¬
åĴĮ èĢģå©Ĩ
å¤§ éĹ®é¢ĺ
ä¸ĭ è¡Į
ä¸ĭ æ®µ
æīĭæľ¯ ä»¥åĲİ
éħ ª
ç´ł çīĩ
æĿ¥ è¿Ľè¡Į
çŃī éĥ½
çŃī åľ°
çŃī çİ°è±¡
å¤ĸ æĦŁ
å¤ĸ éĿ¢
ä¹Ł ä¼ļæľī
éĩį çļĦ
è¿ĺ åİŁ
å»ºè®® æĺ¯åı¯ä»¥
èĤ¿ çĸ¼
èµ ĺ
éķ¿ æķĪ
èĩª æħ°
èı ²
è¯Ĭ çĸĹ
çĸ¾çĹħ çļĦæ²»çĸĹæĸ¹æ³ķæľīå¾Īå¤ļ
å¾Ĺ è¿ĩ
ä½ľ åĩº
èĻ ±
èĢĮ ä½¿
èĢĮ å¼ķèµ·
çĻ½ åĩ¤
ç²¾ åĬĽ
éĥ½ è¯´
åı¯èĥ½ æľī
åı¯èĥ½ å¼ķèµ·
èĬ İ
éĺ² å¾¡
èĥĥ çĻĮçļĦ
æ¶Ī é£Ł
èĤ¾ ç§»æ¤į
æµģ è¡Į
æµģ è¡ĮæĢ§
è¯·éĹ® åŃķå¦ĩ
ä¹³ åĮĸ
ä¹³ çªģ
å¼ķèµ· éĩįè§Ĩ
éħ¸ è½¯
ä½łå¥½ åĮ»çĶŁ
çļĦæ²»çĸĹ åĲİ
å²ģ æķ°
å²ģ åįĬ
ä¸įè¦ģ å¤ªè¿ĩ
å®¶ å±ŀ
èĤ² é¾Ħ
å®Ŀå®Ŀ åĲĥ
ä¸ī çº§
è¿Ļç§į çİ°è±¡
è¾ħ ä»¥
å¸¦ æľī
éĢĤ åº¦
éĢĤ å¾Ĺåħ¶åıį
ä¸»è¦ģ ä¸º
ä½Ĩæĺ¯ æķĪæŀľä¸įæĺİæĺ¾
ä½Ĩæĺ¯ è¿ĩä¸Ģä¼ļ
å¹³æĹ¶ åı¯ä»¥
æİĴ æ¯Ĵ
ä¸¤ æĢ§
ä¸¤ ä¸ī
éĹ®é¢ĺ ä¸įå¤§
æĢİä¹ĪåĬŀ ä¼¤å®³æ¯Ķè¾ĥå°ı
æĶ¾ ç½®
è¾Ľ èĭ¦
èĦı èħĳ
æĢ» ç§°
åĮħçļ® çĤİ
çĸ« æĥħ
èĥ¸ æ¤İ
çķĻæĦı åį«çĶŁ
é¢Ħéĺ² éĴĪ
ç½ ª
æĸ° éĻĪ
è§Ĩ è§ī
å°ıåĦ¿ èħ¹æ³»
å®¹æĺĵ åıĳçĶŁ
ä½ľçĶ¨ äºİ
åı³ çľ¼
åĬ¨èĦī éĹŃå¡ŀ
å¾ģ åħĨ
çİ¯ èĬĤ
çİ¯ ç£·
å¤ª å°ı
åħįçĸ« æĢ§
åħįçĸ« ç¼ºéĻ·
åĪ© ç¦ı
ä¼´ éļıçĿĢ
è¦ģæ³¨æĦı ä¿ĿæĮģ
èį¯çī©æ²»çĸĹ çļĦ
å¯¹çĹĩæ²»çĸĹ ä¹ĭå¤ĸ
å¿Į éħĴ
èħ° èĨĿ
ä¹³èħº çº¤ç»´èħºçĺ¤
åıĸ å¾Ĺ
ä¸įä¼ļ å¯¹
ç»ıå¸¸ æĢ§çļĦ
ç»ıå¸¸ åĲĥèį¯æİ§åĪ¶
ç¦ģ é£Łè¾Ľè¾£
ç³»ç»Ł çļĦ
æľīä»Ģä¹Ī å¥½çļĦ
ä¹Łæĺ¯ åĲĥèį¯
æ¤İ éĹ´
å¤ļåĸĿ çĻ½å¼Ģæ°´
ç±³ ç´¢
é¾Łå¤´ çº¢èĤ¿
çŁŃ æ³¢
åģľ çĶ¨
éĿĴ ç´«
è¶Ĭ å¥½
éĺ´èĮİ çŁŃå°ı
è¡Ģæ¶² æ£ĢæŁ¥
åł Ĥ
åĨħåĪĨæ³Į ç³»ç»Ł
çĪ± äºº
åħ¨èº« æĢ§çĸ¾çĹħ
çĹħçĲĨ æĢ§çļĦ
å¤ļåıĳ åŃ£èĬĤ
åİ»åĮ»éĻ¢æ£ĢæŁ¥ ä¹Łæĺ¯åĲĥèį¯
æĴ ¤
ä¸Ĭè¿° çļĦéĹ®é¢ĺ
éĢı è§Ĩ
æ³Įå°¿ ç§ĳ
åĿļ ç¡¬
å¿ħè¦ģæĹ¶ åģļ
æĬĳåĪ¶ ä½ľçĶ¨
è¿Ļæĺ¯ åĽłä¸º
ä¸Ńæ¯Ĵ æĢ§
çĻĮçĹĩ æĤ£èĢħ
æĽ¿ åį¡
å¤§å°ı çļĦ
âħ £
å°¼ èİ«
åįı åĲĮ
ä¸įæĺ¯å¾Ī ä¸¥éĩį
æ½® çº¢
é¢¤ æĬĸ
åİŁåıĳæĢ§ é«ĺè¡Ģåİĭ
ç¼ºä¹ı çĹĩ
çĶ·ç§ĳ åĮ»éĻ¢
ä¾µ å®³
çĵľ æŀľ
å¤§èĦĳ ç¥ŀç»ıåħĥ
éħĴç²¾ æĵ¦
éķĩçĹĽ çļĦèį¯çī©
å¥ĩ éĩĳ
å®«èħĶ åĨħ
ç»ıè¿ĩ åıĬæķĪæŀľ
èħ°æ¤İ éĹ´çĽĺçªģåĩº
èľĤ èĥ¶
èĢ³æľµ æľīçĤ¹çĸ¼
å¤ļæĻ®åĭĴ è¶ħå£°
è¿· èµ°
è¥¿èį¯ æ²»çĸĹ
åıĬæĹ© å®ŀæĸ½è¯ĬæĸŃ
è®² è§£
æĿĢ æŃ»
åıªæľīè¿Ļæł·æīįèĥ½ ä»¤å¾Ĺ
æıĴ åħ¥
å¦ĩç§ĳçĤİçĹĩ çļĦåĩºçİ°ä¸įä»ħä»ħä¼ļå½±åĵį
éĵ¶ èĬ±
èĻ½çĦ¶ ç»ıå¸¸åĲĥèį¯æİ§åĪ¶
å°¿å¸¸è§Ħ æ£ĢæŁ¥
éģµ ä»İ
åĨ° åĩī
åĲĪéĢĤ çļĦ
æĤ£èĢħçļĦé¥®é£ŁçĬ¶åĨµåĴĮå¿ĥçĲĨçĬ¶æĢģä¹Łæĺ¯ èĩ³åħ³éĩįè¦ģ
è§ĨåĬĽ ä¸ĭéĻį
å¤ļåĲĥä¸ĢäºĽ èĶ¬èıľä¸İæ°´æŀľ
ä¸Ģå®ļè¦ģæ³¨æĦı ä¼ĳæģ¯
ç¥Ľ éĻ¤
ç»§åıĳ æĦŁæŁĵ
çľŁçļĦ å¾Ī
åįģäºĮæĮĩèĤł æºĥçĸ¡
åĸĿæ°´ éĥ½è§īå¾Ĺ
å¥½åĩł æ¬¡
ä½Ĩæĺ¯ä¸ĢèĪ¬æ²»çĸĹ åĳ¨æľŁè¾ĥéķ¿
å§ĳ æģ¯
å§ĳ å§ĳ
åĶĲæ°ı ç»¼åĲĪçĹĩ
è¯´èĩªå·± åĹĵåŃĲçĸ¼
éĿ¢ç¥ŀç»ı çĤİ
éĢļè¿ĩæīĭæľ¯ çļĦæĸ¹æ³ķæ²»çĸĹ
å¹¶ä¸ĶçķĻæĦı æģ°å½ĵé¥®é£Ł
èħ®èħº çĤİ
é£İæ¹¿æĢ§ åħ³èĬĤçĤİ
æ·Ģç²ī æł·
è¸Ŀ åħ³èĬĤ
ç¢³éħ¸ æ°¢
åĲĮæĹ¶å¤ļçľĭéĩį é¥®é£ŁéĹ®é¢ĺ
çļĦæĬĹçĶŁç´ł èį¯çī©
æĹ©åıĳçİ° æĹ©æ²»çĸĹ
è¡¥æ°Ķ åħ»è¡Ģ
æĶ¾åľ¨ åĦ¿ç«¥
æľīä»Ģä¹Īå¥½ çļĦæ²»çĸĹæĸ¹æ³ķ
éľį å¥ĩéĩĳ
èĥĥçª¦ çĤİ
æľĢè¿ĳä¸įçŁ¥éģĵæĢİä¹ĪåĽŀäºĭæĢ»æĺ¯æĦŁè§ī å¿ĥèĦıä¸įèĪĴæľį
æ¥¼ æ¢¯
å¯¹æľ¬åĵģ è¿ĩæķıèĢħç¦ģçĶ¨
æĢ§çĬ¶ åıĳçĶŁæĶ¹åıĺ
å·§åħĭåĬĽ åĽĬèĤ¿
åĲĮæĹ¶æĤ£èĢħæĹ¥å¸¸ä¸Ńè¿ĺéľĢè¦ģéĩįè§Ĩ èĩªèº«çļĦ
å°ıåı¶ å¢ŀçĶŁ
çŁ¿ çī©è´¨
æĹłç²¾åŃĲ çĹĩ
äººåıĤçļĤèĭ· Rh
æĦıå¤ĸæĢĢåŃķ æĢİä¹ĪåĬŀä¼¤å®³æ¯Ķè¾ĥå°ı
ç¾İæīĺ åĴª
ä¹Įé¸¡ çĻ½åĩ¤
ç¬¦ åĲĪ
åĽłæŃ¤å»ºè®®æĤ£èĢħ åıĳè§īçĹĩçĬ¶åĲİ
èĹ¿ é¦Ļ
å¤ĸèĢ³ éģĵ
æĪĸèį¯ å¸Ī
ä¸ŃåĮ»ä¸Ńèį¯éķ¿æľŁä¸´åºĬå®ŀè·µ ç´¯ç§¯
æĳ§ æ¯ģ
è´®èĹı æĸ¹æ³ķ
ç»ĻåŃ©åŃĲåģļå¥½ ä¿Ŀæļĸå·¥ä½ľ
èħ°èĤĮ åĬ³æįŁ
åĴ¨è¯¢åĮ»å¸Ī æĪĸèį¯å¸Ī
è¯¯ä¿¡ å¹¿åĳĬ
æĽ²å®ī å¥Īå¾·
è¯´åĹĵåŃĲ åĸĿæ°´éĥ½è§īå¾Ĺ
æľŁæľĽä¸Ĭè¿°çļĦçŃĶæ¡Ī åı¯ä»¥åįıåĬ©
å¤ļåĸĿæ°´ä¹Łè¦ģ å¤ļåĲĥä¸ĢäºĽèĶ¬èıľä¸İæ°´æŀľ
è¯´åĹĵåŃĲåĸĿæ°´éĥ½è§īå¾Ĺ çĸ¼
5 6
Į åĩº
çļĦ æĶ¹åıĺ
çļĦ æ¬¡æķ°
çļĦ ä½įç½®
æľ Ŀ
ä¸į å¦Ĥ
ä¸į ä¸Ģæł·çļĦ
æĢ§ ä¼łæĴŃ
æĢ§ çĺ«çĹª
ä¸Ģ å¹´äºĨ
ä¸Ģ æĺŁæľŁ
ä¸Ģ è¿ŀä¸²
ä»Ģä¹Ī æł·
ä¼ ª
æŁ ³
å¥½ ä¸įå¥½
å¤ļ å¤ĸåĩºè¿ĲåĬ¨
èĥ½ çĶ¨
æŁ¥ ä½ĵ
åı¯ä»¥ åľ¨åĮ»çĶŁçļĦæĮĩå¯¼ä¸ĭ
åĲİ èĥ½
å¸¸ åľ¨
å¸¸ æŁĵèī²ä½ĵ
ä½ĵ å¼±
æ£ĢæŁ¥ çľĭçľĭ
æ£ĢæŁ¥ ä¹Łæ²¡çĶ¨
ä¼ļ çĸ¼
æĪĳ åİ»
æĪĳ ä¸ĢçĽ´
æĪĳ ä¹ĭåīį
è¿Ļ æĺ¯ä¸Ģç§į
æĤ£èĢħ æ³¨æĦıèĩªèº«æĬ¤çĲĨ
åĴĮ èį¯çī©
å¯¹ æĢ§çŁ¥è¯Ĩ
ä¸ª åŃ©åŃĲ
åĲĥ åĵªäºĽ
å°ı å®Ŀå®Ŀ
å°ı ç±³
å°ı åīĤéĩı
æĿ¥ æķĳæ²»
çŃī ä»Ķç»Ĩæ£ĢæŁ¥
å¤ĸ æ´Ĺ
å¤ĸ è§Ĥ
ä¹Ł ä¸įèĪĴæľį
åĮĸ åĲĪçī©
å»ºè®® ä½¿çĶ¨
æ°´ çļĦ
åģļ åĩº
èħº èĭ·
ç³ ķ
ä¿ Ĺ
èį¯çī© åĴĮ
æ²¡ æĿ¥
æ²¡ éĹ®é¢ĺ
èĨ ¦
é¥®é£Ł åºĶ
å®« ç¼©
çĻĮ çļĦæīĭæľ¯æ²»çĸĹæľīäºĽä»Ģä¹Ī
å¦Ĥæŀľ æĤ£èĢħ
èĩª çĶ±
æĹł ä»»ä½ķ
æĹł ç²¾çĹĩ
å¾Ĺ å¾Ī
æķĪ åºĶ
ä¸ĢèĪ¬ è®¤ä¸º
å¹³ åĸĺ
è¯· å°Ĩ
è¯· åĴ¨è¯¢åĮ»å¸ĪæĪĸèį¯å¸Ī
æ¸ħ æĻ°
éª¨ çĻĮ
åĿ ¡
åĢ Ł
æ¶Ī æ¸´
æīĢ è¯´çļĦ
æĬĹ çĹħ
æµģ æ¶ķ
ä¼¤ é£İ
åıĬæĹ¶ å¸¦åŃ©åŃĲ
åĬŁèĥ½ è¡°ç«Ń
çĽ´ åĪ°
ä¾¿ å¸¸è§Ħ
åĪ¶ è®¢
å²ģ ä»¥åĲİ
è¿Ľè¡Į å±Ģéĥ¨æ²»çĸĹ
è¿Ľè¡Į ä»»ä½ķä¸Ģç§į
æķĪæŀľ ä¸įéĶĻ
æ¯Ķè¾ĥ åİīå®³
åĪĩ çīĩ
çİ°åľ¨ æĥ³è¦ģ
å¼Ģ åı£
å¼Ĥ ä¸Ļ
ä¸»è¦ģ åĮħæĭ¬
éľĢè¦ģæľī æł¹æį®
æĸ½ è¡Į
æ¤ Ń
ç»Ļ å¥¹
è¡Ģç®¡ å£ģ
åħĪ è¿Ľ
åŃĲå®« èħĶ
éĺ´éģĵ éķľ
æº ı
å¿ħ çĦ¶
åºĶè¯¥ æĢİæł·æ²»çĸĹ
çľ¼ åĨħ
éĤ£ å°±æĺ¯
è¿ĺæĺ¯ å¾Ī
å¤Ħ çļĦ
å¤Ħ æľī
åŁº è´¨
èĽĭ ç±»
éĺ²æŃ¢ åıĹå¯Ĵ
å®¹æĺĵ å¼ķæĿ¥
çŁ³ æ¦´
çĶ·æĢ§ æĢ§åĬŁèĥ½éļľç¢į
æİ§åĪ¶ çĹĩçĬ¶
éģĹ çķĻä¸ĭ
æīįèĥ½ å¯¹çĹĩä¸ĭèį¯
ç§¯æŀģ çļĦæ²»çĸĹ
çĹħæ¯Ĵ çļĦ
çĶµ éĴĪ
ç§» åĬ¨
å¯¹çĹĩæ²»çĸĹ å¤ĸ
æľº çİĩ
åįĬ éĢıæĺİ
æŃ£è§Ħ æķĳæ²»
å¹¶ä¸Ķ å»ºè®®å¤ļé¥®æ°´
çĽ®åīį è¿ĺ
çļ®èĤ¤ çļĦ
é¢ĳ åıĳ
ç²¾ç¥ŀ åĪĽä¼¤
æµĭ è¯ķçº¸
åıĮ ä¸ĭèĤ¢
ç»ıå¸¸ åĩºçİ°
è¢ ĸ
ä¸Ģå®ļè¦ģ å¸¦åŃ©åŃĲ
åĽĽ å·Ŀ
ä¹Ļ çĬ¶
éĢĤå½ĵ éĶ»çĤ¼
åĪºæ¿ĢæĢ§ é¥®é£Ł
èĤ¢ ç«¯
éĵ ĭ
å½»åºķ æł¹æ²»
é¾Łå¤´ çĤİçļĦ
æĲ ĵ
æĪĳçļĦ ä¸Ģä¸ª
åı¦å¤ĸ å¦Ĥæŀľ
èĦ± åĩº
ä»¥åħį ä»¤å¾Ĺ
æīģæ¡ĥä½ĵ çĤİçĹĩ
è§Ħå¾ĭ çļĦ
çł´ æºĥ
æĻ® éģį
ä¸įèĥ½å¤Ł åĭĥèµ·
æĸ¹å¼ı éĥ½ä¼ļ
çĽĨèħĶ çĻĮ
çĽĨèħĶ çĤİçļĦ
äºĶ é¡¹
çļĦæĸ¹æ³ķ æ²»çĸĹçļĦ
çķ¸ èĥİ
ä¹ĻèĤĿ å°ıä¸īéĺ³
èħ¹èħĶ åĨħ
æĶ¾å°Ħ çº¿
æ¸ħæ´ģ å¹²çĩ¥
ç»ĥ ä¹ł
èĥĨåĽĬ åĪĩéĻ¤
èĤĽéĹ¨ ä¸ĢçĽ´æľī
ä¸Ļ ç§į
åŃ¢ åŃĲ
åĮ»çĶŁè¯´ æĪĳæĺ¯
é£Łç®¡ çĤİ
åħ¶å®ŀ ä¸ĢèĪ¬æĥħåĨµä¸ĭ
å¾ª è¯ģ
ä¼ļä¸įä¼ļ æĺ¯
æĺ¯ä¸į éĶĻçļĦ
å¤įæĸ¹ ä¸¹åıĤ
çĸ² è½¯
æİ¥è§¦ çļĦåľ°æĸ¹
ä¼¤åı£ æĦĪåĲĪ
éĻĦçĿ¾ çķ¸å½¢
è¿ĺä¼ļ åĨįæ¬¡åĩºçİ°
æŃ£ç¡® å¯¹å¾ħ
é£İæ¹¿ çĥŃ
é«ĺçĥ§ çļĦè¯Ŀ
ä¼° è®¡
è¡¥èĤ¾ åĽºç²¾
ä¸ĢçĽ´éĥ½ åľ¨
æĸľ èĤĮ
çĻ½èī² å¿µçıłèıĮ
è§Ħå¾ĭä½ľæģ¯ çļĦçĶŁæ´»
åĹĵåŃĲ çľ¼
æľĢè¿ĳä¸įçŁ¥éģĵæĢİä¹ĪåĽŀäºĭ èĤĽéĹ¨ä¸ĢçĽ´æľī
æĮº å¥½çļĦ
æ¶ĪåĮĸéģĵ åĩºè¡Ģ
èĩªæĦĪ çļĦ
æĦıè¯Ĩ ä¸§å¤±
æīŃ åĬ¨
çĶ¨ä»Ģä¹Ī æĸ¹æ³ķ
è¿ĺèĥ½ æ´»å¤ļä¹ħ
æĹģ è·¯
åĨ¬ åŃ£
åĮ»åŃ¦ ä¸Ĭ
å°ĳéĩı å¤ļé¤Ĳ
æİĴåįµæľŁ åĩºè¡Ģ
å¾Īå¿« çļĦ
æĽ´å¹´æľŁ ç»¼åĲĪçĹĩ
åĵŃéĹ¹ ä¸įä¼ĳ
èĤ¾ä¸Ĭèħº çļ®è´¨æ¿Ģç´ł
èħ± éŀĺ
æĮĤ ä»Ģä¹Ī
çĶ²çĬ¶èħºåĬŁèĥ½ åĩıéĢĢ
å®ļæĹ¶ å®ļéĩı
ç»Ŀç»ı åĲİ
èħ°éħ¸ èĥĮçĹĽ
æĻ¶ ä½ĵ
è¾¨è¯ģ è®ºæ²»
ä¸ĭèħ¹ çĸ¼çĹĽ
ä¸İæŃ¤åĲĮæĹ¶æĤ£èĢħè¿ĺè¦ģæ³¨æĦı åĨ³å®ļä¸Ģå®¶
ä½ľä¸º è¾ħåĬ©æ²»çĸĹ
æĹ¢ å¾Ģ
å¤§èĤł æĿĨèıĮ
å¾ĹåĪ°æİ§åĪ¶ çļĦ
èĢĮä¸Ķè¿ĺ èĤ¿çĸ¼
ç±»ä¼¼ äºİ
æº¢ æ¶²
åĨįçĶŁ éļľç¢įæĢ§è´«è¡Ģ
ä¸¥ä»¤ç¦ģæŃ¢ æĢ§çĶŁæ´»
å¤´é¢ħ CT
å°¿å°¿ çļĦæĹ¶åĢĻ
åİĨ åı²
åĨħå®¹ çī©
ä¹Ļéħ° æ°¨åŁº
èº«ä½ĵçĬ¶åĨµ èī¯å¥½
å¸¦æĿ¥ å¾Īå¤§çļĦ
åĲĮæĹ¶å¤ļéĩįè§Ĩ é¥®é£ŁéĹ®é¢ĺ
å¾Īéļ¾åıĹ åĪ«æīŃ
åĢ¦ æĢł
ä¸įè¦ģçĽ²çĽ® è¯¯ä¿¡å¹¿åĳĬ
IC U
æľīæĹ¶åĢĻä¼ļ å¾Īéļ¾åıĹåĪ«æīŃ
æĤ£èĢħå°½å¿« è¯ĬæĸŃ
èıĮç¾¤ å¤±è°ĥ
å¥½äºĨä¸Ģæ®µæĹ¶éĹ´ å°±çĸ¼
çĶŁå®Į åŃ©åŃĲ
åŃ©åŃĲæľĢè¿ĳæĢ»æĺ¯ ä¸įåĲ¬è¯Ŀ
ä¸ĭåĿł æĦŁ
ä¾µè¢Ń æĢ§
é¸½ èĽĭ
æºĥçĸ¡æĢ§ ç»ĵèĤłçĤİ
ä½Ĩæĺ¯ä¸įçŁ¥éģĵ åĴĭåĬŀåĳ¢
éĩĳåĮ® èĤ¾æ°Ķä¸¸
åı®åĺ± å¥³æĢ§æĤ£èĢħ
èŃ¦ æĥķ
æīĢä»¥æĤ£èĢħ åºĶè¯¥æ³¨æĦı
æĺ¯çĶ· å®Ŀå®Ŀ
æĪĳèĩªå·±çŁ¥éģĵ æľīè¿Ļä¸ªæ¯ĽçĹħ
æ°´æĿ¨ éħ¸
ä½Ĩæĺ¯æĪĳæĥ³ æ²»çĸĹäºĨ
åĲĮæĹ¶è¦ģå§ĭç»Īä¿ĿæĮģ æĦīå¿«ä¹Ĳè§ĤçļĦå¿ĥæĢģ
åİ»åĮ»éĻ¢ä¹Ł æ£ĢæŁ¥ä¹Łæ²¡çĶ¨
èĭ¯å¦¥ èĭ±
æ¤İå¼ĵ æł¹
åĲĮæĹ¶çľĭéĩįèĩªèº«çļĦæĬ¤çĲĨ åŁ¹è®Ń
æĪĳå®¶çļĦåŃ©åŃĲ æĺ¯çĶ·å®Ŀå®Ŀ
çļĦæ²»çĸĹåĲİ çĹĩçĬ¶æĺ¯ä»Ģä¹Ī
ä½Ĩæĺ¯è¿ĩä¸Ģä¼ļ å°±æ²¡äºĭäºĨ
æĸ°éĻĪ ä»£è°¢
å¤ļåıĳåŃ£èĬĤ æĺ¯ä»Ģä¹ĪæĹ¶åĢĻ
ä¸Ĭè¿°çļĦéĹ®é¢ĺ çŃĶæ¡Ī
å°¼èİ« åľ°å¹³
åıªæľīè¿Ļæł·æīįèĥ½ä»¤å¾Ĺ æĤ£èĢħåıĬæĹ¶
ç¢³éħ¸æ°¢ éĴł
ä»¥åħįä»¤å¾Ĺ çĹħæĥħä¸¥éĩį
è§Ħå¾ĭä½ľæģ¯çļĦçĶŁæ´» å¥½ä¹łæĥ¯
æľĢè¿ĳä¸įçŁ¥éģĵæĢİä¹ĪåĽŀäºĭèĤĽéĹ¨ä¸ĢçĽ´æľī èĦĵæ°´
èĢĮä¸Ķè¿ĺèĤ¿çĸ¼ çĶ·äºº
9 5
i a
¾ æ¶²
Ġ åľ¨ä¹İæĢİæł·çļĦå¸®åĬ©
ķ èĥİ
ï¼ Ĳ
ï¼ ĳ
ï¼ Ĵ
çļ Ĩ
çļĦ æĥħ
çļĦ ç¡®
çļĦ ç¥ŀç»ı
çļĦ èĤ¿çĺ¤
çļĦ ç¬¬
çļĦ æĹ©æľŁ
çļĦ ä¸Ģä¸ª
ä» ¿
æĺ¯ æħ¢æĢ§
æľī å¤ļå¤§
å° Ŀ
ä¸į æ²»çĸĹ
ä¸į ä¾¿
ä¸į å¤§çļĦ
æ²»çĸĹ ä»¥
æ²»çĸĹ ä»ª
çĹħ åĲĹ
è¯ »
åı¯ ä½¿çĶ¨
åı¯ å¼ķæĿ¥
ä»¥ èĩ´
çĶŁ ä¸ĭæĿ¥
å¹ ķ
å¤ļ å¹´äºĨ
äºĨ ä¸ª
äºĨ æĢİä¹ĪåĬŀ
äºĨ å¥³æĢ§çļĦåģ¥åº·
çĶ¨ çĥŃæ°´
æľ¯ çļĦè¾ħåĬ©æ²»çĸĹæľīäºĽä»Ģä¹Ī
åı¯ä»¥ ä½¿
åı¯ä»¥ å¯¼èĩ´
æ£ĢæŁ¥ åĲİ
ä¼ļ æľīä»Ģä¹Ī
æĪĳ æ²¡
æĪĳ å»ºè®®ä½ł
æĪĳ çĪ¸
åĩº èĻļæ±Ĺ
å¿ĥ çĹħçļĦ
ä¸ª æĢ§åĮĸ
å°ı æĹ¶åĢĻ
è¿ĩ é£Ł
ä¹Ł ä¸įä¼ļ
äºİ æĺ¯
æĢİä¹Ī åģļ
æĢİä¹Ī æīįèĥ½
è¿ĺ æľīäºĽ
å»ºè®® è¿ĺæĺ¯
åºĶ å¯¹
é«ĺ ç³ĸ
å¾Ī éķ¿
å¾Ī ç´¯
å°¿ åĺ§åķ¶
èº« è¾¹
æ´» è·ĥ
éľĢè¦ģ æīĭæľ¯æ²»çĸĹ
èį¯çī© å¾Īéļ¾
æ³¨æĦı æľ¯åĲİæĬ¤çĲĨ
å¦Ĥæŀľ å·²ç»ı
èĩ´ çĻĮ
æĪĲ åŀĭ
è¾ĥ å·®
ä¸ĢèĪ¬ åĴĮ
ä¸ĢèĪ¬ æĺ¯åı¯ä»¥
å¹³ åĴĮ
æ¸ħ éĨĴ
åĬĽ ä¸į
èĥĥ åºķ
ç¥ŀ å¿Ĺ
çĶŁæ´» ä¸Ĭ
åĬł å·¥
åħ¶ ä¸ŃçļĦ
ä¸» å¼ł
ä½İ å¯Ĩåº¦
åıĬæĹ¶ å®ŀè¡Į
åĬŁèĥ½ äº¢è¿Ľ
æĬ¤ åĳ½
æŃ¤ ç§į
ä¸įè¦ģ è¿ĩåº¦
å®¶ åĮ»éĻ¢
ä¸¥éĩį å½±åĵį
èĤĮ çĶµåĽ¾
æ¯Ķè¾ĥ æĺİæĺ¾
æĸŃ èį¯
çİ°åľ¨ æľī
ä¸ī åĪĨ
ä¸ī é¤Ĳ
ä¸ī å°ĸçĵ£
èº«ä½ĵ æľī
åĽŀ æĿ¥
æ²¡æľī ä»»ä½ķ
ä»ĸ è¯´
è¿Ļä¸ª åŃ©åŃĲ
ä¸»è¦ģ å°±æĺ¯
å¹³æĹ¶ çļĦ
èĢĥèĻĳ éĩĩåıĸ
è¡¥ èĦ¾
èĢģ åĮĸ
åŃĲå®« çļĦ
çļĦè¯Ŀ åĪĻ
éĺ´éģĵ çļĦ
ä¸ĢäºĽ ç»´çĶŁç´ł
åħ¥ çĿ¡
åĩºè¡Ģ çĥŃ
é¢Ħéĺ² æĦŁåĨĴ
åı³ å¿ĥå®¤
åı³ ç¾İæīĺåĴª
çĪ ½
å¥³æĢ§ åľ¨
æ´Ĺ èĦ¸
è¾ĵåįµç®¡ ä¼ŀç«¯
æİ§åĪ¶ çļĦ
ä»İ ä½ł
åıĪ æľī
å¼ķæĿ¥ çļĦçĹĩçĬ¶
è¦ģæ³¨æĦı ä¼ĳæģ¯
è¿ĲåĬ¨ éĩı
è¿ĲåĬ¨ éĶ»çĤ¼
åįĬ ä¹³ç³ĸ
æ¿Ģç´ł æ²»çĸĹ
å¹¶ä¸Ķ éľĢè¦ģ
æĽ´ å¤ļçļĦ
æŃ» ç²¾
èĽĭçĻ½ éħ¶
æ¤į çļ®
åıĮ æ°¯èĬ¬
çł ·
å±ŀ çļĦ
éĢīæĭ© éĢĤåĲĪ
å»ºè®®ä½ł åĪ°åĮ»éĻ¢
åħĭ éľī
ä¹Ļ éĨĩ
ç¡®è¯Ĭ çļĦ
å¢ŀçĶŁ æĢ§
æĦŁåĨĴ åıĳçĥ§
é«ĺè¡Ģåİĭ çĹħ
æĲ ¬
åħ¶ä»ĸ çĸ¾çĹħ
èĦ± é«ĵéŀĺ
çļĦåıĳçĹħ çİĩ
è§Ħå¾ĭ çĶŁæ´»ä¹łæĥ¯
éĺ¿ æĺĶæ´ĽéŁ¦
åĿĩ æľī
èŀ ¨
æ±¤ çŃī
éļı è¯Ĭ
æ¯Ľ åıĳ
æ³¡ æ²«
åł ķèĥİ
æģ¶æĢ§ åıĺ
æģ¶æĢ§ ç¨ĭåº¦
æ¶ĪçĤİ èį¯çī©
ç²ī å°ĺ
çŃĶ è¯Ŀ
èĥĨåĽĬ åĪĩéĻ¤æľ¯
çĮ ®
åį¡ æīĺ
æľīçļĦ äºº
ä¸įæĺ¯å¾Ī å¤§
åģĩ å¦Ĥ
èĪĮ æ·¡
èĪĮ èĭĶ
çĸı å¯¼
æŁĲ ä¸Ģ
å¸¸çĶ¨ çļĦèį¯çī©
ç¦ģæŃ¢ ä½¿çĶ¨
å¿Įè¾Ľè¾£ åĪºæ¿Ģ
ä»į æľī
æĤ£èĢħéľĢè¦ģ åıĬæĹ¶
æľºä½ĵ åħįçĸ«åĬĽ
éĺµ æĮĽ
èļ ´
éĢĨ è½¬
ä¾ĭå¦Ĥ æĹ¥å¸¸æ¸ħæ·¡é¥®é£Ł
çļĦçĹħ çĹĩ
åĬ¨çĶ¨ èį¯çī©
çħİ æ°´
æħİ éĩį
âĢĶ âĢĶ
æº¶è¡Ģ æĢ§è´«è¡Ģ
äº§åīį è¶ħå£°
éĻ¤äºĨè¦ģ å¯¹çĹĩæ²»çĸĹå¤ĸ
ç»§åıĳ äºİ
åĲ»åĲĪ åı£
æĮīæĹ¶ ä½ľæģ¯
åĮ»å¸Ī æĮĩå¯¼ä¸ĭ
æŀ¸ æ©
ä¼ĺè´¨ èĽĭçĻ½è´¨
å¤ļåģļ æľīæ°§è¿ĲåĬ¨
æŁ¥æĺİ çĹħåĽł
å®ŀéªĮ å®¤
åĩĨç¡® çļĦ
èĨĪ èĤĮ
åħħåĪĨ ä¼ĳæģ¯
æĪĳåĴĮ èĢģåħ¬
æııè¿°çļĦæĥħåĨµ åı¯èĥ½æĺ¯
æº¶æłĵ æ²»çĸĹ
å¤ļåĲĥæ°´æŀľ èĶ¬èıľ
åįłä½į æĢ§çĹħåıĺ
æĳĨ å¹³
æĤ£èĢħçļĦæĹ¥å¸¸ æ²»çĸĹä¸»è¦ģæĺ¯
æĪ·å¤ĸ æ´»åĬ¨
åĽłæŃ¤æ²»çĸĹä¸Ńä¸Ģå®ļç§¯æŀģäºĴçĽ¸éħįåĲĪ åĮ»çĶŁçļĦæ²»çĸĹ
æĹłè®º æĺ¯
èĤłæº¶ çīĩ
è¾Ľè¾£åĪºæ¿Ģ çļĦé£Łçī©
ç³»ç»ŁæĢ§ çº¢æĸĳçĭ¼çĸ®
å¤ĸåĳ¨ è¡Ģ
åįĹçĵľ åŃĲä»ģ
èĭĽåĪ» æķĳæ²»
è¤¥ çĸ®
è¡į å®Ĺ
ä½İèĦĤèĤª é¥®é£Ł
æĶ¯æŀ¶ç½®åħ¥ æľ¯
æł½ åŁ¹
é«Į éª¨
åį±åıĬ çĶŁåĳ½
èĥĥé£Łç®¡ åıįæµģ
å¸ĮæľĽæĤ£èĢħåı¯ä»¥æł¹æį®åĮ»çĶŁçļĦæĦıè§ģ å¯¹çĹĩæ²»çĸĹ
äºĶåŃĲ è¡įå®Ĺ
ç¥ŀç»ıå®ĺ èĥ½çĹĩ
åĽłæŃ¤éľĢè¦ģæľī æĤ£èĢħå°½å¿«è¯ĬæĸŃ
æĶ¾åľ¨åĦ¿ç«¥ ä¸įèĥ½
æĢ§çĬ¶åıĳçĶŁæĶ¹åıĺ æĹ¶
æĦıå¤ĸæĢĢåŃķæĢİä¹ĪåĬŀä¼¤å®³æ¯Ķè¾ĥå°ı è¯·éĹ®
ä¸Ļç§į çĲĥèĽĭçĻ½
åĹĵåŃĲçľ¼ æľīçĤ¹çĹĽ
æĬ¤åĳ½ ç´ł
åį¡æīĺ æĻ®åĪ©
1 20
5 2
F T
L A
L E
P P
R S
h p
m in
è ĺ
Ġ 7
Ġ ä»¥ä¸Ĭæĺ¯å¯¹
ł æª
çļĦ èĤļåŃĲ
çļĦ çĶŁéķ¿
çļĦ æ¶²ä½ĵ
æĺ¯ çĻ«çĹ«
æĺ¯ ç»Ŀä¸įä¼ļ
æľī ä»¥ä¸ĭ
å® ¢
ä¸į æ³¨æĦı
ä¸į çĲĨæĥ³
çĹħ æĤ£
çĹħ åĴĮ
æĢ§ ä¼´
æĢ§ éģĹä¼ł
ä¸Ģ æľĪ
ä¸Ģ è¾¹
ä¸Ģ æĿ¡
è¦ģ åĲĹ
åı¯ å¸®åĬ©
æī ¯
ä»¥ åĩıå°ĳ
æ³ ī
æŁ łæª
å¥½ æĹ¶
èį¯ æķı
å¤ļ åĬł
å¤ļ æ´»åĬ¨
å¤ļ æĺ¯çĶ±äºİ
çĶ¨ æĬĹçĶŁç´ł
è¡Ģ éĩı
æ£ ±
æŁ¥ æī¾
åı¯ä»¥ ç¼ĵè§£
åı¯ä»¥ æ²»çĸĹåĲĹ
åĲİ åı¯ä»¥
éĢ ¼
æ£ĢæŁ¥ æĺİç¡®
ä¼ļ æĢĢåŃķåĲĹ
çĽ Ī
çĽ Ĵ
æĪĳ éķ¿æľŁ
æĪĳ ä¸įçŁ¥æĻĵ
è¿Ļ æĸ¹éĿ¢
åĴĮ æĪĳ
åĴĮ ç»´çĶŁç´ł
å¤§ å¤§
ä¸Ń è¥¿
ä¸Ń æµ·
ä¸Ń è¥¿èį¯
ä¸ĭ è£Ĥ
ä¸Ĭ åºĬ
ä¸Ĭ åĳ¨
å°± åı¯
æīĭæľ¯ åĮ»æ²»
çĲĨ è®º
çľ ī
åīį çĹħåıĺ
çŃī æĸ¹éĿ¢
ä¹Ł æľīçĤ¹
ä¹Ł ä¸įèĥ½å¤Ł
ä¾ £
æ¬ §
ç§į åŃĲ
å¹´ çļĦ
éľĢè¦ģ åı£æľį
éľĢè¦ģ åĪ°åĮ»éĻ¢
å®Ŀ è´Ŀ
é¥®é£Ł åĲĪçĲĨ
çļ® èĦĤ
çĻĮ èĤ¿
çĿ ģ
éĺ´ èĻ±
å¦Ĥæŀľ åĨįæ¬¡åĩºçİ°äºĨ
æĹł åī¯ä½ľçĶ¨
èĢĮ èĩ´
çľĭ ä¸ĭ
éĻ¤ éĿŀ
ç²¾ å¿ĥ
è¡Į åĬ¨
è¡Į å¾Ħ
æ¿ Ĵ
å¹¶ åľ¨
ä¸ĢèĪ¬ ä¸º
ä¸ĢèĪ¬ ä¸įéľĢè¦ģ
èĬ ĭ
æ°Ķ åİĭ
éª¨ èĨľçĤİ
çķ ´
æµģ æ³ª
åħ» èĥĥ
æĥ³ åģļ
åĮħ æīİ
åŃ¦ çĶŁ
åŃ¦ é¾Ħ
æĺĵ äºİ
æĺĵ åıĳçĶŁ
çĶ· äººçļĦ
æ¯Ķè¾ĥ ä¸¥éĩįçļĦ
åīįåĪĹ åº·
å®ŀ æĢ§
çİ°åľ¨ éĥ½
ä¸ī åº¦
ä¸ī è§Ĵ
å¼Ģ çªĹ
é»Ħ éħ®
åĽŀ æµģ
åģ¥ å¿ĺ
ä¿ĿæĮģ èī¯å¥½
æ²¡æľī çī¹æķĪ
æ± ĩ
æľĪç»ı åĲİ
å¹³æĹ¶ åºĶ
ä¸¤ åĿĹ
å¯¹çĹĩ èį¯çī©
å¼º åĬĽ
è¡Ģç®¡ æī©å¼ł
çĸ¼çĹĽ çļĦ
åĲĮæĹ¶ æ²»çĸĹ
åģ¥åº· æĪĲéķ¿
åľ° ä¸Ńæµ·
èĥĨ èĦĤ
åĹ ¡
è¿Ļæł· æľīåĪ©äºİ
æħ¢æĢ§ èĲİç¼©æĢ§èĥĥçĤİ
ä¾§ èĦĳå®¤
æķ° çĽ®
åĭ º
æİ§åĪ¶ è¡Ģåİĭ
æĢ»æĺ¯ è§īå¾Ĺ
èĢ³ èģĭ
åĪ© èĥĨ
åĪ© æ¹¿
åıĪ åĲį
æ·ĭ çĹħ
èĩ´ä½¿ ä¸įèĤ²
å¿Į çĥŁéħĴ
ç»´çĶŁç´ł K
éĽ Ģ
ä¹³èħº çĻĮçļĦ
éº» é»Ħ
éķ¿æľŁ ä½¿çĶ¨
åĶ ¾æ¶²
åıĮ æīĭ
éĺ» æŃ¢
å»ºè®®ä½ł åıĬæĹ¶
åħĭ éļĨ
ä¸Ģå®ļè¦ģ çķĻæĦı
æł¸ ç»Ĩèĥŀ
æ¤İ åĬ¨èĦī
å¤ļåĸĿ çĤ¹
çĿ¾ä¸¸ éŀĺèĨľç§¯æ¶²
éĵ ħ
å®ī éĿĻ
å¾Īå¤ļ æĤ£èĢħ
è®¸å¤ļ åı£æľįèį¯çī©
ç»¼åĲĪå¾ģ çļĦå¹¶åıĳçĹĩæĺ¯ä»Ģä¹Ī
20 00
æĪĳä»¬ åºĶè¯¥
æĪĳçļĦ èº«ä½ĵ
æ¯į å©´
æī© è¡Ģç®¡
çļĦåıĳçĹħ çİĩæĺ¯å¤ļå°ĳ
èĦĵ çĸ±
çĻ½å¸¦ å¤ļ
çĻ½å¸¦ åıĳé»Ħ
é¢ħ åºķ
åĪļ æ»¡
åĽ¾ çīĩ
å¼± ç²¾çĹĩ
æ°¨ æ°¯
æĢ§äº¤ çĹĽ
æ¯Ķå¦Ĥ æīģæ¡ĥä½ĵéļĲçªĿåĨ²æ´Ĺ
ç¨³å®ļ çĹħæĥħåıĬåº·å¤įçļĦåĩłçİĩéĥ½éĿŀå¸¸å¤§
å°¿éģĵ æĦŁæŁĵ
æµ· äº§åĵģ
é»ĳ è±Ĩ
æ½ ĺ
å¸¸è§ģçļĦ çĸ¾çĹħ
é¸¡ æ±¤
æĭ¬ çº¦
æ¼ ±
èµ° çĿĢ
æľ¬äºº çĶ·
è¿Ł éĴĿ
èĮĥ çķ´
éĢĲ çĺĢ
åĽ½ åĨħ
åı£èħĶ åį«çĶŁ
å¿ħé¡» åľ¨
æ²»çĸĹæľŁéĹ´ å»ºè®®æĥ¯èī¯å¥½çļĦçĶŁæ´»ä¹łæĥ¯
è½»åº¦ å®«é¢Īç³ľçĥĤ
ä¸Ģå¹´ å¤ļ
ä½ľæģ¯ ä¹łæĥ¯
æ´Ľ éħ®
äºĪ ä»¥
æĪĳå®¶ çĶ·å®Ŀ
æ»ĳ èĨľ
å¹¿ è°±
åħ»æĪĲ è§Ħå¾ĭä½ľæģ¯çļĦçĶŁæ´»å¥½ä¹łæĥ¯
éª¨é«ĵ ç§»æ¤į
åŁºåĽł çªģåıĺ
éĽĮ éĨĩ
çĶ·ç§ĳ çĸ¾çĹħ
æĺ¨ æĻļ
ä½ĵéĩį åĩıè½»
ä»¥ä¸Ĭæĺ¯å¯¹ è¿Ļä¸ªéĹ®é¢ĺçļĦå»ºè®®
ç½Ĺ çº¢éľīç´ł
çī¹æ®Ĭ çļĦ
åĪ°äºĨ æĻļä¸Ĭ
çĮª èħ°
å°ļ æĹł
è®² ç©¶
åıªæľīè¿Ļæł·æīįèĥ½ æıĲé«ĺ
è°· æ°¨
åĿł çĹĽ
å¤ļçķĻæĦı èĩªèº«åį«çĶŁ
ä¸įçĶ¨ æĭħå¿ĥ
çº³ æ´Ľéħ®
æµĳèº« æĹłåĬĽ
æŃ¢çĹĽ èį¯
é¢ħèĦĳ æįŁä¼¤
è¯´è¯Ŀ æĹ¶
éļĨ èµ·
æł¹æį®æĤ¨ çļĦæĥħåĨµ
èħ¹èĤ¡æ²Ł çĸĿ
èĭı æīĵ
æĹ¢ çĦ¶
å¿ĥè¡Ģç®¡ çĸ¾çĹħ
å¯¹ä½ł æľīæīĢå¸®åĬ©
å¯¹æĤ£èĢħçļĦ ä¼¤å®³æ¯Ķè¾ĥå¤§
ç¢İçŁ³ æľ¯
æıĲé«ĺæĤ£èĢħ åħįçĸ«åĬĽ
çĶŁçĲĨæĢ§ é»Ħçĸ¸
å¼ĢæĶ¾ æĢ§
æĺ¾å¾® éķľ
å¹¶ä¸ĶçķĻæĦı æĪĴçĥŁæĪĴéħĴ
è¿Ļç§įæĥħåĨµæĺ¯ åĴĭåĽŀäºĭ
æĿľ ä»²
åĸ¹ è¯º
æĢĢçĸĳ æĺ¯
å¹¶ä¸Ķè¦ģå§ĭç»Īä¿ĿæĮģ æĦīå¿«çļĦå¿ĥæĥħ
æ¤İç®¡ åĨħ
ä¸Ńè¥¿åĮ»ç»ĵåĲĪ æ²»çĸĹ
å¼Ģèħ¹ æīĭæľ¯
è¿Ļæł·æīįèĥ½å¯¹çĹĩæ²»çĸĹ å°½å¿«åº·å¤į
æĤ£èĢħåı¯ä»¥çĶ¨ è®¸å¤ļåı£æľįèį¯çī©
æ´ĭ èĳ±
æĳĨ èĦ±
åĲİåıĪ å¼Ģå§ĭ
æĤ£èĢħçļĦé¥®é£ŁçĬ¶åĨµåĴĮæĬ¤çĲĨä¹Łæĺ¯å¾Ī åħ³éĶ®çļĦ
æĪĳä¸įçŁ¥éģĵ ä»ĸæľī
çĻ½æľ¯ æķ£
è¸ª å½±
å§¨ å¦Ī
æ¡ĤæŀĿ èĮ¯èĭĵ
å¼ºçĽ´æĢ§ èĦĬæŁ±çĤİ
æ°¯åĮĸéĴł æ³¨å°Ħæ¶²
ç»ĪæŃ¢ å¦Ĭå¨ł
æłĩå¿Ĺ çī©
çĶĺæ²¹ä¸ī éħ¯
ç¤¼ æĭľ
ä¹Įé¸¡çĻ½åĩ¤ ä¸¸
åħĭéľī åĶĳ
æĶ¾åľ¨åĦ¿ç«¥ä¸įèĥ½ æİ¥è§¦çļĦåľ°æĸ¹
æŁłæª ¬
E R
o t
z h
Ġ ä¸İ
ï¼ ľ
çļĦ æĿ¾
çļĦ å°ıåŃ©
çļĦ æįŁå®³
çļĦ åį±éĻ©
æľ ´
åı ©
åĲ ®
æĺ¯ ä¸įåĲĮçļĦ
æĺ¯ å¾Īå¿«çļĦ
æľī æĺİæĺ¾
åŃ Ł
æĢ§ ç¥ŀç»ı
ä¸Ģ ç±»
ä¸Ģ åįĬ
ä¸Ģ è¿ĩæĢ§
æŁ ļ
åıĳ åĩī
èį¯ æĿĲ
çĹĩ çļĦæīĭæľ¯æ²»çĸĹæľīäºĽä»Ģä¹Ī
å¦ Ļ
æŃ ¦
åı¯ä»¥ ç»§ç»Ń
åľ¨ æķĳæ²»æľŁéĹ´
åī ©
åī ĳ
åŃĲ å¥³
ä¼ļ åĴ³åĹ½
ä¼ļ éģĹä¼ł
ä¼ļ åĬłéĩį
æĪĳ æĤ£
æĪĳ è§īçĿĢ
è¿Ļ ä¸¤ç§į
æĤ£èĢħ åģ¥åº·
å¿ĥ æºĲæĢ§
ä¸Ń åĲ«æľī
ä¸Ĭ çİ¯
æĮ ł
å°± ä¸įä¼ļ
å°± è¡ĮäºĨ
æīĭæľ¯ åĴĮ
ä¸º ä½ł
å¤į åº·
åīį å£ģ
å°ı éĩĳ
çŃī å¼ķèµ·
çŃī éĹ®é¢ĺ
å¤ĸ çĶŁæ®ĸåĻ¨
ä¹Ł åı¯èĥ½æĺ¯
æĪĸ å°ĳ
æĢİä¹Ī èĥ½
æĢİä¹Ī åĮ»æ²»
è¿ĺ åºĶ
åĮ»éĻ¢ è¿Ľè¡Įæ£ĢæŁ¥
é«ĺ å³°
åģļ èĥĥéķľ
åĪĨ æŀĿ
éķ¿ çŁŃ
è´ ¯
æ³¨æĦı è§Ĥå¯Ł
é¥®é£Ł è°ĥçĲĨ
æĭ ³
å¦Ĥæŀľ å®Ŀå®Ŀ
èĤĿ çº¤ç»´åĮĸ
èĩ´ çĹħ
èĦĳ éľĩèį¡
æķĪ çİĩ
èĢĮ åĩºçİ°
çĻ½ èıľ
å¢ŀ å¿«
ç²¾ ç»Ĩ
å¹¶ çĶ¨
ä¸ĢèĪ¬ ç»Ŀä¸įä¼ļ
å¹³ éĿ¢
èĤł èłķåĬ¨
çķ ª
æīĢ å¼ķèµ·
é» ĺ
æµģ åı£æ°´
çĤ¹ å¤ļ
è¯·éĹ® æĪĳ
ä½İ èĽĭçĻ½
ä¹³ çĻĸ
çĽ´ èĤĮ
ç± ½
åıĺ ä½ľ
åıĺ èĸĦ
è¯¥ æĢİä¹Īæ²»
æĦŁæŁĵ åĴĮ
èĤº çĹħ
èĤº æłĵå¡ŀ
å¥³ ä»Ĭå¹´
æķĪæŀľ æĺ¯ä¸įéĶĻçļĦ
æĹ¥ æľ¬
åĪĩ åī²
å¼Ģ çļĦ
å¸¦ çĬ¶
åģ¥ èĥĥ
åĳ¨ åĨħ
éĶ ħ
ä¸ªæľĪ å·¦åı³
å¯¹çĹĩ å¤ĦçĲĨ
çº¢ çļĦ
çĽ¸ ä¼¼
èĮ ¸
è¥¿ æ±Ģ
ä¸ĢäºĽ éķĩçĹĽèį¯
å®«é¢Ī çĻĮçļĦ
æ¯ı ä¸ªæľĪ
æ¯ı éļĶ
è¾Ľè¾£ åĪºæ¿ĢæĢ§çļĦé£Łçī©
éĤ£ æĻ®åĪ©
å¸®åĬ© åŃ©åŃĲ
è¿ĺæĺ¯ ä¼ļ
æ¢ ģ
æ¢ Ń
åĩºè¡Ģ æĢ§
éĢł åı£
æĪ¿ éĹ´éļĶç¼ºæįŁ
ä½ľçĶ¨ çļĦèį¯çī©
éģ¿åħį åĪºæ¿ĢæĢ§é£Łçī©
éĿĻèĦī æ³¨å°Ħ
å±Ģ çģ¶
åıĳçİ° ä»ĸ
é¼» åĩºè¡Ģ
ä¸Ģç§į æĺ¯
åħħ çĽĪ
è¾ĵåįµç®¡ çļĦ
æİ§åĪ¶ ä¸įä½ı
çĶµ åĪĩ
æľº çĲĨ
è¶ħå£° ä¹³åĮĸ
éĽ ħ
çĽ®åīį çļĦ
éªĮ åŃķ
è½¯ åĿļ
åıĸ åĩº
ä¸ŃåĮ» ç§ĳ
ç²¾ç¥ŀ ä¹Łä¸įå¥½
åħ³èĬĤ éķľ
æĢİä¹Īæ²»çĸĹ æ¯Ķè¾ĥå¥½
å¹¶åıĳçĹĩ çļĦåıĳçĶŁ
çªģ åıĳ
åĽĽ åįģ
ä¹Łæĺ¯ å¾Īæĭħå¿ĥ
éĢĤå½ĵ è¡¥åħħ
éĢĤå½ĵ å¤ĸåĩºè¿ĲåĬ¨
ç¡®è¯Ĭ æ²»çĸĹ
ç´§ çļĦ
åĦ¿ç«¥ çļĦ
ä»£ æĽ¿
ç»¼åĲĪå¾ģ çļĦä¸´åºĬè¡¨çİ°æľīäºĽä»Ģä¹Ī
èĥ¶åĽĬ åĴĮ
è®© åĮ»çĶŁ
çĹħåıĺ çļĦæīĭæľ¯æ²»çĸĹæľīäºĽä»Ģä¹Ī
ä»ħ ä»ħ
å¸ĮæľĽ é«ĺè¡Ģåİĭ
æľŁæľĽ ä¸Ĭè¿°çļĦéĹ®é¢ĺçŃĶæ¡Ī
æĻķ åİ¥
è¯ģ å®ŀ
æ´»åĬ¨ åº¦
ç«ĭ æĢ§
è¶Ĭ æĹ©
èįī éħ¸
çļĦæ²»çĸĹæĸ¹æ³ķ æĺ¯ä»Ģä¹Ī
è¡Ģæ¶² çĹħ
æĿ¿ èĵĿ
å°¿éģĵ ä¸ĭè£Ĥ
æ²Ļ éĹ¨
ç²¾åŃĲ çķ¸å½¢
æµ· é©¬
ä¸Ģæł· è¿Ľè¡Įè¯¦ç»Ĩæ£Ģæµĭ
è¿ĩæķı åİŁ
é»ĳ æľ¨èĢ³
äººæµģ æīĭæľ¯
åĮ»çĶŁçļĦ å»ºè®®
èľ Ĺ
å¸¸è§ģçļĦ æľī
åĨ² åĬ¨
ä¿ĥ æĢ§èħº
æ²»çĸĹæĸ¹æ³ķ æľīåĵªäºĽ
æ²»çĸĹæĸ¹æ³ķ ä¸įæŃ£ç¡®
æł¹æį®ä½ł æııè¿°çļĦæĥħåĨµ
äºĴçĽ¸éħįåĲĪ ä¸ĢäºĽç»´çĶŁç´ł
ç©º èĤł
åĮĸéªĮ ç»ĵæŀľ
æ°ı çĹħ
ä¸Ļ æĪĬ
äº² çĪ±
ä»£è°¢ å¼Ĥå¸¸
åĳ¨åĽ´ ç¥ŀç»ı
å¯Ĩ è¾¾
åĩĢ åĮĸ
åŃ©åŃĲçļĦ æīģæ¡ĥä½ĵåıĳçĤİ
ä¸Ģå¹´ åīį
èĹ »
äººå·¥ èĤ¡éª¨å¤´
ä¸Ģåĳ¨ å·¦åı³
æİ¥è§¦ æĢ§åĩºè¡Ģ
æĢĿ ç»´
å¹¶ä¸į å¤ļ
ä¼¤åı£ æĦŁæŁĵ
æĢİä¹Īæł· æ²»
åı« åģļ
æĢ§èĦĳ çĤİ
ç»ĵå©ļ å·²ç»ı
å©Ĩ å©Ĩ
æĸ¹æīįèĥ½ å¯¹çĹĩæ²»çĸĹ
èĦĬé«ĵ çĤİ
åĿıæŃ» æĢ§
éŀ į
éĺ´åĽĬ æ¹¿çĸ¹
èĪĴçķħ çļĦå¿ĥæĥħ
é¥± åĴĮ
èĥ½ä¸įèĥ½ åĲĥ
èĩªçĦ¶ æµģäº§
éļıçĿĢ å¹´é¾ĦçļĦ
æ··åĲĪ æĢ§
æĤ£èĢħè¦ģ åħ»æĪĲè§Ħå¾ĭä½ľæģ¯çļĦçĶŁæ´»å¥½ä¹łæĥ¯
åıĬæĹ© æ²»çĸĹ
æĹłçĹĽ æĢ§
è¯º æ°Łæ²ĻæĺŁ
åĩºçİ°äºĨ éĹ®é¢ĺ
æıĴ è¿Ľ
è§ĦèĮĥ æ²»çĸĹ
è¨Ģ è¯Ń
é«ĭ èĩ¼
ä¸¤ä¸ª å¤ļæľĪ
åĪĩå¼Ģ æľ¯
åıįæµģ æĢ§
æĺ¯æ¯Ķè¾ĥ å¥½çļĦ
åĽłæŃ¤æĤ£èĢħè¦ģåıĬæĹ¶ èį¯çī©æ²»çĸĹ
é¹ ħ
å¦ĩç§ĳçĹħ æĺ¯ä¸Ģç§įå®¹æĺĵçĹħåıĳçļĦå¦ĩç§ĳçĸ¾çĹħ
å¤«å¦» çĶŁæ´»
åĵŃéĹ¹ ä¸įæŃ¢
çļĦè¯ĬæĸŃ åĴĮæ²»çĸĹ
è§Ĩç½ĳèĨľ èĦ±ç¦»
æº¶è¡Ģ æĢ§
åī¥ èĦ±
å¥³æĢ§çļĦ èº«ä½ĵ
åĲŀåĴ½ å¥½åĥıæľīçĤ¹
ï¼Łï¼Ł ï¼Ł
ä»ª åĻ¨
æ© Ļ
ä¸įè¦ģåĲĥè¾Ľè¾£ åĪºæ¿ĢæĢ§çļĦé£Łçī©
åįİ æ³ķ
æİĮ æı¡
å·¦æ°§æ°Łæ²ĻæĺŁ çīĩ
å¹¶ä¸Ķæ³¨æĦı æĪĴçĥŁæĪĴéħĴ
èĦ¾èĥĥ èĻļå¼±
å¤ļåģļ åģļä¸ĢäºĽæľīæ°§è¿ĲåĬ¨
å·Ŀ èĬİ
éĻĪ æĹ§
åŁºåºķ èĬĤ
æĦ¿ æĦı
ç§ĭ åŃ£
å§Ĳ å§Ĳ
æĤ¬ åĲĬ
åĩ¸ èµ·
è®¾ å¤ĩ
æķĻåŃ¦ æ³ķ
é£İæ¹¿æĢ§ å¿ĥèĦıçĹħ
å»ºè®®æĤ£èĢħåľ¨æĹ¥å¸¸çĶŁæ´»ä¸Ń è¦ģæ³¨æĦıé¥®é£Ł
åľ¨å½ĵåľ° åĮ»çĶŁæĮĩå¯¼ä¸ĭ
çĹħæĥħä¸¥éĩįå°±è¦ģ ç«ĭåį³
æĬ½è¡Ģ åĮĸéªĮ
é¢Ħéĺ²æĦŁæŁĵ ä¸ºå¥½çļĦ
ä½Ĩæĺ¯çĶ±äºİæĤ£èĢħçĹĩçĬ¶ä¸įåĲĮæīĢä»¥éĩĩçĶ¨ çļĦè¯ĬçĹħæĸ¹æ³ķä¹Łå°±ä¸įä¸Ģæł·
ä»¥å¾Ģ çļĦè¯ĬæĸŃåĴĮæ²»çĸĹ
åľ¨çĶŁæ´»ä¸ŃçĶ¨åģıæĸ¹ åģļä¸ºéħįç½®æķĳæ²»
å±ı éļľ
PE T
çķı å¯Ĵ
éĩįç»Ħ äºº
éĻ¤äºĨæľįèį¯ æ²»çĸĹ
æıĲåıĸ çī©
å¹¶ä¸Ķè¦ģ æ¸ħæ·¡é¥®é£Ł
ç»ıçļ®èĤ¾ éķľ
åħ³éĹŃ ä¸įåħ¨
äºĴçĽ¸éħįåĲĪè®¸å¤ļ ç»´çĶŁç´ł
èļķ è±Ĩ
åĽłæŃ¤éľĢè¦ģæĤ£èĢħå°½å¿«åİ»ä¸ĵä¸ļ ä¸Ģæł·è¿Ľè¡Įè¯¦ç»Ĩæ£Ģæµĭ
çİ¯ç£· éħ°èĥº
å¸¦æĿ¥å¾Īå¤§çļĦ åį±å®³
å¹¶ä¸ĶéľĢè¦ģ åĬłå¼ºèĲ¥åħ»
æ¿Ĵ æŃ»
æ°¨æ°¯ åľ°å¹³
æĭ¬çº¦ èĤĮ
æĪĳä¸įçŁ¥éģĵä»ĸæľī è¿Ļä¸ªæĥħåĨµ
ä¹Łæĺ¯å¾Īæĭħå¿ĥ çļĦ
æĿ¿èĵĿ æł¹
åĲŀåĴ½å¥½åĥıæľīçĤ¹ åĽ°éļ¾
å¤ļåģļåģļä¸ĢäºĽæľīæ°§è¿ĲåĬ¨ æĿ¥éĶ»çĤ¼èº«ä½ĵ
ä»¥å¾ĢçļĦè¯ĬæĸŃåĴĮæ²»çĸĹ ç»ıè¿ĩåıĬæķĪæŀľ
A F
B L
C P
E P
M T
i d
r a
Â ±
Ã Ĺ
Ġ åľ¨
ĩ æĿ
ï¼ ı
çļĦ åĲĹ
çļĦ æľīæķĪ
çļĦ çĬ¶æĢģ
çĸ Ĩ
çĸ Ł
æĺ¯ åħ·æľī
æľī è½»å¾®
åħ ģ
åħ ļ
æ²»çĸĹ çĻ«çĹ«
çĹħ æĢģ
çĹħ çļĦå½±åĥıåŃ¦æ£ĢæŁ¥æľīäºĽä»Ģä¹Ī
ä¸Ģ åĲį
è¦ģ æľīè§Ħå¾ĭ
ä»Ģä¹Ī æĦıæĢĿ
æĹ¶ å¥½æĹ¶
åıĳ éŁ³
å¯ °
å¤ļ ä¸İ
èĥ½ åľ¨
èĥ½ ä¸įèĥ½å¤Ł
äºĨ åĲ§
æŀ ĩæĿ
çĶ¨ éĢĶ
å¦ ¨
è¡Ģ èĻļ
é£Ł è¡¥
çİ° åĩº
éĢ Ĵ
å¸¸ ä¼´æľī
æĬ ¢
ä¼ļ éĢĲæ¸Ĳ
æŀľ æ±ģ
æĪĳ è¿ĺ
æĤ£èĢħ æľī
åĴĮ çĥŃéĩı
å¤§ å¹ħ
æİ Ī
ä½ł è¿Ļ
ä½ł è¯´
å¯¹ ä¹Ļéħ°æ°¨åŁº
ä¸ĭ åĪĹ
ä¸ĭ ä¸ĢæŃ¥
ä¸Ĭ åĳ¼åĲ¸éģĵ
ä¸º éĺ³æĢ§
å°ı ä½ĵ
å°ı èĦĳèĲİç¼©
æĸ¹ åīĤ
å¤ĸ æºĲæĢ§
ä¹Ł æ¯Ķè¾ĥ
éĩį çĤ¹
ç®¡ å£ģ
æ¸ ¡
é«ĺ æ¸©
éľĢ ä¸įéľĢè¦ģ
å®ļ åĲĳ
å¾Ī åı¯èĥ½æĺ¯
å¾Ī éĩįè¦ģçļĦ
ç»ĵ æĻ¶
åİ» éĻĦè¿ĳ
éľĢè¦ģ æĢİä¹Īæ²»çĸĹ
éľĢè¦ģ åĪ°åĮ»éĻ¢åģļ
åĪĨ åŀĭ
æľĢ åĪĿ
æ³¨æĦı å¤ļåĸĿæ°´
åŃķ åĲĲ
éĺ´ éĺ´
èµ· æķĪ
å¦Ĥæŀľ åıªæĺ¯
å¾Ĺ åİīå®³
èĢĮ ä¸įæĺ¯
åı£ åĲĥ
çľĭ åĩłä¸ĭ
çľĭ çĶµè§Ĩ
éĥ½ æľīä»Ģä¹ĪçĹĩçĬ¶
å¹¶ ä¸įèĥ½
è¯· æķĻ
æ°Ķ ä¿ĥ
èĤł ç²ĺè¿ŀ
ä½Ĩ æľī
éª¨ çĺ¤
æ¶Ī ç³ľ
åĬł å¤§
æĬĹ æĬĳéĥģ
æµģ æ¸ħ
ä¸» åĬ¨
ä½İ åĪĨåŃĲ
åıĬæĹ¶ å°±åĮ»
åıĺ æĽ´
æĸ¹æ³ķ æľīåĵªäºĽ
æĦŁæŁĵ çŃī
éĢļ æľ¯
æĥ³ ä¸ĬåİķæīĢ
ä½łå¥½ æł¹æį®ä½łçļĦæııè¿°å±ŀäºİ
å²ģ ä»¥åīį
æŃ¢ çĸ¼
ä¹ĭ åĪĨ
ä¸įè¦ģ çĶ¨
ä¸įè¦ģ åĲĥè¾Ľè¾£åĪºæ¿ĢçļĦé£Łçī©
ç»Ĩèĥŀ åĩĭäº¡
ä¸¥éĩį çļĦæĹ¶åĢĻ
ç¢ Į
ç§¯ èģļ
ä¸´åºĬ æĬ¤çĲĨ
åĽŀ èĤł
ç¥ŀç»ı ç§ĳ
ç¥ŀç»ı å¤ĸç§ĳ
ä¿ĿæĮģ åĲĪçĲĨé¥®é£Ł
æľ¬ èį¯
æ¡ Ĳ
åĪºæ¿Ģ çĹĩçĬ¶
åĲ¸ èĻ«çĹħ
éľĢè¦ģæľī èĢĥèĻĳ
éľĢè¦ģæľī å®ŀæĸ½
ä¸¤ ç±»
ä¸ªæľĪ å¤§çļĦ
å¯¹çĹĩ çĶ¨èį¯
åŃĲå®« åĪĩéĻ¤æľ¯
æľĢè¿ĳ è¿Ļæ®µæĹ¶éĹ´
å¸® å¸®å¿Ļ
å¦Ĥä½ķ æĬ¤çĲĨ
æĤ¨å¥½ åĩłä¸ĭ
éĿŀ éĤ£
åºĶè¯¥ å¦Ĥä½ķæ²»çĸĹ
ç¼º å¦Ĥ
èĥ¸ å£ģ
å·¦ æīĭ
æħ¢æĢ§ æµħè¡¨æĢ§èĥĥçĤİ
çķĻæĦı éĺ´éĥ¨åį«çĶŁ
å¾® è¡Ģç®¡
å¾® å¾ªçİ¯
èĪĴ çŃĭ
åĵªäºĽ çĹĩçĬ¶
ç»¼åĲĪ éĺ²æ²»
è¶³ è·Ł
éģ¿åħį åĪºæ¿Ģå¯ĴåĨ·é£Łçī©
å¤ļåĲĥ èĶ¬èıľåĴĮæ°´æŀľ
èĦĤ èĽĭçĻ½
æķ° æľĪ
æķ° å¹´
åıĳçİ° çļĦ
æĢ§çĶŁæ´» æĹ¶éĹ´çŁŃ
èĢ³ å»ĵ
æīįèĥ½ å¥½
ä»İ å¿ĥ
æīĵ åĳ¼åĻľ
æĺ¯åı¯ä»¥ æ²»æĦĪçļĦ
å¿Į åı£
éħįåĲĪ ä¸Ńèį¯
éħįåĲĪ éĴĪçģ¸
ä¸ŃåĮ» åĬ¨æĢģ
å¸¸è§ģ çĹħ
éĴĻ è¡ĢçĹĩ
çĤİçļĦ å¹¶åıĳçĹĩæĺ¯ä»Ģä¹Ī
åıĮ èħ¿
åĽº éħ®
æ·ĭå·´ çĺ¤çļĦ
å¤§ä¾¿ åĲİ
çĹħåıĳ ä½ľ
æľīä»Ģä¹Ī åĮºåĪ«
åıĤ èĭĵ
æĤ£èĢħçļĦ èº«ä½ĵ
å®ī æħ°
å¾Īå¤ļ çļĦ
ä»¥ä¸Ĭ è¿ĻäºĽ
ç»¼åĲĪå¾ģ çļĦè¾ħåĬ©æ²»çĸĹæľīäºĽä»Ģä¹Ī
æĪĳä»¬ çŁ¥éģĵ
èĥ¶åĽĬ æ²»çĸĹ
æĲ ½
æ¯į ç»Ĩèĥŀçĺ¤
èĦĵ æ¯ĴçĹĩ
è¡¥åħħ èĲ¥åħ»
åıĳä½ľ çļĦæĹ¶åĢĻ
æĿ¾ åĬ¨
æĶ¶ è´¹
æľīæķĪ çļĦæĸ¹æ³ķ
é«ĵ åĨħ
ä»¥åĲİ å°±
æľŁæľĽ å¥³æĢ§æĤ£èĢħåı¯ä»¥
ç½® æĶ¾
æĻķ çľ©
åĲĦ æĸ¹éĿ¢
å°ıåŃ© çļĦ
ç«ĭ ä½ĵ
èĳ Ľ
æ°¨ æº´
æ°¨ èĮ¶ç¢±
äºĶ å®ĺ
æĺ¯æĢİä¹ĪåĽŀäºĭ åĳ¢
ä¹Łä¸į ä¸Ģæł·
æ³» èĤĿ
åĿĲ çĿĢ
åĩĨ æľ¬
è½¬ç§» çĺ¤
åĲ¬ ç¥ŀç»ı
æľīæĹ¶ æľīçģ¼çĥŃ
èĥ± æ°¨éħ¸
çĿ¡çľł ä¸įå¥½
çĽĬ èĤ¾
é±¼ èĻ¾
èĢĥèĻĳæĺ¯ æľī
åĲ¸æĶ¶ çļĦé£Łçī©
ç©º æ´ŀ
æ³¨æĦıä¼ĳæģ¯ åıĬèĲ¥åħ»
åĮĸéªĮ ä¸Ģä¸ĭ
æĦīå¿« çļĦå¿ĥæĢģåİ»
è®¤ä¸º æĺ¯
ä¸Ģæ®µæĹ¶éĹ´ çļĦ
ä¸Ļ æ³Ĭ
è§īå¾Ĺ ç§ģå¤Ħ
è¯¦ æ£Ģ
è¿Ľä¸ĢæŃ¥ çļĦ
çĻĮçĹĩ çļĦ
åı· æĿ¥çļĦ
ä¼ļä¸įä¼ļ å½±åĵį
çĭŃçªĦ çļĦæīĭæľ¯æ²»çĸĹæľīäºĽä»Ģä¹Ī
åĢ¼ å¾Ĺ
åĩıè½» çĹĽèĭ¦
æ½® çĥŃ
æĢİæł·æ²»çĸĹ æīįå¥½
è¯¯ è¯Ĭ
ä¼ĺ åĬ¿
èĦĲ è´´
åĩºçĶŁ æĹ¶
èĤĿåĬŁèĥ½ å¼Ĥå¸¸
å½ĵåľ° åĮ»éĻ¢
åİ»åĮ»éĻ¢ä»Ķç»Ĩæ£ĢæŁ¥ è¯´æĺ¯
çļĦé¥®é£Ł ä¹łæĥ¯
äººä½ĵ çļĦ
åį±éĻ© è¿¹è±¡
ä¼´åıĳ çļĦ
ä¸īä¸ªæľĪ äºĨ
åĨłçĬ¶ çĹħæ¯Ĵ
æĸľ çĸĿ
éĢĢçĥ§ çļĦèį¯çī©
æľīåĪ©äºİ çĹĩçĬ¶çļĦ
èģļ ç³ĸ
ä¹° äºĨ
æ¸¸ æĪı
çĽ²çĽ® çĶ¨èį¯
æ»ĭ è¡¥
åĬ¡ å¿ħ
æ°¢ æ°§åĮĸ
æ³ª åĽĬ
é«ĺçĥŃ æĥĬåİ¥
å¤±çľł å¤ļæ¢¦
.. .
.. ï¼Į
æŃ¤çĹħ æĹ¶
åı¯è§ģ äºİ
çĲĨæĥ³ çļĦæķĪæŀľ
åĵªå®¶ åĮ»éĻ¢æ²»çĸĹ
çĸ±çĸ¹ çĹħæ¯Ĵ
è¶³å¤Ł çļĦèĲ¥åħ»
èľĤèľľ æ°´
æĭĶ ç½Ĳ
æĬĸ åĬ¨
ä¹Łå°±æĺ¯ è¯´
æľĢå¸¸è§ģçļĦ æĺ¯
å¿Ļ ç¢Į
æĤ£èĢħè¿ĺéľĢè¦ģæľīçľĭéĩį èĩªèº«çļĦé¥®é£Łä»¥åıĬå¿ĥçĲĨæĬ¤çĲĨ
å¯¹ä½ł æľīå¸®åĬ©
æĤ£èĢħåı¯ä»¥åľ¨ æİ¥åıĹ
éļĶä»£ éģĹä¼łåĽłç´ł
å¼Ĥçī© æĦŁ
éĹŃåĲĪ æĢ§
èħ¹èĨľ åĲİ
æĢ§æĹ© æĲı
é«Ĥ éª¨
æ½ľ è¡Ģ
æİ¥ç§į çĸ«èĭĹ
èĥĥéĥ¨ éĺ´éĺ´
åı¤ éľīç´ł
å¡« å¡ŀ
åı¯èĥ½æĢ§ å¤§
æ»¤ æ³¡
æĤ£èĢħåľ¨çĶŁæ´»ä¸Ńè¿ĺéľĢè¦ģæ³¨æĦı ä¿ĿæĮģåĲĪçĲĨé¥®é£Ł
éĨĽ åĽºéħ®
èº¯ å¹²
åĲĮæĹ¶çľĭéĩį é¥®é£ŁéĹ®é¢ĺ
éĵľ ç»¿
å®£ æķĻ
Ig A
åıįéħ¸ çļĦçĹĩçĬ¶
åıĸçŁ³ æľ¯
æŁĲç§į çĸ¾çĹħ
å¥½äºĨä¸Ģæ®µæĹ¶éĹ´ åĲİåıĪå¼Ģå§ĭ
æľĢè¿ĳä¸įçŁ¥éģĵæĢİä¹ĪåĽŀäºĭæĢ»æĺ¯æĦŁè§ī æģ¶å¿ĥæĥ³åĲĲ
èĤłåĨħ èĲ¥åħ»
ä½ľçĹĽ æľīæĹ¶æľīçģ¼çĥŃ
æīĢè°ĵ çļĦ
éĹ®é¢ĺä¸ĢçĽ´åĽ°æī° çĿĢ
çĨıæ´Ĺ æ²»çĸĹ
èĥĨæ±ģåıįæµģ æĢ§èĥĥçĤİ
åĨħçļ® ç»Ĩèĥŀ
éĻ¤äºĨè¦ģé©¬ä¸Ĭ æ²»çĸĹå¤ĸ
èĦīç»ľ èĨľ
æķĪæŀľæ¯Ķè¾ĥ ç¡®åĪĩ
åħħè¶³çļĦçĿ¡çľł æīįèĥ½
åĲĥä¸įä¸ĭ é¥Ń
ä»ĸä»¬çļĦ æĪĲéķ¿
åı¯ä»¥æ²»å¥½ åĲĹ
ä½¿çĶ¨æľ¬åĵģ åīį
åĮ»çĶŁä¼ļå»ºè®® æľī
åİ»åĮ»éĻ¢çľĭè¿ĩ å¥½äºĨä¸Ģæ®µæĹ¶éĹ´åĲİåıĪå¼Ģå§ĭ
åĬłæĿĥ æĪĲåĥı
ç¥ĿæĦ¿ æĤ£èĢħåģ¥åº·
è¦ģæ³¨æĦıä¿ĿæĮģ çĿ¡çľł
å¾ªè¯ģ æĬ¤çĲĨ
å°Ŀ è¯ķ
hp v
åĸ¹è¯º éħ®
æŀĩæĿ ·
å¯¹ä¹Ļéħ°æ°¨åŁº éħļ
æľŁæľĽå¥³æĢ§æĤ£èĢħåı¯ä»¥ èİ·å¾Ĺ
ä¸Ļæ³Ĭ éħļ
èĥĥéĥ¨éĺ´éĺ´ ä½ľçĹĽæľīæĹ¶æľīçģ¼çĥŃ
æĤ£èĢħåľ¨çĶŁæ´»ä¸Ńè¿ĺéľĢè¦ģæ³¨æĦıä¿ĿæĮģåĲĪçĲĨé¥®é£Ł çļĦå¥½ä¹łæĥ¯
åİ»åĮ»éĻ¢çľĭè¿ĩå¥½äºĨä¸Ģæ®µæĹ¶éĹ´åĲİåıĪå¼Ģå§ĭ çĬ¯äºĨ
ç¥ĿæĦ¿æĤ£èĢħåģ¥åº· åĪĨå¨©
èĥĥéĥ¨éĺ´éĺ´ä½ľçĹĽæľīæĹ¶æľīçģ¼çĥŃ åıįéħ¸çļĦçĹĩçĬ¶
D M
E D
L D
i g
l e
â Ĩ
Ġ (
çļĦ è¾ĵåįµç®¡
çļĦ è¡¥åħħ
çļĦ åİĭåĬĽ
çļĦ è¯±åĽł
æĺ¯ å¦Ĥä½ķ
æĺ¯ å¥³æĢ§
æľī çĸ¼çĹĽ
ä¸į åİ»
ä¸į è¡Į
ä¸į å¹¸
æ²»çĸĹ è´¹çĶ¨
ä¸Ģ æ®µ
è¦ģ æĢİä¹Īæ²»
è¦ģ å¤ļéķ¿æĹ¶éĹ´
åı¯ ä¼´æľī
åı¯ èĩªè¡Į
åı¯ éĢīçĶ¨
åı¯ çī©çĲĨéĻįæ¸©
æĹ¶ åı¯
æŁ Ħ
æŁ ĳ
å¥½ å¥½çļĦ
èį¯ åĲĹ
å¤ļ çĶ±äºİ
å¤ļ è§Ĥæ³¨
åİ Ħ
è¾ ©
åı¯ä»¥ æľīæķĪ
åľ¨ ä¸´åºĬä¸Ĭ
çī© åĵģ
åĲİ èĦĳ
ä¼ļ å¤įåıĳ
ä¼ļ è¢«
æĪĳ è¿Ļä¸ª
æĪĳ æĺ¯ä¸įæĺ¯
æĪĳ çĪ·çĪ·
å¦Ĥ æŃ£åľ¨
åĴĮ é¥®é£Ł
åĴĮ å¾®éĩıåħĥç´ł
ä½ł è¦ģ
å¯¹ æĤ£èĢħæĿ¥è¯´
ä¸ĭ çıŃ
ä¸Ĭ åŃ¦
åĲĥ æ¯įä¹³
å°± ç®Ĺ
æīĭæľ¯ çļĦæīĭæľ¯æ²»çĸĹæľīäºĽä»Ģä¹Ī
çŃ ¾
å°ı è±Ĩ
å°ı åĪĩåı£
æĿ¥ è°ĥçĲĨ
æĿ¥ çļĦå½±åĵįæĺ¯éĿŀå¸¸å¤§çļĦ
è¿ĩ åĨ·
æĦŁ åıĹ
ä¹Ł æŃ£å¸¸
äºº æł¼
å»ºè®® ç§¯æŀģ
å¤© çļĦ
é«ĺ åĪĨè¾¨
å¾Ī è¾Ľèĭ¦
æ°´ æ³¥
åģļ ä»Ģä¹Ī
å°¿ æ£Ģ
ç»ĵ èĨľçĤİ
æľĢ å¿«
æľĢ æĸ°
ç¼ ł
èĤĿ èĤ¾åĬŁèĥ½
èĤĿ èĦĵèĤ¿
çĸ¾çĹħ çļĦæīĭæľ¯æ²»çĸĹæľīäºĽä»Ģä¹Ī
çĸ¾çĹħ çļĦè¾ħåĬ©æ²»çĸĹæľīäºĽä»Ģä¹Ī
ç§ĳ æĬĢ
å¾Ĺ çļĦ
éĴ ³
èĦĳ è¢ĭ
åŃ©åŃĲ çİ°åľ¨
åŃ©åŃĲ æĮģç»Ń
è¾ĥ ä½³
åı£ è§Ĵ
éĻ¤ æľ¯
çĻ½ çĻľ
éĥ½ éľĢè¦ģ
åĩºçİ° èĢ³èĨľç©¿åŃĶ
ä¸ĢèĪ¬ èį¯çī©å¾Īéļ¾
åĨį èĢĥèĻĳ
åĨį æ¤į
æĮģ ä¹ħ
æķĳæ²» æİªæĸ½
è¯·éĹ® è¿Ļ
ä½İ åİĭ
åıĺ åºĶæĢ§
æĹ¶éĹ´ è¿ĩéķ¿
æĥ³ åĪ°
æł¹æį® æĤ£èĢħ
çĶ² æ°§
äºĭ ä»¶
è¿ĳ å¹´
çļĦæ²»çĸĹ åĬŀæ³ķ
åŃ¦ ä¼ļ
ä¸įè¦ģ è¿ĩäºİ
æ¯Ķè¾ĥ éº»çĥ¦
æŃ£å¸¸ æĢ§çĶŁæ´»
æīį ä¸įä¼ļå¯¹
å®ŀ æĹ¶
çİ°åľ¨ åľ¨
åĩł çĤ¹
åĩł å¹´äºĨ
å£ ¶
å§ »
åĽŀ å¥¶
å¯¼èĩ´ æĪĳ
åŀĭ çļĦä¸´åºĬè¡¨çİ°æľīäºĽä»Ģä¹Ī
ä¸»è¦ģ è¦ģ
éĹ®é¢ĺ åĪĨæŀĲ
èĤ¿çĺ¤ ç§ĳ
çļĦçĹĩçĬ¶ åĴĮ
åİ»åĮ»éĻ¢ å¤įè¯Ĭ
ä¸įèĥ½ æĸŃèį¯
è¡Ģç®¡ çķ¸å½¢
åŃĲå®« æģ¯èĤī
æľĢè¿ĳ è¿Ļ
ä¸¸ çŃī
åıĳçĶŁ äºĨ
è¾Ľ ä¼Ĳä»ĸæ±Ģ
è¥¿ å®ī
çĤİçĹĩ å¼ķæĿ¥çļĦ
å¤± æ°´
å¤± ä»£åģ¿
çľ¼ æ³ª
åħ¥ æīĭ
åĹ ħ
æīĢä»¥ å¸ĮæľĽ
æīĢä»¥ æĪĳæĥ³
å·¦ èĤ¾
æħ¢æĢ§ éĺ»å¡ŀæĢ§
çķĻæĦı ä»Ķç»Ĩè§Ĥå¯Ł
é¢Ħéĺ² æĢ§
å°ıåĦ¿ èĦĳçĺ«
éģ¿åħį æİ¥è§¦
éģ¿åħį ç²¾ç¥ŀä¸Ĭè¿ĩåº¦çļĦç´§å¼łåĴĮ
éĿĻèĦī è¾ĵæ¶²
çĿ¡ çĿĢ
åı³ å½Ĵ
ç¼ĵè§£ çĹħæĥħåıĬåº·å¤įçļĦåĩłçİĩéĥ½éĿŀå¸¸å¤§
é¼» åŃĶ
é¼» åĨħéķľ
åĨ· æ°´
æĢ¥æĢ§ æĶ¯æ°Ķç®¡çĤİ
ä½¿çĶ¨ çļĦ
å½±åĥı åŃ¦
æİ§åĪ¶ æĢ§çĶŁæ´»
å±Ģéĥ¨ çĸ¼çĹĽ
æīįèĥ½ å°½å¿«å¸®åĬ©åĦ¿ç«¥
ç»Ħç»ĩ åŃ¦
å®Į äºĨ
æİ¥ è¿ĳ
è¦ģæ³¨æĦı åĵªäºĽ
åįģ å¤ļå¹´
æĺ¯åı¯ä»¥ éħĮæĥħ
å¹¶ä¸Ķ æ¸ħæ·¡é¥®é£Ł
åĲĲ è¡Ģ
åĮĸçĸĹ åĲĹ
æĹ©æľŁ åıĳçİ°
åıĮ æŃ§
åĽº æľ¬
åĳ¼åĲ¸ çªĺè¿«
åıĳèĤ² çļĦ
åıĳèĤ² éĢłæĪĲå½±åĵį
å¸¸è§Ħ æ²»çĸĹ
åĪ°åĮ»éĻ¢ å°±è¯Ĭ
å¿ĥçĲĨ æĢ§
éĢĤå½ĵ éĶ»çĤ¼èº«ä½ĵ
åıĤ ä¸İ
ç¡®è¯Ĭ åĲİ
å·¥ä½ľ åĴĮçĶŁæ´»
æĽ² åº·åĶĳ
çļĦåİŁåĽł æĺ¯
èĦ± æ°¢
ä»¥åħį å½±åĵį
ä»¥åħį èĢ½
æį¢ æ²»çĸĹæĸ¹æ¡Ī
å§ĭç»Īä¿ĿæĮģ æ·±åº¦çĿ¡çľł
å§ĭç»Īä¿ĿæĮģ å¤§ä¾¿éĢļçķħ
åĲĳ å¤ĸ
æĢ§çļĦ çĸ¾çĹħ
çł´ æįŁ
ä¸įèĪĴæľį çļĦæĥħåĨµ
æĺ¯åĲ¦ æĺ¯æľī
æ³¡ æ°´åĸĿ
çĶŁéķ¿ äºİ
çĦ¶åĲİ åľ¨
æĶ¹åĸĦ çĹĩçĬ¶
çļĦæ²»çĸĹæĸ¹æ³ķ æľīåĵªäºĽ
å»¶ ç»Ń
åı¯ä»¥çĶ¨ çĤ¹
åĨħåĪĨæ³Į çĸ¾çĹħ
çļĦæĸ¹æ³ķ æīįèĥ½å°½å¿«å¸®åĬ©åĦ¿ç«¥
å¦Ĥæŀľæĺ¯ æľī
å©ļ å§»
å¤ĸç§ĳ æīĭæľ¯æ²»çĸĹ
é¢Ĺç²Ĵ åĴĮ
åĭĥèµ· æĹ¶
åĶĳ ä»ĳ
åıĬæĹ¶æ²»çĸĹ åİŁåĪĻ
é©¬ æĿ¥
åıªæľī åĪ©çĶ¨
é¸¡ èĤĿ
çĹĶçĸ® çļĦ
00 1
åĲ¸æĶ¶ çļĦ
æĺ¯æľī åı¯èĥ½
èĲİç¼© æĢ§
æĪĸèĢħæĺ¯ æ²»çĸĹæĸ¹æ³ķä¸įæŃ£ç¡®
å½©è¶ħ æ£ĢæŁ¥
æ¸Ĳ è¿Ľ
è§£åĨ³ çļĦ
ä¸Ģä¸ªæľĪ å·¦åı³
ä¹Łæ²¡ ç²¾ç¥ŀ
åŃĺåľ¨ äºİ
æ²ī æ·Ģ
çĶŁåĨ· çŃīåĪºæ¿ĢæĢ§é£Łçī©
çļ®è´¨ ç±»åĽºéĨĩ
æĢĿ å¯Ĩè¾¾
ç²¾æ¶² ä¸įæ¶²åĮĸ
å°ĳåĲĥ å¤ļé¤Ĳ
æĬĹä½ĵ éĺ³æĢ§
å¿Įè¾Ľè¾£ åĪºæ¿Ģé£Łçī©
æ¸Ĺ åħ¥
å¥Ĺ åıł
å¥½åĥı ä¹Ł
åĲ¦åĪĻ ä¼ļå¯¼èĩ´
åħ³éĶ® æĺ¯
æĹ©ä¸Ĭ èµ·æĿ¥
æĥ³çŁ¥éģĵ è¿Ļ
æĤ£èĢħä¸Ģå®ļè¦ģ å§ĭç»Īä¿ĿæĮģå¿ĥæĥħæĦīå¿«
æĤ£èĢħä¸Ģå®ļè¦ģ éģ¿åħįç²¾ç¥ŀä¸Ĭè¿ĩåº¦çļĦç´§å¼łåĴĮ
èĩªæĦĪ åĲĹ
ä¿Ŀåģ¥ åĵģ
æĿĢ æİī
æŀ¢ æ¤İ
å¤ļçķĻæĦı æ¸ħæ´ģ
å°ıåŃ©åŃĲ æīģæ¡ĥä½ĵåıĳçĤİ
åģļçĪ± æĹ¶
åģļçĪ± çļĦæĹ¶åĢĻ
åĴĸåķ¡ åĽł
æ²»çĸĹå¥½ çĸ¾çĹħ
åľ¨æ²»çĸĹ æŃ¤çĹħæĹ¶
èĩªèº«çļĦçĹĩçĬ¶ åıĺåĬ¨
åĽłæŃ¤æĤ£èĢħè¦ģåıĬæĹ¶ å¯¹çĹĩæ²»çĸĹ
åĽłæŃ¤æĤ£èĢħè¦ģåıĬæĹ¶ æľįé£Łèį¯çī©
åįĬå¹´ åīį
çŀ §
å¦Ĥæŀľä¸įåıĬæĹ¶æ²»çĸĹ æĪĸèĢħæĺ¯æ²»çĸĹæĸ¹æ³ķä¸įæŃ£ç¡®
å¯¹æĤ£èĢħä»¬å¸¦ æĿ¥çļĦå½±åĵįæĺ¯éĿŀå¸¸å¤§çļĦ
æľºæ¢° æĢ§
?? ??
æĢİä¹Īå¤ĦçĲĨ å¥½
æĪª çĺ«
å°ĳåĲĥè¾Ľè¾£ åĪºæ¿ĢæĢ§é£Łçī©
éĩįå»º æľ¯
åĢį ä»ĸ
è½¬æ°¨éħ¶ é«ĺ
çİ°åľ¨å·²ç»ı é«ĺçĥ§ä¸įéĢĢ
æŀ¸æĿŀ åŃĲ
èĤłç³»èĨľ ä¸Ĭ
èĦĳèĨľ çĺ¤
è¿Ľå±ķ æĺ¯å¾Īå¿«çļĦ
å¹³æĹ¶éľĢè¦ģ åĬłå¼ºè¿ĲåĬ¨
ç±»åŀĭçļĦ æ»´èĢ³åīĤ
ä¸Ģä¸ªå¤ļæľĪ äºĨ
å¹¶ä¸Ķè¦ģå§ĭç»Īä¿ĿæĮģ æĦīæĤ¦çļĦå¿ĥæĥħ
å¹¶ä¸Ķè¦ģå§ĭç»Īä¿ĿæĮģ èĪĴçķħçļĦå¿ĥæĥħ
æĪĳä»¬åºĶå½ĵ åıĬæĹ¶å®ŀè¡Į
èµ¶ èµ°
å½»åºķæģ¢å¤įå¼ķåıĳ äºĨä¸įå¿ħè¦ģçļĦå½±åĵį
åĨľ æĿĳ
è®¡ç®Ĺ æľº
é¡ºåĪ© å®ĮæĪĲ
è½® çĬ¶
è·Į åĢĴ
è¿Ķæµģ æĢ§èĥĥçĤİ
ä¼Ĭ æĽ²åº·åĶĳ
æ·ĭå·´ç®¡ çĺ¤
æ»´èĢ³ æ¶²
æĤ£èĢħæľĭåıĭä»¬åºĶè¯¥åģļåĪ° åıĬæĹ¶æ²»çĸĹåİŁåĪĻ
å®ĥçļĦ è¿Ľå±ķæĺ¯å¾Īå¿«çļĦ
æĪĲå¹´ äºº
æł¹æį®ä½łè¯´çļĦçĹĩçĬ¶ ä¸»è¦ģæĺ¯
å¨ĥ å¨ĥ
æĿ¾æĩĪ å¿ĥæĥħ
èĥİåģľ èĤ²
è¿Ļä½į æľĭåıĭ
æ¶ĪçĤİçļĦ èį¯çī©
æĪ¿å®¤ ä¼łå¯¼éĺ»æ»ŀ
ä»İæĿ¥ æ²¡æľī
åĽłæŃ¤æķĳæ²»ä¸Ńä¸Ģå®ļ ç§¯æŀģäºĴçĽ¸éħįåĲĪ
æĤ£èĢħèĥ½èİ·å¾Ĺ ä¸ĵä¸ļæķĳæ²»
çĥ§çģ¼ æĦŁ
é¾ĻèĥĨ æ³»èĤĿ
åĴķ åĻľ
è¡Ģç®¡ç´§å¼ł ç´ł
ä¸įè¦ģéļıæĦı æį¢æĸ°
èĢ³é¼»åĸī ç§ĳ
çĤĶ éĽĮéĨĩ
åĪ©ç¦ı å¹³
èĭ¯å¦¥èĭ± éĴł
åĬĽä¸į ä»İå¿ĥ
èĢĥèĻĳéĩĩåıĸ ä¸ĢèĪ¬æ²»çĸĹ
åı³ç¾İæīĺåĴª å®ļ
æĢ§ä¼´ ä¾£
èĥĨèĦĤ çĺ¤
å¸ĮæľĽé«ĺè¡Ģåİĭ æĤ£èĢħèĥ½å¾ĹåĪ°ä¸ĵä¸ļæ²»çĸĹ
åįİæ³ķ æŀĹ
å¹¶ä¸Ķè¦ģæ¸ħæ·¡é¥®é£Ł å¤ļåģļæľīæ°§è¿ĲåĬ¨
ä¸ŃåĮ»åĬ¨æĢģ çļĦçĸĹæ³ķ
åıĤèĭĵ çĻ½æľ¯æķ£
æľīåĪ©äºİçĹĩçĬ¶çļĦ å¥½è½¬
éĹ®é¢ĺä¸ĢçĽ´åĽ°æī°çĿĢ å®¶éķ¿ä»¬
ä»ĸä»¬çļĦæĪĲéķ¿ åıĳèĤ²éĢłæĪĲå½±åĵį
ä½¿çĶ¨æľ¬åĵģåīį è¯·åĴ¨è¯¢åĮ»å¸ĪæĪĸèį¯å¸Ī
âĨ Ĵ
çĻ½çĻľ é£İ
æīįä¸įä¼ļå¯¹ ä»ĸä»¬çļĦæĪĲéķ¿åıĳèĤ²éĢłæĪĲå½±åĵį
çļĦæĸ¹æ³ķæīįèĥ½å°½å¿«å¸®åĬ©åĦ¿ç«¥ æ²»çĸĹå¥½çĸ¾çĹħ
æĤ£èĢħä¸Ģå®ļè¦ģéģ¿åħįç²¾ç¥ŀä¸Ĭè¿ĩåº¦çļĦç´§å¼łåĴĮ å¿§èĻĳ
çİ°åľ¨å·²ç»ıé«ĺçĥ§ä¸įéĢĢ äºĨ
+ +
B ç»Ĩèĥŀ
G F
Ġ 8
Ġ åı£æľį
çļĦ éĩı
çļĦ åĳ¢
çļĦ åĦ¿ç«¥
çļĦ è¯´æĺ¯
çļĦ æģ¢å¤įéĢłæĪĲäºĨä¸įå¿ħè¦ģçļĦå½±åĵį
çĹ §
çĸ ĸ
æĺ¯ ä»İ
èĥ Ľ
ä¸į éķ¿
ä¸į åı¯ä»¥åĲĥ
ä¸į éĽĨä¸Ń
æĢ§ èĤłæ¢Ĺéĺ»
æĢ§ é«ĺæ½®
åı¯ åħĪ
ä»Ģä¹Ī èį¯çī©
ä¼ ģ
åıĳ çĹĴ
åıĳ é»ĳ
çĤ ī
å¤ļ æĢģ
çĹĩ çļĦä¸´åºĬè¡¨çİ°æľīäºĽä»Ģä¹Ī
è¡Ģ éĴĻ
èĢħ åı¯
åľ¨ ä½ĵåĨħ
åľ¨ ä¸´åºĬè¯ĬæĸŃä¸Ĭ
åľ¨ è¿ĻéĩĮ
åĲİ åĩºçİ°
åĲİ å£ģ
å¸¸ å¹´
ä½ĵ ç³»
ä½ĵ éªĮ
é¢ ł
æĪĳ è¿ĺæ²¡æľī
åĴĮ èĥĥ
åĴĮ ç¾İ
ä¸Ń å¸¦è¡Ģ
å¯¹ çħ§
ä¸Ĭ èħ¹çĹĽ
æĮ ĸ
å°ı çĸĻçĺ©
åĨħ éħ¯
ä¹Ł ä¸įåĲĮ
åĮĸ æĬ¤çĲĨ
å»ºè®® éĢīæĭ©
å»ºè®® é¦ĸåħĪ
çĹĩçĬ¶ å¾Īä¹ħäºĨ
å¤© éº»
é«ĺ å°¿éħ¸
å¾Ī ä½İ
å¾Ī é»Ħ
å¾Ī æľīåı¯èĥ½æĺ¯
å¾Ī é¢ĳç¹ģçļĦ
åģļ åĮħçļ®æīĭæľ¯
å°¿ ä¸Ń
æĶ ¿
åĬ¨ ä¸įåĬ¨
åİ» åĵªéĩĮ
éľĢè¦ģ åıĬæĹ¶çļĦ
èį¯çī© æľī
æ³¨æĦı ä¸įè¦ģ
é¥®é£Ł ç»ĻäºĪ
åĸ ĥ
å®« çĤİ
å®« å¯Ĵ
çĻĮ åīįçĹħåıĺ
å¦Ĥæŀľ èĥ½
èĤĿ åĪĩéĻ¤æľ¯
èĤĿ æįŁå®³
èĦĳ æĢ§çĺ«çĹª
åŃ©åŃĲ æĥħåĨµ
åŃ©åŃĲ è¢«
çĻ½ çĤ¹
åĩºçİ° å¤ļæ¬¡
ä¸ĢèĪ¬ ä¼ļ
èĤł çĶŁ
çĶŁæ´» æľŁ
æīĢ è¿°
è§£ çĥŃ
æĬĹ è¡Ģå°ıæĿ¿
è§Ħ å®ļ
æµģ åħ¥
ä¸» é£Ł
ä½İ éĴł
ä½İ éĴ¾
åĬŁèĥ½ æģ¢å¤į
äº§ ä¼¤
æĥ³ è¿Ľè¡ĮåĴ¨è¯¢
æĽ Ŀ
è¿ĳ çļĦåĮ»éĻ¢
æŃ¤ æ¬¡
æĺĵ æĦŁ
è¿Ľè¡Į ä¸ĢäºĽ
çĶ· çĶŁ
ç§¯ èĦĵ
æķĪæŀľ ä¼ļ
æ¯Ķè¾ĥ å°ĳ
æ¯Ķè¾ĥ å·®
ä»Ķç»Ĩæ£ĢæŁ¥ çļĦ
ä»Ķç»Ĩæ£ĢæŁ¥ æĺ¯
ç»´ ä»ĸ
æīį æľī
åĩı éĩı
å®Ŀå®Ŀ æĺ¯
å¼Ģ èĥ¸
å¦ĩ åº·
åīįåĪĹèħº ç´ł
å¸¦ æĿ¥çļĦ
æ²¡æľī ç²¾ç¥ŀ
ä»ĸ èĩªå·±
åĵª ä¸Ģç§į
æ¡ Ķ
è¾ħåĬ© åĮĸçĸĹ
èĤ¿çĺ¤ åĮ»éĻ¢
èĢĥèĻĳ åĪ°
èĢĥèĻĳ ä¸İ
å¯¹çĹĩ çļĦæĬĹçĶŁç´łèį¯çī©
ä¸įèĥ½ åĭĥèµ·
çļĦè¯Ŀ ä¹Łåı¯
åģ¥åº· æģ¢å¤į
éķľ æ£Ģ
çĽ® æłĩ
èĽ Ķ
ä¸ĢäºĽ çļĦ
å®«é¢Ī çĤİçĹĩ
å°½ ç®¡
ç»Ħ èĥº
çļĦæĹ¶åĢĻ åıĬæĹ¶æķĳæ²»
æŀģ å°ĳ
åĽłç´ł æľīåħ³
éħĴ ç±»
ç¼º çĤ¹
ä¸Ńèį¯ æķĳæ²»
æĹ©æ³Ħ çļĦçĹĩçĬ¶
æĶ¯ æĴĳ
åĴ³ è¡Ģ
éħį æĲŃ
æĢİä¹ĪåĽŀäºĭ åķĬ
ç¡¬ çļĦ
åı³ èĤº
ç¼ĵè§£ çĹĽèĭ¦
çŁ³ èĨı
å¤ª æĭħå¿ĥ
æĢ¥æĢ§ ä¸¥éĩį
ä½¿çĶ¨ ä¸ĢäºĽ
å¼ķèµ·çļĦ è¡¨çİ°
æľŁéĹ´ æ³¨æĦı
æİ§åĪ¶ çĹħæĥħåıĬåº·å¤įçļĦåĩłçİĩéĥ½éĿŀå¸¸å¤§
æĢ§çĶŁæ´» æĹ¶éĹ´
å¾ĹäºĨ çĶ²äº¢
æıĲ åĢ¡
çĶµ åĪĩæľ¯
æİ¥ çĿĢ
æĭī ç²ĳç²ĳ
åĪĨæ³Į è¿ĩå¤ļ
åįĬ å¤ı
çļ®èĤ¤ çĺĻçĹĴ
èħ° æŀľ
èĤļåŃĲ èĥĢ
æĹ¥å¸¸ éĶ»çĤ¼
ç¬¬ ä¸Ģå¤©
æµĭ å¾Ĺ
çĤİçļĦ æ£ĢæŁ¥æľīäºĽä»Ģä¹Ī
è¢ ľ
åĳ¼åĲ¸ åĨħç§ĳçĸ¾çĹħ
çĹħçļĦ å¹¶åıĳçĹĩæĺ¯ä»Ģä¹Ī
çĹħçļĦ å¤ļåıĳç¾¤ä½ĵæĺ¯
åĻ¨ æ¢°
å¤§ä¾¿ å¹²
çī¹åĪ« å®¹æĺĵ
åħĭ æŀĹ
å¢ŀåĬł æĹ¥å¸¸éĶ»çĤ¼
ä¸Ģä¸ª äºº
éĿŀå¸¸ æľīæķĪçļĦæ²»çĸĹæĸ¹æ³ķ
ç²Ĵ ä½ĵ
éĵ ¬
æĦŁåĨĴ åĴ³åĹ½
æľĭåıĭ æİ¨èįĲ
çļĦåİŁåĽł æľīåĵªäºĽ
çļĦåİŁåĽł æľīå¾Īå¤ļ
çº¤ç»´ èĽĭçĻ½
ä¸įçŁ¥éģĵ è¿Ļç§įæĥħåĨµæĺ¯åĴĭåĽŀäºĭ
ä¼łæŁĵ äºĨ
ä¼łæŁĵ ç»Ļ
èĦĵ æ¶²
éĥ½æĺ¯ æŃ£å¸¸çļĦ
ç©¿ å®½æĿ¾
åĲĳ ä¸Ĭ
æ°Ķç®¡ çĤİ
å°½å¿« çļĦ
æķ´ èĤłçĶŁ
åĪĽ éĢł
æ±¤ åĬłåĩı
éĻĦ åŃĲ
æĤ£èĢħåľ¨ å¯¹çĹĩæ²»çĸĹä¹ĭå¤ĸ
åĴ¨è¯¢ èĢħ
èĳ «
çĦ¶åĲİ å°±
åıįå¤į åıĳçĶŁ
æĶ¹åĸĦ çļĦè¯Ŀ
åĲĥä»Ģä¹Ī é£Łçī©
èħ¹éĥ¨ ä¸įéĢĤ
æ¯Ķå¦Ĥ åĥı
åł ª
éĩįè¦ģ çļĦæĺ¯
äºĶ å¹´
åıĳè§ī æĺ¯
åĨħåĪĨæ³Į æ¿Ģç´ł
éĥ¨åĪĨ çĹħäºº
éĻįä½İ æĤ£çĹħ
èĻ« èįī
éĴĪå¯¹ æ²»çĸĹ
æĻļä¸Ĭ å°±
éĩĩåıĸ çĽ¸åºĶ
æµ· åįĹ
ä¹ĭåĲİ å°±
éģĹä¼ł æĢ§çĸ¾çĹħ
æĶ¯æ°Ķç®¡ èĤºçĤİ
çľŁ çļ®
çĹħçĲĨ æ´»æ£Ģ
å¦Ĥä½ķæ²»çĸĹ æīįå¥½
æĤ£èĢħè¿ĺ éľĢè¦ģæľī
éĢłå½± æ£ĢæŁ¥
æıĲé«ĺ çĶŁåŃĺè´¨éĩı
åĲ¬ åĪ°
å¸¸è§ģçļĦ ä¸Ģç§į
èħ¿ éĥ¨
è§¦ çĹĽ
åĸī éĥ¨
æ²»çĸĹæĸ¹æ³ķ æĺ¯ä»Ģä¹Ī
ç¥ĿæĤ¨ æĹ©æĹ¥æģ¢å¤įåģ¥åº·
èĦļ è¶¾
æļ´ åĬĽ
å¤« å¦ĩ
ä¼¤å®³ æĺ¯éĿŀå¸¸å¤§çļĦ
æ°Ł å°¿åĺ§åķ¶
èĴ ¿
åĸĤ çĤ¹
é¦Ļ çłĤ
æ·ĭå·´ç»ĵ è½¬ç§»
åĲĥèį¯ åĲĹ
çĩ ķ
è§īå¾Ĺ åĹĵåŃĲçĸ¼
å¤ļä¹ħ èĥ½
åĳ¨åĽ´ æĢ§
æĸ°é²ľ èĶ¬èıľ
åĩĿ åĽº
æ·· æµĬ
æļĤ æĹł
æķ· èį¯
çĸĹæķĪ éĢĤå¾Ĺåħ¶åıį
çĥ¦ æ¸´
ä¸įä»ħ å¦ĤæŃ¤
æĺ¯æĮĩ åľ¨
æİ¥è§¦ æĢ§
åĲİéģĹ çĹĩçļĦ
ä¼ĺ èĤ²
èĦĲ çĸĿ
éĽĮ äºĮéĨĩ
çĲĨè§£ ä¸Ģä¸ĭ
å¤ļéķ¿æĹ¶éĹ´ èĥ½
å¾Īéļ¾ è¿ĩ
èĦĬé«ĵ æįŁä¼¤
æĪĲåĥı æĬĢæľ¯
åį±éĻ© çļĦ
åį±éĻ© åĲĹ
é¢Ħéĺ²å·¥ä½ľ éĹ¹èĤļåŃĲ
åĲ¦åĪĻ çĸĹæķĪéĢĤå¾Ĺåħ¶åıį
èĦĳè¡Ģç®¡ çĸ¾çĹħ
èĥ¸éĹ· æ°ĶçŁŃ
æĪĳæĥ³éĹ® åĩłä¸ĭ
è§Ħå¾ĭä½ľæģ¯ ç§¯æŀģåıĤåĬłä½ĵèĤ²éĶ»çĤ¼
ç«ĭåį³ æ²»çĸĹ
åĲ«æľī ç»´çĶŁç´ł
åĺ´ å·´
æĮº çĥ¦æģ¼
è´´ æķ·
æľīä¸ª æľĭåıĭ
åĨ¬ çĵľ
ä½ĵå¤ĸ åĨ²åĩ»
ç»ĨèıĮæĢ§ åīįåĪĹèħºçĤİ
åĪ°åºķ æĺ¯
èĤ© èĥĽ
æŃ»äº¡ çİĩ
å¤įæĿĤ æĢ§
æĻ®éĢļ åĨħç§ĳ
ç¼ºæ°§ ç¼ºè¡Ģ
èĥ½æ²» åĲĹ
å¤ļåĲĥä¸ĢäºĽ èĶ¬èıľæ°´æŀľ
æłĳ ç«ĭ
æĤ£èĢħè¿ĺéľĢè¦ģéĩįè§Ĩ éĢĤå½ĵä¼ĳæģ¯
çº¢èī² çļĦ
ç¥Ľ çĹ°
ä¸Ĭè¿°çļĦçŃĶæ¡Īåı¯ä»¥å¸®åĬ©åĪ° æĤ¨
æķĳæ²»æľŁéĹ´ éĺ²æŃ¢æĢ§çĶŁæ´»
ä»¥æŃ¤æĿ¥ æıĲé«ĺæĤ£èĢħåħįçĸ«åĬĽ
å±Ī æĽ²
å´© æºĥ
æ¸©æ°´ åĿĲæµ´
çī¹åıĳæĢ§ èĤºçº¤ç»´åĮĸ
éĤ£ä¹Īå°±è¦ģåıĬæĹ¶ åıĺæĽ´
æ¢¦ éģĹ
ä¸¥éĩįèĢħ åı¯
æİ§åĪ¶çĹħæĥħ åıĳå±ķ
å¹³æ»ĳ èĤĮèĤī
è§Ĩç¥ŀç»ı èĲİç¼©
âĳ ł
æ½ľ ä¼ı
ç§ĭ åĨ¬
åĬ¨æĢģ å¿ĥçĶµåĽ¾
åīĸå®«äº§ æľ¯
æķĪæŀľä¸įå¥½ åĪ°åĮ»éĻ¢åģļ
æ§ ½
ä¸įè§ģ å¥½è½¬
æ²³ åįĹ
å¾ĪçĹĽ çļĦ
ç»ĵæīİ æľ¯
æĺ¯å®¹æĺĵ å¾ĹåĪ°æİ§åĪ¶çļĦ
ä¸įå®¹æĺĵ æ²»çĸĹ
æĹ¶å¸¸ å¤´çĸ¼
æ»¤ è¿ĩ
æľīçĤ¹åıĳçĥ§ ä¹Łæ²¡ç²¾ç¥ŀ
æĤ£èĢħåľ¨çĶŁæ´»ä¸Ńè¿ĺéľĢè¦ģæ³¨æĦı è¦ģä¿ĿæĮģèī¯å¥½çļĦå¿ĥæĥħ
æĤ£èĢħåľ¨çĶŁæ´»ä¸Ńè¿ĺéľĢè¦ģæ³¨æĦı è¦ģæ³¨æĦıä¿ĿæĮģçĿ¡çľł
èĥĥåı£ çļĦ
åĲĮæĹ¶å¤ļçľĭéĩį èĩªèº«æĬ¤çĲĨ
è®°å¿ĨåĬĽ åĩıéĢĢ
çĹħæĥħä¸¥éĩįå°±è¦ģ ç«ĭåĪ»
èĳ¡èĲĦç³ĸéħ¸ éĶĮ
è·Į æīĵ
æ¬ł ä½³
å¦Ĥæŀľä¸įåıĬæĹ¶æķĳæ²»ä¼ļå½±åĵįåĪ° åģ¥åº·æĥħåĨµ
äºĨä¸ĢäºĽ èµĦæĸĻ
èĤłæº¶ èĥ¶åĽĬ
æ©ĺ åŃĲ
ç»ķ é¢Ī
åĩºçİ°è¿Ļç§įæĥħåĨµ å¾Īé¢ĳç¹ģçļĦ
æłĢ åŃĲ
å¾Īé«ĺåħ´ä¸ºä½ł è§£çŃĶ
éĹ®é¢ĺä¸ĢçĽ´åĽ°æī° æĤ£èĢħ
ä¸įåĲĥè¾Ľè¾£åĪºæ¿ĢæĢ§çļĦé£Łçī© å¾Īéĩįè¦ģ
æ··æĤ¬ æ¶²
ç»ĵèĬĤæĢ§ çĶ²çĬ¶èħºèĤ¿
èĩªèº«åħįçĸ«åĬĽ éĻįä½İæĤ£çĹħ
éļĲéļĲ ä½ľçĹĽ
èĽĽç½ĳèĨľ ä¸ĭèħĶ
è¡¥ä¸ŃçĽĬæ°Ķ ä¸¸
èĤĭè½¯éª¨ çĤİ
èĳµèĬ± åŃĲä»ģ
å³¡ éĥ¨
åĻ¬ ç»Ĩèĥŀ
ä¼ĺçĶŁ ä¼ĺèĤ²
æĸĩåĮĸ ç¨ĭåº¦
æ¶¦èĤł éĢļä¾¿
åħĭç½Ĺ æģ©
éĩĳé»Ħèī² èĳ¡èĲĦçĲĥèıĮ
éħµ æ¯į
éª¶é«Ĥ åħ³èĬĤ
è¿ĩæķıä½ĵè´¨ èĢħæħİçĶ¨
åıªæľīè¿Ļæł·æīįèĥ½ä»¤å¾ĹæĤ£èĢħåıĬæĹ¶ å¯¹çĹĩæķĳæ²»
çļĦè¯ĿåĪĻ åı¯åı£æľį
çħİæ°´ çĨıæ´Ĺæ²»çĸĹ
åľ°ä¸Ńæµ· è´«è¡Ģ
è¿Ļæł·æľīåĪ©äºİ åģ¥åº·æģ¢å¤į
è¯´è¯ĿæĹ¶ è§īå¾ĹåĹĵåŃĲçĸ¼
æ¡ĤæŀĿèĮ¯èĭĵ ä¸¸
å¸¦çĬ¶ çĸ±çĸ¹
äº²çĪ± çļĦ
åħļ åıĤ
æĹ¶å¥½æĹ¶ åĿı
åİ»éĻĦè¿ĳ åĮ»éĻ¢è¿Ľè¡Įæ£ĢæŁ¥
æ°¨æº´ ç´¢
è¶³å¤ŁçļĦèĲ¥åħ» åĴĮçĥŃéĩı
åħħè¶³çļĦçĿ¡çľłæīįèĥ½ å¸®ä½łå°½å¿«è¿ľç¦»æŃ¤çĹħ
å¤ļè§Ĥæ³¨ èĩªèº«çļĦçĹĩçĬ¶åıĺåĬ¨
å¾Īè¾Ľèĭ¦ çļĦ
åĲ¦åĪĻä¼ļå¯¼èĩ´ çĸ¾çĹħ
é¥®é£Łç»ĻäºĪ è¶³å¤ŁçļĦèĲ¥åħ»åĴĮçĥŃéĩı
åĩºçİ°å¤ļæ¬¡ æĢ¥æĢ§ä¸¥éĩį
å¢ŀåĬłæĹ¥å¸¸éĶ»çĤ¼ ä»¥æŃ¤æĿ¥æıĲé«ĺæĤ£èĢħåħįçĸ«åĬĽ
æĮºçĥ¦æģ¼ çļĦ
éĤ£ä¹Īå°±è¦ģåıĬæĹ¶åıĺæĽ´ æ²»çĸĹæĸ¹æ¡Ī
èĩªèº«åħįçĸ«åĬĽéĻįä½İæĤ£çĹħ é£İéĻ©
5 4
6 7
D S
H R
R O
S I
u m
ª åĬĽ
ç ¯
Ł ä¸Ŀ
çļĦ æľī
çļĦ çĸĹæķĪ
çļĦ çī¹çĤ¹
çļĦ æĢ§è´¨
ãĢĤ ãĢĲ
æ² ¾
æĺ¯ æĹłæ³ķ
æľī èĤ¿åĿĹ
ä¸į åĽº
çĹħ çļĦæīĭæľ¯æ²»çĸĹæľīäºĽä»Ģä¹Ī
åĬ ªåĬĽ
æĪ Ł
ä¸Ģ æŁ¥
è¦ģ å¤ļåĸĿæ°´
è¦ģ å°½åı¯èĥ½
è¦ģ æīĵéĴĪ
è¦ģ èĬ±å¤ļå°ĳéĴ±
ä¼ ½
ä¼ Ĺ
åıĳ çĻ½
åıĳ æĮ¥
æĥ «
å¯ ¡
æĸ Ĺ
çĹĩ åĢĻ
äºĨ è®¸å¤ļ
çĶ¨ ä¸ĢäºĽ
åı¯ä»¥ æĺ¯
åı¯ä»¥ è¾¾åĪ°
åı¯ä»¥ å¿«éĢŁ
åı¯ä»¥ å¤ļåĲĥä¸ĢäºĽ
åľ¨ æĢĢåŃķæľŁéĹ´
åĲİ éĩį
æĤ£ ä¾§
å¸¸ ä¸º
å¸¸ ä¸İ
ä¼ļ äº§çĶŁ
æĪĳ éĥ½
æĪĳ è§īå¾Ĺ
æĪĳ ä¸ĢçĽ´è§īå¾ĹæĪĳèĩªå·±çļĦèº«ä½ĵä¸įæĺ¯çī¹åĪ«çļĦèĪĴæľį
å¦Ĥ ä¸º
çĬ¶ çļĦ
åĴĮ ç²¾åŃĲ
åĴĮ éĺ´èĮİå¤´
å¿ĥ èĤº
å¿ĥ åĨħç§ĳ
ä½ł åľ¨
å¯¹ çĶ·äººçļĦ
ä¸Ĭ ä¸ªæĺŁæľŁ
åĲĥ åĲĹ
å°± åĥı
åīį çīĻ
åīį ä¸Ģæ®µæĹ¶éĹ´
åīį èĮħ
è¿ĩ éĩį
è¿ĩ çĥŃ
çŃī æľīåħ³
çŃī ä¸Ģç³»åĪĹ
åĪ° è¾¾
ä¹Ł å¾Īå¤ļ
æµ Ļ
éĹ® éĹ®
å»ºè®® æľįé£Ł
ä¾ Ħ
åºĶ æł¹æį®
å¤© æ´¥
å°¿ æ¿Ģéħ¶
éĹ´ æľŁ
åİ» çĽ´éĿ¢çĸ¾çĹħ
æĹ© çĤ¹
èį¯çī© çļĦåİŁåĽł
æ²¡ æĢĢåŃķ
æ²¡ æĢĢä¸Ĭ
é¥®é£Ł ç»ĵæŀĦ
çĿ £
èµ· æºĲ
å¦Ĥæŀľ åŃĺåľ¨
èĩª è¯Ħ
èı Łä¸Ŀ
æĹł ç²¾
æĹł å¼Ĥå¸¸
éĴ ´
æ· Įåĩº
æĪĲ éª¨
åŃ©åŃĲ éľĢè¦ģåĲĪçĲĨé¥®é£Ł
è¾ĥ å°ıçļĦ
çľĭ æĿ¥
çľĭ ä¸ŃåĮ»
è¡Į åĲĹ
åĩºçİ° ä¸įä»ħä»ħä¼ļå½±åĵį
å¤´ é¢Īéĥ¨
ä¸ĢèĪ¬ è¦ģ
å¹³ æĹ¥
éª¨ å¹²
éª¨ æ°´æ³¥
çĸ¼ äºĨ
èĥĥ çģ«
èĤ¾ è¡°
è§£ èĦ²
è¯·éĹ® å©´åĦ¿
æĬ¤ å£«
åıĺ ä¸º
äº§ æľŁ
æĦŁæŁĵ çļĦçĹħåĽłæĺ¯ä»Ģä¹Ī
æĦŁæŁĵ çļĦé¢Ħéĺ²æİªæĸ½æľīäºĽä»Ģä¹Ī
æĹ¶éĹ´ çļĦ
æĹ¶éĹ´ äºĨ
ä½łå¥½ æł¹æį®ä½łçļĦæĥħåĨµ
å²ģ å·¦åı³
ä¸įè¦ģ åĸĿåķ¤éħĴ
ä¸įè¦ģ çĨ¬å¤ľ
ä¸¥éĩį çļĦå¹¶åıĳçĹĩ
æķĪæŀľ ä¸įå¤ª
æ¯Ķè¾ĥ å¤§çļĦ
æ¯Ķè¾ĥ å¤įæĿĤ
ç³ĸ ç±»
åİŁåĽł æľī
å®ŀ åľ¨
ä¸ī åĽĽå¤©
å¦ĩ å¹¼
å§ ¥
éĢĤ å½¢
ç¥ŀç»ı æł¹
ä¸¤ è¾¹
ç»Ļ æĤ¨
è¡Ģç®¡ çĹħåıĺ
åŃĲå®« æĶ¶ç¼©
å½¢ å¼ı
æº ľ
çĤİçĹĩ åıįåºĶ
åº·å¤į æĬ¤çĲĨ
å®«é¢Ī åĽĬèĤ¿
æ¯ı æľĪ
æĢĢåŃķ çļĦè¯Ŀ
è½¬ æĪĲ
è½» æĿ¾
èĥ¸ èħ°æ¤İ
æħ¢æĢ§ çļĦ
èĥİ å¤´
èĲ¥åħ» çļĦ
éĺ²æŃ¢ çĿĢåĩī
éĺ²æŃ¢ åĬłçıŃ
å®¹æĺĵ åĩºçİ°
äºĮ åº¦
å¦ĩç§ĳ åįĥ
æľĢå¥½ éĩĩåıĸ
ç»¼åĲĪ æĢ§
éģ¿åħį æĢ§çĶŁæ´»
åĽłä¸º æŁĲç§įçĸ¾çĹħ
å®ŀæĸ½ è°ĥåħ»
ç»ĵæŀľ æĿ¥éĢīæĭ©æ²»çĸĹæĸ¹æ³ķ
çŁ³ å¤´
åĨ· æ±Ĺ
æĢ¥æĢ§ å¿ĥèĤĮæ¢ĹæŃ»
æİ§åĪ¶ å¥½
æĢ§çĶŁæ´» æĹ¶
åĪĻ åı¯
èģ Ĭ
å¾ĹäºĨ è¿Ļä¸ªçĹħ
æĭī è¥¿
æĭī å¤§ä¾¿
è¶ħå£° æ³¢
æĺ¯åı¯ä»¥ æľįçĶ¨
åįĬ è¾¹
åĳ¼ æ°Ķ
éªĮ è¯ģ
ä¹³èħº åĽĬèĤ¿
ä¹³èħº å°ıåı¶å¢ŀçĶŁ
æŃ» çİĩ
ä¸įä¼ļ æľī
æĺİæĺ¾ æķĪæŀľ
æĺİæĺ¾ éĻįä½İ
éĴĻ åīĤ
ç»ıå¸¸ æľī
ç»Ī æľ«
åħī æ³½
ç¦ģ çĥŁ
çĹħçļĦ æĤ£çĹħæ¯Ķä¾ĭæĺ¯å¤ļå°ĳ
æĭ© æľŁ
æĸ¹éĿ¢ çļĦçĸ¾çĹħ
çī¹åĪ« å½±åĵį
åĪ°åĮ»éĻ¢ è¿Ľè¡Į
åĽĽ èģĶ
æĤ£èĢħçļĦ åģ¥åº·
é«ĺè¡Ģåİĭ æĤ£èĢħ
åĦ¿ç«¥ æīģæ¡ĥä½ĵçĤİ
é¾Łå¤´ çļĦ
é¾Łå¤´ çĺĻçĹĴ
åıĳçĥ§ äºĨ
æ²¹ èĦĤ
æĪĳä»¬ åħ¬åı¸
æĲ ģ
æ¯į ç»Ĩèĥŀ
çº¤ç»´ ç»Ħç»ĩ
è¢« ç¡®è¯Ĭä¸º
æĬ½ åĲ¸
ä¸įèĪĴæľį äºĨ
æĺ¯åĲ¦ åı¯ä»¥
æ´»åĬ¨ æĢ§
åŃĲå®«åĨħèĨľ æģ¯èĤī
çļĦæ²»çĸĹæĸ¹æ³ķ æľī
åĲĥä»Ģä¹Ī æ°´æŀľ
åĲĥä»Ģä¹Ī ä¸ľè¥¿
è¡Ģæ¶² ä¸Ń
éħ® çĹĩ
æĿ¿ å¼ı
çı Ģ
å©ļ åīį
æģ¶æĢ§ æ·ĭå·´çĺ¤
å°Ĩ åħ¶
è½¬ç§» éĥ¨ä½įæĺ¯ä»Ģä¹Ī
çķ¸å½¢ çļĦå½±åĥıåŃ¦æ£ĢæŁ¥æľīäºĽä»Ģä¹Ī
éĢłå½± åīĤ
å·® åĪ«
åĲĮæĪ¿ äºĨ
è¿Ļæł·æīįèĥ½ æıĲä¾Ľ
çªģçĦ¶ å°±
èĥĥèĤł åĬŁèĥ½ç´Ĭä¹±
èĥº ç¢ĺ
12 5
å¤« å®ļ
å®¶éķ¿ åı¯ä»¥ç»ĻåŃ©åŃĲ
çĮ Ľ
åĽºå®ļ æľ¯
ç½ĳ ç»ľ
åıªè¦ģ æĺ¯
æľ¬äºº å¥³
æľ¬äºº è¦ģæīĵéĴĪ
ä»£è°¢ éļľç¢į
èĤĿç¡¬åĮĸ èħ¹æ°´
æĭ¥æľī åģ¥åº·
åİļ æľ´
èĤĿèĦı å¾Īè¾Ľèĭ¦çļĦ
ä¹Łåı¯ æľįçĶ¨
ç´« èįī
ç´« æĿī
æ¦ Ĩ
çĭŃçªĦ æĪĸ
æīĭæ·« çļĦä¹łæĥ¯
åı¸ ä»ĸ
çģµ çīĩ
çģµ é¢Ĺç²Ĵ
ä½ĵæ¸© è¶ħè¿ĩ
ä¸ĭèĤ¢ æ·±éĿĻèĦīè¡Ģæłĵ
çĸ² æĥ«
å¹¿ ä¸ľ
èĭ¯ å·´æ¯Ķå¦¥
èĤĿåĬŁèĥ½ æŃ£å¸¸
é©¬ä¸Ĭ å®ŀè¡Į
å¥½è½¬ çļĦ
çĹĩçļĦ å°±è¯Ĭç§ĳå®¤æĺ¯ä»Ģä¹Ī
è¿Ļä¸ªæĥħåĨµ å¾Īä¹ħäºĨ
æİĴä¾¿ åĽ°éļ¾
åı« æľ¬äººè¦ģæīĵéĴĪ
å°ıä¾¿ çļĦæĹ¶åĢĻ
éī´ å®ļ
æĶ¯æŀ¶ æ²»çĸĹ
åģľèį¯ è°ĥçĲĨ
ç²Ĺ çº¤ç»´
åĽĽèĤ¢ æĹłåĬĽ
èĤ¾çĹħ ç»¼åĲĪçĹĩ
èĥ¸éĥ¨ CT
ä¸Ńé£İ åģıçĺ«
èľĤ çªĿ
æŃ£è§ĦåĮ»éĻ¢ è¯ĬçĹħ
èĵ Ħ
çĶ·æĢ§ä¸įèĤ² çĹĩ
åİĮ æ°§
æ³Ľ çº¢
æĲı åĬ¨
åħ¨éĿ¢ çļĦ
åħ¨éĿ¢ çļĦæ£ĢæŁ¥
å¯¹çĹĩä¸ĭèį¯ çļĦåĲĮæĹ¶
æĺ¥ åŃ£
æĥĬ åĲĵ
æ°¢ åĮĸ
è°· ä¸Ļ
ä¹ī é½¿
ä¸»åĬ¨èĦī å¤¹å±Ĥ
éĽ· åħ¬
ä¸¥éĩįçļĦè¯Ŀ åĪĻåºĶ
ç¥ŀç»ıåħĥ ç»Ĩèĥŀ
è´¥ è¡Ģ
æµĳèº« æ²¡åĬĽæ°Ķ
å£® éª¨
200 8
200 9
è¶³å¤Ł å¤ļçļĦ
å¯» éĹ®
åı¯ä»¥åħĪ çĶ¨
å®ļæĹ¶ æİĴä¾¿
çħ® çĨŁ
åģļä¸º è¾ħåĬ©æ²»çĸĹ
å¼ĵ å½¢
å¤ļæ¬¡ åĩºçİ°
åĵ¥ åĵ¥
åĬ¨èĦīç¡¬åĮĸ éĹŃå¡ŀ
æµ·ç»µ çĬ¶è¡Ģç®¡çĺ¤
âĳ ¡
èĨ¨ åĩº
èĤ¥åİļ åŀĭ
ä¸įæĢİä¹Ī åĲĥé¥Ń
è½¬æ°¨éħ¶ åįĩé«ĺ
éª¨å¤´ æ±¤
å¿ĥåĬ¨è¿ĩ ç¼ĵ
æ´¥ æ¶²
çĹħçĲĨæĢ§ é»Ħçĸ¸
çļĦåį±å®³ æĺ¯éĿŀå¸¸å¤§çļĦ
å¹¶ä¸ĶçķĻæĦı çº¦æĿŁæĢ§çĶŁæ´»
è¿Ļä¸¤å¤© æĪĳä¸ĢçĽ´è§īå¾ĹæĪĳèĩªå·±çļĦèº«ä½ĵä¸įæĺ¯çī¹åĪ«çļĦèĪĴæľį
éĥ½èĥ½ çľĭä»Ģä¹Ī
çĽĳæĬ¤ ä¸ĭ
ï¼ģï¼ģ ï¼ģ
ä¸ĢçĽ´æ²¡æľī èĥĥåı£çļĦ
ä¸ĢçĽ´è§īå¾Ĺ çļĦèĤļåŃĲ
æĲŀ ä¸įæ¸ħæ¥ļ
åĿłèĥĢ æĦŁ
éĢĤåºĶ çĹĩ
éĿ¶åĲĳ æ²»çĸĹ
è¡Ģä¸Ŀ æĥħåĨµ
æľĢè¿ĳæĦŁè§ī èĤĿèĦıå¾Īè¾Ľèĭ¦çļĦ
å»ºè®®æĤ£èĢħåıĬæĹ¶ å¯¹çĹĩæ²»çĸĹ
éª¤ åģľ
çĶ·å¥³ åıĮæĸ¹
å¹³æĹ¶ç¦ģåĲĥè¾Ľè¾£éħĴ çŃīåĪºæ¿ĢæĢ§é£Łçī©
æ¹ĸ åįĹ
é«ĺåİĭæ°§ æ²»çĸĹ
é£ŀ æľº
èį¯çī©æĿ¥ æķĳæ²»
èħ°éª¶ éĥ¨
ä½Ĩæĺ¯ä¸ĢèĪ¬æķĳæ²» è¿ĩç¨ĭç¼ĵæħ¢
èĩªå·±ä¹Ł æĮºçĥ¦æģ¼çļĦ
çĹħçļĦåıĳçĹħ éĥ¨ä½įæĺ¯ä»Ģä¹Ī
åľ¨çĶŁæ´»ä¸ŃçĶ¨é£ŁçĸĹ åģļä¸ºéħįç½®æķĳæ²»
å¯¹æĤ£èĢħä»¬å¸¦æĿ¥çļĦ ä¼¤å®³æĺ¯éĿŀå¸¸å¤§çļĦ
åħħè¶³çļĦæ·±åº¦çĿ¡çľł æĸ¹æīįèĥ½
è¶ĭ åĬ¿
æľĢè¿ĳå°±æĺ¯ æĹ¶å¸¸å¤´çĸ¼
æĲĶ æĬĵ
ä¸½ çıł
ä½¿å¾Ĺ æĪĳéķ¿æľŁ
åıªè¦ģåľ¨æĹ©æľŁåıĳè§ī çļĦæĹ¶åĢĻåıĬæĹ¶æķĳæ²»
æĥ³è¦ģå¾ĹåĪ°çĹħæĥħ æĶ¹åĸĦçļĦè¯Ŀ
éĿ¢èĤĮ çĹīæĮĽ
å¾Īéķ¿æĹ¶éĹ´ äºĨ
å°¿å´© çĹĩ
åĨħåĪĨæ³Įç³»ç»Ł åĩºçİ°äºĨéĹ®é¢ĺ
éľįå¥ĩéĩĳ æ·ĭå·´çĺ¤
ä¸ŃåĮ»ä¸Ńèį¯éķ¿æľŁä¸´åºĬå®ŀè·µç´¯ç§¯ äºĨå¾Īå¤ļ
çİ°åľ¨æĥ³è¦ģ åģľèį¯è°ĥçĲĨ
åıĮæ°¯èĬ¬ éħ¸éĴł
åĪ°äºĨæĻļä¸Ĭ ä¸ĢçĽ´è§īå¾ĹçļĦèĤļåŃĲ
æ¶Īç³ľ æłĵ
å®īæħ° åīĤ
éĵľç»¿ åģĩåįķèĥŀèıĮ
å¯¼èĩ´æĪĳ åĨħåĪĨæ³Įç³»ç»Łåĩºçİ°äºĨéĹ®é¢ĺ
çļĦè¯´æĺ¯ èĤĿçĹħ
ä½ĵå¤ĸåĨ²åĩ» æ³¢
æĻ®éĢļåĨħç§ĳ éĥ½èĥ½çľĭä»Ģä¹Ī
åİ»éĻĦè¿ĳåĮ»éĻ¢è¿Ľè¡Įæ£ĢæŁ¥ çļĦè¯´æĺ¯èĤĿçĹħ
å¯¹çĶ·äººçļĦ ä¼¤å®³æ¯Ķè¾ĥå¤§
èį¯çī©çļĦåİŁåĽł å¯¼èĩ´æĪĳåĨħåĪĨæ³Įç³»ç»Łåĩºçİ°äºĨéĹ®é¢ĺ
èĩªè¯Ħ éĩıè¡¨
èıŁä¸Ŀ åŃĲ
åĽłä¸ºæŁĲç§įçĸ¾çĹħ ä½¿å¾ĹæĪĳéķ¿æľŁ
è¿Ļæł·æīįèĥ½æıĲä¾Ľ èĩªèº«åħįçĸ«åĬĽéĻįä½İæĤ£çĹħé£İéĻ©
ä¸¥éĩįçļĦè¯ĿåĪĻåºĶ å°½æĹ©å°±åĮ»
åĪ°äºĨæĻļä¸Ĭä¸ĢçĽ´è§īå¾ĹçļĦèĤļåŃĲ å¾ĪçĹĽçļĦ
æĻ®éĢļåĨħç§ĳéĥ½èĥ½çľĭä»Ģä¹Ī çļĦçĹħ
åĽłä¸ºæŁĲç§įçĸ¾çĹħä½¿å¾ĹæĪĳéķ¿æľŁ ä¸įèĥ½æĸŃèį¯
1 40
C s
H IV
P CI
R A
a c
p h
Ġ ãĢģ
Ļ åŃĲ
çļĦ åı¯ä»¥
çļĦ æĥħç»ª
çļĦ è¿ĩç¨ĭ
ä» ĺ
åĲ ¯
ãĢĤ âĢĿ
æĺ¯ æĢİæł·
æĺ¯ æĢİæł·çļĦ
æľī ä½ķ
æľī å¼Ĥå¸¸
æľī éĻĲ
ç» ·
æ²» æłĩ
ä¸į ä¸ĭæĿ¥
ä¸į æĩĤ
æ²»çĸĹ çŃī
æĢ§ æĪĸ
æĢ§ å¿ĥèĦıçĹħ
è¦ģ è¿Ľè¡Į
åı¯ å¢ŀå¼º
åı¯ çļĦæĿ¾
å¥ ı
æī ¬
åĽ Ł
çĶŁ çļĦ
çĶŁ äºİ
å¸ ½
åıĳ ç´«
å¤ļ æľī
å¤ļ èĢĥèĻĳæĺ¯
å¤ļ å¢ŀåĬłæĹ¥å¸¸éĶ»çĤ¼ä»¥æŃ¤æĿ¥æıĲé«ĺæĤ£èĢħåħįçĸ«åĬĽ
èĥ½ ä½¿
çİ Ħ
è¡Ģ ç»Ĩèĥŀ
è¡Ģ åıĭ
è¡Ģ åĲ¸èĻ«
åį ĳ
çĻ »
åı¯ä»¥ å®Įåħ¨
åı¯ä»¥ åģļä¸Ģä¸ĭ
åľ¨ é¥®é£Łæĸ¹éĿ¢
åľ¨ å®¶éĩĮ
çī© æ±¤
æĬ ķ
æ£ĢæŁ¥ ä»Ģä¹Ī
ä¼ļ æľīåĵªäºĽçĹĩçĬ¶
æĪĳ å¥½
è¿Ļ å°±æĺ¯
è¿Ļ ä¸¤å¹´
ç»ı åİĨ
åĩº åı£
åĴĮ çĸ¼çĹĽ
å¤§ åŀĭ
å¤§ éĻĨ
ä½ł çļĦçĹĩçĬ¶
ä½ł çĽ®åīį
å°± ä¸įè¦ģ
å°± ä¼ļå¯¼èĩ´
æīĭæľ¯ æĸ¹æ³ķ
æīĭæľ¯ çļĦæİ¨èįĲèį¯æľīäºĽä»Ģä¹Ī
éħ ±
ä¸º æŃ¢
éĿ ¡
æĿ¥ æİ¨æµĭ
çŃī çĹĩ
çŃī éĥ¨ä½į
çŃī åĲ«
æĥħåĨµ æĿ¥çľĭ
å¤ĸ æ¶Ĥ
ä¹Ł å¥½
ä¹Ł ç§°
æĪĸ åľ¨
æĪĸ åĽł
äºº æĢ§åĮĸ
å»ºè®® æīĭæľ¯æ²»çĸĹ
å»ºè®® å¸¦åŃ©åŃĲ
å»ºè®® åĪ°å½ĵåľ°
å»ºè®® åĿĩè¡¡èĲ¥åħ»å¤ļåĲĥæĸ°é²ľèĶ¬èıľæ°´æŀľå¤ļåĸĿæ°´å¿Įè¾Ľè¾£é£Łçī©æ³¨æĦıä¼ĳæģ¯
æ¸ į
å¤© å°±
é«ĺ å¯Ĩåº¦
å¾Ī æĥ³çŁ¥éģĵè¿Ļ
å¾Ī è¿ĳçļĦåĮ»éĻ¢
æ°´ æł·
åģļ ä»Ķç»Ĩæ£ĢæŁ¥
åģļ ä¸Ģä¸ª
åģļ å½©è¶ħ
èħº åĽĬèĤ¿
æ´» åĮĸ
åİ» æ°§
åİ» å¤įæŁ¥
åİ» ç¥ŀç»ıåĨħç§ĳ
åİ» å¾Īè¿ĳçļĦåĮ»éĻ¢
éľĢè¦ģ æł¹æį®
éª º
åĪĨ æĶ¯
èį¯çī© æİ§åĪ¶
æ²¡ æķĪæŀľ
æ²¡ ç²¾ç¥ŀ
æ³¨æĦı èĩªèº«åį«çĶŁæĥħåĨµ
éĺ´ èĴĤ
å¦Ĥæŀľ æĥ³
å¦Ĥæŀľ ä¸įæĺ¯
èĩª åįĳ
çĸ¾çĹħ åıĳçĶŁ
åĲĮ æĦı
æĤ¨ è¿Ļç§įæĥħåĨµ
èĢĮ æĺ¯
èĢĮ å¼ķæĿ¥çļĦ
åŃ©åŃĲ åĩºçĶŁ
éĩı åĩıå°ĳ
å¯¼ å°¿ç®¡
å°ĳ è®¸
å°ĳ éĥ¨åĪĨ
ä¸ĢèĪ¬ å°±æĺ¯
ä¸ĢèĪ¬ æĿ¥è®²
èĤł å¥Ĺåıł
éª¨ åħ³èĬĤçĤİ
æł¹ å°ĸ
èĥĥ ç®¡
èĤ¾ æĢ§
è§£ çĹī
åĬł åı·
åħ¶ åĮĸåŃ¦åĲį
çĹħæĥħ çĹħåıĳ
çĽ´ èĩ³
åıĺ å¼ĤæĢ§
ä¸¥ å¯Ĩ
åĪ¶ åº¦
åĪ¶ éľīèıĮ
èĤº åı¶
çĶ² ä¹Ĳ
çĶ² ç£ºéħ¸
æĺĵ å¼ķèµ·
è¿Ľè¡Į é¢Ħéĺ²
çĶ· åŃĲ
ç¢ Ĺ
çīĩ çļĦçĶ¨æ³ķçĶ¨éĩı
æ¯Ķè¾ĥ å®īåħ¨
åĥı è¿Ļç§įæĥħåĨµ
æĸŃ ç»Ń
å®Ŀå®Ŀ åıĳçĥ§
å®ŀ çİ°
å¼Ģ å±ķ
é»Ħ çĵľ
æ²¡æľī å¿ħè¦ģ
æ²¡æľī åĬĽæ°Ķ
è¿Ļä¸ª èį¯
ä½Ĩæĺ¯ è¿ĺæĺ¯
é¢Ħ äº§æľŁ
èĢĮä¸Ķ æ³¨æĦı
èĢĮä¸Ķ åŃķåĲĲ
èĢĮä¸Ķ æĭīç²ĳç²ĳ
èĢĮä¸Ķ ä¸įæĢİä¹ĪåĲĥé¥Ń
æĢ¥ åĲİéĩį
å¹³æĹ¶ é¥®é£Ł
å¹³æĹ¶ çļĦé¥®é£Ł
ä¸¤ çľ¼
ç»Ļ ä»¥
åİ»åĮ»éĻ¢ æ²»çĸĹ
çĦ¶ èĢĮ
è¡¥ åħ»
è¡¥ æ°Ķè¡Ģ
åħĪ çĶ¨
åĲĮæĹ¶ æ³¨æĦı
åĲĮæĹ¶ éħįåĲĪ
æľĢè¿ĳ ä¸ĢçĽ´
èĤī æ¡Ĥ
çº¢ çĸ¹
æĶ¾ åĪ°
çĥ§ å¿ĥ
çļĦæīĭæľ¯ æ²»çĸĹ
æĢ» ä¹ĭ
åıĳçĹħ æĹ¶
åºĶè¯¥ æĢİä¹Īæ²»
æ·¡ é»Ħèī²
ç»Ħ åĲĪ
çľ¼ èĨı
åĮħçļ® åĨħ
åĽłç´ł åĪºæ¿Ģ
å¸®åĬ© çļĦ
éĺ²æŃ¢ åĲĥè¾Ľè¾£
éĺ²æŃ¢ äº¤åıīæĦŁæŁĵ
è§Ĩ éĩİ
è¿Ļç§įæĥħåĨµ ä¸ĢèĪ¬
å°ıåĦ¿ æĢ¥æĢ§
å°ıåĦ¿ åĴ³åĹ½
æľįçĶ¨ ä¸Ńèį¯
å®¹æĺĵ äº§çĶŁ
æľĢå¥½ èĥ½
éģ¿åħį çĹħæĥħå¤įåıĳ
è¡Ģåİĭ åįĩé«ĺ
æ¶ĪåĮĸ ä¸įå¥½
åĨįæ¬¡åĩºçİ° è¿Ļç§įæĥħåĨµ
å·´ åĪ©
å·´ åĿ¦
éĩĮ çļĦ
éĩĮ æĢ¥åĲİéĩį
ç¼ĵè§£ çĸ¼çĹĽ
ä½¿çĶ¨ æĬĹçĶŁç´ł
å¯¹äºİ æĹ©æ³Ħ
æİ§åĪ¶ æĦŁæŁĵ
æĢ»æĺ¯ çī¹åĪ«éļ¾åıĹ
æĮĩå¯¼ å»ºè®®
æĭī çļĦ
æ·ĭ æ¼ĵ
åįģ å¹´
æĺ¯åı¯ä»¥ åĲĥ
åįĬ çĲĥ
éĽ ¨
çļ®èĤ¤ çĻĮ
éªĮ å°¿
ä¹³èħº çº¤ç»´çĺ¤
ä¸įèī¯ ä¹łæĥ¯
çĶ²çĬ¶èħº èħºçĺ¤
æĹ¥å¸¸ æĬ¤çĲĨ
çĤİçļĦ åıĳçĹħ
çĤİçļĦ å°±è¯Ĭç§ĳå®¤æĺ¯ä»Ģä¹Ī
çĤİçļĦ æĤ£çĹħæ¯Ķä¾ĭæĺ¯å¤ļå°ĳ
åıĮ èĦļ
çł ¸
éĺ» åĬĽ
åı¯èĥ½ä¼ļ ä¸İ
åı¯èĥ½ä¼ļ å¼ķæĿ¥
å¤§ä¾¿ æĹ¶
åįµå·¢ èĤ¿çĺ¤
å¢ŀå¼º èº«ä½ĵæĬµæĬĹåĬĽ
åĪ°åĮ»éĻ¢ å®ŀæĸ½
å¿ĥçĲĨ çĸıå¯¼
åĽĽ çİ¯ç´ł
ä»¥åıĬ æ²»çĸĹ
æł¸ èĭ·
ç±³ è¯º
åīįåĪĹèħºçĤİ çŃī
çĶŁæ´»ä¸Ń æ³¨æĦı
CT å¹³æī«
æľĭåıĭ ä»¬
åĮº åĪĨ
éĩĳ éĵ¶èĬ±
æĪĳä»¬ éĥ½
æĪĳä»¬ ç»ıå¸¸åĬłçıŃ
èĤ¥ å¤§çļĦ
åı¦å¤ĸ æ³¨æĦı
åºĶå½ĵ æĢİä¹Īæ²»çĸĹ
çļĦåıĳçĹħ æľºåĪ¶
è®© æĤ£èĢħ
éĥ½æĺ¯ åľ¨
ç©¿ è¡Į
åģı é»Ħ
åĲĳ ä¸ĬçļĦ
æŃ¥ æĢģ
æ°Ķç®¡ æıĴç®¡
ç»Ŀ ç»ıæľŁ
æ³¡ èħ¾
å®ļæľŁ å¤įæ£Ģ
èĥİåĦ¿ åıĳèĤ²
çĸĹæ³ķ æ²»çĸĹ
äºĶ åįģ
æµ· åıĤ
åħ¨èº« æĹłåĬĽ
åĨł å¿ĥçĹħçļĦ
é»ĳ èĬĿéº»
åıĬæĹ¶æ²»çĸĹ ä¹ĭå¤ĸ
åıĻè¿° çļĦçĹĩçĬ¶
å©´åĦ¿ çļĦ
çĻĮçļĦ æĹ©æľŁçĹĩçĬ¶
æł¼ éĽ·
ç¾Ĭ èĨľ
åį±å®³ æĺ¯éĿŀå¸¸å¤§çļĦ
çĿ¡çľł è´¨éĩı
æģ°å½ĵ çļĦ
éĶĻ ä½į
è¡Ģç³ĸ æİ§åĪ¶
åī¯ä½ľçĶ¨ å°ı
ä»¥åīį æľīè¿ĩ
æĥħç»ª æ³¢åĬ¨
ç»ĻåŃ©åŃĲ åĲĥ
ç»ĻåŃ©åŃĲ çĶ¨çĤ¹
åĨįæ¬¡åıĳçĶŁ äºĨ
åĨįæ¬¡åıĳçĶŁ äºİ
æĺ¯æľī ä¸Ģå®ļçļĦ
æľīæĹ¶åĢĻ è¿ĺ
åŁ¹ åįĹ
å°ıæĹ¶ åĲİ
å°½éĩı åĩıå°ĳ
çīĽ èĨĿ
æ°´å¹³ åįĩé«ĺ
ä¹Ĳ å®ī
éŁ³ ä¹Ĳ
èĤĮèĤī æ³¨å°Ħ
æ¥ Ķ
ç¡®å®ļ çļĦ
ç¡®å®ļ æĺ¯
æ°¯ èĥº
ç´« èıľ
æľīçļĦ æĤ£èĢħ
ä¸įè¦ģåĲĥ æ²¹èħ»
å»ºè®®æĤ£èĢħ é©¬ä¸Ĭå®ŀè¡Į
å°½æĹ© å¸¦åŃ©åŃĲ
åı¸ çī¹
æľĢåĲİ æľŁæľĽå¥³æĢ§æĤ£èĢħåı¯ä»¥èİ·å¾Ĺ
åĩıè½» çĹĩçĬ¶
æĳĺéĻ¤ æľ¯
ä½łçļĦæĥħåĨµ åı¯èĥ½æĺ¯
è´¹çĶ¨ æĺ¯å¤ļå°ĳ
ä¼ĺ çĶ²ä¹Ĳ
å¹¿ è¥¿
å¹³æĹ¶æ³¨æĦı é¥®é£Łæ¸ħæ·¡
é£Łæ¬² ä¸įå¥½
èĤĿåĬŁèĥ½ æ£ĢæŁ¥
å¼ķæµģ ç®¡
åİ»åĮ»éĻ¢ä»Ķç»Ĩæ£ĢæŁ¥ äºĨ
çĶ·ç§ĳ çĹħçļĦ
è¿ĺä¼ļ åĩºçİ°
éľ² åĩº
äº§åĲİ åĩºè¡Ģ
ç»ĵå©ļ äºĨ
åģľèį¯ åĲİ
ä¸ĩ åı¤éľīç´ł
åİŁåĪĻ ä¸Ĭ
åį±éĻ© åĽłç´ł
ç¡®è®¤ æĺ¯
æĿ¥æľĪç»ı çļĦæĹ¶åĢĻ
è¡¥èĤ¾ å£®éĺ³
éĶģ å®ļ
é¢Į éĿ¢éĥ¨
ä¸¹ çļ®
ä¼ļåĩºçİ° è¡Ģä¸ĿæĥħåĨµ
æĢ§åĬŁèĥ½ åĩıéĢĢ
ä¹° åĪ°
çļĦæĥħåĨµä¸ĭ ä¹Łåı¯
æľĢè¿ĳä¸įçŁ¥éģĵæĢİä¹ĪåĽŀäºĭ çĿ¡ä¸įçĿĢ
è¿Ļæ®µæĹ¶éĹ´ åĲĥçļĦ
è¿Ļæ®µæĹ¶éĹ´ å¾Īæĺ¯
å¤ļåıĳæĢ§ ç¡¬åĮĸ
èĩªè¡Į æ¶Īå¤±
è¾ĵå°¿ç®¡ éķľ
æĿĢ èĻ«
å¸¦åŃ©åŃĲ åĪ°
èĥĨç®¡ çĤİ
è¡ĢèĦĤ é«ĺ
ä¸Ĭçļ® åĨħ
å¤§å¤« è¯´
éĴĻåĮĸ çģ¶
çļĦåı¯èĥ½æĢ§ å¤§
å°¾ éĥ¨
æĹģ è¾¹
è¯±åıĳ åĽłç´ł
æľ« ç«¯
åĨ° åĨ·
å¾Īå¿« å°±
åģļå®Į æīĭæľ¯
åĲĥè¾Ľè¾£åĪºæ¿Ģ ä¹ĭåĵģ
çļĦçĹħ ä¾ĭ
åĴª åĶĳ
éĢĤåĲĪ äºİ
æĹ©åŃķ åıįåºĶ
çļĦä¼¤å®³ æĺ¯éĿŀå¸¸å¤§çļĦ
ç¼Ŀ çº¿
èĥ¡ æ¤Ĵ
ä½łåı¯ä»¥ è¯ķè¯ķ
è¡Ģå°¿ éħ¸
é¸£ éŁ³
è®©æĪĳ å¾Īå®³æĢķåķĬ
ç§¯æŀģçļĦå¿ĥæĢģåİ» çĽ´éĿ¢çĸ¾çĹħ
çĹħæĥħä¸¥éĩį å°±è¦ģåıĬæĹ¶
è¿ĩæķıæĢ§ é¼»çĤİ
æĪĲçĨŁ çļĦ
æĶ¶ç¼© åİĭ
æľīè¡Ģ åĿĹ
æľīè¡Ģ ä¸Ŀ
æĤ£èĢħæĹ¥å¸¸ è¦ģåħ»æĪĲèī¯å¥½çļĦçĶŁæ´»ä¹łæĥ¯
åĭ¤æį¢ æ´Ĺ
ç´«çĻľ æĢ§èĤ¾çĤİ
éª¨è´¨ å¢ŀçĶŁ
åįĬæľĪ æĿ¿
èĨ³é£Ł çº¤ç»´
è¦ģæł¹æį® æĤ£èĢħ
è¿Ļç§įçĸ¾çĹħä¸įæĺĵ åħ¨æĦĪ
åīįåĪĹèħºæ¶² å¸¸è§Ħ
é³ŀ çĻĮ
åĩºéĻ¢ åĲİ
èĤļåŃĲçĸ¼ æĥħåĨµ
éĤ£ä¹Īå°±è¦ģåıĬæĹ¶ æį¢æĸ°
ä¸Ńå¿ĥ åĮ»éĻ¢
ä¸īç»´ è¶ħå£°
æµģæĦŁ çĹħæ¯Ĵ
åĽ¢ åĿĹ
æĢĢåŃķæľŁéĹ´ æĢ»æĺ¯çī¹åĪ«éļ¾åıĹ
ç¡«éħ¸ éķģ
æĢİæł·æ²» æķĪæŀľå¥½
æĢİæł·æ²» æķĪæŀľæīįå¥½
ä¸ŃåĽ½ å¤§éĻĨ
çľ¼åºķ æ£ĢæŁ¥
éĤ» è¿ĳ
åĪ©å°¿ åīĤ
éĻįçĶŁ åĲİ
çĶŁäº§ çļĦ
å¿ĺ è®°
èıĬ èĬ±
æĳĶ åĢĴ
ç¡Ŀéħ¸ çĶĺæ²¹
çŁŃæļĤ çļĦ
åĳ¼åĲ¸ç³»ç»Ł äºĨ
æł¹æį®ä½łæīĢ åıĻè¿°çļĦæĥħåĨµ
ä¸ĭçļĦ ä¸Ģä¸ª
èĤĽåĳ¨ èĦĵèĤ¿
æľªè§ģ æĺİæĺ¾
æĤ£èĢħæľĭåıĭçĲĨåºĶå§ĭç»Īä¿ĿæĮģ ç§¯æŀģçļĦå¿ĥæĢģåİ»çĽ´éĿ¢çĸ¾çĹħ
å¿½ è§Ĩ
çĶŁæĪĲ ç´ł
æ´Ĺæ¾¡ çļĦæĹ¶åĢĻ
åĻ» åĹª
å¦Ĥæŀľä¸įåıĬæĹ¶æķĳæ²»ä¼ļå½±åĵįåĪ° åıĹåŃķæĥħåĨµ
å¯¹æĤ£èĢħä»¬å¸¦ç»Ļ çļĦä¼¤å®³æĺ¯éĿŀå¸¸å¤§çļĦ
å»ºè®®æĤ£èĢħå¤ļçķĻæĦı çķĻæĦıéĺ´éĥ¨åį«çĶŁ
èĲ¥åħ»æĶ¯æĮģ æ²»çĸĹ
å·©åĽº æ²»çĸĹ
éĻįç³ĸ èį¯
èĲ¥åħ»ç¥ŀç»ı çļĦèį¯çī©
æĢ»æĺ¯åĩºçİ° èĤļåŃĲçĸ¼æĥħåĨµ
ä¹ĻåŀĭèĤĿçĤİ çĹħæ¯Ĵ
æĤ£èĢħæľĭåıĭåºĶå½ĵ ä¿ĿæĮģ
åŃ©åŃĲæľĢè¿ĳæĢ»æĺ¯ åĵŃéĹ¹ä¸įæŃ¢
è¦ģå¦Ĥä½ķ è§£åĨ³
å¾Īé«ĺåħ´ä¸ºä½ł è§£æĥĳ
éĢłæĪĲå°ıåĦ¿ åĳ¼åĲ¸ç³»ç»Ł
å¦ĤæŀľåŃ©åŃĲè¢«åį´ç¡®è¯Ĭä¸ºå°ıåĦ¿ åĳ¼åĲ¸ç³»ç»ŁäºĨ
çĲ¥ çıĢ
éĢłçĺĺ æľ¯
æµģé£Ł ä¸ºä¸»
å¯¹æĤ£èĢħä»¬å¸¦æĿ¥çļĦ åį±å®³æĺ¯éĿŀå¸¸å¤§çļĦ
æ±½ åĮĸ
åĹľéħ¸æĢ§ ç²Ĵç»Ĩèĥŀ
æĪĳè¿Ļç§įæĥħåĨµ æĺ¯æŃ£å¸¸çļĦ
è¡¥åħħå¤ļç§įç»´çĶŁç´łå¢ŀå¼ºæĬµæĬĹåĬĽ æĹ©åº·å¤į
æĿĥå¨ģåĮ»éĻ¢ è¯ĬçĹħ
åĲĥåķ¥ èį¯
ä¹Łæĺ¯éĿŀå¸¸ åİīå®³
éĵ¶å±ĳ çĹħ
èħ°èĨĿ éħ¸è½¯
éħĴç²¾æĵ¦ æµ´
è¿·èµ° ç¥ŀç»ı
æľŁæľĽä¸Ĭè¿°çļĦçŃĶæ¡Īåı¯ä»¥åįıåĬ© åĪ°ä½ł
èĨ¦ éħ¸
æĬĹçĹħ èĥ½åĬĽ
æ¤Ń åľĨå½¢
ä¹ĻçĬ¶ ç»ĵèĤł
ä¸įè¦ģçĽ²çĽ®è¯¯ä¿¡å¹¿åĳĬ èį¯çī©æĿ¥æķĳæ²»
æŀ¸æ© ¼éħ¸
æŁ¥æī¾ äºĨä¸ĢäºĽèµĦæĸĻ
åĪĨæŀĿ æĿĨèıĮ
ä¹³çĻĸ æ¶Ī
ä¿ĥæĢ§èħº æ¿Ģç´ł
èĳĽ æł¹
äºĶå®ĺ ç§ĳ
æĦīå¿«çļĦå¿ĥæĢģåİ» çĽ´éĿ¢çĸ¾çĹħ
å¿Ļç¢Į çļĦ
åıĮæŃ§ æĿĨèıĮ
èĦ±æ°¢ éħ¶
æľĭåıĭæİ¨èįĲ åİ»ç¥ŀç»ıåĨħç§ĳ
åĴ¨è¯¢èĢħ æĤ¨å¥½
èĳ« èĬ¦
äº²çĪ±çļĦ åĴ¨è¯¢èĢħæĤ¨å¥½
æķĪæŀľä¸įå¤ª çĲĨæĥ³
çī¹åĪ«å½±åĵį æĿ¿å¼ı
æĪĳä»¬åħ¬åı¸ è¿Ļæ®µæĹ¶éĹ´å¾Īæĺ¯
çĽĳæĬ¤ä¸ĭ ä½¿çĶ¨
å¾Īæĥ³çŁ¥éģĵè¿Ļ åĴĭåĽŀäºĭ
åİ»å¾Īè¿ĳçļĦåĮ»éĻ¢ æŁ¥æī¾äºĨä¸ĢäºĽèµĦæĸĻ
èĢĮä¸ĶåŃķåĲĲ ä¹Łæĺ¯éĿŀå¸¸åİīå®³
èĢĮä¸Ķæĭīç²ĳç²ĳ ä¼ļåĩºçİ°è¡Ģä¸ĿæĥħåĨµ
æĪĳä»¬ç»ıå¸¸åĬłçıŃ çļĦ
è¿Ļæ®µæĹ¶éĹ´åĲĥçļĦ ä¹Łä¸įå¥½
éĤ£ä¹Īå°±è¦ģåıĬæĹ¶æį¢æĸ° æ²»çĸĹæĸ¹æ¡Ī
æľĭåıĭæİ¨èįĲåİ»ç¥ŀç»ıåĨħç§ĳ çľĭçľĭ
çī¹åĪ«å½±åĵįæĿ¿å¼ı æķĪçİĩ
æĪĳä»¬åħ¬åı¸è¿Ļæ®µæĹ¶éĹ´å¾Īæĺ¯ å¿Ļç¢ĮçļĦ
åİ»å¾Īè¿ĳçļĦåĮ»éĻ¢æŁ¥æī¾äºĨä¸ĢäºĽèµĦæĸĻ ä¹ĭåĲİ
- ï¼»
0 1
0 2
5 9
6 2
6 8
B C
F I
H A
X åħī
« ç«ĭ
Ġ æ²»çĸĹ
Ġ æĽ¾ç»ıçļĦæķĳæ²»æĥħåĨµåĴĮæķĪæŀľ
Į é¹
çļĦ çĶ·æĢ§
çļĦ å½¢æĪĲ
çļĦ åĨħè£¤
çļĦ äººç¾¤
çļĦ ä¸ŃæĪĲèį¯
çļĦ é¢Ħéĺ²åĴĮæ²»çĸĹæĸ¹æ³ķ
çļĦ å½»åºķæģ¢å¤įå¼ķåıĳäºĨä¸įå¿ħè¦ģçļĦå¹²æī°
çļĦ éģĹä¼łåĽłç´łæĺ¯ä»Ģä¹Ī
çļĦ åĨįæ¬¡åĩºçİ°ä¸¥éĩį
æĺ¯ å¥½
æĺ¯ åĵªäºĽ
æľī å¤ļ
æľī çĻ«çĹ«çĹħ
æľī åĪĨæ³Įçī©
æľī å¯ĨåĪĩ
å° ¬
å° ´
ä¸į å°Ħç²¾
ä¸į åģļæīĭæľ¯
ä¸į èµ·æĿ¥
ä¸į æĥ³è¦ģ
ä¸į è¡ĮäºĨ
æ²»çĸĹ åīįåĪĹèħºçĤİ
æ²»çĸĹ åİŁåĪĻ
èĢ Ģ
ä¸Ģ å¤§
ä¸Ģ åĽŀäºĭ
ä¸Ģ åĿĹ
è¦ģ å¤ļä¹ħ
åı¯ å½±åĵį
åı¯ åĨįæ¬¡åĩºçİ°
ä¼ Ł
ä¼ «ç«ĭ
çĶŁ çĹħäºĨ
åº Ł
åıĳ ç»Ģ
åĩ Į
å¤ļ å¤Ħ
å¤ļ çľĭéĩį
æķ Į
åĮ» æºĲæĢ§
åı¯ä»¥ åĪ°
åı¯ä»¥ åģļä¸ª
åı¯ä»¥ èĢĥéĩı
åı¯ä»¥ ç»Ļå®Ŀå®Ŀ
åı¯ä»¥ èµ·äºĽ
åľ¨ åĵª
åľ¨ æİĴåįµæľŁ
åĲİ æĸ¹
åĲİ å¤įæ£Ģ
æ£ĢæŁ¥ åĩºæĿ¥çļĦ
æŀľ èĥ¶
æĪĳ æĤ£æľī
æĪĳ ç»ĵå©ļ
è¿Ļ ä¸Ģåĳ¨
è¿Ļ è®©æĪĳ
å¿ĥ ä¸¸
å¤§ å§¨å¦Ī
ä½ł è¿ĻæĥħåĨµ
å¯¹ èĥĥ
å¯¹ ä¾§
å¯¹ å¥³æĢ§
å¯¹ åįĬ
ä¸ĭ èº«
å°± åİ»
å°± åºĶå½ĵ
æīĭæľ¯ æĹ¶
å¤į èĭı
åīį å¹´
è¿ĩ åĩłå¤©
å¤ĸ åľ°
ä¹Ł ç»Ŀä¸įä¼ļ
æĢİä¹Ī çľĭ
æĢİä¹Ī é¢Ħéĺ²
æ¸ ¯
åºĶ ä¸İ
åºĶ çķĻæĦı
é«ĺ æķĪ
å¾Ī æľīåı¯èĥ½
æ°´ è§£
æ°´ ä»Ļ
èĪ į
éĹ´ åħħ
åİ» æŃ£è§Ħ
æ¬¡ åħ¨
éľĢè¦ģ åıĬæĹ¶
éľĢè¦ģ è¿Ľè¡Į
æĹ© èµ·
èį¯çī© æ³¨å°Ħ
èį¯çī© è¿Ľè¡Įæ²»çĸĹ
æ²¡ åĬ²
æ³¨æĦı éģ¿åħį
æ³¨æĦı éĺ´éĥ¨åį«çĶŁ
å®« ç´ł
å¦Ĥæŀľ åıĳçİ°
çĸ¾çĹħ å¼ķèµ·çļĦ
èĻ İ
èĢĮ ä¸į
è¾ĥ å¿«
çľĭ èµ·æĿ¥
å¹¶ ä¼´æľī
æ¿Ģ åıĳ
å°ĳ äºĨ
å°ĳ äºİ
ä¸ĢèĪ¬ æľī
èĬ Ĵ
éª¨ æĢ§
çķ ľ
ä½¿ æĤ£èĢħ
èĤ¾ æįŁä¼¤
æķĳæ²» åĲĹ
éĿ¢ å®¹
æµģ éĢļ
ä¼¤ å¿ĥ
åĮ»çĶŁ æĪĳ
è¯·éĹ® å¾ĹäºĨ
è¯·éĹ® å°ıåŃ©
èĦī æĲı
çĹħæĥħ ä¸į
çĹħæĥħ åº·å¤į
çĹħæĥħ æģ¶åĮĸ
ä¹³ ç³ľ
åĬŁèĥ½ è®Ńç»ĥ
è°ĥ æİ§
æĹ¶éĹ´ éķ¿äºĨ
æĥ³ åĴ¨è¯¢ä¸Ģä¸ĭ
æĥ³ äºĨè§£ä¸Ģä¸ĭ
ä»Ķç»Ĩ æ£Ģ
æĺİ å¤©
æĺİ çĻ½
èĤº ç»Ħç»ĩ
çĶ² åºĬ
çĶ² æ³¼å°¼
çĶ² éĨĽ
èĥŀ èĥİ
è¿ĳ æĿ¥
æĺĵ æĢĴ
å²ģ æĹ¶
å¥³ åıĭ
ä¸įè¦ģ ç´§å¼ł
æħ¢ è·ĳ
åħ¨ å¤§è¡¥
ä»Ķç»Ĩæ£ĢæŁ¥ çļĦç»ĵæŀľ
å½±åĵį åĲĹ
å½±åĵį ä¸įå¤§
æĬ¤çĲĨ æİªæĸ½
åĥı ä½ł
æŃ£å¸¸ äºĨ
åİŁåĽł æĺ¯
åİŁåĽł æĺ¯ä»Ģä¹Ī
çİ°åľ¨ è¿ĺ
å¿« ä¹Ĳ
åĳ¨ åģļ
ä¿ĿæĮģ æ¸ħæ´ģ
ä¿ĿæĮģ ä¹Ĳè§Ĥ
æ²¡æľī æĢĢåŃķ
ä»ĸ æ»¨
ä¸İ åįµåŃĲ
çĻ«çĹ« çļĦæ²»çĸĹ
åĸĿ å¥¶
åĪºæ¿Ģ çļĦé£Łçī©
ä½Ĩæĺ¯ è¯·éĹ®
èĢĮä¸Ķ åľ¨
èĢĮä¸Ķ èº«ä½ĵ
æĢ¥ èħ¹
æİĴ éª¨
ä¸¤ åĪ°
ç±» é£İæ¹¿æĢ§åħ³èĬĤçĤİ
ä¸įèĥ½ æļ´é¥®æļ´é£Ł
ä¸įèĥ½ åĲĥè¾Ľè¾£åĪºæ¿Ģä¹ĭåĵģ
è¡Ģç®¡ çļĦ
è¡¥ èĦĳ
çĸ¼çĹĽ éļ¾å¿į
æĢİä¹ĪåĬŀ æīįå¥½
åĲĮæĹ¶ ä¹Ł
æ» ¥
è¥¿ æ²Ļå¿ħåĪ©
çĤİçĹĩ æĢ§
èĥĨ çŁ³
èĥĨ ç²ī
è½¬ å¥½çļĦ
æŀģ ä¸º
æĦŁè§ī å¾Ī
è½» ä¸Ńåº¦
å·¦ çľ¼
æħ¢æĢ§ çĹħ
åŁº äºİ
èĥİ ä½į
å°ıåĦ¿ æ°¨éħļ
æ¸ħæ·¡ çļĦé¥®é£Ł
éĴĪ åĪĢ
äºĮ èĢħ
äºĮ åĳ¨åĲİ
å¦ĩç§ĳ çĹħçļĦ
è¶³ éĥ¨
éģ¿åħį åĩºçİ°
åĽłä¸º å·¥ä½ľ
æĦĪ åĲİ
æķ° æ¬¡
å®ŀæĸ½ æīĭæľ¯æ²»çĸĹ
åĬ¨èĦī å¯¼ç®¡
æĢ¥æĢ§ èĥ°èħºçĤİ
æ´Ĺ æīĭ
å¯¹äºİ è¿Ļç§įæĥħåĨµ
ä½łçļĦ çĹħ
å±Ģéĥ¨ ä½¿çĶ¨
å±Ģéĥ¨ éº»éĨī
åħįçĸ« è°ĥèĬĤ
éģĹ çķĻ
æīįèĥ½ å¤Ł
ç»Ħç»ĩ åĴĮ
æıĲ èĤĽ
çĶµ éķľ
æİ¥ éª¨
æĭī å°¿
åĪĨæ³Į çļĦ
åįģ åħ¨å¤§è¡¥
æīĵ é¢Ħéĺ²éĴĪ
æ¸© åĴĮ
åįĬ ä¸ªæľĪäºĨ
åįĬ èĥ±æ°¨éħ¸
ç»´çĶŁç´ł ç¼ºä¹ı
èĶ Ĺ
åĲĲ åĩºæĿ¥
åĮĸçĸĹ èį¯çī©
ä¸įä¼ļ å½±åĵį
æĺİæĺ¾ çĹĩçĬ¶
ç²¾ç¥ŀ åĪĨè£Ĥ
éĴĻ ç¦»åŃĲ
çĤİçļĦ å¤ļåıĳç¾¤ä½ĵæĺ¯
åıĮ èĤº
åıĮ é¡¶
ç»ıå¸¸ æĢ§
ç¼© å®«ç´ł
åĳ¼åĲ¸ æļĤåģľ
éĩĩçĶ¨ æķĳæ²»æİªæĸ½
å¤įåıĳ äºĨ
åĲ« éĵģ
å±ŀ ä¸ĭçļĦä¸Ģä¸ª
å»ºè®®ä½ł æľĢå¥½æĺ¯
çĹħåıĳ äºĨ
ä¹Łæĺ¯ æ¯Ķè¾ĥ
æł¸ å¿ĥ
åĪºæ¿ĢæĢ§ é£Łåĵģ
å¾ĹåĪ° æĶ¹åĸĦçļĦ
å¤ĸéĺ´ åį«çĶŁ
æĦŁåĨĴ å¼ķèµ·çļĦ
åĦ¿ç«¥ å¿ħé¡»åľ¨
åĴ³åĹ½ å¥½åĥıä¹Ł
ç»¼åĲĪå¾ģ çļĦæİ¨èįĲèį¯æľīäºĽä»Ģä¹Ī
ç»¼åĲĪå¾ģ çļĦå½±åĥıåŃ¦æ£ĢæŁ¥æľīäºĽä»Ģä¹Ī
20 19
æĪĳä»¬ çļĦ
èĤ¥ èħ»
åħ¶ä»ĸ èį¯åĵģ
å¿ĥèĦı çļĦ
å¿ĥèĦı çĹħçļĦ
çº¿ ç²Ĵä½ĵ
åģľ äºĨ
åģľ èĤ²
èĦĵ è¡Ģä¾¿
è¢« ç§°ä¸º
å®ĥ åı¯ä»¥
æľīæķĪ åľ°
ç»ĨèıĮ çļĦ
ä»¥åĲİ åĨį
å¹´é¾Ħ æ®µ
é¢ħ åİĭ
å¼± ç²¾
èĦ¾ åĪĩéĻ¤
åıįåºĶ æĢ§
æĻ® çĶŁ
è¶Ĭ å¤§
èĦĤèĤª èĤīçĺ¤
çĦ¶åĲİ åĲĥ
æĪĳæĥ³ äºĨè§£ä¸Ģä¸ĭ
å»¶ è¯¯çĹħæĥħ
åı¯ä»¥çĶ¨ ä¸įçĿĢ
æ»´ ä¸¸
æ»´ åīĤ
èĬ± ç²ī
èĬ± è´¹
åħ¬ èĭ±
éĥ¨åĪĨ åŃ©åŃĲè¿ĺ
çĨ Ĭ
ä¹Łä¸į å¤ª
èģĶåĲĪ åĮĸçĸĹ
çľŁ æĺ¯
çĹ° å¤ļ
ä½ĵè´¨ éĩı
äººæµģ æľ¯åĲİ
çĹħçĲĨ æĶ¹åıĺ
é²ľ çº¢
è¿ĻäºĽ éĥ½æĺ¯
åĸī éķľ
å»ºè®®æĤ¨ åĪ°
çĹĶçĸ® æłĵ
èĢĥèĻĳæĺ¯ å±ŀäºİ
èĲİ éĿ¡
å½»åºķæģ¢å¤į æĥħåĨµ
åĿı äºĨ
åĬłå¼º ä½ĵèĤ²éĶ»çĤ¼
èĥĥèĤł åĬ¨åĬĽ
çħ§ çīĩ
çħ§ èĢĢ
ä¹³æĪ¿ åıĳèĤ²
ä¸Ģæ®µæĹ¶éĹ´ äºĨ
åı¯ä»¥åĲĥ äºĽ
æ¨ Ł
æ¨ ±åŃĲ
ç´« èī²
ç´« å¤ĸçº¿
çĶ²äº¢ çļĦ
çª¦ çĤİ
åŃ©åŃĲçļĦ èĢ³æľµæľīçĤ¹çĸ¼
æ²»çĸĹæľŁéĹ´ ä»¥
æ²»çĸĹæľŁéĹ´ ä¸»è¦ģè¦ģ
å¹¼ å¹´
æł¹æ²» çļĦ
çĽ´æİ¥ çļĦåħ³ç³»
çģµ èĬĿ
æľĢåĲİ åı®åĺ±å¥³æĢ§æĤ£èĢħ
èĹ ĵ
äººå·¥ æĻ¶çĬ¶ä½ĵ
åĲĪå¹¶ çĹĩ
åİŁåıĳæĢ§ èĤĿçĻĮ
åıĳå±ķ ä¸º
è¯¯ æľº
ä½łçļĦæĥħåĨµ èĢĥèĻĳæĺ¯
æīģæ¡ĥä½ĵçĤİ æ¯Ķè¾ĥå¸¸çĶ¨çļĦ
æģ¶æĢ§èĤ¿çĺ¤ çŃī
èĤĿåĬŁèĥ½ åıĹæįŁ
é¢ĳç¹ģ æĢ§äº¤
çĶŁéķ¿åıĳèĤ² çļĦ
ç©¿åĪº æľ¯
æĿĤ éŁ³
çĹīæĮĽ æĢ§
æ¶¦ èĤº
æ¶¦ æ»ĳ
æĶ¯æŀ¶ æ¤įåħ¥æľ¯
åħ« ä¸ªæľĪ
å®«èħĶ ç²ĺè¿ŀ
æĤ£èĢħéľĢè¦ģ åģļ
çĻ½èī² çļĦ
èĩŃ æ°§
ä¼łç»Ł çļĦ
åıĤèĢĥ åĢ¼
æ··åĲĪ åŀĭ
æĤ£èĢħä¸Ģå®ļè¦ģ ä¿ĿæĮģå¿ĥæĥħæĦīå¿«
æĺ¯æĢİä¹Ī çļĦ
æĺ¯æĢİä¹Ī å¼ķèµ·çļĦ
å¸ķéĩĳæ£® çĹħçļĦ
æ³Ľ é»Ħ
è¯±åıĳ çļĦ
ç¼ĺ æķħ
è°· ç±»
èĤ© åħ³èĬĤ
æ¸ħçĥŃ åĪ©æ¹¿
åĨ° ç³ĸ
æľĢä½³ æĹ¶éĹ´
ä¸įçĶ¨ æĭħå¿ĥçļĦ
åģļå®Į äººæµģ
æ¸ħéĻ¤ æľ¯
é¹ Įé¹
ä¸Ńæŀ¢ ç¥ŀç»ı
èĥ¡ æ¡ĥ
åĵĮ åį¡åĽł
ä½łæīĢ è¯´çļĦ
çī¹çĤ¹ ä¸º
æĭĶ éĻ¤
æıĲç¤º éŁ³
æŀķ åı¶
ç¼ºéĴĻ å¼ķèµ·çļĦ
èħ¹èĤ¡æ²Ł æĸľçĸĿ
å¢ŀåĬłèĲ¥åħ»è¡¥åħħç»´çĶŁç´ł è¡¥åħħèĽĭçĻ½è´¨
çĶ²ç¡ĿåĶĳ çīĩ
åįµæ³¡ åıĳèĤ²
å»ºè®®åİ» æŃ£è§ĦåĮ»éĻ¢
ä¸Ģå²ģ åįĬ
æĺİç¡®è¯ĬæĸŃ åĲİ
çī¹åıĳæĢ§ éľĩé¢¤
å¤ļåģļ ä¸ĢäºĽ
æĬ± çĿĢ
å·Ŀ è´Ŀ
åľŁ è±Ĩ
æµ¸æ¶¦ æĢ§
ç§ģå¤Ħ åį«çĶŁ
å¯¹èĥİåĦ¿ æľīå½±åĵįåĲĹ
åĪĨåŃĲ éĩı
æĺĶ åįķæĬĹ
ç§ĭ æ°´ä»Ļ
å¥½äºĽ åĳ¢
ä¹³éħ¸ èıĮç´ł
åĴ½åĸī çĤİ
æĺ¯éľĢè¦ģ åıĬæĹ¶çļĦ
åĩĿè¡Ģ éħ¶
è¡Ģç®¡åĨħ çļ®
ä¹ĻèĤĿçĹħæ¯Ĵ æĲºå¸¦èĢħ
å¸¸çĶ¨çļĦ æľī
çĳŀ èĬ¬å¤ªå°¼
æ¨ª çº¹
é«ĺéĶ°éħ¸éĴ¾ æº¶æ¶²
æĬ¬ å¤´
æĬĹçĻ«çĹ« èį¯çī©
çĽ®åīįæ²»çĸĹ æīģæ¡ĥä½ĵçĤİæ¯Ķè¾ĥå¸¸çĶ¨çļĦ
å¼¯ æĽ²
çļĦå¸®åĬ© åŃ©åŃĲ
é¢Ŀå¤ĸ çļĦ
åĬłåī§ çĹĩçĬ¶
åĨľ èį¯
çĥ¦èºģ ä¸įå®ī
åĿĲéª¨ ç¥ŀç»ı
æĵħ èĩª
å¯¹æĤ£èĢħä»¬å¸¦ç»Ļ çļĦåį±å®³æĺ¯éĿŀå¸¸å¤§çļĦ
å®¤åĨħ ç©ºæ°Ķ
æľīçĽĬ èıĮ
å®¶éķ¿éľĢè¦ģéħįåĲĪåĮ»çĶŁ ç«ĭåį³æ²»çĸĹ
çĽ¸ä¿¡è¿Ļæł·ä¸Ģå®ļèĥ½ å°Ĩ
åıªæľīè¿Ļæł·æīįèĥ½æıĲé«ĺæĤ£èĢħ æĬĹè¡¡
éģ¿åħįçĿĢåĩī åĬłåī§çĹĩçĬ¶
å« ©
å¿ĥèĦĳè¡Ģç®¡ çĸ¾çĹħ
ä¸Ĭæ¶ĪåĮĸéģĵ åĩºè¡Ģ
ä¸įæ²» æľ¬
éĿ©åħ° éĺ´æĢ§
AC E
è´£ ä»»
èħĶéļĻæĢ§ èĦĳæ¢Ĺå¡ŀ
åŁĥ å¸Į
å°ıç»Ĩèĥŀ èĤºçĻĮ
åĪĩæĸŃ æľ¯
å®ŀéĻħæĥħåĨµ æĿ¥
çĹħæĥħå¥½è½¬åĲİ éĢĤå½ĵçļĦè¿ĲåĬ¨
åī¥ç¦» æľ¯
æŀ¯ èįī
é¢ĪåĨħ åĬ¨èĦī
çĻ¾åĪĨ ä¹ĭ
éĻ¤äºĨè¦ģåıĬæĹ¶ æ²»çĸĹå¤ĸ
åĲĪçĲĨçļĦé¥®é£Ł åĴĮ
å¯¹ç§° æĢ§
è°¨ æħİ
å¯¹äºİå®¶éķ¿ æĿ¥è¯´
æł¹æį®æĤ¨æīĢ åıĻè¿°çļĦæĥħåĨµ
ä½İæ°§ è¡ĢçĹĩ
æĩĴ å¾Ĺ
çĭĤçĬ¬ çĹħ
ä¸¤æĢ§ çķ¸å½¢
åıĬæĹ©å®ŀæĸ½è¯ĬæĸŃ æ²»çĸĹ
åĲĮæĹ¶æĤ£èĢħæĹ¥å¸¸ä¸Ńè¿ĺéľĢè¦ģéĩįè§Ĩèĩªèº«çļĦ è°ĥèĬĤ
çķ¸èĥİ çĺ¤
åĮ»å¸ĪæĮĩå¯¼ä¸ĭ æľįçĶ¨
æĢ§çĬ¶åıĳçĶŁæĶ¹åıĺæĹ¶ ç¦ģæŃ¢ä½¿çĶ¨
ä½İèĽĭçĻ½ è¡ĢçĹĩ
è½¯åĿļ æķ£ç»ĵ
æĬ¢ æķĳ
é«ĵåĨħ éĴī
è¾© è¯ģ
ä¸ĢèĪ¬èį¯çī©å¾Īéļ¾ æł¹æ²»
é©¬æĿ¥ éħ¸
å¤ļæĢģ æĢ§
æĽĿ æĻĴ
è¦ģå°½åı¯èĥ½ çļĦå¸®åĬ©åŃ©åŃĲ
æµĻ æ±Ł
éĴ´ èĥº
å¦ĩç§ĳåįĥ éĩĳçīĩ
èĥºç¢ĺ éħ®
éĽ·åħ¬ èĹ¤
ä¸ŃåĮ»ä¸Ńèį¯éķ¿æľŁä¸´åºĬå®ŀè·µç´¯ç§¯äºĨå¾Īå¤ļ éĿŀå¸¸æľīæķĪçļĦæ²»çĸĹæĸ¹æ³ķ
æ²»æłĩ ä¸įæ²»æľ¬
ç»ĻåŃ©åŃĲçĶ¨çĤ¹ éķĩçĹĽèį¯
çļĦæĥħåĨµä¸ĭä¹Łåı¯ ç»ĻåŃ©åŃĲçĶ¨çĤ¹éķĩçĹĽèį¯
éĹ´åħħ è´¨
çĶ²æ³¼å°¼ é¾Ļ
åĴ³åĹ½å¥½åĥıä¹Ł æ¯Ķè¾ĥä¸¥éĩį
æ²»çĸĹæľŁéĹ´ä¸»è¦ģè¦ģ ç»ĻåŃ©åŃĲåģļå¥½ä¿Ŀæļĸå·¥ä½ľ
é¹Įé¹ ĳ
4 00
6 9
7 4
; (
A R
H D
N S
P O
P R
S O
T A
T E
h an
n g
ç °
Ġ 9
çļĦ å°±
çļĦ èĥ½åĬĽ
çĹ Ī
æĺ Ĩ
çĸ ¥
ãĢĤ ãĢĬ
æ² ¸
æĺ¯ æľĢå¥½çļĦ
æľī ä¸Ģç§į
æľī ä¹³èħºå¢ŀçĶŁ
æľī ä¾¿æĦı
è¿ İ
æ²» çĹħ
ä¸į çŃī
ä¸į å®ļ
ä¸į æ¶ĪåĮĸ
ä¸į åĩĢ
ä¸į è®º
æ²»çĸĹ çĽ®çļĦ
æ²»çĸĹ ä½łçļĦçĹħ
çĹħ çŃī
åĨ ¶
è¦ģ å®ŀæĸ½
ä»¥ å¢ŀåĬł
æĹ¶ åıĳçİ°
åıĳ åĩº
å¼ §
å¥½ éķ¿æĹ¶éĹ´
å¯ ¸
å¤ļ éĩĩçĶ¨
å¤ļ æĸ¹éĿ¢
èĥ½ å¿«éĢŁ
èĥ½ æ²»æĦĪåĲĹ
åİ Ĥ
çĶ¨ çľ¼
çĶ¨ ä¸Ńèį¯æ²»çĸĹ
è¾ Ī
å¦ Ĩ
è¡Ģ ä¾Ľ
éĺ Ł
åı¯ä»¥ æľī
æ£ĢæŁ¥ è¯´æĺ¯
ä¼ļ çĹĽ
ä¼ļ æĽ´
æīĭ æİĮ
éģ Ĥ
æľīäºĽ äºº
æĪĳ ç»ıå¸¸
è¿Ļ æīįæĺ¯
ç»ı é¢ħ
æĤ£èĢħ ç¦ģçĶ¨
åĴĮ ç»§åıĳæĢ§
ä¸Ń çŃī
å¯¹ è±¡
å¯¹ ä»¥åĲİ
å¯¹ åŃķå¦ĩ
å¯¹ èĤĿèĦı
å¯¹ æį¢æ²»çĸĹæĸ¹æ¡Ī
ä¸ĭ æ³¨
ä¸º æĤ¨
åīį èĩĤ
å°ı åıĳä½ľ
å°ı éĺ´åĶĩ
è¿ĩ ä½İ
ç® ±
åĨħ èĢ³
åĨħ éĩĳ
å¤ĸ åĬĽ
ä¹Ł è®¸
ä¹Ł ä¸įæĺ¯å¾Ī
ä¹Ł åı¯èĥ½ä¼ļæĺ¯
éĥ¨ ä»½
å»ºè®® ä¸įè¦ģ
åĮ»éĻ¢ åĵªå®¶
çĹĩçĬ¶ è¡¨çİ°
åºĶ å°½æĹ©
é«ĺ ç»´çĶŁç´ł
é«ĺ èĥĨåĽºéĨĩ
åģļ Bè¶ħæ£ĢæŁ¥
èĪ ŀ
èħº çĹħæ¯Ĵ
ç³ ł
åİ» åģļä¸ª
åİ» çľĭåĮ»çĶŁ
éķ¿ æĺ¥
æ²¡ çĹĩçĬ¶
æľĢ å¤§çļĦ
å®Ŀ å¦Ī
ç¥ ĸ
æ³¨æĦı åĬ³éĢ¸ç»ĵåĲĪ
é¥®é£Ł è§Ħå¾ĭ
ç¼ ¬
ç¼ ĸ
æĺ¯ä»Ģä¹Ī å¼ķèµ·çļĦ
å¦Ĥæŀľ ä½ĵæ¸©
èĤĿ æ°Ķ
çĸ¾çĹħ å°½æĹ©åº·å¤į
æĹł æľº
æĹł çĹĩçĬ¶çļĦ
éĴ ¼
åĬ© æ¶ĪåĮĸ
èĢĮ åľ¨
è¡Į åĮħçļ®çİ¯åĪĩæľ¯
éĥ½ æľīåĵªäºĽçĹĩçĬ¶
å°ĳ é£Łè¾Ľè¾£
åº· èĥ¶åĽĬ
å¤´ ä¸Ĭ
å¹³ åį§
èĬ ³
æ¸ħ æĻ¨
æ¯Ķ æĺŁ
ä½Ĩ æĪĳ
éª¨ èĤ¿çĺ¤
éª¨ é¾Ħ
çĶŁæ´» ä½ľæģ¯
æīĢ èĩ´ä½¿çļĦ
èĤ¾ ç²¾
æĬĹ å®«çĤİ
åħ¶ ä¸»è¦ģ
åĮ»çĶŁ å¼ĢäºĨ
åħ³ æĢĢ
çĹħæĥħ ç¨³å®ļ
åĬŁèĥ½ æŃ£å¸¸
è°ĥ åĳ³
æĥ³ åĴ¨è¯¢
è¶ħ èĥ½
æł¹æį® çĹĩçĬ¶
æł¹æį® åıĻè¿°
æł¹æį® åŃ©åŃĲçļĦæĥħåĨµ
äºĭ åĲİ
æŃ¤ ç±»
å²ģ åĦ¿ç«¥
å²ģ çĶ·åŃ©
å¥³ åŃ©åŃĲ
ä¹ĭ çī©
ç»Ĩèĥŀ çļĦ
è¿Ľè¡Į äºĨ
è¿Ľè¡Į æ¿Ģåħīæ²»çĸĹ
æķĪæŀľ æľĢå¥½
èĤĮ èĲİç¼©
æ¯Ķè¾ĥ éķ¿
å½±åĵį åıĹåŃķ
åİŁåĽł çļĦ
åĩı å½±
å®Ŀå®Ŀ èħ¹æ³»
å®Ŀå®Ŀ åĩºçĶŁ
çİ°åľ¨ æĥ³
ä¸ī ä½ĵ
ä¸ī åĳ¨
ä¸ī åĽĽ
ä¸ī éĨĩ
åĩł æ»´
éĢĤ åº¦çļĦ
åĽŀ åĪ°
åĳ¨ è¾¹
ç¥ŀç»ı åĨħéķľ
æ²¡æľī çĹĩçĬ¶
æ²¡æľī éĹ®é¢ĺ
ä¸Ģå®ļ ä¼ļ
ä»ĸ å®ļ
æľĪç»ı æıĲåīį
éĶ Ģ
åĸĿ çļĦ
ä¸»è¦ģ çĶ±
ä¸»è¦ģ ä¸İ
åĲ¸ æ°Ķ
é¢Ħ çº¦
é¢Ħ å¤ĦçĲĨ
èĢĮä¸Ķ æĢ»æĺ¯
æĢ¥ æŃ»äºĨ
æ¤ °
èĤ¿çĺ¤ åĮĸçĸĹ
èĤ¿çĺ¤ æłĩå¿Ĺçī©
çļĦçĹĩçĬ¶ è¡¨çİ°
åıĹ ä¸įäºĨ
è¡¥ çīĩ
çĸ¼çĹĽ çļĦæİ¨èįĲèį¯æľīäºĽä»Ģä¹Ī
åŃĲå®« åĪĩéĻ¤
çļĦè¯Ŀ éĤ£ä¹Ī
æĶ¾ è¡Ģ
çĽ¸ è¿ŀ
è¾£ çļĦ
éĤ ¦
å¦Ĥä½ķ æŃ£å¸¸
è· ¨
çĤİçĹĩ ä¼łæŁĵ
æĢ» è¯´
æĢ» èĥĨçº¢ç´ł
éĿŀ æ·ĭ
å¿ħ å¾Ĺ
éĻį éĴĻ
åºĶè¯¥ å¦Ĥä½ķ
è½¬ éĺ´
åĮħçļ® æ°´èĤ¿
è¯ĬæĸŃ çļĦ
æĦŁè§ī éļľç¢į
å¸®åĬ© çĸ¾çĹħå°½æĹ©åº·å¤į
èĩªå·± åıĪ
è¿Ļæł· çļĦçĹĩçĬ¶
æĸ° çĸĨ
æĹ©æ³Ħ çĹħæĥħæĺĵåıįåıįå¤įå¤į
å®¹æĺĵ éĢłæĪĲ
äºĮ æľŁ
ä½ľçĶ¨ çļĦé£Łçī©
æľĢå¥½ ç¥Ŀä½ł
ä¸ĢçĽ´ å¾Ī
éģ¿åħį æĥħç»ªæ¿ĢåĬ¨
æģ¶ æĢ§çļĦ
æ¶ĪåĮĸ åĲ¸æĶ¶
åı³ èħ¿
ä¹ħ ç«Ļ
æİ§åĪ¶ ä½ı
èĢ³ éĥ¨
åĪ© åĹª
å¾ĹäºĨ èĤºçĻĮ
å®Į åĲİ
åıĪ çĹĴ
ç¬ Ķ
æĭī äºĨ
åį± éĩį
è¦ģæ³¨æĦı çĹħæĥħçļĦåıĳå±ķ
å¯¹çĹĩæ²»çĸĹ çļĦ
æīĵ çĸ«èĭĹ
åįĬ èĦ±ä½į
åįĬ æµģè´¨
å¹¶ä¸Ķ å¤ļåĲĥä¸ĢäºĽèĶ¬èıľæ°´æŀľ
éĽ ¾çĹħ
æĽ´ ä¸¥éĩį
éªĮ è¡Ģ
äº¤ æĽ¿
èĤļåŃĲ ä¸įèĪĴæľį
åıĮ èĥŀèĥİ
éĺ» ç¢į
å¤§ä¾¿ ä¹łæĥ¯
å¤§ä¾¿ ç¨Ģ
éĢīæĭ© æķıæĦŁ
å»ºè®®ä½ł åĪ°
ç³»ç»Ł æ²»çĸĹ
æľīä»Ģä¹Ī éĹ®é¢ĺ
å¿ĥçĲĨ éĹ®é¢ĺ
ä¹Ļ çĥ¯
çĿ¾ä¸¸ çļĦ
éĿŀå¸¸ å¥½çļĦ
ç±³ æ±¤
è¿ŀ çĿĢ
æĪĳä»¬ åºĶè¯¥åıĬæĹ¶
çĥŁ éĽ¾çĹħ
å¿ĥèĦı çĵ£èĨľ
çļĦèį¯çī© æķĳæ²»
èĦ± çļ®
æĺİç¡® çĹħåĽłåĲİ
ç³ĸå°¿çĹħ åĲĹ
æīģæ¡ĥä½ĵ åĪĩéĻ¤æľ¯
å§ĭç»Īä¿ĿæĮģ æģ°å½ĵé¥®é£Ł
è¾¾ ä¸įåĪ°
è£Ĥ åŃĶ
çħ ¤
æľīæķĪ æ²»çĸĹ
æľīæķĪ é¢Ħéĺ²æİªæĸ½
æķ´ ä¸ªäºº
æĬĹçĶŁç´ł åĴĮ
éĻĦ çĿĢ
å°ıåŃ© æīģæ¡ĥä½ĵçĤİ
æĻ® ä¹Ĳå®ī
çĶŁéķ¿ ç¼ĵæħ¢
å®ļæľŁ çļĦ
éĺ´èĮİ çļĦ
èĳ ļ
çĦ¶åĲİ æł¹æį®
åı¶ çīĩ
åıįå¤į çļĦ
ç¦» æĸŃ
èĥİåĦ¿ çķ¸å½¢
è¡Ģæ¶² çļĦ
ç¨³å®ļ çĹħæĥħ
é¦ĸåħĪ æĺ¯
äºĶ ä¸ªæľĪ
éĥ¨åĪĨ åĪĩéĻ¤
ç²¾åŃĲ æ´»åĬĽ
æľª å©ļ
æľª éĹŃ
åĿĲ æľĪåŃĲ
ä¹ĭåĲİ åĨį
éģĹä¼ł çĹħ
è°¢è°¢ äºĨ
èĭ¦ çĵľ
ç¾İ è¾Ľ
åıªæľī åľ¨
é¸¡ åĨħéĩĳ
çĿ¡çľł ä¸įè¶³
ä¼´æľī åıĳçĥ§
å°±ä¼ļ åĨįæ¬¡åĩºçİ°
å»ºè®®æĤ¨ åıĬæĹ¶
è·Ł èħ±
é±¼ æ±¤
æĴ Ĵ
å¤ĦçĲĨ çļĦ
ç¥ĿæĤ¨ èº«ä½ĵæĹ©æĹ¥æģ¢å¤įåģ¥åº·
æł¹æį®ä½ł åıĻè¿°çļĦ
çħ§ èĵĿåħī
åŁºç¡Ģ çĸ¾çĹħ
åŁºç¡Ģ ä½ĵæ¸©
ä¹Łæľī ä¸Ģå®ļçļĦ
ä¹Łæľī åĪ©äºİ
ä¹³æĪ¿ çĸ¼çĹĽ
ä¸Ļ åĹª
çīĽ çļ®
æĤ£æľī çĻ«çĹ«
éĢļå¸¸ æĥħåĨµä¸ĭ
èĤĮèĤī çļĦ
çĸĿæ°Ķ æīĭæľ¯
ç¿ ħ
è¯Ħ åĪĨ
èĤĿèĦı çļĦ
ä¹Łåı¯ å¼ķèµ·
å¤´æĻķ å¤´çĹĽ
æ°¯ èĭ¯
æ¸ħæ·¡é¥®é£Ł å¤ļé¥®æ°´
å¯¹çĹĩæķĳæ²» å¤ĸ
ç¼ºè¡Ģ æĢ§èĦĳ
å¤ļç§į åİŁåĽłå¼ķèµ·çļĦ
çģµ éŃ
æĺ¯ä¸į ä¸Ģæł·çļĦ
å¤įæĸ¹ åĪ¶åīĤ
å¿§ éĥģ
å±± æ¢¨
åĲİæĿ¥ å°±
ä¹Łä¼ļ åĩºçİ°
éª¨é«ĵ çĤİ
çĶŁåŃĺ çİĩ
å¤§éĩı æĬĹçĶŁç´łæ²»çĸĹ
åı¯ä»¥èĢĥèĻĳ çĶ¨
åı¯ä»¥èĢĥèĻĳ æīĭæľ¯
æ²¡ä»Ģä¹Ī éĹ®é¢ĺ
åı« æĪĳ
ä¸° èĥ¸
çĽĲéħ¸ å·¦æ°§æ°Łæ²ĻæĺŁ
ä¿®å¤į åıĹæįŁ
æŃ£ç¡® æ²»çĸĹ
æŃ£ç¡® çļĦæ²»çĸĹ
éĵģ èĥĨç²ī
æµĨ ç»Ĩèĥŀ
çļĦé¥®é£Ł æľīèĬĤ
ç»ĻäºĪ èį¯çī©
åĵªéĩĮ å¥½
åĢĴ è¡Į
éħĴç²¾ ä¸Ńæ¯Ĵ
é¢ħåĨħ èĤ¿çĺ¤
éŀ Ń
å¥½åĥı æĺ¯
æĻº èĥ½
é¢Į éª¨
ä¸Ĭè¿°çļĦçŃĶæ¡Ī æľŁæľĽ
æĦŁæŁĵçļĦ é«ĺåį±åĽłç´łæľīäºĽä»Ģä¹Ī
å·¨ åĻ¬ç»Ĩèĥŀ
èĥ½ä¸įèĥ½ æ²»å¥½
åĮĸåŃ¦ æĢ§
å°±è¦ģ èĢĥèĻĳ
æľīæ²¡æľī ä»Ģä¹Ī
æĤ£èĢħä¸Ģå®ļè¦ģ æ¶ĪåĮĸç»´çĶŁç´ł
ç»§ç»Ń æģ¶åĮĸ
åĹľ éħ¸
çĹħæ¯ĴæĦŁæŁĵ å¼ķèµ·çļĦ
å°ļ ä¸į
ä¸ŃèĢ³çĤİ èĢ³å±İ
å¼Ĥä½į å¦Ĭå¨ł
çī¹å¾ģ çļĦ
æĬĹçĹħæ¯Ĵ èį¯çī©
ä¸İæŃ¤åĲĮæĹ¶ ä¹Łè¦ģæ³¨æĦıç»ĻåŃ©åŃĲå®īæİĴ
é£ŁéģĵçĻĮ æľ¯åĲİ
é£ŁéģĵçĻĮ æĻļæľŁ
æĶ¯åİŁä½ĵ èĤºçĤİ
é³ ĸ
åĲ¸åħ¥ æĢ§èĤºçĤİ
æĻĴ æĻĴå¤ªéĺ³
å¾ĹåĪ°ç¼ĵè§£ çļĦ
æŁĶ æ¯ĶæĺŁ
æľ« æ¬¡
åĴĸåķ¡ çŃī
è¡Ģæµģ æĺ¾åĥı
ä¸īçĶ²åĮ»éĻ¢ è¯Ĭæ²»
çĽ¸å¯¹ æĿ¥è¯´
æľīä¸Ģå®ļçļĦ åħ³ç³»
åĴª åº·åĶĳ
.. ..
çĭ¬ æ´»
å´ İ
èķ ¨
åŃķæľŁ ä¿Ŀåģ¥
ä¸Ģä¼ļ å°±æĥ³
å°ıèĤł æ°Ķ
çºµ èĨĪ
æ© ¡
æ³¨æĦıé¥®é£Ł åį«çĶŁ
çļĦåıĳçĶŁ çİĩ
ç¦ı éŁ¦
çŁ« æ²»
è®©åŃ©åŃĲ åħħåĪĨä¼ĳæģ¯
å°¿ä¸į åĩº
æ¶Īèŀį æľ¯
å°¿éģĵçĤİ çŃī
åİ»äºĨ åĮ»éĻ¢
çº¢éľīç´ł è½¯èĨı
æ¹¿çĥŃ ä¸ĭæ³¨
éĿ¢å¯¹ çĸ¾çĹħ
èĩªèº«åħįçĸ« æĢ§çĸ¾çĹħ
éĤ£ä¹Īå°±è¦ģåıĬæĹ¶ å¯¹æį¢æ²»çĸĹæĸ¹æ¡Ī
å¯ĨåĪĩ è§Ĥå¯Ł
ä½İçĽĲ ä½İèĦĤé¥®é£Ł
æİĴåĩºæĿ¥ ä½ĵå¤ĸ
æĺİç¡®ç¡®è¯Ĭ åĲİ
æĪĴæİī æīĭæ·«
ç»ĻæĪĳ å¼ĢäºĨ
èĭĶ èĹĵ
åİŁåıĳ çĸ¾çĹħ
èµ¤ å°ıè±Ĩ
åľ¨æ²»çĸĹæľŁéĹ´ æĤ£èĢħéľĢè¦ģåģļ
è´µ å·ŀ
é»Ħè¿ŀ ç´ł
å»ºè®®åİ»åĮ»éĻ¢ æīĭæľ¯çļĦæĸ¹æ³ķ
è¿ĺåı¯ å±Ģéĥ¨
ä¸¥ä»¤ç¦ģæŃ¢ åĲĮæĪ¿
å¿ĥæĪ¿ é¢¤åĬ¨
ä¸İæŃ¤åĲĮæĹ¶æĤ£èĢħè¿ĺè¦ģæ³¨æĦıéĢīæĭ©ä¸Ģå®¶ ä¸ĵä¸ļåĮ»éĻ¢
ä¸İæŃ¤åĲĮæĹ¶æĤ£èĢħè¿ĺè¦ģæ³¨æĦıéĢīæĭ©ä¸Ģå®¶ ä¸īçĶ²åĮ»éĻ¢è¯Ĭæ²»
åľº æīĢ
ç¦ģåĲĥè¾Ľè¾£éħĴ çŃīåĪºæ¿ĢæĢ§é£Łçī©
æł¸æ¡ĥ ä»ģ
åĴ¸ é¸ŃèĽĭ
å¼¯ èħ°
æĺ¯å®¹æĺĵ å¾ĹåĪ°ç¼ĵè§£çļĦ
æľīæķĪæŀľ åĲĹ
æĻļä¸ĬçĿ¡è§ī çļĦæĹ¶åĢĻ
åĤ¬ ä¹³
åıªæľīè¿Ļæł·æīįèĥ½éĻįä½İ æĤ£èĢħçļĦåħįçĸ«åĬĽä»¥åıĬæĬĹè¡¡çĸ¾çĹħçļĦä¿¡å¿µ
å¼Ģé¢ħ æīĭæľ¯
å¤ĸçķĮ åĽłç´ł
æ¡ĳ èĳļ
èĤīèĬ½èĤ¿ æĢ§
çľ¼ç§ĳ æ£ĢæŁ¥
éĿĻèĦīæ»´æ³¨ å¤§éĩıæĬĹçĶŁç´łæ²»çĸĹ
å°Ħé¢ĳæ¶Īèŀį æľ¯
éĺ¿æīĺ åĵģ
æĤ£èĢħæľĭåıĭä»¬åºĶè¯¥åģļåĪ° ç§¯æŀģå¯¹çĹĩæ²»çĸĹ
åĳĭ åĸĥ
ä¸ºä¸»è¦ģ è¡¨çİ°çļĦ
å°½æĹ©å°±åĮ» çļĦ
æľŁæľĽæĤ£èĢħåı¯ä»¥æł¹æį®åĮ»çĶŁçļĦæĦıè§ģ å¯¹çĹĩæ²»çĸĹ
æģ© æĽ¿åį¡
æ¹ĸ åĮĹ
å¤´åŃ¢åħĭ æ´Ľ
ä¸įå¯¹ ç§°
ä¸įå¯¹ åĬ²
æłĢ é»Ħ
åĲĮæĹ¶æĤ£èĢħæĹ¥å¸¸ä¸Ńè¿ĺéľĢè¦ģéĩįè§Ĩ èĩªèº«çļĦæĬ¤çĲĨ
è¾ĥè¿ĳ åĩłå¤©
å»ºè®®æĤ£èĢħå¤ļæ³¨æĦı å§ĭç»Īä¿ĿæĮģå¤ĸéĺ´æ¸ħæ´ģ
çĶ° èŀº
éĹ´è´¨æĢ§ èĤºçĤİ
æ··æĤ¬ åīĤ
è°ģ çŁ¥éģĵ
å¤ļæł· åĮĸ
éĶģéª¨ ä¸ĭ
ä¸įåģľ çļĦ
åŃ©åŃĲæīģæ¡ĥä½ĵ æľīçĤİçĹĩ
åĽ´æīĭæľ¯ æľŁæĬ¤çĲĨ
èĤĭéĹ´ ç¥ŀç»ıçĹĽ
èĲĺ æĻ®çĶŁ
é¢ħåĨħåİĭ å¢ŀé«ĺ
ç»Ĵæ¯Ľ èĨľ
ç¡Ŀèĭ¯åľ°å¹³ ç¼ĵéĩĬçīĩ
ä¸įè¦ģä¹± æ²»
é¥¼ å¹²
èĬĤèĤ² åĻ¨
åĽ´æľ¯ æľŁæĬ¤çĲĨ
ä¸¢ å¤±
å¯¹çĶ·æĢ§ çļĦä¼¤å®³æ¯Ķè¾ĥå¤§
äºĮæ°§åĮĸ ç¢³
ä¿Ĺ ç§°
è¯·å°Ĩ æľ¬åĵģ
æ¯Ķè¾ĥåİīå®³ çļĦè¯Ŀ
ä¸ĬåºĬ çĿ¡è§ī
éľĢè¦ģåĪ°åĮ»éĻ¢ åģļè¿ĩ
æĪĳä»¬åºĶè¯¥ ç§¯æŀģ
éªĮåŃķ æ£Ĵ
ä¸ĻæĪĬ éħ¸éĴł
åŁºåºķèĬĤ åĮº
ä½İåĪĨåŃĲ èĤĿç´ł
ç«ĭä½ĵ å®ļåĲĳ
å¦ĤæŃ£åľ¨ ä½¿çĶ¨
æ»´èĢ³æ¶² åĮ»æ²»
ä¼ģ ä¸ļ
é«ĺå°¿éħ¸ è¡ĢçĹĩ
æľŁéĹ´æ³¨æĦı è®©åŃ©åŃĲåħħåĪĨä¼ĳæģ¯
åħĭæŀĹ éľīç´ł
æĭīè¥¿ åĿ¦
ç´«æĿī éĨĩ
çļĦåıĳçĹħæľºåĪ¶ æĺ¯ä»Ģä¹Ī
éĶģå®ļ éĴ¢æĿ¿
ä¸ŃåĽ½å¤§éĻĨ çļĦ
å°´ å°¬
æ²»çĸĹæľŁéĹ´ä»¥ æµģé£Łä¸ºä¸»
ç§ĭæ°´ä»Ļ ç¢±
åĲĪçĲĨçļĦé¥®é£ŁåĴĮ ä½ľæģ¯ä¹łæĥ¯
éĻįéĴĻ ç´ł
æľĢå¥½ç¥Ŀä½ł çĹħæĥħåº·å¤į
å§ĭç»Īä¿ĿæĮģæģ°å½ĵé¥®é£Ł çļĦå¥½ä¹łæĥ¯
çģµéŃ Ĥ
ä¸İæŃ¤åĲĮæĹ¶ä¹Łè¦ģæ³¨æĦıç»ĻåŃ©åŃĲå®īæİĴ åĲĪçĲĨçļĦé¥®é£ŁåĴĮä½ľæģ¯ä¹łæĥ¯
åľ¨æ²»çĸĹæľŁéĹ´æĤ£èĢħéľĢè¦ģåģļ çļĦé¥®é£ŁæľīèĬĤ
å»ºè®®åİ»åĮ»éĻ¢æīĭæľ¯çļĦæĸ¹æ³ķ è¿Ľè¡Įæ²»çĸĹ
ä¸İæŃ¤åĲĮæĹ¶æĤ£èĢħè¿ĺè¦ģæ³¨æĦıéĢīæĭ©ä¸Ģå®¶ä¸ĵä¸ļåĮ»éĻ¢ è¯Ĭæ²»
æģ©æĽ¿åį¡ éŁ¦
2 50
6 1
7 1
C E
L I
P C
R NA
S S
W I
a m
c l
o d
¨ èı
ª ç¢±
ĥ èŁ¹
Ĺ éħĴ
çļĦ å¤ļ
çļĦ è¿Ľè¡Į
çļĦ æ³Įå°¿å¤ĸç§ĳ
çļĦ éĤ£ç§į
äº «
åĲ ²
ãĢĤ ?
æ² ģ
æ² Ĳ
æľī çĻ«çĹ«
æľī éĺ´éģĵçĤİ
æľī åŃĲå®«èĤĮçĺ¤
è¿ Ŀ
æ²» ä¸įå¥½
å° Ĭ
æĹ ¬
ä¸į åĸĿ
ä¸į å¼ł
ä¸į å½»åºķ
ä¸į éĨĴ
ä¸į åĩºçļĦ
æ²»çĸĹ å°ıåĦ¿
æ²»çĸĹ æīĭæ®µ
æ²»çĸĹ æ¯Ķè¾ĥéº»çĥ¦
æĢ§ åıĳä½ľ
æĢ§ èĤĿç¡¬åĮĸ
è¯ į
ä¸Ģ ä½į
è¦ģ å®Ŀå®Ŀ
ä»Ģä¹Ī æĸ¹æ³ķ
ãĢģ âĢľ
åº §
æĹ¶ å°±
å¤ļ åħ³æ³¨
èĥ½ æ´»
èĥ½ æıĲé«ĺ
èĥ½ å¸®åĪ°ä½ł
è¡Ģ çĥŃ
è¡Ģ æ²ī
åį ĸ
é£Ł çĽĲ
åı¯ä»¥ åİ»åĮ»éĻ¢
åı¯ä»¥ å±Ģéĥ¨
åı¯ä»¥ æĶ¹åĸĦ
æ£Ģ åĩº
åľ¨ åŃķ
åľ¨ åĵªéĩĮ
åľ¨ åºĬä¸Ĭ
ä½ĵ èĻļ
ä¼ļ ç»Ļ
ä¼ļ æħ¢æħ¢
æīĭ å¿ĥ
æĪĳ çŁ¥éģĵ
è¿Ļ æĺ¯ä»Ģä¹ĪçĹħ
è¿Ļ åĩłç§į
æĤ£èĢħ åĩºçİ°
æĤ£èĢħ çļĦçĹĩçĬ¶
æĤ£èĢħ èĩªèº«çļĦ
æĤ£èĢħ çĶŁåĳ½
åĴĮ çĿ¾ä¸¸
åĴĮ å¥³æľĭåıĭ
å¿ĥ åı£
å¿ĥ æ¢Ĺ
å¤§ éª¨çĵ£
ä½ł å®¶
ä¸Ń æļĳ
å¯¹ æ²»çĸĹ
å¯¹ æĪĳ
å¯¹ æĢĢåŃķ
å¯¹ æĢ§çĶŁæ´»
ä¸ĭ éĥ¨
ä¸ª å°ı
ä¸Ĭ æ®µ
ä¸Ĭ å¹¼åĦ¿åĽŃ
åĲĥ çĿĢ
å°± æľīçĤ¹
éħ ĹéħĴ
ä¸º åİŁåĪĻ
åīį çļĦ
åīį æľī
å°ı æīĭæľ¯
æĿ¥ ä¸Ģæ¬¡
è¿ĩ çļĦ
è¿ĩ ä¹ħ
è¿ĩ æ¸¡
ç² Ł
åĨħ çĥŃ
åĨħ çĺĺ
çŃī å¹¶åıĳçĹĩ
åĪ° ä»Ĭå¤©
ä¹Ł éľĢè¦ģ
ä¹Ł ä¸įè¦ģåĲĥ
æĪĸ æīĭæľ¯
æĪĸ åĩºçİ°
éĩį åºĨ
éĩį ä½ĵåĬĽåĬ³åĬ¨
åĲĪ ä¹İ
è¿ĺ éľĢ
è¿ĺ è¯´
è¿ĺ æľª
äºº åı£
äºº éĥ½
å»ºè®® æĢ¥æĢ§çĤİçĹĩ
å¤© åĨ·
é«ĺ åħ´
åģļ æ²»çĸĹ
å°¿ ç³ĸ
åİ» å¤įæ£Ģ
éľĢè¦ģ æŃ£ç¡®å¯¹å¾ħ
éķ¿ çĹĺçĹĺ
æ²¡ äºĨ
æ²¡ åħ³ç³»
çĺ¤ æł·
çĺ¤ çļĦä¸´åºĬè¡¨çİ°æľīäºĽä»Ģä¹Ī
å®« èħ¹èħĶéķľ
æĺ¯ä»Ģä¹Ī æł·çļĦ
èĤĿ çģ«
åĲĮ ä¸Ģ
åĲĮ é¾Ħ
æĹł åľ¨ä¹İæĢİæł·çļĦå¸®åĬ©
æĹł æĦıä¹ī
å¾Ĺ ä¸į
å¾Ĺ ä¸¥éĩįçļĦçĸ¾çĹħ
æĤ¨ è¯´çļĦ
èĦĳ çĶµ
èĢĮ æĿ¥
èĢĮ åıĳçĶŁ
èĢĮ äº§çĶŁ
åŃ©åŃĲ æĺ¯
åŃ©åŃĲ åİ»åĮ»éĻ¢
åŃ©åŃĲ è¯´èĩªå·±
åŃ©åŃĲ å¦Ĥæŀľæĺ¯ä»¥
çľĭ ä¸įè§ģ
çľĭ ä¸Ĭåİ»
åİŁ æľī
éĻ¤ å¤ĸ
çĻ½ æŀľ
çĻ½ æīģè±Ĩ
å¹¶ åı¯
ä¿Ŀ æ¸©
ä¸ĢèĪ¬ è·Ł
èĬ ¯
æ°Ķ åĢĻ
æ°Ķ éĽ¾åīĤ
æ¯Ķ ä»¥åīį
èĤł å¤ĸ
ä¸Ķ æľī
ä½Ĩ ä»¥
ä½Ĩ çİ°åľ¨
ä½Ĩ ä¸įæĺ¯
éª¨ çĹĽ
éª¨ åĪº
åĨį åĬłä¸Ĭ
æł¹ æºĲ
æīĢ éľĢ
æīĢ å¯¼èĩ´çļĦ
èĤ¾ æįŁå®³
èĤ¾ æ´»æ£Ģ
èĤ¾ äºı
é» Ľ
è§ģ çº¢
æĬĹ æ°§åĮĸ
æµģ å¹²åĩĢ
åħ¶ çĹĩçĬ¶
ä½İ åĩºçĶŁ
ä½İ åĪĨåĮĸ
èıĮ æĦŁæŁĵ
çļĦæ²»çĸĹ ä¸»è¦ģæĺ¯
çļĦæ²»çĸĹ æīĭæ®µ
åŃ¦ èĢħ
æĺĵ æ¿Ģ
å²ģ å¥³
å²ģ å°ıåŃ©
å¥³ æĤ£èĢħå¹´é¾Ħ
åĬŀ åħ¬
ä¸įè¦ģ åĸĿéħĴ
åħ¨ åĪĩ
æ¯Ĵ è¡ĢçĹĩ
è¿Ľè¡Į å¯¹çĹĩæ²»çĸĹ
çĶ· åıĭ
çīĩ åŃĲ
æīį åı¯
æĹ¥ ä¹ħ
åīįåĪĹ éĨĩ
å®Ŀå®Ŀ çİ°åľ¨
çŁ¥ è§ī
å¼Ģ æľĹ
å¸¦ å¥¹
é»Ħ éĤ£æķı
å¹² ä¸įäºĨ
åĳ¨ äºĨ
ç¥ŀç»ı åĨħåĪĨæ³Į
çĥŃ æĢ§
çĻ«çĹ« æĺ¯
çĻ«çĹ« çĹħåıĳä½ľ
ä¸»è¦ģ è¡¨çİ°
åĲ¸ è¿Ľ
é¢Ħ è§ģ
éľĢè¦ģæľī æ³¨æĦı
èĢĮä¸Ķ æľī
å¹³æĹ¶ ä¸Ģå®ļè¦ģæ³¨æĦı
æİĴ èŀºæĹĭCT
ä¸¤ å¯¹åįĬ
èĤ¿çĺ¤ çļĦä¸´åºĬè¡¨çİ°æľīäºĽä»Ģä¹Ī
ç³» æĮĩ
ä¸ªæľĪ åĨħ
å¯¹çĹĩ åĬ¨çĶ¨èį¯çī©
èĤī çĺ¤çļĦ
å¥½çļĦ å¿«
åľ° è´«
åıª éľĢ
å¡ Į
è¥¿ æ³®
å¦Ĥä½ķ è§£åĨ³
åı£æľį ä¸ĢäºĽ
çĤİçĹĩ åĪºæ¿Ģ
çĤİçĹĩ å¼ķèµ·çļĦ
ä¸ĢäºĽ æ¬¡
é¼ ¾
éĻį èĦĤ
éĻį è¡ĢèĦĤ
ç»Ħ åĮĸ
çľ¼ éķľ
è½¬ ä½į
æŀģ åº¦
åĽłç´ł å¼ķèµ·çļĦ
éĿĻ æŃ¢
è¿ĺæĺ¯ å»ºè®®è¦ģ
èĩªå·± å¾ĹäºĨ
å¼ł åı£
æīĢä»¥ åľ¨
æīĢä»¥ å°±
ä¸įæĺ¯ å¤ª
è½» æĺĵ
è½» åŀĭ
èĥ¸ å¤ĸç§ĳ
èĥ¸ èĨľçĤİ
èĥ¸ å»ĵ
å·¦ æ°§
æħ¢æĢ§ ç»ĵèĤłçĤİ
èĩªèº« ç§ģå¤Ħåį«çĶŁ
èĽĭ èĬ±
éĺ²æŃ¢ åĪºæ¿Ģé£Łçī©
éĺ²æŃ¢ å¯ĴåĨ·é£Łçī©
è§Ĩ çī©
è¿Ļç§įæĥħåĨµ åı¯èĥ½æĺ¯
æģ¢å¤į å¿«
åĵªäºĽ æ£ĢæŁ¥
æľįçĶ¨ ä¸ĢäºĽ
æľĢå¥½ åıĬæĹ¶
æľĢå¥½ æīĭæľ¯æ²»çĸĹ
ç»¼åĲĪ æĬ¤çĲĨå¹²é¢Ħ
éļ¾ äº§
è¶³ éĩıçļĦ
éģ¿åħį æļ´é¥®æļ´é£Ł
åĽłä¸º æĪĳ
ç¡¬ ç»ĵ
çİ¯ çĬ¶
ç»ĵæŀľ æĺ¾ç¤º
ç¥Ŀ ç¦ı
å¯¹äºİ åĮħçļ®
å¯¹äºİ ä¸įèĤ²
éļľç¢į çļĦè¾ħåĬ©æ²»çĸĹæľīäºĽä»Ģä¹Ī
æİ§åĪ¶ åıĳä½ľ
åħįçĸ« åĬŁèĥ½ç´Ĭä¹±
ï¼ī ï¼ļ
çĶ¨èį¯ éĩı
çĶµ çĶŁçĲĨ
åį± è±¡
æľº åĻ¨
æ¸© éĺ³
æŃ£è§Ħ æ²»çĸĹçļĦåĲĮæĹ¶
ç»´çĶŁç´ł åĴĮ
æ¿Ģç´ł åħŃé¡¹
çļ®èĤ¤ å¹²çĩ¥
ä¹³èħº ç»Ħç»ĩ
ä¸ŃåĮ» æķĳæ²»
å®¤ éĹ´éļĶç¼ºæįŁ
å®¤ æĢ§æĹ©æĲı
åħ³èĬĤ çĹĽ
åħ³èĬĤ åĨħ
æ°§ çĸĹ
éķ¿æľŁ åĿļæĮģ
èİ ¨èı
éĺ» èĤº
å¤§ä¾¿ ä¸į
éĢĢ åĮĸ
çī¹åĪ« ä¸¥éĩį
å»ºè®®ä½ł åİ»åĮ»éĻ¢
åħĭ å®ģ
çĹħåıĳ æĹ¶éĹ´
å¢ŀå¼º åħįçĸ«åĬĽ
æľīä»Ģä¹Ī æĸ¹æ³ķ
ç¡®è¯Ĭ äºĨ
å·¥ä½ľ åİĭåĬĽ
çĿ¾ä¸¸ çĸ¼
æĤ£èĢħçļĦ çĶŁåĳ½
ç±³ ç²ī
å¾Īå¤ļ æĸ¹éĿ¢
ä»¥ä¸Ĭ æĸ¹æ³ķ
åĿĹ çĬ¶
ç»¼åĲĪå¾ģ çļĦçĹħåĽłæĺ¯ä»Ģä¹Ī
20 15
éĩĳ æ¨±åŃĲ
åı¦å¤ĸ åı¯ä»¥
æĽ² çº¿
çļĦèį¯çī© å¦Ĥ
è®© å¥¹
è¢« åĬ¨
æ³¨å°Ħ èĥ°å²Ľç´ł
åıĳä½ľ æĢ§
æĮī çĸĹç¨ĭ
æĶ¶ èĹı
ç»ĨèıĮ æĪĸ
å¸ĮæľĽ ä½ł
å¸ĮæľĽ å®¶éķ¿
èŀ ĥèŁ¹
èĦ¾ å¤§
æ´»åĬ¨ åıĹéĻĲ
å°¤ çĶļ
ç¾¤ åľ°å¹³
é² į
éĺ´èĮİ ä¸įèĥ½å¤Łåĭĥèµ·
è§Ĥå¯Ł åĪ°
ç¨³å®ļ çĹĩçĬ¶
é¦ĸåħĪ æĤ¨
åıĳè§ī äºĨ
ä¼ļæľī ä¸Ģå®ļçļĦ
æ²Ļ åĪ©
å©ļ åĲİ
çº¦ æľī
åĩī çļĦ
ä¹ĻèĤĿ è¡¨éĿ¢
ä¹Łä¸į å¤ªå¥½
æĻļä¸Ĭ çĿ¡åįĪè§ī
ç²ī ç¢İ
æµ· æĭĶ
åħ¨èº« çĶ¨èį¯
é»ĳ æŀ£
æ¯ıå¤© æĹ©ä¸Ĭ
éĤ£ä¹Ī æł¹æį®
éĤ£ä¹Ī å°±éľĢè¦ģ
éĤ£ä¹Ī ä¹Łåı¯æľįçĶ¨
åıĬæĹ¶æ²»çĸĹ çĸ¾çĹħ
åıĻè¿° æĿ¥çľĭ
çĹħçĲĨ ç»Ħç»ĩ
èľ ķ
ä¸ºä¸» çļĦè¯Ŀ
çķ¸å½¢ çļĦä¸´åºĬè¡¨çİ°æľīäºĽä»Ģä¹Ī
åĲ¬ è§ī
æľīæĹ¶ ä¼ļ
åģļäºĨ ä¸ª
æĸ°çĶŁåĦ¿ çĸ¾çĹħ
å¹²æī° çļĦ
èħ¿ çĹĽ
çĿ¡çľł æĹ¶éĹ´
å¿ĥèĤĮ éħ¶
ç¥ĿæĤ¨ èº«ä½ĵåģ¥åº·
æł¹æį®ä½ł æııè¿°
äºĴçĽ¸éħįåĲĪ ä½¿çĶ¨
çªģçĦ¶ æĻķåĢĴ
èĥĥèĤł åĬŁèĥ½
éĢı æĢ§
çħ§ æĸĻ
åİĭåĬĽ è¿ĩå¤§
ä¹Łæľī åı¯èĥ½
èĤĽéĹ¨ çĺĻçĹĴ
æ±Ĺ èħº
ä¹³æĪ¿ èĤ¿åĿĹ
åħĪå¤©æĢ§ çĸ¾çĹħ
ä¸Ļ éħ¸
æľ¬åĵģ ä¸İ
åī§ çĹĽ
åı¯ä»¥åĲĥ ä¸ĢäºĽ
æľīå¸®åĬ© çļĦ
èĤĮèĤī éħ¸çĹĽ
åı£èħĶ ç§ĳ
åı£èħĶ é»ıèĨľ
æ°¯ æ²ĻåĿ¦
èŀº éħ®
èħ¹èħĶéķľ æīĭæľ¯æ²»çĸĹ
æĪĸæĺ¯ å·²æľī
æĪĸæĺ¯ è¿Ľè¡Įæ¿Ģåħīæ²»çĸĹ
è£¤ åŃĲ
åħ¶å®ŀ æĪĳä¹Łä¸įçŁ¥éģĵ
å®³æĢķ å¾Ĺä¸¥éĩįçļĦçĸ¾çĹħ
æľįèį¯ åĲİ
åıįåıįå¤įå¤į çļĦ
å°¼ ç¾¤åľ°å¹³
æİī äºĨ
åįĹ äº¬
æŃ¤å¤ĸ è¿ĺåı¯å±Ģéĥ¨
èĤ¾èĦı çĸ¾çĹħ
çº§ ç¥ŀç»ıåħĥ
æĳĺéĻ¤ æīĭæľ¯
ä¾Ŀ éĿł
ä½łçļĦæĥħåĨµ æĺ¯
ä½łçļĦæĥħåĨµ èĢĥèĻĳä¸º
è¿ľ å¤Ħ
èĤĿåĬŁèĥ½ è¡°ç«Ń
ä»¥æ¸ħæ·¡ ä¸ºåŁºç¡Ģ
èĬ¬ å¿ħå¾Ĺ
åĻ¨å®ĺ çļĦ
æĤ£èĢħæľĭåıĭ åºĶè¯¥
å®īåħ¨ æĢ§
ä»İèĢĮ è¾¾åĪ°
ç¬¬äºĮ çº§ç¥ŀç»ıåħĥ
å¤ļéķ¿æĹ¶éĹ´ åı¯ä»¥
åĲĥé¥Ń ä¹Łå¾Īå¤ļ
æĥ³éĹ® åĩłä¸ĭ
èĸĦ èį·
ç½Ĺ åĵĮåį¡åĽł
ä»¥éĺ² çĹħåıĳ
æľºä½ĵ æĬµæĬĹåĬĽ
èĵ Ł
é¥± èĥĢ
èĦĳè¡Ģç®¡ çķ¸å½¢
åĮĸåŃ¦ çī©è´¨
èĲ½ åĲİ
ä¹° çĤ¹
åĸ· éĽ¾åīĤ
éĽĨ æĿŁ
æ¸¸ èµ°
ä»ĭåħ¥ æľ¯
æľīå½±åĵį çļĦ
åĹľ å¥½
çĮª èĤĿ
æĴŃ æķ£
çī¹å¾ģ æĺ¯
ä¿Ŀåģ¥ å·¥ä½ľ
è¿ĺåı¯ä»¥ è¿Ľè¡Įä¸ĢäºĽ
æľīæķĪçļĦ ä¼łç»Łä¸Ńèį¯
å±ħ ä½ı
è¡Ģæ¸ħ ä¸Ń
å¿§å¿ĥ çļĦ
è´Ŀ æ²ĻåĿ¦
æ°¢ æ°¯
èĤ© èĨĢ
ä¸¤ä¸ª æĺŁæľŁ
çļĦåĲĮæĹ¶ è¿ĺåı¯ä»¥è¿Ľè¡Įä¸ĢäºĽ
è¿Ľé£Ł åĽ°éļ¾
åĪĩå¼Ģ å¼ķæµģ
çĻ«çĹ«çļĦ åıĳä½ľ
èĤ¡éª¨ é¢Ī
å½Ĵ èĦ¾
ä¸īçĶ²åĮ»éĻ¢ è¯ĬçĹħ
åĽłæŃ¤æĤ£èĢħè¦ģåıĬæĹ¶ èį¯çī©æķĳæ²»
åı¯çĶ¨ çĤ¹
æĪĲäºº çĽĳæĬ¤ä¸ĭä½¿çĶ¨
çĹħæ¯ĴæĢ§ æĦŁåĨĴ
ç»ıçļ® åĨłçĬ¶åĬ¨èĦī
åģľæŃ¢ åıĳèĤ²
å¤«å¦» æĦŁæĥħ
ä¸Ńåº¦ å®«é¢Īç³ľçĥĤ
å¤ı åŃ£
æ³Įå°¿ç³» ç»ĵçŁ³
çī¹çĤ¹ æĺ¯
èĥļèĥİ åģľèĤ²
èĤĿç»Ĩèĥŀ åĨħ
äº§åīį è¯ĬæĸŃ
ä¸įè¦ģåĲĥè¾Ľè¾£ é£Łçī©
ç¾ĬèĤī çŃī
å¤ļé£Ł èĶ¬èıľæ°´æŀľ
é¸Ń èĤī
æĨĭ ä¸įä½ı
ç²Ĵç»Ĩèĥŀ åĩıå°ĳ
æľįçĶ¨èį¯çī© çļĦåĲĮæĹ¶è¿ĺåı¯ä»¥è¿Ľè¡Įä¸ĢäºĽ
æĪª èĤ¢
çļĦä¸Ģ ç»Ħ
æĬĵ ç´§
å¤§èĤł çĻĮ
å¤§èĤł åŁĥå¸Į
æĬ¥åĳĬ åįķ
åħħåĪĨ çļĦ
æ¶ĪéĢĢ äºĮåĳ¨åĲİ
æ½ľ åľ¨
ä¸įè§ĦåĪĻ çļĦ
èĤ¥åİļ æĢ§
æ´¥ äºı
ç®Ģåįķ çļĦ
åİ»åĮ»éĻ¢åģļäºĨ ä¸ª
è®¾ åľ¨
æ£ī è´¨
åĸľæ¬¢ åĲĥ
è¯¥å¦Ĥä½ķæ²»çĸĹ å¥½
çī¹æķĪ èį¯
ç«¹ æ²¥
è®¤çŁ¥ åĬŁèĥ½éļľç¢į
å¿ĥåĮħ çĤİ
å°±æĥ³ åĴ¨è¯¢ä¸Ģä¸ĭ
èºº çĿĢ
æĺ¯å®¹æĺĵ å¾ĹåĪ°æĶ¹åĸĦçļĦ
åĨłèĦī éĢłå½±
å¦ĩç§ĳçĸ¾çĹħçļĦåĩºçİ°ä¸įä»ħä»ħä¼ļå½±åĵį å¦ĩå¥³
é«ĺåº¦ è¿ĳè§Ĩ
æ³¨æĦıåĬĽ ä¸įéĽĨä¸Ń
æ¯Ľç»Ĩè¡Ģç®¡ æī©å¼ł
æĹłæĺİæĺ¾ çĹĩçĬ¶
éķĩéĿĻ åīĤ
çĹħæĥħä¸¥éĩįå°±è¦ģ é©¬ä¸Ĭ
é¥®é£Łè¦ģ æ¸ħæ·¡
æ²¹çĤ¸ é£Łåĵģ
çİĩé«ĺ åĲĹ
åĲİå¤© æĢ§
ç¥ŀç»ıæĢ§ å¤´çĹĽ
å»ºè®®åħĪ åģļ
å»ºè®®æĤ£èĢħåıĬæĹ¶ å¯¹çĹĩæķĳæ²»
CO PD
å»ºè®®æĤ£èĢħå¤ļçķĻæĦı æķĳæ²»æľŁéĹ´éĺ²æŃ¢æĢ§çĶŁæ´»
ä½Ĩæĺ¯çĶ±äºİæĤ£èĢħçĹĩçĬ¶ä¸įåĲĮæīĢä»¥éĩĩçĶ¨ çļĦåĮ»æ²»æĸ¹æ³ķä¹Łå°±ä¸įä¸Ģæł·
æł¹æį®æĥħåĨµ ç»ĻçĤ¹éķĩçĹĽèį¯
èĥİå¿ĥ çĽĳæĬ¤
AB O
æĤ£èĢħæľĭåıĭçĲĨåºĶä¿ĿæĮģèī¯å¥½çļĦå¿ĥæĢģ åİ»çĽ´éĿ¢çĸ¾çĹħ
æŃª æĸľ
ç§įæ¤į ä½ĵ
ä¸ĵä¸ļåĮ»éĻ¢ è¯ĬçĹħ
åª Ĵ
çĽĬæ¯įèįī é¢Ĺç²Ĵ
èħĮ èıľ
éĹ´æĸŃ æĢ§
èĴ² åħ¬èĭ±
ç»ĻçĤ¹éķĩçĹĽèį¯ ç¼ĵè§£çļĦ
ä¸įéľĢ æ²»çĸĹ
åŃ¤ çĭ¬
æĸŃå±Ĥ æī«æıı
ä½Ĩæĺ¯çĶ±äºİæĤ£èĢħçĹħæĥħä¸įåĲĮæīĢä»¥éĩĩçĶ¨ çļĦè¯ĬçĹħæĸ¹æ³ķä¹Łå°±ä¸įä¸Ģæł·
æī¿ åıĹ
åĪĨæµģ æľ¯
éĻ¤äºĨè¦ģé©¬ä¸Ĭ æķĳæ²»å¤ĸ
èĮµ æłĢé»Ħ
åĪ· çīĻ
é¾ĭ é½¿
æľĢè¿ĳå°±æĺ¯ æĩĴå¾Ĺ
åıĺæĢģåıįåºĶ æĢ§
çļĦæĹ¶åĢĻåıĪ ä¸įæĥ³
èĥ¶åİŁ èĽĭçĻ½
æİĴæĸ¥ åıįåºĶ
åħ¨é«ĭåħ³èĬĤ ç½®æį¢æľ¯
ä¼´æľīåıĳçĥ§çļĦæĥħåĨµ çļĦè¯Ŀ
æľīå¾Īå¤§çļĦ åħ³ç³»
æī§ è¡Į
æķ°åŃĹ åĩıå½±
åĸ·åīĤ æĪĸæĺ¯è¿Ľè¡Įæ¿Ģåħīæ²»çĸĹ
å¹» è§ī
å®¿ ä¸»
æĶ» åĩ»
æĬĬæĪĳ æĢ¥æŃ»äºĨ
æ³Įä¹³ ç´ł
åıĮé»Ħè¿ŀ åı£æľįæ¶²
å¦ĤæŀľåŃ©åŃĲå¾ĹäºĨ æīģæ¡ĥä½ĵçĤİ
å»ºè®®æĺ¯åı¯ä»¥ æł¹æį®æĥħåĨµç»ĻçĤ¹éķĩçĹĽèį¯
ç±³ç´¢ åīįåĪĹéĨĩ
èĹ¿é¦Ļ æŃ£æ°Ķ
å¼Ĥä¸Ļ éħļ
æĸ½è¡Į æīģæ¡ĥä½ĵåĪĩéĻ¤æľ¯
åı¦å¤ĸå¦Ĥæŀľ ä¼´æľīåıĳçĥ§çļĦæĥħåĨµçļĦè¯Ŀ
é«ĺçĥ§çļĦè¯Ŀ è¿ĺæĺ¯å»ºè®®è¦ģ
è°·æ°¨ éħ°èĥº
åŃŁ é²ģ
åħģ è®¸
å¯° æŀ¢æ¤İ
åĲ¬ç¥ŀç»ı çĺ¤
åĬ¡å¿ħ å°±åĮ»
åİĦ è´Ŀæ²ĻåĿ¦
æŃ¤æ¬¡ çĹħæĥħ
åłª çĶ¨
æĤ£èĢħè¿ĺéľĢè¦ģæľī å§ĭç»Īä¿ĿæĮģå¿ĥæĥħæĦīå¿«
ç¼ºæ°§ç¼ºè¡Ģ æĢ§èĦĳçĹħ
æ½ľä¼ı æľŁ
åĲĮæĹ¶å¤ļçľĭéĩįèĩªèº«æĬ¤çĲĨ åŁ¹è®Ń
çĹĩåĢĻ ç¾¤
åĬ¨èĦīç¡¬åĮĸéĹŃå¡ŀ çĹĩ
èĤ¥åİļåŀĭ å¿ĥèĤĮçĹħ
æ°¯èĥº éħ®
åıĮé¡¶ å¾Ħ
çĦ¶åĲİåĲĥ çļĦæĹ¶åĢĻåıĪä¸įæĥ³
è¦ģå°½åı¯èĥ½çļĦå¸®åĬ©åŃ©åŃĲ åıĬæĹ¶æ²»çĸĹçĸ¾çĹħ
ç»ĻäºĪèį¯çī© åĸ·åīĤæĪĸæĺ¯è¿Ľè¡Įæ¿Ģåħīæ²»çĸĹ
ä¸Ģä¼ļå°±æĥ³ åĲĥä¸ľè¥¿
è¯·å°Ĩæľ¬åĵģ æĶ¾åľ¨åĦ¿ç«¥ä¸įèĥ½æİ¥è§¦çļĦåľ°æĸ¹
å»ºè®®æĢ¥æĢ§çĤİçĹĩ æ¶ĪéĢĢäºĮåĳ¨åĲİ
å¯¹äºİä¸įèĤ² æĤ£èĢħæĿ¥è¯´
èİ¨èı ªç¢±
å¸ĮæľĽå®¶éķ¿ èĥ½å¤Ł
éĤ£ä¹Īä¹Łåı¯æľįçĶ¨ ä¸ĢäºĽéĢĢçĥ§èį¯
æĪĸæĺ¯å·²æľī å¹¶åıĳçĹĩçļĦ
åħ¶å®ŀæĪĳä¹Łä¸įçŁ¥éģĵ æĺ¯æĢİä¹ĪçļĦ
æŃ¤å¤ĸè¿ĺåı¯å±Ģéĥ¨ ç»ĻäºĪèį¯çī©åĸ·åīĤæĪĸæĺ¯è¿Ľè¡Įæ¿Ģåħīæ²»çĸĹ
æľįçĶ¨èį¯çī©çļĦåĲĮæĹ¶è¿ĺåı¯ä»¥è¿Ľè¡Įä¸ĢäºĽ å±Ģéĥ¨æ²»çĸĹ
æľĢè¿ĳå°±æĺ¯æĩĴå¾Ĺ åĬ¨
å»ºè®®æĺ¯åı¯ä»¥æł¹æį®æĥħåĨµç»ĻçĤ¹éķĩçĹĽèį¯ çļĦ
é«ĺçĥ§çļĦè¯Ŀè¿ĺæĺ¯å»ºè®®è¦ģ å°½æĹ©å°±åĮ»çļĦ
å»ºè®®æĢ¥æĢ§çĤİçĹĩæ¶ĪéĢĢäºĮåĳ¨åĲİ æĸ½è¡Įæīģæ¡ĥä½ĵåĪĩéĻ¤æľ¯
) -
3 00
5 1
9 8
A åŀĭ
L C
N O
V T
p p
t h
t ct
Ġ 10
çļĦ ä¸ĢäºĽ
çļĦ æģ¢å¤į
çļĦ éĢīæĭ©
çļĦ å¢ŀåĬł
çļĦ æľĭåıĭ
çļĦ åıįåºĶ
çļĦ æ¸ħæ´ģ
çļĦ çĬ¶åĨµ
çļĦ èĮĥåĽ´
çļĦ åľ°åĮº
çļĦ ä½įåŃĲ
åı ¥
çĶ Ħ
ä½ Ľ
æľī æīĭæľ¯
æľī æ¯Ĵ
ä¸į æŃ£
ä¸į åģ¥åº·
ä¸į èĪĴ
åħ µ
çĹħ æŃ»çİĩ
æĢ§ åĪºæ¿Ģ
æĢ§ çľ©æĻķ
ä¸Ģ æĸ¹éĿ¢
ä¸Ģ ä»£
è¦ģ åľ¨
è¦ģ åĪ°
åı¯ éĿł
åı¯ éħĮæĥħ
ä»¥ è¾¾åĪ°
ä»Ģä¹Ī ä¸ľè¥¿
æĹ¶ éĴĪ
èį¯ æĢ§
èį¯ åīĤ
å¤ļ è¥¿
å¤ļ æŃĩæģ¯
å¤ļ ä»¥æ¸ħæ·¡é£Łçī©ä¸ºåŁºç¡Ģ
èħ Ĭ
çĹĩ çļĦå½±åĥıåŃ¦æ£ĢæŁ¥æľīäºĽä»Ģä¹Ī
èĥ½ è®©
äºĨ ä¸Ģä¸ª
è¾ ½
åľ ³
è¡Ģ èī²
è¡Ģ åºľ
åį ¤
åį ĵ
éĺ ħ
åĮ» èį¯
åĮ» æĬ¤
æŁ¥ ä¸ª
åı¯ä»¥ å¤ļåĲĥ
åı¯ä»¥ å®ŀæĸ½
åı¯ä»¥ åľ¨åĮ»çĶŁæĮĩå¯¼ä¸ĭ
åĲİ ä½į
éĢ ĥ
åŃĲ æ±¤
æ£ĢæŁ¥ åĴĮæ²»çĸĹ
ä¼ļ å¾Ī
ä¼ļ å¢ŀåĬł
æīĭ æľº
æĪĳ åıĳè§ī
æĪĳ çľŁçļĦ
æĪĳ åĲĮäºĭ
æĪĳ å¼Łå¼Ł
å¦Ĥ åŃ©åŃĲ
è¿Ļ æĹ¶åĢĻ
è¿Ļ æŃ£å¸¸åĲĹ
æĤ£èĢħ æľ¯åĲİ
æĤ£èĢħ æĹ©æĹ¥åº·å¤į
åĴĮ ä¸į
åĴĮ åĮħçļ®
åĴĮ æĢ§çĶŁæ´»
åĴĮ èĤ¾èĦı
åĴĮ éĩĬæĶ¾
å¿ĥ èĦ¾
å¤§ åĬ¨èĦī
å¤§ çİ¯
ä¸Ĭ çĿĳ
æ¶ ¤
åĲĥ æ¶ĪçĤİèį¯
å°± çŁ¥éģĵ
å°± æĽ´
å°± ä¸įèĪĴæľį
ä¸º æŃ¤
åĵ Ħ
åĵ ļ
å¤į æĹ§
åīį äºĽ
åīį å¾Ģ
åīį ä¸īä¸ªæľĪ
çĺ Ł
å°ı åħ³èĬĤ
æĿ¥ å®ļ
è¿ĩ æ°§åĮĸ
çŃī å¤Ħ
çŃī åİŁåĽłå¼ķèµ·çļĦ
ä¹Ł åºĶ
ä¹Ł ä¸įçŁ¥éģĵæĢİä¹ĪåĽŀäºĭ
è¿ĺ å¾Ĺ
éĹ® åį·
äºº æĸĩ
å»ºè®® æľĢå¥½æĺ¯
å»ºè®® åĪ°æŃ£è§ĦåĮ»éĻ¢
å»ºè®® éĢīçĶ¨
çĹĩçĬ¶ åĬłéĩį
çĹĩçĬ¶ å¦Ĥæŀľæĺ¯ä»¥
å¤© ä¸º
æ°´ åĴĮ
å°¿ çŃīå¾ħ
ç»ĵ çĽ´èĤłçĻĮ
æĶ Ģ
ä¿ ¯
å¹´ å¤ļäºĨ
éľĢè¦ģ æ²»çĸĹåĲĹ
ï¼ļ (
åĪĨ ä¸įæ¸ħ
éķ¿ åľ¨
éķ¿ åĩº
éķ¿ é«ĺ
éķ¿ ä¹ħ
æĭ ¦
æĺ¯ä»Ģä¹Ī åĽłç´łæĪĸçĹħåĽł
çŁ ¢
å¦Ĥæŀľ è¦ģ
å¦Ĥæŀľ çİ°åľ¨
å¦Ĥæŀľ ä½łçļĦ
èĩª éĻĲ
èĩª éĶģ
èĩª æĿĢ
è¯Ĭ æīĢ
çĸ¾çĹħ çļĦæİ¨èįĲèį¯æľīäºĽä»Ģä¹Ī
åĲĮ åŀĭ
æŃ£ çķ¸
è¯´ æ³ķ
ç§ĳ å°±è¯Ĭ
èĻ Ĳ
èĩ´ çĹħåĽłç´ł
æĤ¨ çİ°åľ¨
èĦĳ ç¼ºè¡Ģ
èĦĳ çĻ½è´¨
åŃ©åŃĲ åı¯çĶ¨çĤ¹
åı£ åĳ³
çľĭ åĩº
åİŁ å§ĭ
çĻ½ èĬį
ç²¾ æ²¹
èħ¹ èĤĮ
æ¿ ¡
å°ĳ ç²¾
å¤´ èĥĢ
ä¿Ŀ åĴĮ
ä¸ĢèĪ¬ éĥ½
ä¸ĢèĪ¬ ä¸İ
ä¸ĢèĪ¬ èĢĥèĻĳ
ä¸ĢèĪ¬ éĩĩåıĸ
ä¸ĢèĪ¬ æĺ¯çĶ±äºİ
å¹³ åı°
å¹³ èºº
è¯· ä½ł
æ°Ķ æĢ¥
èĤł åŃĲ
ä¸Ķ åģıé»Ħ
ä½Ĩ èĭ¥
åĨį å¯¹çĹĩæ²»çĸĹ
èĥĥ åĨħ
å½ĵ åĪĿ
æ¶Ī çĺ¤
èĤ¾ éĺ´
åİĭ çĸ®
è§£ éĥģ
èĨľ ä¸ĭ
æĬĹ ç²¾åŃĲ
è¯·éĹ® æĺ¯æĢİä¹ĪåĽŀäºĭ
ä½İ ä½į
ä¹³ çĻ½èī²
è°ĥ æŁ¥
åıĺ çĻ½
è¯¥ åĲĥä»Ģä¹Īèį¯
æĸ¹æ³ķ æľīä»Ģä¹Ī
æĦŁæŁĵ ä¼ļå¯¼èĩ´ä»Ģä¹Īæł·çļĦç»ĵæŀľ
æĥ³ åĲĥ
éħ¸ èĥĢ
ä½łå¥½ æł¹æį®ä½łçļĦæııè¿°
åĮħ åĲ«
è¶ħ éĩį
èĤº éĹ´è´¨
èĤº èħºçĻĮ
æł¹æį® çĹħåĽł
èĲ ¨
çĶ² åŀĭ
äºĭ å®ŀ
è¿ĳ ä¸Ģå¹´
æĺĵ å¤įåıĳ
æŃ¢ çĹĴ
ä¹ĭ çĹĩ
èī¯ æĢ§çĸ¾çĹħ
æ¯Ĵ çī©
è¿Ľè¡Į æŃ£è§Ħæ²»çĸĹ
ç§¯ é£Ł
èĤĮ çĤİ
èĤĮ èĲ¥åħ»ä¸įèī¯
æ¯Ķè¾ĥ ä½İ
å½±åĵį é£Łçī©
å½±åĵį æ¯Ķè¾ĥçļĦ
åİŁåĽł ä¸įæĺİ
æĹ¥ åĲİ
æĹ¥ åĴ³
æĮĩ åĩº
å®Ŀå®Ŀ æĭīèĤļåŃĲ
å®ŀ è´¨æĢ§
çİ°åľ¨ æĦŁè§ī
èħĶ éĿĻèĦī
å¸¦ çĺ¤
é»Ħ èĬ©
çī¹ ç½Ĺ
å¹² éªº
å¿« æĦŁ
ç¥ŀç»ı çļĦ
ç¥ŀç»ı æºĲæĢ§
ç¥ŀç»ı éĺ»æ»ŀ
çĥŃ çļĦ
çĥŃ æ¯Ľå·¾
æ²¡æľī åĬŀæ³ķ
è¿Ļä¸ª çĹħçļĦ
åĲ¸ æ¯Ĵ
èĢĮä¸Ķ æĺ¯
å¹³æĹ¶ çļĦæĹ¶åĢĻ
å¹³æĹ¶ å¤ļåĲĥ
å¹³æĹ¶ ä¸Ģå®ļè¦ģ
å¹³æĹ¶ ä¹Łè¦ģæ³¨æĦı
æİĴ çķ¸
ä¸¤ åĪĨéĴŁ
ç±» èį¯
èĢĥèĻĳ åı¯èĥ½æĺ¯
åķ °
æĢİä¹ĪåĬŀ å¥½
åĲĮæĹ¶ äºĴçĽ¸éħįåĲĪ
åĲĮæĹ¶ è¦ģä¿ĿæĮģ
åŃĲå®« èħº
æľĢè¿ĳ èĢģæĺ¯
çļĦè¯Ŀ å®¶éķ¿
çĽ¸ éĤ»
å¥½çļĦ çĶŁæ´»
éĺ´éģĵ çĹīæĮĽ
ç¾ ŀ
å¦Ĥä½ķ è¯Ĭæ²»
å¤± è¡Ģ
æ¯ı åĪĨéĴŁ
çľ¼ çĹħ
çľ¼ èĬ±
çľ¼ å¤ĸä¼¤
è½¬ æį¢
è¯ĬæĸŃ æĺ¯ä»Ģä¹Ī
æĦŁè§ī æľī
æĦŁè§ī æľīçĤ¹
éĿĻ åħ»
åħ¥ çĽĨ
è¿ĺæĺ¯ ä¸įèĪĴæľį
åĩºè¡Ģ æĹ¶éĹ´
åĩºè¡Ģ çļĦè¾ħåĬ©æ²»çĸĹæľīäºĽä»Ģä¹Ī
å°±æĺ¯ è¦ģ
å·¦ èĦļ
èĪĴ ç¼ĵ
åĴ³ åĸĺ
æľĢå¥½ éĢīæĭ©
ä¸ĢçĽ´ éĥ½æĺ¯
ä¸ĢçĽ´ ä»¥æĿ¥
è¿Ĳ è¡Į
æĪĸèĢħ é©¬ä¸Ĭ
åĽłä¸º æľī
åı³ èĤ¾
å¾ģ è±¡
çİ¯ å½¢
å¤ª çŁŃ
æĢ¥æĢ§ èĤłèĥĥçĤİ
æĢ¥æĢ§ èĤ¾åĬŁèĥ½è¡°ç«Ń
æĢ¥æĢ§ èĥĥèĤłçĤİ
å¯¹äºİ åīįåĪĹèħºçĤİ
æĢ§çĶŁæ´» çļĦæĹ¶åĢĻ
èĢ³ èľĹ
åĪĻ æĺ¯
åħįçĸ« æĬĳåĪ¶
åħįçĸ« ç»ĦåĮĸ
ï¼ī ,
åĪ© åŁ¹
å¾ĹäºĨ çĻ«çĹ«çĹħ
ä»İ äºĭ
ç§¯æŀģ é¢Ħéĺ²
ç§¯æŀģ åĲĳä¸ĬçļĦ
åįķ ä¸ª
æīĵ è¿ĩ
å¿Į çĶ¨
æ¿Ģç´ł æİĴæ³Ħ
æĽ´ æĶ¹
éªĮ åħī
æ¹ ¾
åıĸ çİ¯
è¯ķ åŃķ
åı¯èĥ½æĺ¯ åĽłä¸º
æĺİæĺ¾ åįĩé«ĺ
æĹ©æľŁ æīĭæľ¯
éĴĻ çļĦåĲ¸æĶ¶
éķ¿æľŁ æ²»çĸĹ
åĶ ®
èİ ±
åıĮ éĩį
ç»ıå¸¸ ä¼ļåĩºçİ°
éĹ¨ èĦī
åį³ ä¸º
éĢĢ åıĺ
åħĭ æ°ı
å¢ŀå¼º ä½ĵèĤ²éĶ»çĤ¼
åĽĽ å²ģ
åĽĽ çī©æ±¤
ä»¥åıĬ æķĳæ²»
æł¸ éħ¸
çĿ¾ä¸¸ çĶŁç²¾
æĤ£èĢħçļĦ çĹħæĥħ
éĿŀå¸¸ éĩįè¦ģ
ç´§ åĲĹ
ç±³ ç²Ĵ
ç±³ é¥Ń
çĸ¾çĹħçļĦ çĹħåĽłæĺ¯ä»Ģä¹Ī
å½»åºķ æ²»çĸĹ
åıĳçĥ§ ä¸įéĢĢ
æľīåħ³ åĲĹ
ä¸įå¥½ æĦıæĢĿ
ç»¼åĲĪå¾ģ çļĦæīĭæľ¯æ²»çĸĹæľīäºĽä»Ģä¹Ī
éĩĳ é»Ħ
èĤ¥ èĤī
è®¤ çľŁ
åħ¶ä»ĸ åİŁåĽł
çŁŃ æķĪ
å¿ĥèĦı è¶ħå£°
åºĶå½ĵ æĢİä¹ĪåĬŀ
çļĦèį¯çī© åĴĮ
æĺİç¡® ä¸Ģä¸ĭ
æĺİç¡® åħ·ä½ĵ
ä»¥åħį éĢłæĪĲ
è¢« æŁ¥åĩºæĿ¥
éĺ¿ å¾·
åĿĩ ä¸º
é¦ĸ ä¹Į
è¾¾ åħĭå®ģ
è£Ĥ åı£
æĮī æİĴ
ä¸įèĪĴæľį çļĦ
è¯ģ æį®
è¯ģ çļĦæİ¨èįĲèį¯æľīäºĽä»Ģä¹Ī
ç¡¬åĮĸ åīĤ
èĦĤèĤª éħ¸
æĤ£èĢħåľ¨ ç§¯æŀģæ²»çĸĹä¹ĭå¤ĸ
éĺ´èĮİ æµ·ç»µä½ĵ
æĶ¹åĸĦ çĹħæĥħåıĬåº·å¤įçļĦåĩłçİĩéĥ½éĿŀå¸¸å¤§
çļĦæ²»çĸĹæĸ¹æ³ķ æĺ¯
æĻļæľŁ äºĨ
å»¶ è¯¯
ç¨³å®ļ æĢ§
åħĥ æ°Ķ
åħĥ å·¦åı³
åħ¬ æĸ¤
éĻįä½İ çĶŁæ´»è´¨éĩı
èĥ° å¤´
çīĻ é«ĵ
ä¹ĻèĤĿ äºĶé¡¹
åĭĥèµ· çļĦ
åĭĥèµ· åĽ°éļ¾
åī¯ åıįåºĶ
åħ¨èº« çĹĽ
åħ¨èº« æĬ½æĲĲ
èģĶåĲĪ çĶ¨èį¯
å¾Ģ å¤į
æ¯ıå¤© çĶ¨
å°Ĩ æĿ¥
ä½ĵè´¨ èĻļå¼±
äººæµģ æĤ£èĢħæ³¨æĦıèĩªèº«æĬ¤çĲĨ
äººæµģ æĸ¹å¼ıéĥ½ä¼ļ
çĹħçĲĨ ä»Ķç»Ĩæ£ĢæŁ¥
é©¬ è¹Ħ
åĳķåĲĲ çī©
è½¬ç§» çļĦ
çŃĶ å¤į
åĸĺ æ°Ķ
æ·± éĿĻèĦī
æ·± åľ³
å®Įåħ¨ æĢ§
å°Ķ èĴĻ
åĲ¬ è¯Ĭ
åĲ¬ æľĭåıĭè¯´
å»ºè®®æĤ¨ åĪ°æŃ£è§Ħ
çĽĬ èĤł
é±¼ çŃī
åī¯ä½ľçĶ¨ å¤§
åī¯ä½ľçĶ¨ åĲĹ
äºĴçĽ¸éħįåĲĪ æ²»çĸĹ
ä»ĭ å¯¼
æľĪç»ıä¸į æŃ£å¸¸
åĩıä½İ çĹĽèĭ¦
æ°Ł éĨļ
ç»ĵæł¸ æĢ§èĦĳèĨľçĤİ
èĤĽéĹ¨ åĨħ
å¸ĥ éľīç´ł
æĺ¯ä»Ģä¹ĪåİŁåĽł åĳ¢
åĲĥèį¯ åĲİ
ä¸ºä»Ģä¹Ī ä¼ļå¾Ĺ
æ¸Ĳ æ¸Ĳ
åĳĪ éĺ³æĢ§
åºĶçĶ¨ æĬĹçĶŁç´ł
è§£åĨ³ åĬŀæ³ķ
è§īå¾Ĺ å¾Ī
çĸĿæ°Ķ å¸¦
ä¸Ģä¸ªæľĪ åĲİ
ä¹Łåı¯ å±Ģéĥ¨çĶ¨èį¯
åĳ¨åĽ´ è¡Ģç®¡
å¯Ĩ å°ģ
æĽ¿ ç±³
ä¸įè¦ģåĲĥ çĶŁåĨ·
å°Ħç²¾ è¿ĩå¿«
å»ºè®®æĤ£èĢħ åıĬæĹ¶æķĳæ²»
å¯¹çĹĩæķĳæ²» åİŁåĪĻ
è¯¦ç»Ĩ ä»Ķç»Ĩæ£ĢæŁ¥
åıįåıįå¤įå¤į åıĳçĶŁ
ç²¾ç´¢ éĿĻèĦī
æł¹æ²» æīĭæľ¯
çĨŁ åĲİ
èĹ ķ
æĪĳæĺ¯ ä¸ª
èĳ¡èĲĦ èĨľçĤİ
ä¸įä»ħ åı¯ä»¥
çº§ åĪ«
ç®Ĺ æĺ¯
æ²ī éĩį
åıĳå±ķ æĪĲ
å°±ä¸į éľĢè¦ģ
ä¹³å¤´ çĺ¤
ä¹³å¤´ æº¢æ¶²
æħ¢æħ¢ å°±ä¼ļ
ä¼ĺ çĤ¹
èĤłéģĵ åĬŁèĥ½
åıĹåŃķ çļĦ
ä¸ĥ ä¸ªæľĪ
å¹³æĹ¶æ³¨æĦı å±Ģéĥ¨åį«çĶŁ
èĭ¯ çĶ²
å¾®éĩıåħĥç´ł ç¼ºä¹ı
é©¬ä¸Ĭ å°±è¯Ĭ
å¾ªçİ¯ å¾Ģå¤į
æµĵ ç¼©
é¡º æĹ¶éĴĪ
Xçº¿ å¹³çīĩ
éī´ äºİ
éĥ½æľī åı¯èĥ½
èĤ¾èĻļ æĹ©æ³Ħ
çĻĮç»Ĩèĥŀ çĶŁéķ¿
æĺĵæ¶ĪåĮĸ é¥®é£Ł
éķĩçĹĽ ç±»çļĦèį¯çī©
ä¸įå¤ª å¥½çļĦ
å¿Įè¾Ľè¾£ åĪºæ¿ĢæĢ§é£Łçī©
ä¸ĢçĽ´éĥ½ æ²¡æľī
èħ°æ¤İ éĹ´çĽĺ
çĦ¦èĻĳ çĹĩ
çī¹æ®Ĭ æ²»çĸĹ
cm çļĦ
æ¬¡æķ° å¤ļ
æ¬¡æķ° å¢ŀå¤ļ
ä½łçļĦè¿Ļç§įæĥħåĨµåı¯èĥ½æĺ¯ é£İå¯ĴæĦŁåĨĴ
åĮĸåŃ¦ æ²»çĸĹ
åģ¶å°Ķ æľī
å¦¥ å¸ĥéľīç´ł
ä½ĵèĤ² è¿ĲåĬ¨
èŀºæĹĭ ä½ĵ
åĪĨå¨© çļĦ
åıĬæĹ© çļĦ
èĥ½åĲĥ åĲĹ
è®² è¯Ŀ
æĺİæĺ¾çļĦ åŃ©åŃĲåı¯çĶ¨çĤ¹
èĩªè¡Į è½¦
çī¹å¾ģ æĢ§
å¤ļåĲĥæĸ°é²ľ èĶ¬èıľåĴĮæ°´æŀľ
æīŃ è¿ĩ
èĥĨç®¡ çĻĮ
è¡ĢèĦĤ å¼Ĥå¸¸
å¤§æ¦Ĥ æľī
åĲ¸çĥŁ åı²
ä¹Ĳè§Ĥ å¿ĥæĢģ
è¶ĬæĿ¥è¶Ĭ ä¸¥éĩį
è§ĦèĮĥ åĮĸ
åħ¸åŀĭ çĹĩçĬ¶
å¸Ĥ äººæ°ĳåĮ»éĻ¢
å°ĳéĩı çļĦ
ç»ĵæŀĦ å¼Ĥå¸¸
ç»§åıĳæĢ§ çĻ«çĹ«
ï¼Įï¼Į ï¼Įï¼Į
æļĤæĹ¶ æĢ§
å¤įæĿĤ çļĦ
æµ¸ æŁĵ
æµ¸ æ³¡
åıįå¤įåıĳ çĥ§
åģļçĪ± æĹ¶éĹ´
åħ¶ä¸Ń ä»¥
èħĲ ç«¹
ç»ıçļ® ç©¿åĪº
çĭ¬ åĪ°
çº³ å·®
çħİ çĤ¸
åĪĩå¿Į è¿ĩé¥¥æĪĸè¿ĩé¥±
åĵĮ éħ®
åºĶæ³¨æĦı ä»Ģä¹Ī
éĻįåİĭ èį¯çī©
é¢ħèĦĳ CTæ£ĢæŁ¥
é¢ħèĦĳ MRIæ£ĢæŁ¥
æľīä¸Ģå®ļ åħ³ç³»
æĳĦåħ¥ éĩı
åį§åºĬ æŃĩæģ¯
ä¼łæĴŃ éĢĶå¾Ħ
éĢģ åŃ©åŃĲåİ»åĮ»éĻ¢
æĢ§æ¬² åĩıéĢĢ
ï¼ħ ãĢĤ
è¿Ļç§įçĸ¾çĹħä¸įæĺĵ çĹĬæĦĪ
çĸ£ çĬ¶
çĶ·äºº æĹ©æ³Ħ
åı¯èĢĥèĻĳ æīĭæľ¯æ²»çĸĹ
åı¯èĢĥèĻĳ ç»ĻçĤ¹
ç¡®ä¿Ŀ åħħè¶³çļĦæ·±åº¦çĿ¡çľł
å¿µçıł èıĮæĢ§
çļĦçĶŁæ´» æĸ¹å¼ı
åĤ ¨
ä¸īç»´ éĢĤå½¢
çļĦèº«ä½ĵ åĴĮç¾İ
åĪĨåŃĲ å¼ı
å®¶æĹı æĢ§
é«ĺèĽĭçĻ½ é£Łçī©
ä¸įè§ĦåĪĻ åĩºè¡Ģ
èĭĶ èĸĦ
ç¼ĵéĩĬ èĥ¶åĽĬ
æľīéĹ®é¢ĺ åĲĹ
èĥĥéħ¸ åĪĨæ³Į
åĪĨå¸ĥ äºİ
en t
æ®ĭçķĻ çī©
ä¸įè§ģ è¸ªå½±
åºĶåıĬæĹ¶ å°±åĮ»
è¾ĵç²¾ç®¡ éģĵ
å¡« åħħ
ç£·éħ¸ éħ¶
é¡¾ èĻĳ
åİ»æ²»çĸĹ åĳ¢
åı° æ¹¾
ä¸įæ´ģ æĢ§äº¤
åı¯ä»¥ç»ĻåŃ©åŃĲ åı£æľį
çºµéļĶ èĤ¿çĺ¤
çĶ¨èį¯æľŁéĹ´ éĺ²æŃ¢æĢ§çĶŁæ´»
åĪºçĹĽ æĦŁ
65 4
æº´ éĵµ
åİ»åĮ»éĻ¢è¿Ľè¡Į æīĭæľ¯åĮ»æ²»
æ¶ĪèĤ¿ æŃ¢çĹĽ
ç¡¬èĨľ ä¸ĭ
æĪ·å¤ĸ è¿ĲåĬ¨
è¿Ļä¸Ģ çĸ¾çĹħ
æĤ£èĢħåľ¨çĶŁæ´»ä¸Ńè¿ĺéľĢè¦ģæľī æ³¨æĦı
å¦Ĥæŀľä¸įåıĬæĹ¶æķĳæ²»ä¼ļå½±åĵįåĪ° èº«ä½ĵæĥħåĨµ
æĤ£èĢħæľĭåıĭä»¬åºĶè¯¥åģļåĪ° æĹ©åıĳçİ°æĹ©æ²»çĸĹ
éĽ¾åĮĸåĲ¸åħ¥ æ²»çĸĹ
æ·»åĬł è¾ħé£Ł
å¥½çļĦå¿ĥæĥħå¯¹çĸ¾çĹħçļĦ å½»åºķæģ¢å¤į
å°½æĹ©å°±åĮ» äºĨ
æİ¢æŁ¥ æľ¯
Ig G
å¤ļåĽĬåįµå·¢ ç»¼åĲĪå¾ģ
ä¸įç®¡ æĺ¯
è§Ĥæ³¨ èĲ¥åħ»åĿĩè¡¡
èĩªè§ī çĹĩçĬ¶
è¿Ļç±» çĸ¾çĹħ
èĪħ èĪħ
çĶ·æĢ§çĸ¾çĹħ çĹħæĥħæĺĵåıįåıįå¤įå¤į
äºī åıĸ
æĳĩ å¤´
åĬ¡å¿ħè¦ģ åıĬæĹ¶å°±åĮ»
éľĢè¦ģæľīéķ¿æľŁçļĦ åı£æľįèį¯çī©
èĩªåıĳæĢ§ æ°Ķèĥ¸
åŃķåīį æ£ĢæŁ¥
äºĮç»´ è¶ħå£°
æĿ¾è§£ æľ¯
éĢĨè¡Į å°Ħç²¾
èĤĿèĦ¾ èĤ¿å¤§
åĽłæŃ¤æķĳæ²»ä¸Ńä¸Ģå®ļ å¯¹çĹĩåĬ¨çĶ¨èį¯çī©
éĻ¤äºĨæľįèį¯ æķĳæ²»
ä¸¾åĬŀ ä½ĵèĤ²éĶ»çĤ¼
èħŃ è£Ĥ
é¾Łå¤´æķıæĦŁ åº¦
æĴŀ åĩ»
ä¸ĢåĪĩ æŃ£å¸¸
æīģæ¡ĥä½ĵåĨħ èį¯çī©æ³¨å°Ħ
æĤ£èĢħèĥ½èİ·å¾Ĺ ä¸ĵä¸ļæ²»çĸĹ
æĪĳä»¬åºĶå½ĵç§¯æŀģ å®ŀæĸ½ä»Ķç»Ĩæ£ĢæŁ¥
éĺ´éĺ³ å¹³è¡¡
çĹħæĥħå¥½è½¬åĲİ å»ºè®®å¸¦åŃ©åŃĲ
æ·ĭå·´ç»ĵæ¸ħæī« æľ¯
ç²ĺèĨľä¸ĭ èĤĮçĺ¤
æľīèĲ¥åħ» çļĦé£Łçī©
é©¬ä¸Ĭæ²»çĸĹ ä¹ĭå¤ĸ
åŃ©ç«¥ ä¸ŃèĢ³çĤİèĢ³æľµ
åįµç£·èĦĤ å°ıä½ĵ
ä¸ºä¸Ģ çĸĹç¨ĭ
ä¹Łæ²¡æľīä»Ģä¹Ī æķĪæŀľ
åŃ©åŃĲåĩºçİ° æīģæ¡ĥä½ĵçĤİ
çĻ½å¡ŀ æ°ıçĹħ
è¿Ľè¡Įä»»ä½ķä¸Ģç§į äººæµģæĸ¹å¼ıéĥ½ä¼ļ
é¥®é£ŁåĲĪçĲĨ æĲŃéħį
åīĳ çªģ
åıįæµģæĢ§ é£Łç®¡çĤİ
AF P
é¢ł èĮĦ
åħĭç½Ĺæģ© çĹħ
èģĬ å¤©
è¡Ģåıĭ çĹħ
çĸ¾çĹħåıĳçĶŁ åĲİ
åĪ¶éľīèıĮ ç´ł
å°½æĹ©å¸¦åŃ©åŃĲ å°±åĮ»æ²»çĸĹ
å±ŀä¸ĭçļĦä¸Ģä¸ª ç§į
åĦ¿ç«¥å¿ħé¡»åľ¨ æĪĲäººçĽĳæĬ¤ä¸ĭä½¿çĶ¨
åŃ©åŃĲè¯´èĩªå·± èĢ³æľµ
å¯¹äºİåĮħçļ® æĤ£èĢħæĿ¥è¯´
éĤ£ä¹Īå°±éľĢè¦ģ å°½æĹ©å°±åĮ»äºĨ
åŃŁé²ģ åı¸çī¹
åĲĮæĹ¶è¦ģä¿ĿæĮģ æĦīå¿«ä¹Ĳè§ĤçļĦå¿ĥæĢģ
æĪĸèĢħé©¬ä¸Ĭ éĢģåŃ©åŃĲåİ»åĮ»éĻ¢
åĪ©åŁ¹ éħ®
éĺ¿å¾· ç¦ıéŁ¦
æĺİæĺ¾çļĦåŃ©åŃĲåı¯çĶ¨çĤ¹ éķĩçĹĽçļĦèį¯çī©
åı¯èĢĥèĻĳç»ĻçĤ¹ éķĩçĹĽç±»çļĦèį¯çī©
çļĦèº«ä½ĵåĴĮç¾İ å¥½çļĦçĶŁæ´»
çĹħæĥħå¥½è½¬åĲİå»ºè®®å¸¦åŃ©åŃĲ éĢĤå½ĵè¿ĲåĬ¨
- (
0 3
7 9
8 3
C åŀĭ
L e
P BL
a d
e d
n d
o f
p H
x çº¿
² è£Ĥ
Ġ -
Ġ 0
Ġ S
Ġ å¯¹
Ġ ä¸ĢèĪ¬
Ġ çĶ±äºİ
Ġ æĥ³å¾ĹåĪ°æĢİæł·çļĦå¸®åĬ©
ï¼ ĵ
ï¼ ŀ
ï¼Į ï¼Ī
çļ ²è£Ĥ
çļĦ ä¸ª
çļĦ åĨħ
çļĦ èĶ¬èıľ
çļĦ ç»ĨèıĮ
çļĦ åħ·ä½ĵ
çļĦ åĪĨæ³Įçī©
çļĦ åıĳå±ķ
çļĦ åŁºæľ¬
çļĦ åĮºåĪ«
çļĦ åıĺåĬ¨
çļĦ å½¢æĢģ
ä¹ ¡
çĶ ³
ä½ ©
æĺ¯ å®«å¤ĸåŃķ
æĺ¯ èĤ¾èĻļ
æĺ¯ äººä½ĵ
æľī ä¸Ģæ¬¡
æľī ç»ıéªĮ
æĹ ħ
ä¸į åĴĮ
ä¸į åĲĥé¥Ń
ä¸į éĢļçķħ
ä¸į åĸĿåķ¤éħĴ
ä¸į èĢĲåıĹ
ä¸į åĿĩåĮĢ
ä¸į æ»¡æĦı
æ²»çĸĹ åı¯ä»¥
æ²»çĸĹ ä¸Ń
æ²»çĸĹ æĥħåĨµ
æ²»çĸĹ æĹ¶éĹ´
æ²»çĸĹ åĴ³åĹ½
æ²»çĸĹ åĬŀæ³ķ
çĹħ æĪ¿
æĢ§ çĶŁåŃĺ
æĢ§ å¿ĥåĬĽè¡°ç«Ń
æĢ§ çļ®èĤ¤çĹħ
ä¸Ģ æ°§åĮĸ
è¦ģ æĥ³
åı¯ çĶ¨äºİ
åı¯ åıĳçĶŁäºİ
ä»¥ æĺİç¡®è¯ĬæĸŃ
èį Ĩ
çĶŁ èĤĮ
çĶŁ æĢģ
æĹ¶ è¦ģ
åıĳ åŀĭ
åıĳ è¾¾
çĤ Ļ
å¥½ ä¸ĢçĤ¹
èį¯ çĸ¹
å¾ ½
å¤ļ éĩį
å¤ļ å½¢
å¤ļ åıĳçĹħ
å¤ļ çļĦé£Łçī©
å¤ļ åıĳçĶŁäºİ
èĥ½ å¢ŀåĬł
çİ Ľ
åľ £
è¡Ģ è¿Ĳ
çĤİ åĴĮ
æŁ¥ æŁ¥
èĢħ ä¸º
åı¯ä»¥ æ²»
åı¯ä»¥ å¼ķæĿ¥
åı¯ä»¥ åĩıå°ĳ
åı¯ä»¥ éĻįä½İ
æĥħ æĦŁ
åľ¨ æķĳæ²»
åľ¨ æĪĳä»¬
åĲİ è¦ģ
åĲİ å°¿éģĵ
å¸¸ ä¼´
é¢ §
é¢ ļ
æ£ĢæŁ¥ æ²»çĸĹ
ä¼ļ æľīä»Ģä¹ĪçĹĩçĬ¶
æĪĳ å°±æĺ¯
æĪĳ åıĳçİ°
æĪĳ åıĳçİ°èĩªå·±
æĪĳ å¥³æľĭåıĭ
çĬ¶ æĪĸ
è¿Ļ ä¹Łæĺ¯
è¿Ļ æĸ¹éĿ¢çļĦ
ç»ı éĩı
æĤ£èĢħ èĩªèº«
åĴĮ åĲİ
åĴĮ èº«ä½ĵ
åĴĮ åīįåĪĹèħº
åĴĮ è¡Ģç®¡
åĴĮ éĿŀ
åĴĮ æľĭåıĭ
åĴĮ çĶ·æľĭåıĭ
æľŁ çļĦ
å¯¹ åħ¶
å¯¹ é¢Ħéĺ²
ä¸ĭ çĶ²
ä¸Ĭ ä¸įåĩºæĿ¥
ä¸Ĭ èħĶéĿĻèĦī
åĲĥ å¥¶ç²ī
å°± æĦŁè§ī
å°± å·²ç»ı
æīĭæľ¯ è´¹çĶ¨
åīį ç½®
å°ı çº¢çĤ¹
æĿ¥ ç¼ĵè§£
è¿ĩ ç´§
åĨħ å¾Ħ
çŃī ä¸¥éĩį
çŃī éĥ½æĺ¯
çŃī çĽ¸åħ³æ£ĢæŁ¥
å¤ĸ å¼ķæµģ
å¤ĸ æ¼ı
åĮĸ å¦Ĩ
æĪĸ çĸ¼çĹĽ
æĪĸ åĩºè¡Ģ
è¿ĺ ä¼´
è¿ĺ è¦ģçķĻæĦı
éĹ® äºĨ
äºº ä¸º
å»ºè®® è¿Ľä¸ĢæŃ¥
å»ºè®® ç«ĭåį³
å»ºè®® åĪ°åĮ»éĻ¢åģļ
çĹĩçĬ¶ ä¼ļ
é«ĺ åİŁ
é«ĺ æ¸Ĺ
éľĢ åıĬæĹ¶
éľĢ æ±Ĥ
å¾Ī åı¯èĥ½
å¾Ī æĺİæĺ¾
å¾Ī ä¸¥éĩįçļĦ
å¾Ī çĿĢæĢ¥
é¥® æµĵèĮ¶
åģļ ä¸ĭ
åģļ è¯ķç®¡å©´åĦ¿
æľĪ äºĭ
å¼ķ ç§į
å¹´ èĢģ
æ´» ç»Ħç»ĩ
éľĢè¦ģ æīĭæľ¯
éľĢè¦ģ å¤ļéķ¿æĹ¶éĹ´
åĦ¿ èĦĲè´´
éª ļ
åĪĨ åı¶
éķ¿ éª¨
èį¯çī© æĪĸ
æľĢ ä½İ
æľĢ æľīæķĪ
è° µ
æ³¨æĦı åĵªäºĽ
é¥®é£Ł åį«çĶŁ
é¥®é£Ł æİ§åĪ¶
é¥®é£Ł èµ·å±ħ
æĭ ¢
æĭ ¨
æĭ Ń
çĻĮ èĥļ
å¢ ¨
åĲĮ åºĬ
è¯´ æľī
è¯´ å¥¹
å¾Ĺ ä¹Ĳ
å¾Ĺ çĹħäºĨ
èĩ´ æŃ»
èĦĳ åŃĲ
æĪĲ æ´»
åŃ©åŃĲ ä¼ļ
éĻ¤ åİ»
çĻ½ èį¯
çĻ½ é±¼
è¡Į å¾Ĺ
å¯¼ å°¿
å°ĳ å°¿
ä¿Ŀ å¦ĩåº·
åı¯èĥ½ çļĦ
ä½Ĩ ä¸įèĥ½
ä½Ĩ çĶ±äºİ
éª¨ å¤ĸç§ĳ
åĨį çģĮæ³¨
èĥĥ çĹħçļĦ
èĥĥ ä¸įèĪĴæľį
èĤ¾ èĤ¿çĺ¤
éĿ¢ è¯Ĭ
æµģ éĩı
åħ¶ çĹħåĽł
åħ¶ ä½Ļ
ä¸» è§Ĥ
åĮ»çĶŁ åĳĬè¯īæĪĳ
è¯·éĹ® æĺ¯
çĹħæĥħ åĬłéĩį
åıĬæĹ¶ çļĦæ²»çĸĹ
ä¹³ åĪ¶åĵģ
åħ» éĺ´
åıĺ å¼±
æĦŁæŁĵ çļĦä¸´åºĬè¡¨çİ°æľīäºĽä»Ģä¹Ī
å¼ķèµ· åıĳçĥŃ
æĥ³ åİ»
éħ¸ çĸ¼
èĤº çĥŃ
èĤº èĦı
èĤº ä¸įå¼ł
èĲ ¸
çĶ² éĴ´èĥº
ç« ł
å²ģ çļĦæĹ¶åĢĻ
å²ģ ä»¥ä¸ĬçļĦ
é¢Ī èĤ©
ä¹ĭ æīĢä»¥
ä¸įè¦ģ è®©åŃ©åŃĲ
ä¸įè¦ģ ç´§çļĦ
æħ¢ åĴ½
åħ¨ å±Ĥ
ç»Ĩèĥŀ åĨħ
ç»Ĩèĥŀ ç§»æ¤į
ç»Ĩèĥŀ åĽłåŃĲ
èĤĮ çĹħ
èĤĮ éº»çĹ¹
çīĩ åĲĹ
çīĩ èĥ½æ²»çĲĨä»Ģä¹Īçĸ¾çĹħ
çīĩ èį¯çī©çĽ¸ä½ľçĶ¨
æ¯Ķè¾ĥ å¸¸è§ģ
æĸŃ å¥¶
æĸŃ æĸŃç»Ń
æĮĩ çĤ¹
å®Ŀå®Ŀ åľ¨
ä¸ī æ£±
èº«ä½ĵ å¾Ī
å¼Ģ çªį
å¸¦ å¥Ĺ
çī¹ éļ¾åıĹ
å¹² èħĮèıľ
å§ Ķ
ç¥ŀç»ı èĬĤ
ç¥ŀç»ı èĲ¥åħ»
ç¥ŀç»ı èĤĮèĤī
å¯¼èĩ´ æĹ©æ³Ħ
ä»ĸ æĺ¯
æľĪç»ı æĺ¯
ä½ķ ç§į
æľ¬ è´¨
éĶ ¡
å¼Ĥ å±±æ¢¨
é¢Ħ ç¤º
èĢĮä¸Ķ çķĻæĦı
æĢ¥ çĿĢ
å¹³æĹ¶ éľĢè¦ģæľī
å¹³æĹ¶ åºĶå½ĵ
çļĦçĹĩçĬ¶ æľī
ç±» çŃī
åİ»åĮ»éĻ¢ å¤įæ£Ģ
èī² è°±
ä¸įèĥ½ åģıé£Ł
å¼º è°ĥ
å¼º è¿«
çº¢ çĸĻçĺ©
å¸® å¸®æĪĳ
éĺ´éģĵ å£ģ
çĥ§ åĪ°
èĮ ´
å½¢ å®¹
çĽ® çľ©
åı£æľį ä¸Ńèį¯
æĢ» ä½ĵ
éĻį åĪ°
å®¹ è®¸
å®«é¢Ī åı£
åºĶè¯¥ æĢİæł·
è¾Ľè¾£ åĪºæ¿Ģé£Łçī©
èĥĨ éħ¸
çľ¼ èį¯æ°´
è± ļ
æĢĢåŃķ çļĦåı¯èĥ½
è¿ĺæĺ¯ åı¯ä»¥
å© ¶
è¿Ļæł· å°±
æīĢä»¥ ä½ł
æĺ¾ æĢ§éģĹä¼ł
å·¦ å¿ĥæĪ¿
æħ¢æĢ§ éĿŀ
é¢Ħéĺ² æĸ¹æ³ķ
èĥİ èĬ½
æĹ©æ³Ħ äºĨ
è¿Ļç§įæĥħåĨµ å»ºè®®
è¿Ļç§įæĥħåĨµ èĢĥèĻĳæĺ¯
è¿Ļç§įæĥħåĨµ åºĶè¯¥æĺ¯
èĪĴ å·´åĿ¦
å°ıåĦ¿ çļĦ
å°ıåĦ¿ ä¿Ŀåģ¥
æľįçĶ¨ çļĦ
ç»¼åĲĪ çĹĩçļĦ
ä¸ĢçĽ´ æĢĢä¸įä¸Ĭ
è¿Ĳ ä½ľ
éģ¿åħį åıĹåĩī
åĽłä¸º è¿Ļä¸ª
æģ¶ å¯Ĵ
èıľ èĬ±
éĿĻèĦī ä¸Ľ
è¡Ģåİĭ ä¸ĭéĻį
æ¶ĪåĮĸ çļĦ
é¼» çĶ²
å¤ª æŀģ
åĨ· é¥®
ä¸Ģç§į æĪĸ
æĢ¥æĢ§ åĴĮæħ¢æĢ§
åħħ å¡«
éļľç¢į çļĦæİ¨èįĲèį¯æľīäºĽä»Ģä¹Ī
æĢ§çĶŁæ´» åĲĹ
æĢ§çĶŁæ´» è´¨éĩı
ä½łçļĦ çĹħæĥħ
ä½łçļĦ å°ıåŃ©
æĢ»æĺ¯ æľī
ä¸įåĲĮ ä¼ģä¸ļ
é¦ Ī
åĪĻ éľĢè¦ģ
å±Ģéĥ¨ çļ®èĤ¤
å±Ģéĥ¨ çĥŃæķ·
èĥ¶ ä¸¸
åħįçĸ« çĸĹæ³ķ
åıĪ å¼Ģå§ĭ
æıĲ åįĩ
åĽĬèĤ¿ çļĦæīĭæľ¯æ²»çĸĹæľīäºĽä»Ģä¹Ī
æĭī ç±³
è¦ģæ³¨æĦı äºĽä»Ģä¹Ī
èį¯çī©æ²»çĸĹ æĸ¹æ³ķ
èį¯çī©æ²»çĸĹ ä¸ºä¸»
èĩ´ä½¿ åĨįæ¬¡åĩºçİ°
å¯¹çĹĩæ²»çĸĹ çļĦåĲĮæĹ¶
åįĬ å¹´äºĨ
ĠĠ Ċ
åĮĸçĸĹ çļĦ
æľīçĤ¹ æµ®èĤ¿
æľīçĤ¹ ç¨ł
ä¸įä¼ļ æľīä»Ģä¹Ī
ä¸įèī¯ å½±åĵį
çĶ²çĬ¶èħº æīĭæľ¯
å¸¸è§ģ çĸ¾çĹħ
æĺİæĺ¾ å¥½è½¬
è§Ĥ å¿µ
æĹ¥å¸¸ é¢Ħéĺ²
å®¤ æĢ§
æ°§ æ°Ķ
æ°§ åĺ§åķ¶
çĤİçļĦ åĨħçª¥éķľæ£ĢæŁ¥æľīäºĽä»Ģä¹Ī
çĤİçļĦ æ²»æĦĪçİĩæĺ¯å¤ļå°ĳ
æĢİä¹Īæ²»çĸĹ æķĪæŀľå¥½
åı¯èĥ½ä¼ļ åĩºçİ°
ç¦ģ æľ¯
çĹħçļĦ æ£ĢæŁ¥æľīäºĽä»Ģä¹Ī
çĹħçļĦ å°±è¯Ĭç§ĳå®¤æĺ¯ä»Ģä¹Ī
å¤§ä¾¿ çļĦæĹ¶åĢĻ
å¤įåıĳ çļĦ
çĹħäºº æľī
çĹħäºº åľ¨
çī¹åĪ« å¿«
çī¹åĪ« åİīå®³
éĢīæĭ© åĲĪéĢĤ
ä¸Ģå®ļè¦ģ å°½å¿«å¸®åĬ©åĦ¿ç«¥
çªģ èµ·
çĹħåıĳ çļĦ
å¢ŀå¼º CT
åĽĽ ä¸ª
åĽĽ äºĶ
ä¸Ģä¸ª çĸĹç¨ĭ
ä¹Ļ éħ¸
ä¹Łæĺ¯ æŃ£å¸¸çļĦ
å¢ŀçĶŁ çĹĩ
çĿ¾ä¸¸ çĻĮ
çĹĴ çļĦ
ç´§ èº«
CT åĴĮ
åĦ¿ç«¥ çĸ¾çĹħåıĳçĶŁåĲİ
æĪĳä»¬ å®¶äºº
åı¦å¤ĸ è¿ĺåı¯
æĽ² æĿ¾
æĽ² é©¬
åħ¶ä»ĸ éĥ¨ä½į
çļĦåİŁåĽł ä¹ĭä¸Ģ
åºĶå½ĵ åıĬæĹ¶
èĦ± å¼Ģ
èĦ± æ°§
æĺİç¡® åĲİ
ä¼łæŁĵ å¼ķæĿ¥çļĦ
éĢłæĪĲ äºĨ
ç³ĸå°¿çĹħ èĤ¾çĹħ
åĴ½ å¹²
éĺ¿ ç³ĸ
éĺ¿ éľīç´ł
éĥ½æĺ¯ æ¯Ķè¾ĥ
åĿĩ åı¯å¼ķèµ·
å§ĭç»Īä¿ĿæĮģ å±Ģéĥ¨
åģı å¤§
æĬ½ é£İ
æĶ¶ åħ¥
é«ĵ æł¸
âĢĿ ãĢģâĢľ
å¹´é¾Ħ åĴĮ
æľŁæľĽ åŃ©åŃĲ
æľŁæľĽ ä¸Ĭè¿°çļĦçŃĶæ¡Īåı¯ä»¥å¸®åĬ©åĪ°æĤ¨
æĻķ çļĦ
åĳ³ çĶĺ
èī¯å¥½çļĦ çĶŁæ´»ä¹łæĥ¯
æĺ¯åĲ¦ åŃĺåľ¨
æ±¤ åĬłåĩıæ²»çĸĹ
æ²»æĦĪ çĹħæĥħ
åħ·ä½ĵ çļĦæĥħåĨµ
é² «
å®ļæľŁ åŃķæ£Ģ
è§Ĵ è´¨
è§Ĵ èĨľçĤİ
æĪĳæĥ³ åĴ¨è¯¢
å¤ļåĸĿæ°´ æ³¨æĦıä¼ĳæģ¯
çĸĿ åĽĬ
çĸĿ ä¿®è¡¥æľ¯
èħ¹éĥ¨ Bè¶ħ
åı¯ä»¥çĶ¨ ä¸Ńèį¯
æĺ¯ä¸Ģç§į ä»¥
æĺ¯ä¸Ģç§į çĶ±
èĬ± æ¤Ĵ
äºĶ åħŃ
çĨ ¨
çº¦ åįł
èĥ° èĥĨç®¡
æ¶ĪçĤİ ç±»åŀĭçļĦæ»´èĢ³åīĤ
ç²¾åŃĲ åĴĮ
çīĻ åĲĪ
èĻ« åŃĲ
åĩī æ°´
ä¹Łä¸į æ¶ĪåĮĸ
ä¹Łä¸į æķ¢
åĭĥèµ· åĲİ
ä¹ĭåĲİ çļĦ
ä¸įéĢĤ çļĦçĹĩçĬ¶
éĹŃ å¼ı
è¿ĩåº¦ æĢ§äº¤
è¿ĩåº¦ ç´§å¼ł
è¿ĩåº¦ çĸ²åĬ³
è¿ĩåº¦ æĵįåĬ³
è½¬ç§» åĪ°
æĪĴ éĻ¤
å®Įåħ¨ åº·å¤į
ç¾İ æ²Ļ
æĸ°çĶŁåĦ¿ çļĦ
åį±å®³ æ¯Ķè¾ĥçļĦ
åĮ»æ²» çļĦ
åĮħçļ®è¿ĩéķ¿ æĺ¯æĮĩ
åİ»åĮ»éĻ¢æ£ĢæŁ¥ æĺ¯
æĢĢä¸Ĭ æľŁéĹ´
åĲ¸æĶ¶ ä¸įèī¯
åĿı çĸ½
æļ´ èºģ
æ³Įå°¿ çĶŁæ®ĸç³»ç»Ł
çº¯ ä¸Ńèį¯
æ¼ ł
åĮħæĭ¬ æīģæ¡ĥä½ĵéļĲçªĿåĨ²æ´Ĺ
æ³¢ åıĬ
éļĲ è¡Ģ
åıĳçĥŃ çļĦçĹħåĽł
çĶļèĩ³ æĺ¯
ç»ĵèĤł çĻĮçļĦ
ç»ĵèĤł éķľæ£ĢæŁ¥
æ°ı èıĮ
ç½ĳ çĬ¶
åĲĥèį¯ ä¹Łæ²¡æľīä»Ģä¹ĪæķĪæŀľ
å°½éĩı çļĦ
å°½éĩı å°ĳåĲĥ
ä»£è°¢ äº§çī©
ä¸ĢæĹ¦ åıĳçĶŁ
å°¿é¢ĳ å°¿çĹĽ
æ°¯ éĽ·
åĳ¨åĽ´ ç»Ħç»ĩ
éĥģ éĹ·
éĻĲ äºİ
èħ¹èħĶéķľ æ²»çĸĹ
ç¥Ŀä½ł èº«ä½ĵåģ¥åº·
åŃ©åŃĲçļĦ æīģæ¡ĥä½ĵ
ä½ĵåĨħ æ¿Ģç´łæ°´å¹³
éķĩ åĴ³
æ²»çĸĹæľŁéĹ´ éĺ²æŃ¢æĢ§çĶŁæ´»
å¾ª åºı
è½»åº¦ èĦĤèĤªèĤĿ
è¯¦ç»Ĩ çļĦä»Ķç»Ĩæ£ĢæŁ¥
ä¼ļä¸įä¼ļ ä¼łæŁĵ
çĺĢ æĸĳ
ç£ģåħ±æĮ¯ æ£ĢæŁ¥
çģµ èĥ¶åĽĬ
çģµ ä»Ļ
çľĭä¸Ģçľĭ åı¯æľī
ä¸ĭèĤ¢ æ°´èĤ¿
èĪĮ ä¸ĭ
çº§ åĮ»éĻ¢
å¤´åŃ¢ æĽ²æĿ¾
çĸ² åĢ¦
ä¾Ŀ æīĺ
ä¾Ŀ éĤ£æĻ®åĪ©
è¯¯ åĮº
æ»ĳ èĨľçĤİ
éĴĪçģ¸ æĮīæĳ©
éĴĪçģ¸ çĲĨçĸĹ
çĻ½ç»Ĩèĥŀ è®¡æķ°
å¹¿ å·ŀ
é£Łéģĵ çĻĮçļĦ
ç¿» åĪ°
ä¸ĥ åı¶
é£Łæ¬² ä¸ĭéĻį
è¯¥æĢİä¹ĪåĬŀ åĳ¢
è¯¥æĢİä¹ĪåĬŀ åķĬ
éĨĴ è¿ĩæĿ¥
å¸ķ ç±³
æĶ¯æĮģ çĸĹæ³ķ
çŃīçĹĩçĬ¶ çļĦ
éĻĦçĿ¾ çĤİçļĦ
æ²¡ä»Ģä¹Ī çĹĩçĬ¶
å¤ļæ³¨æĦı æ¸ħæ´ģ
çĲĨè§£ åĩłä¸ĭ
ä¿®å¤į æ²»çĸĹ
èĭ· çīĩ
ä»İèĢĮ ä½¿
ä»İèĢĮ èĩ´ä½¿
æĸ¹æīįèĥ½ å¯¹çĹĩæķĳæ²»
çĥ« æ´Ĺ
MR æ£ĢæŁ¥
å¤§èĦĳ ä¸Ń
åĿĩè¡¡ é¥®é£Ł
å¥Ĺ æīİ
é¥®é£Łä¸Ĭ è¦ģ
æłĵå¡ŀ æľ¯
äºļ çĶ²
åĨłçĬ¶ æ²Ł
æĹ©ä¸Ĭ èµ·åºĬ
éĢĢçĥ§ ä½ľçĶ¨çļĦèį¯çī©
çĶŁçī© æ²»çĸĹ
åĸ· å°Ħ
çļĦä¸Ģç§į çĸ¾çĹħ
åĹľ éĵ¬
çģ¼ çĹĽ
å¸ķéĩĳæ£® ç»¼åĲĪçĹĩ
æī©æķ£ åĪ°
åĩĨå¤ĩ è¦ģ
éĵ¶ ç¿ĺ
æīĭæľ¯åĪĩéĻ¤ æ²»çĸĹ
ç¨į æľī
åĨħè¡£ è£¤
æľ¯åīį åĩĨå¤ĩ
åĲĥçĤ¹ ä»Ģä¹Īèį¯
èĦĬæŁ± ä¾§
çĻ¾ æĹ¥åĴ³
éº¦ è§Ĵ
è·³ åĬ¨
æľīä¸Ģå®ļçļĦ å½±åĵį
çº³ ç±³
çŀ ¬
çĹħæĥħçļĦ æī©å¼ł
å½©èī²å¤ļæĻ®åĭĴ è¡Ģæµģæĺ¾åĥı
ä¸Ģä¼ļ åĦ¿
é¼ĵ èĨľ
é¼ĵ å®¤
éĢĢçĥ§èį¯ çļĦ
çĶ¨æ³ķçĶ¨éĩı åıªä¾ĽåıĤèĢĥ
æĭĶ çīĻ
éļĨ ä¹³
çĶ·ç§ĳçĹħ å¤ĸ
ä¸įè¦ģåĲĥè¾Ľè¾£ çļĦé£Łçī©
å¼ĢäºĨ èį¯
çĥ§ä¼¤ èĨı
æ±¡ åŀ¢
çĪ¶æ¯į ä¸Ģå®ļè¦ģå°½å¿«å¸®åĬ©åĦ¿ç«¥
çŁ« å½¢
æĢ§æ¬² ä½İä¸ĭ
æŀ£ ä»ģ
ç£¨ æ±¤
åĲ¡ åķ¶
å·Ŀ å´İ
æľīä¸įåĲĮçļĦ çĶ¨èį¯éĩı
æľ¬æĸĩ çĶ¨æ³ķçĶ¨éĩıåıªä¾ĽåıĤèĢĥ
bè¶ħ æ£ĢæŁ¥
åĲĮç§įèį¯åĵģåı¯çĶ±äºİ åĮħè£ħè§Ħæł¼
èĥĨéģĵ éĹŃéĶģ
éĿĻèĦīè¡Ģæłĵ å½¢æĪĲ
âĳ ¢
æľĪç»ıæĿ¥ äºĨ
æĤ£èĢħéľĢè¦ģæľī çĶŁåŃĺä¸Ń
ä¸ĢçĽ´æ²¡ æĢĢåŃķ
æ³¨å°ĦçĶ¨ çĽĲéħ¸
çģ¼çĥŃ æĦŁ
éªĳ èĩªè¡Įè½¦
å®ŀéĻħ çĹħæĥħ
æ¸¸ç¦» ç§»æ¤į
èį· å°ĶèĴĻ
çļ®çĵ£ ç§»æ¤į
åİ»åĮ»éĻ¢åģļäºĨ æ£ĢæŁ¥
æ±Ł èĭı
èĤļèĦĲ çľ¼
ä¸ªä½ĵ å·®å¼Ĥ
è¡£åİŁä½ĵ æĦŁæŁĵ
éľĢè¦ģæľīéķ¿æľŁçļĦèį¯çī© æķĳæ²»
è®¤çŁ¥ è¡Įä¸º
åĪ°å½ĵåľ° åĮ»éĻ¢
ä¸įæ´ģ æĢ§çĶŁæ´»
æķ´ä½ĵ æĬ¤çĲĨ
ç¡Ŀéħ¸ å¼Ĥå±±æ¢¨
èĢ³å±İ æľīçĤ¹ç¨ł
å°ĺ èĤº
å¦ĩç§ĳçĸ¾çĹħçļĦåĩºçİ°ä¸įä»ħä»ħä¼ļå½±åĵį å¥³äººçļĦ
åĵªå®¶åĮ»éĻ¢ å¥½
å¼¹æĢ§ æĪĲåĥı
å¯¹æĬĹ çĸ¾çĹħçļĦä¿¡å¿µ
å¿½ çĦ¶
å¹²æī°ç´ł Î±
æľĢå¤§ éĻĲ
çļĦæ°´ åĪĨ
çİī ç±³
æĤ£èĢħåı¯ä»¥åľ¨çĲĨè§£ å¯¹çĹĩä¸ĭèį¯çļĦåĲĮæĹ¶
åı¯ä»¥éĢĤå½ĵ æ´»åĬ¨
ä¸īä¸ĥ ç²ī
éĢłè¡Ģ å¹²ç»Ĩèĥŀç§»æ¤į
èĢ½ è¯¯
åĳĽ æ°´
åĳĽ åĴ³
èĢ³èĨľç©¿åŃĶ çļĦæĥħåĨµ
åĵĪ å°Ķ
åįĥä¸ĩ ä¸įè¦ģ
åľ¨æĹ¥å¸¸çĶŁæ´»é¥®é£Łä¸Ńä¸Ģå®ļè¦ģ åĪĩå¿Įè¿ĩé¥¥æĪĸè¿ĩé¥±
èĦĵæĢ§ åĪĨæ³Įçī©
å»ºè®®å°½å¿« å°±è¯Ĭ
æĤ£èĢħçļĦåħįçĸ«åĬĽä»¥åıĬ å¯¹æĬĹçĸ¾çĹħçļĦä¿¡å¿µ
çļĦæĳĦåħ¥ éĩı
çıį çıł
ä¹Łä¸įçŁ¥éģĵ æĢİä¹ĪäºĨ
æĢİä¹Īè§£åĨ³ åĳ¢
AL T
çļĦä¸įåĲĮ æľīä¸įåĲĮçļĦçĶ¨èį¯éĩı
ä½Ĩæĺ¯çĶ±äºİæĤ£èĢħçĹħæĥħä¸įåĲĮæīĢä»¥éĩĩçĶ¨ çļĦåĮ»æ²»æĸ¹æ³ķä¹Łå°±ä¸įä¸Ģæł·
ä¸ĭèħĶ éĿĻèĦī
æľĢä¸º å¸¸è§ģ
å»ºè®®ä½łçĶ¨ ä¼łç»Łä¸Ńèį¯
è¿ĺéľĢè¦ģæľīçľĭéĩįèĩªèº«çļĦæĬ¤çĲĨ åŁ¹è®Ń
è¿ĺéľĢè¦ģæľīçľĭéĩįèĩªèº«çļĦæĬ¤çĲĨ ä¸ĬçıŃ
ï¼½ -
ç¦½ èĽĭ
åľ¨åľ° ä¸Ĭ
ä¸Ĭé¢Į çª¦
ä¸ĢèĪ¬æĺ¯éľĢè¦ģ éĢļè¿ĩæīĭæľ¯çļĦæĸ¹æ³ķæ²»çĸĹ
çļĦæľĢä½³ æĹ¶éĹ´
å¾ĹçĹħ åĲİ
åħ¨é«ĭåħ³èĬĤ ç½®æį¢
åŁİ å¸Ĥ
ä¸ĢäºĽæľī éĢĢçĥ§ä½ľçĶ¨çļĦèį¯çī©
çĵľæŀľ èĶ¬èıľ
æĿĢæŃ» çĻĮç»Ĩèĥŀ
æ·Ģç²īæł· åıĺ
æĪĳçļĦä¸Ģä¸ª æľĭåıĭ
æĮĤä»Ģä¹Ī ç§ĳ
ç¥ŀå¿Ĺ ä¸įæ¸ħ
è¡¥èĦ¾ çĽĬèĤł
è§Ħå¾ĭçĶŁæ´»ä¹łæĥ¯ æĮīæĹ¶ä½ľæģ¯
çļ®èĦĤ èħº
ç²¾å¿ĥ æĬ¤çĲĨ
å¹¿è°± æĬĹçĶŁç´ł
åıªæľīè¿Ļæł·æīįèĥ½æıĲé«ĺ æĤ£èĢħçļĦåħįçĸ«åĬĽä»¥åıĬå¯¹æĬĹçĸ¾çĹħçļĦä¿¡å¿µ
åģ¥èĥĥ æ¶Īé£Ł
ä¸ĢäºĽéķĩçĹĽèį¯ ç¼ĵè§£çĹĩçĬ¶
åŃ©åŃĲçļĦæīģæ¡ĥä½ĵåıĳçĤİ äºĨ
éĻĪæĹ§ æĢ§
å¤§å¹ħ æıĲé«ĺ
æīĢä»¥å¸ĮæľĽ åĦ¿ç«¥çĸ¾çĹħåıĳçĶŁåĲİ
å¹³æ»ĳèĤĮèĤī çĺ¤
èĽĽç½ĳèĨľä¸ĭèħĶ åĩºè¡Ģ
ä½łå¥½æł¹æį®ä½łçļĦæĥħåĨµ å±ŀäºİ
ç»Īæľ« æľŁ
éħ®çĹĩ éħ¸ä¸Ńæ¯Ĵ
æĭ¥æľīåģ¥åº· çļĦèº«ä½ĵåĴĮç¾İå¥½çļĦçĶŁæ´»
æ°¢åĮĸ åı¯çļĦæĿ¾
ä¸½çıł å¾Ĺä¹Ĳ
åıĺå¼ĤæĢ§ åĵ®åĸĺ
å»ºè®®æĤ£èĢħé©¬ä¸Ĭå®ŀè¡Į æķĳæ²»
çĶŁäº§çļĦ åĲĮç§įèį¯åĵģåı¯çĶ±äºİåĮħè£ħè§Ħæł¼
æĢ¥èħ¹ çĹĩ
å°ıåĦ¿æ°¨éħļ é»ĦéĤ£æķı
ç¼¬ æ²ĻåĿ¦
çīĽçļ® çĻ£
å¦ĤæŃ£åľ¨ä½¿çĶ¨ åħ¶ä»ĸèį¯åĵģ
ç¥Ŀç¦ı æĤ£èĢħæĹ©æĹ¥åº·å¤į
ä»¥ä¸Ĭæĸ¹æ³ķ éĥ½æĺ¯
æķ°åŃĹåĩıå½± è¡Ģç®¡éĢłå½±
çĶĦ åĪ«
è¡Ģåºľ éĢĲçĺĢ
å»ºè®®éĢīçĶ¨ ä¸ĢäºĽéķĩçĹĽèį¯ç¼ĵè§£çĹĩçĬ¶
åĲĮåŀĭ åįĬèĥ±æ°¨éħ¸
åķ° éŁ³
æĸŃæĸŃç»Ń ç»Ń
å°ıåĦ¿ä¿Ŀåģ¥ éĹ®é¢ĺä¸ĢçĽ´åĽ°æī°çĿĢå®¶éķ¿ä»¬
ä¸įåĲĮä¼ģä¸ļ çĶŁäº§çļĦåĲĮç§įèį¯åĵģåı¯çĶ±äºİåĮħè£ħè§Ħæł¼
æ°¯éĽ· ä»ĸå®ļ
çĪ¶æ¯įä¸Ģå®ļè¦ģå°½å¿«å¸®åĬ©åĦ¿ç«¥ æ²»æĦĪçĹħæĥħ
èĢ³å±İæľīçĤ¹ç¨ł ä¸Ķåģıé»Ħ
ä¸įåĲĮä¼ģä¸ļçĶŁäº§çļĦåĲĮç§įèį¯åĵģåı¯çĶ±äºİåĮħè£ħè§Ħæł¼ çļĦä¸įåĲĮæľīä¸įåĲĮçļĦçĶ¨èį¯éĩı
% (
% )
0 9
6 3
B B
R E
R H
V SD
a g
u t
ç µ
Ġ çļĦ
Ġ æ²¡æľī
Ġ ï¼Ī
Ġ mg
çļ ¿
çļĦ è¿Ļç§įæĥħåĨµ
çļĦ å¤ª
çļĦ å±Ģéĥ¨
çļĦ è¿ĲåĬ¨
çļĦ å½»åºķæģ¢å¤į
çļĦ æŃ£è§ĦåĮ»éĻ¢
çļĦ æİĴæ³Ħ
ãĢĤ "
æ² Ľ
æĺ¯ çĶ¨
æĺ¯ åĵªç§į
æĺ¯ ä¸Ģæł·çļĦ
æĺ¯ å®Įåħ¨åı¯ä»¥
æľī æĢ§äº¤
èĤ ĥ
èĤ Ĩ
æ²» å¥½äºĨ
ä¸į åºĶè¯¥
ä¸į è¿ŀ
ä¸į æķıæĦŁ
ä¸į åĪ©äºİ
ä¸į æĿ¥æľĪç»ı
ä¸į åĲ¸çĥŁ
ä¸į æĶ¾å¿ĥ
ä¸į éģĤ
æ²»çĸĹ åıĬ
æĢ§ æīĭæľ¯
æĢ§ å¾ģ
ä¸Ģ å°ıæĹ¶
è¦ģ ä¸Ĭ
è¦ģ æĢİæł·
è¦ģ è§Ħå¾ĭ
è¦ģ æ²¡æľīä»Ģä¹Ī
ä»¥ æ¸ħæ·¡é¥®é£Ł
èį ¤
èį Ł
èį ł
ãĢģ ãĢģ
çĶŁ èĦī
æĹ¶ ä¼ļ
æĹ¶ ä¸Ģå®ļè¦ģ
åıĳ çļĦ
åıĳ ç¡¬
å¥½ çļĦæ²»çĸĹæĸ¹æ³ķ
å¥½ åĲ¸æĶ¶
å¥½ æ²»åĲĹ
èį¯ åĲİ
èį¯ æµĵåº¦
å¤ļ å¤©äºĨ
å¤ļ æ½ĺ
ç§ ¦
èħ ĺ
éĻ ķ
çĹĩ è§ģ
èĥ½ ä¿ĥè¿Ľ
èĥ½ æĢĢåŃķåĲĹ
éĹ º
èĢħ çļĦ
åı¯ä»¥ éħįåĲĪ
åı¯ä»¥ åĲĥä»Ģä¹Ī
åı¯ä»¥ åĲĮæĪ¿
åı¯ä»¥ æİĴéĻ¤
åı¯ä»¥ æļĤæĹ¶
åı¯ä»¥ å¤ĸçĶ¨
åı¯ä»¥ æĢĢåŃķåĲĹ
çİ° å·²
æĿ Ń
æĬ «
æ£ĢæŁ¥ äºĨ
æŀľ èĶ¬
æīĭ æĬĸ
æīĭ èħķ
æĪĳ æīį
æĪĳ æľīçĤ¹
å¦Ĥ ä»Ĭ
è¿Ļ æĺ¯ä»Ģä¹ĪåİŁåĽł
åĴĮ æīĭæľ¯æ²»çĸĹ
åĴĮ èĦļ
å¿ĥ æĢ¥
å¿ĥ é¢Ĺç²Ĵ
å¤§ æĦı
å¤§ æ±Ĺ
æİ ı
ä½ł è¿Ļä¸ªæĥħåĨµ
ä¸Ń éĥ¨
ä¸Ń æ°Ķ
ä¸Ń æŃ¢
ä¸Ń æĮĩ
å¯¹ æĸ¹
å¯¹ å°ıåŃ©
ä¸Ĭ éĥ¨
åĳ ĥ
åĲĥ ç´§æĢ¥éģ¿åŃķèį¯
å°± ä¸įèĥ½
å°± å°Ħç²¾
æĢİ å¥½
åĵ ¨
çľ ¦
åīį æĸ¹
å°ı èĭıæīĵ
æĿ¥ è°ĥåħ»
æĿ¥ è¿Ľè¡Įæ²»çĸĹ
æĿ¥ ç¡®è®¤
è¿ĩ çŁŃ
åıĬ æ²»çĸĹ
æĸ¹ åı¯
çŃī çĹħåıĺ
çŃī å¤ļç§į
ç»Ĩ åļ¼
å¤ĸ å½¢
å¤ĸ çĶ¨èį¯
å¤ĸ å©Ĩ
åĪ° ä¸ĵä¸ļçļĦåĮ»éĻ¢
ä¹Ł éľĢè¦ģæľī
åĮĸ è¡Ģçº¢èĽĭçĻ½
æĪĸ å¤ļ
æĪĸ åĩıå°ĳ
æµ ª
éĩį çī©
ç®¡ çĬ¶
è¿ĺ åı¯èĥ½
å»ºè®® æĺ¯
æį ·
åºĶ ä»¥
å¤© æķ°
éģĵ çĲĨ
é«ĺ éĴĻè¡ĢçĹĩ
å®ļ æĢ§
å¾Ī éĩį
å¾Ī å·®
å¾Ī çĹĽèĭ¦
æ°´ çĹĺ
åģļ æ¢¦
åģļ ä»Ģä¹Īæ£ĢæŁ¥
å°¿ æĦı
å°¿ æĹłåĬĽ
å°¿ åĪĨåıī
æľĪ åĪĿ
å¹´ åĲİ
æ´» ç»ľ
åİ» æŃ£è§ĦçļĦ
éľĢè¦ģ ç§¯æŀģ
éľĢè¦ģ è¿Ľä¸ĢæŃ¥
éľĢè¦ģ æīĭæľ¯åĲĹ
ï¼ļ âĢľ
æĹ© çĿ¡
æĹ© åıĳè§ī
æ²¡ åģļ
æ²¡ åĬŀæ³ķ
æľĢ æĹ©
æ³¨æĦı å±Ģéĥ¨çļĦ
æĭ ¥
åŃķ åĳ¨
æĺ¯ä»Ģä¹Ī æł·åŃĲ
å¦Ĥæŀľ çĹħæĥħ
å¦Ĥæŀľ ä¸įèĥ½å¤Ł
å¦Ĥæŀľ éķ¿æĹ¶éĹ´
å¦Ĥæŀľ ä½İäºİ
èĤĿ éĥ¨
èĤĿ çĹħçļĦ
å¢ Ļ
åĲĮ å±ħ
æĹł å°¿
ç§ĳ æ¤įçī©
å¾Ĺ è¿Ļä¸ªçĹħ
èĦĳ è½¬ç§»
èĦĳ åĬ¨èĦīç¡¬åĮĸ
èĢĮ å½¢æĪĲ
èĢĮ ä¸įçķħ
æĪĲ çĺ¾
åŃ©åŃĲ ä»¬
åŃ©åŃĲ èĤ¥èĥĸ
è¿Ľ é¤Ĳ
è¾ĥ æħ¢
çľĭ ä¸ĢäºĽ
çľĭ ä¸ľè¥¿
å¢ŀ å®½
éĥ½ ä¸įèĥ½
å¯¼ ä¸Ŀ
å¹¶ ä¸įèĥ½å¤Ł
å¹¶ ä¸įæĺ¯å¾Ī
åı¯èĥ½ ä¼´æľīåıĳçĥ§çļĦæĥħåĨµ
æ¸ħ èĥĥ
èĤł å£ģ
åĨį åİ»
èĥĥ æ¶²
èĥĥ èĦĺ
çķ ¥æľī
çĶŁæ´» çİ¯å¢ĥ
ä½¿ æĤ£èĢħåľ¨
æīĢ è§ģ
èĤ¾ æ¯ĴæĢ§
åİĭ åįĩé«ĺ
è§ģ è¿ĩ
åĬł æľį
åĬł ä¹ĭ
çĤ¹ çĬ¶
è´¨ åŃĲ
è¯·éĹ® æľī
è¯·éĹ® ä¸ĵå®¶
ä½İ åīĤéĩı
è¯¥ æĢİæł·
éĢļ éĢıæĢ§
æł¹æį® ä¸´åºĬè¡¨çİ°
ç« ĸ
äºĭ æķħ
çļĦæ²»çĸĹ åİŁåĪĻ
åŃ¦ çłĶç©¶
åħ¨ åĪĩæľ¯
å®¶ çļĦ
åıį èĥĥ
è¿Ľè¡Į æĢ§çĶŁæ´»
æķĪæŀľ ä¸įæĺ¯å¾Īå¥½
èĤĮ çº¤ç»´
çīĩ ç¦ģå¿ĮçĹĩæĺ¯ä»Ģä¹Ī
æ¯Ķè¾ĥ å®¹æĺĵ
æ¯Ķè¾ĥ åĲĪéĢĤ
æĬ¤çĲĨ æĺ¯ä»Ģä¹Ī
åĥı ä¸ĢäºĽ
æīį ä¼ļæľī
æĹ¥ æĻĴ
åĩı æ¯Ĵ
å®Ŀå®Ŀ æľī
èħĶ éķľ
è¿Ļç§į èį¯çī©
è¿Ļç§į çĬ¶åĨµ
å¼Ģ å¿ĥ
å¦ĩ äº§
é»Ħ ç²¾
å£ ¤
åģ¥ èĦĳ
å¿« åŃķ
åĵª ä½į
æľ¬ èįī
åŀĭ çļĦæİ¨èįĲèį¯æľīäºĽä»Ģä¹Ī
åŀĭ çļĦæīĭæľ¯æ²»çĸĹæľīäºĽä»Ģä¹Ī
èĬĤ å¾ĭ
å¼Ĥ ä½ĵ
è¿Ļä¸ª å¤§éĹ®é¢ĺ
ä½Ĩæĺ¯ è¦ģ
æĢ¥ èºģ
å¹³æĹ¶ æ³¨æĦıä¼ĳæģ¯
å¹³æĹ¶ è¿ĺè¦ģæ³¨æĦı
åİ»åĮ»éĻ¢ çľĭäºĨ
åıĹ åĪ°äºĨ
èĢĥèĻĳ åģļ
ä¸ªæľĪ æĹ¶
ä¸ªæľĪ åīį
è¡Ģç®¡ çĹīæĮĽ
è¡Ģç®¡ æĪĲåĥı
çĸ¼çĹĽ ä¸įä¸¥éĩį
åħĪ ä¸į
åĲĮæĹ¶ éľĢè¦ģæľī
åĲĮæĹ¶ éĩįè§Ĩ
åĲĮæĹ¶ è¦ģå¤ļ
çº¢ åıĤ
å¸® åĪ°æĤ¨
éĺ´éģĵ è¶ħå£°
éĺ´éģĵ çĺĻçĹĴ
åģ¥åº· é¥®é£Ł
å¦Ĥä½ķ è°ĥçĲĨ
çĤİçĹĩ çļĦè¯Ŀ
èĽ ¤
éĻį è¡Ģåİĭ
å®«é¢Ī ç²ĺè¿ŀ
âĢ °
å¡ŀ ç±³
æĢĢåŃķ åĪĿæľŁ
è½¬ ä¸º
åĮħçļ® çº¢èĤ¿
è¿ĺæĺ¯ èĤļåŃĲ
èĩªå·± æľī
å© ·
æīĢä»¥ å¾Īå®¹æĺĵ
å°±æĺ¯ åľ¨
æĹ©æ³Ħ çļĦéĹ®é¢ĺ
è¿Ļç§įæĥħåĨµ éľĢè¦ģæľī
è¿Ļç§įæĥħåĨµ çļĦè¯Ŀ
è¿Ļç§įæĥħåĨµ æľīåı¯èĥ½æĺ¯
èĪĴ ä¼Ĳä»ĸæ±Ģ
èĪĴ èĬ¬å¤ªå°¼
å°ıåĦ¿ æĶ¯æ°Ķç®¡åĵ®åĸĺ
å®¹æĺĵ åĲ¸æĶ¶çļĦé£Łçī©
äºĮ æ°¢
ç»¼åĲĪ çĸĹæ³ķ
ä¸ĢçĽ´ ä¸įå¥½
ä¸ĢçĽ´ åħ³å¿ĥ
éģ¿åħį åĲĥ
æĪĸèĢħ åľ¨
æĢİæł· é¢Ħéĺ²
çĿ¡ ä¸įå¥½
æ¶ĪåĮĸ ä¸ĢçĽ´ä¸į
åı³ æĹĭ
åı³ ä¸Ĭèħ¹
å®ŀæĸ½ äºĨ
å®ŀæĸ½ å¯¹çĹĩæ²»çĸĹåİŁåĪĻ
å·´ æĪŁ
é¼» ç²ĺèĨľ
å¤ª éķ¿
å¤ª å¤ļçļĦ
åĨ· èĹı
å¯¹äºİ å¦ĩç§ĳçĹħ
åĪĩéĻ¤ åĲİ
åĪ© æĻ®
ç»Ħç»ĩ åĿıæŃ»
åıĪ æĺ¯
æıĲ åĩº
çĶµ ä½į
ç¬ ¼
æĭī ä¼¤
è¿ĲåĬ¨ æĢ§
è¿ĲåĬ¨ ç¥ŀç»ıåħĥ
èĩ´ä½¿ äºĨ
åįģ åĩłå¤©
æľº ä½ĵåĨħ
æīĵ å¼Ģ
æīĵ çĶµè¯Ŀ
å¹¶ä¸Ķ æľī
å¹¶ä¸Ķ å¯¹çĹĩæķĳæ²»
æľīåĵªäºĽ è¡¨çİ°
çĽ®åīį è¿ĺä¸į
è½¯ äºĨ
èħ° æ®µ
å¤ļå°ĳ å¤©
è¯ķ çĶ¨
ä¸ŃåĮ» èį¯æ²»çĸĹ
æľīçĤ¹ èĤ¿
æľīçĤ¹ é«ĺ
æľīçĤ¹ ä½İçĥ§
èĤļåŃĲ éĩĮ
æĹ¥å¸¸ çļĦ
ç²¾ç¥ŀ çĹĩçĬ¶
ç²¾ç¥ŀ ä¸įå¤ªå¥½çļĦ
å®¤ æĢ§å¿ĥåĬ¨è¿ĩéĢŁ
åħ³èĬĤ è½¯éª¨
å¥¶ çĵ£
éĴĻ çļĦ
éķ¿æľŁ åį§åºĬ
åĳ¼åĲ¸ éŁ³
å¤įåıĳ åĴĮè½¬ç§»
æ¡ĥ ä»ģ
å»ºè®®ä½ł éĩĩåıĸ
åħĭ éĽ·
çªģ çľ¼
æľīä»Ģä¹Ī èį¯
å¿ĥçĲĨ ä¸Ĭ
åıĤ çħ§
å¤ĸéĺ´ çĹĴ
é«ĺè¡Ģåİĭ çļĦ
é«ĺè¡Ģåİĭ çļĦæİ¨èįĲèį¯æľīäºĽä»Ģä¹Ī
ç²ĺ éĻĦ
åĦ¿ç«¥ åĮ»éĻ¢
å¾Īå¤ļ èį¯
æ²»çĸĹçļĦ æķĪæŀľ
æķ£ æ²»çĸĹ
æķ£ åľ¨
æķ£ å¤§
æķ£ å¯Ĵ
ç»¼åĲĪå¾ģ çļĦæ²»çĸĹåĳ¨æľŁå¤ļéķ¿
éĩĳ éĴ±
æĽ² èĤ½
çļĦåİŁåĽł è®¸å¤ļ
çº¤ç»´ ç»Ĩèĥŀ
æĺİç¡® åİŁåĽł
ä¸įçŁ¥éģĵ æĢİä¹Īè§£åĨ³åĳ¢
å°±è¯Ĭ åĮ»éĻ¢
ç³ĸå°¿çĹħ æĢ§
ä»¥åħį ç¼ĵè§£çĹħæĥħ
æĬĳ èıĮ
è¢« ç¡®è¯Ĭ
é¦ĸ æ¬¡
ç»ĵçŁ³ çļĦæīĭæľ¯æ²»çĸĹæľīäºĽä»Ģä¹Ī
ç©¿ å±±
è¾¾ èİ«
æľīæķĪ åĲĹ
å°½å¿« æ²»çĸĹ
æĻķ è¿·
è¡° éĢĢ
çł´ ä¼¤é£İ
æķ´ å¤©
æĺ¯åĲ¦ ä¸º
ç³ľçĥĤ æĢ§èĥĥçĤİ
ä¸»è¦ģæĺ¯ åĽłä¸º
ä¸»è¦ģæĺ¯ éĢļè¿ĩ
éĿĴ éľī
ç«ĭ éħ®
æ³¡ æ³¡
æ³¡ èĮ¶
åħ·ä½ĵ çĹħæĥħ
åı¶ åŃĲ
èįī æľ¬
åĲĪçĲĨ å®īæİĴ
æĶ¹åĸĦ çĶŁæ´»è´¨éĩı
æĻļæľŁ çļĦ
åĲĥä»Ģä¹Ī åı¯ä»¥
æĢ§äº¤ çļĦ
æĢ§äº¤ åĲİ
ç»ĵåĲĪ æ²»çĸĹ
è§Ĥå¯Ł çľĭçľĭ
åħ¬ åħ±
åıĳè§ī çļĦ
æº¶ æĢ§
ä¹± çĶ¨èį¯
å®«é¢Īç³ľçĥĤ åĴĮ
æ¶ĪçĤİ éĴĪ
çīĻ åĪĹ
çĽ´èĤł çĤİ
éª¨æĬĺ çļĦå½±åĥıåŃ¦æ£ĢæŁ¥æľīäºĽä»Ģä¹Ī
åħ¨èº« çļĦ
åħ¨èº« éº»éĨī
æºĥ çĥĤ
éĩįè§Ĩ è¿Ļä¸Ģçĸ¾çĹħ
è°¢è°¢ åĮ»çĶŁ
å¦Ĥä½ķæ²»çĸĹ åĳ¢
æł¹æį®ä½łçļĦ çĹħæĥħ
æľīæĹ¶ åı¯
æľīæĹ¶ è¿ĺ
åģļäºĨ ä»Ķç»Ĩæ£ĢæŁ¥
æĶ¹åıĺ çļĦ
çļĦåĮ»éĻ¢ æ²»çĸĹä½łçļĦçĹħ
ä¼´æľī å¤´çĹĽ
åĲĮæĪ¿ æĹ¶
åĮħçļ®è¿ĩéķ¿ çļĦè¯Ŀ
ä¿ĥ æİĴåįµ
00 5
æī¾ åĮ»çĶŁ
æł¹æį®ä½ł çļĦçĹĩçĬ¶
ç©º è°ĥ
å¦Ĭå¨ł ç³ĸå°¿çĹħ
æ³¨æĦıä¼ĳæģ¯ åĴĮ
ä¹Łåı¯ä»¥ éĢļè¿ĩ
ä¹Łåı¯ä»¥ éĢīæĭ©
ä¹Łåı¯ä»¥ æł¹æį®åŃ©åŃĲçļĦæĥħåĨµ
æ³Įå°¿ çĶŁæ®ĸéģĵ
åĲĥäºĨ è¦ģæ²¡æľīä»Ģä¹Ī
çº¯ æ£ī
ä¼¤å®³ æ¯Ķè¾ĥçļĦ
æłĩ è®°
ä¸Ļ çĥ¯
è¿Ł è¿Ł
è¿Ļæĺ¯ ä¸ºä»Ģä¹Ī
æľ¬åĵģ çļĦ
æľ¬åĵģ ä¸»è¦ģæĪĲåĪĨ
ä»£è°¢ æĢ§çĸ¾çĹħ
åģļä¸ª éĴĪå¯¹æĢ§çļĦ
æĤ£æľī çĻ«çĹ«çĹħ
åŀĤ çĽ´
çĻĮçĹĩ çĹħäºº
éĥģ ç»ĵ
åį¡ åİĭ
çĩ¥ çĥŃ
èī¯å¥½ ç§¯æŀģåĲĳä¸ĬçļĦ
å°½æĹ© çļĦ
èĮ¶ åĲĹ
çĭŃçªĦ çļĦå½±åĥıåŃ¦æ£ĢæŁ¥æľīäºĽä»Ģä¹Ī
çĶĺ çŁ³
çľĭä¸Ģçľĭ å¦Ĥä½ķ
ä¸ĭèĤ¢ éĿĻèĦī
æĪĳæĺ¯ å¾Īå®³æĢķ
èĤ¾èĦı åĬŁèĥ½
å¤´åŃ¢ åĵĮéħ®
å¤įæĸ¹ çĶĺèįī
ä¸Ģåĳ¨ äºĨ
å¤§å¤ļæķ° æĺ¯
å±± ä¸ľ
å±± èİ¨èıªç¢±
å®«é¢ĪçĤİ åĴĮ
èĤ¥å¤§ çĹĩ
æħ¢æħ¢ çļĦèº«ä½ĵ
æĤ£èĢħä»¬ ä¸ĢçĽ´åħ³å¿ĥ
ç»¿ åı¶
èĤłéģĵ çļĦ
ä»Ķç»Ĩè§Ĥå¯Ł çľĭä¸Ģçľĭ
ĠĠĠĠ ĠĠ
ä¸ĥ åħ«
ç¢ĺ éħĬ
åģļå¥½ çĽ¸åħ³çļĦ
åī§çĥĪ çļĦæĹ¶åĢĻ
å¾®åĪĽ æ²»çĸĹ
ä½łçļĦè¿Ļç§įæĥħåĨµ åı¯ä»¥åħĪçĶ¨
å°ıä¾¿ æĹ¶
ä¸įçŁ¥æĻĵ æĢİä¹ĪåĽŀäºĭ
éĥ½ä¼ļ åĨįæ¬¡åĩºçİ°
ä¿ĥè¿Ľ ä¼¤åı£æĦĪåĲĪ
å®īåħ¨ çļĦ
ä¿®å¤į æľ¯
æĢ§èĦĳ ç§¯æ°´
ä»İèĢĮ å¯¼èĩ´
æĹłæ³ķ ç¼ĵè§£çļĦè¯Ŀ
ä¸īå¤© äºĨ
ä½ĵéĩį åĦ¿
ç²Ĺ ç»Ĩ
ç²Ĺ æļ´
å¤§èĦĳ çļ®å±Ĥ
åį±éĻ© æĢ§
å¥ĩ çĹĴ
åħ« æŃ£
å¿Įè¾Ľè¾£ æ²¹èħ»
æĺ¯çĶ± ç»ĨèıĮ
çĶŁåĳ½ åį±éĻ©
åı¯ä»¥åģļ ä¸º
èĥ¸éĥ¨ çĸ¼çĹĽ
çĶ¨äºİ æ²»çĸĹ
æľºä½ĵ åĲİ
å·¦ä¾§ çĿ¾ä¸¸
è®° å¾Ĺ
èĥĥéķľ ä»Ķç»Ĩæ£ĢæŁ¥
å¥¥ æĽ²èĤ½
éĻĦä»¶ åĽĬèĤ¿
åĺ´ è§Ĵ
ä¸įéľĢè¦ģ æ²»çĸĹ
åı¯ä»¥å¸®åĬ©åĪ° å¤§å®¶
å°ļ ä¸įæ¸ħæ¥ļ
åĨħåĽºå®ļ æīĭæľ¯
å¦ĤæŀľåŃ©åŃĲ æĥħåĨµ
çģ¼ ä¼¤
éħ¯ èĥ¶åĽĬ
mm H
æĿĢ ä¼¤
ä¸įæĦĪ åĲĪ
åħ¨éĿ¢ è°ĥçĲĨ
æĥĬ éĨĴ
æĻĴ å¹²
èĤĿçĹħ åĨħç§ĳçĸ¾çĹħ
éķ¿äºĨ ä¸ª
é¢ľ éĿ¢
åī² éĻ¤
ä¸įåı¯ éĢĨ
è¡Ģæµģ ä¿¡åı·
ç©¶ ç«Ł
åİĺç±³ çļĦ
è¾ĥå¤ļ çļĦ
æľīä¸Ģ å¹´äºĨ
ä¸įçĶ¨ æ²»çĸĹ
ä¿ĿæĬ¤ åīĤ
çĻ¾ åĲĪ
æĺ¯æ¯Ķè¾ĥ å¤§çļĦ
æĺ¯æ¯Ķè¾ĥ å¸¸è§ģçļĦ
æ¼ı æĸĹ
éĽ· è¯º
æĻ®éĢļ çļĦ
çļĦäºº åıĤ
åħħè¶³ çĿ¡çľł
æŃ¤çĹħ å¤ĸ
ä¸įæĸŃ åĬłåī§
é»Ħä½ĵ åĬŁèĥ½
çģŃ æ´»
æ¿ĢåĬ¨ åīĤ
æ°¨åŁº ç³ĸ
æłĳ èĦĤ
è¿ĩæķıæĢ§ åĵ®åĸĺ
åħ¶æ¬¡ ä¸º
ï¼Łï¼Ł ï¼Łï¼Ł
éĻ¤äºĨè¦ģ å¯¹çĹĩæķĳæ²»å¤ĸ
æķĳæ²»æľŁéĹ´ å»ºè®®æĥ¯èī¯å¥½çļĦçĶŁæ´»ä¹łæĥ¯
æ¯įä¹³åĸĤåħ» çļĦ
åĲĥä¸ľè¥¿ å¾Īä¹ħ
æ¶²ä½ĵ æµģåĩº
æŀķ å¤´
ç§ĳåŃ¦ çļĦ
ä¸Ńèį¯è°ĥçĲĨ çľĭçľĭ
ç£¨ æĵ¦
åĲ¡ åĸ¹
éĺ¿èİ«è¥¿æŀĹ åħĭæĭī
æ²»æĦĪçļĦ çĽ®çļĦ
çģĮæ³¨ åĮĸçĸĹ
æĢ§æ¿Ģç´ł æ°´å¹³
è¤ ¶
æŁ¥æĺİ åıĳçĥŃçļĦçĹħåĽł
æĪª æĸŃ
å°ģ åłµ
è¿Ļä¹Ī å°ı
æİ§åĪ¶çĹħæĥħ å¤ĸ
åĬŁèĥ½æĢ§ æ¶ĪåĮĸä¸įèī¯
ä¸īç»´ éĩįå»º
éĿĴéľīç´ł ç±»
è¦ģä¿ĿæĮģ èī¯å¥½ç§¯æŀģåĲĳä¸ĬçļĦ
åİ»æ£ĢæŁ¥ äºĨ
æŃ¢åĴ³ åĮĸçĹ°
ç«ĭåĪ» å°±è¯Ĭ
åŁºåºķ åĬ¨èĦī
èĴĻ åı¤
è¸ı å®ŀ
ä¸ªäººçļĦ å®ŀéĻħæĥħåĨµæĿ¥
æ¡¡ éª¨å¤´
èĥİåĦ¿çļĦ çĶŁéķ¿åıĳèĤ²
ä¸ĭé¢Į éª¨
è¿Ļä¸ªæĹ¶åĢĻ åı¯ä»¥ç»ĻåŃ©åŃĲåı£æľį
å»ºè®®åıĬæĹ¶ å°±è¯Ĭ
çĳŀ èĪĴä¼Ĳä»ĸæ±Ģ
çĦ¶åĲİåĨį æŁ¥æĺİåıĳçĥŃçļĦçĹħåĽł
é¢Ħéĺ²åĴĮ ä¿Ŀåģ¥å·¥ä½ľ
èĿ¶ çª¦
ç»¼åĲĪè¯Ħä»· æ²»çĸĹ
çĸ¼çļĦ åİīå®³
åħ¥è·¯ æīĭæľ¯
çĻ½å¸¦å¸¸è§Ħ ä»Ķç»Ĩæ£ĢæŁ¥
å¥½å¤ļ å¹´äºĨ
æ£ĺ çªģ
éĥ½å¾Ī æŃ£å¸¸
æł¹æį®ä½łæīĢ è¯´çļĦæĥħåĨµ
ä¸Ĭèħ¹éĥ¨ çĸ¼çĹĽ
è¿ĩæĿ¥ åĴ¨è¯¢
æĳĦæ°ı åº¦çļĦ
è®°å¿ĨåĬĽ ä¸ĭéĻį
è¡¥åħħå¤ļç§įç»´çĶŁç´ł åĴĮå¾®éĩıåħĥç´ł
æ´ĭ åľ°é»Ħ
æĹ©åıĳçİ° æĹ©
çļĦå¸¸è§ģ çĹħ
å¹¸ ç¦ı
éĴĿ çĹĽ
ç¢±æĢ§ ç£·éħ¸éħ¶
å»ºè®®æĤ£èĢħåıĬæĹ¶ å®ŀæĸ½æ²»çĸĹ
æıĴæīĭ æ²»çĸĹ
æıĴæīĭ æķĳæ²»
é¹¿ èĮ¸
åĲĥä¸įä¸ĭåİ» é¥Ń
ä½łè¿Ļç§įæĥħåĨµ åı¯èĥ½æĺ¯
å®£ ä¼ł
åĳĭ å¡ŀç±³
ä½Ĩæĺ¯çĶ±äºİæĤ£èĢħçĹĩçĬ¶ä¸įåĲĮæīĢä»¥éĩĩçĶ¨ çļĦæ²»çĸĹæĸ¹æ³ķä¹Łå°±ä¸įä¸Ģæł·
éľį ä¹±
æ¯ıå¤©éĥ½ çī¹éļ¾åıĹ
åı¯ä»¥åįıåĬ© åĪ°
èĤºæ³¡ çģĮæ´Ĺ
åľ¨çĶŁæ´»ä¸ŃçĶ¨åģıæĸ¹ ä½ľä¸ºè¾ħåĬ©æ²»çĸĹ
æķ´å½¢ æīĭæľ¯
ç²¾åŃĲçļĦ è´¨éĩı
ç§Ĵ éĴŁ
æ¬£ æħ°
å¹½éĹ¨èŀºæĿĨèıĮ æĦŁæŁĵ
åĩºçİ°è¿Ļç§įæĥħåĨµ æĪĳæĺ¯å¾Īå®³æĢķ
ä¼¤åıĬ çĶŁåĳ½
è¯¥æĢİä¹Īæł· æ²»
è¯¥æĢİä¹Īæł· æ²»çĸĹ
æīįçŁ¥éģĵ æĺ¯
è½»è½» çļĦ
çĥ· èĥº
æĽ¿ä»£ æ²»çĸĹ
æīĢä»¥æĪĳ è¿ĩæĿ¥åĴ¨è¯¢
å»ºè®®æĤ£èĢħå¤ļæ³¨æĦı æ³¨æĦıéĺ´éĥ¨åį«çĶŁ
é¢Ŀåı¶ çĻ«çĹ«
çĽ¸äºĴ ä½ľçĶ¨
æ£ĢæŁ¥åĴĮ æķĳæ²»
å¡ĳ å½¢
å¤§å°ıä¾¿ å¤±ç¦ģ
äºĳåįĹ çĻ½èį¯
æĹ¶ä¸į æĹ¶çļĦ
æĬ¤èĤĿ çīĩ
ç»Ħç»ĩçĹħçĲĨ åŃ¦æ£ĢæŁ¥
èħĶéļĻæĢ§ èĦĳæ¢ĹæŃ»
ä¸Ģå°ı éĥ¨åĪĨ
èĮµ éĻĪ
æł¹ç®¡ æ²»çĸĹ
it is
ç¦ģéħĴ éħĴ
åħ¶æ¬¡æĺ¯ ç»ĵç¼Ķç»Ħç»ĩçĹħ
æĹłé¡» æ²»çĸĹ
æ°¨èĭĦ è¥¿æŀĹ
éĺĪ åĢ¼
åľ¨è¿Ļ æľŁéĹ´
å¥½åĩłå¤© äºĨ
èĢĮä¸Ķè¿ĺæľī èĥĢæ°Ķ
éļĲåĮ¿ æĢ§
éĻ¤äºĨåĨįæľįçĶ¨èį¯çī© æİ§åĪ¶çĹħæĥħå¤ĸ
å°ıåŃ©åĦ¿ ä¸ŃèĢ³çĤİ
ä¼¼ä¹İ æ²¡æľīç²¾ç¥ŀ
èĦĳåŀĤä½ĵ çĺ¤
èħ¹ä¸»åĬ¨èĦī çĺ¤
å¦ĩçĤİ åº·
å¾Īé«ĺåħ´ä¸ºæĤ¨è§£æĥĳ éĹ®é¢ĺ
èĥ½ç¼ĵè§£ åĲĹ
èĦīç®¡ çĤİ
å±ŀçļĦ æ¤įçī©
åı¯å¸®åĬ© ç¼ĵè§£çĹĽèĭ¦
æ¼± åı£
è§īå¾Ĺç§ģå¤Ħ å¾Īä¸įèĪĴæľį
åı·æĿ¥çļĦ æľĪç»ı
åĨłçĬ¶çĹħæ¯Ĵ çĹħ
æľĢå¸¸è§ģçļĦæĺ¯ æĦŁæŁĵ
é«ĺåĪĨè¾¨ çİĩ
è¿ĳå¹´ æĿ¥
åĹħ è§ī
çŀ§ è§ģ
çĤĶéĽĮéĨĩ çīĩ
çĤī çĶĺçŁ³
åĬ¨ä¸įåĬ¨ å°ıèħ¹çĸ¼çĹĽ
åĲ¦åĪĻä¼ļå¯¼èĩ´çĸ¾çĹħ åĨįæ¬¡å¤įåıĳ
æºľ åĨ°
æ³¡èħ¾ çīĩ
æ¥Ķ å½¢
è¦ģæł¹æį®æĤ£èĢħ æĥħåĨµåĴĮ
éħĴç²¾æĵ¦æµ´ éĢĢçĥŃ
åĽłä¸ºå·¥ä½ľ åİŁåĽł
èĶĹ ç³ĸ
éĥ¨åĪĨåŃ©åŃĲè¿ĺ åı¯èĥ½ä¼´æľīåıĳçĥ§çļĦæĥħåĨµ
ä¹³éħ¸èıĮç´ł çīĩ
éĴ¼ éĿ¶
åĲ² åĵļ
æ²ģ åĩº
åĬŀåħ¬ å®¤
é¦ĸåħĪæĤ¨ è¦ģä¿ĿæĮģèī¯å¥½ç§¯æŀģåĲĳä¸ĬçļĦ
å¸ĮæľĽå®¶éķ¿èĥ½å¤Ł éĩįè§Ĩè¿Ļä¸Ģçĸ¾çĹħ
å¤§çİ¯ åĨħéħ¯
åĪĨä¸įæ¸ħ æĺ¯
ä¿ĿåĴĮ ä¸¸
[...]
