{
  "version": "1.0",
  "truncation": null,
  "padding": null,
  "added_tokens": [
    {
      "id": 0,
      "content": "<|endoftext|>",
      "single_word": false,
      "lstrip": false,
      "rstrip": false,
      "normalized": true,
      "special": true
    },
    {
      "id": 1,
      "content": "<|pad|>",
      "single_word": false,
      "lstrip": false,
      "rstrip": false,
      "normalized": false,
      "special": true
    }
  ],
  "normalizer": null,
  "pre_tokenizer": {
    "type": "ByteLevel",
    "add_prefix_space": false,
    "trim_offsets": true,
    "use_regex": true
  },
  "post_processor": {
    "type": "ByteLevel",
    "add_prefix_space": true,
    "trim_offsets": false,
    "use_regex": true
  },
  "decoder": {
    "type": "ByteLevel",
    "add_prefix_space": true,
    "trim_offsets": true,
    "use_regex": true
  },
  "model": {
    "type": "BPE",
    "dropout": null,
    "unk_token": null,
    "continuing_subword_prefix": "",
    "end_of_word_suffix": "",
    "fuse_unk": false,
    "byte_fallback": false,
    "ignore_merges": false,
    "vocab": {
      "<|endoftext|>": 0,
      "<|pad|>": 1,
      "!": 2,
      "\"": 3,
      "#": 4,
      "$": 5,
      "%": 6,
      "&": 7,
      "'": 8,
      "(": 9,
      ")": 10,
      "*": 11,
      "+": 12,
      ",": 13,
      "-": 14,
      ".": 15,
      "/": 16,
      "0": 17,
      "1": 18,
      "2": 19,
      "3": 20,
      "4": 21,
      "5": 22,
      "6": 23,
      "7": 24,
      "8": 25,
      "9": 26,
      ":": 27,
      ";": 28,
      "<": 29,
      "=": 30,
      ">": 31,
      "?": 32,
      "@": 33,
      "A": 34,
      "B": 35,
      "C": 36,
      "D": 37,
      "E": 38,
      "F": 39,
      "G": 40,
      "H": 41,
      "I": 42,
      "J": 43,
      "K": 44,
      "L": 45,
      "M": 46,
      "N": 47,
      "O": 48,
      "P": 49,
      "Q": 50,
      "R": 51,
      "S": 52,
      "T": 53,
      "U": 54,
      "V": 55,
      "W": 56,
      "X": 57,
      "Y": 58,
      "Z": 59,
      "[": 60,
      "\\": 61,
      "]": 62,
      "^": 63,
      "_": 64,
      "`": 65,
      "a": 66,
      "b": 67,
      "c": 68,
      "d": 69,
      "e": 70,
      "f": 71,
      "g": 72,
      "h": 73,
      "i": 74,
      "j": 75,
      "k": 76,
      "l": 77,
      "m": 78,
      "n": 79,
      "o": 80,
      "p": 81,
      "q": 82,
      "r": 83,
      "s": 84,
      "t": 85,
      "u": 86,
      "v": 87,
      "w": 88,
      "x": 89,
      "y": 90,
      "z": 91,
      "{": 92,
      "|": 93,
      "}": 94,
      "~": 95,
      "¡": 96,
      "¢": 97,
      "£": 98,
      "¤": 99,
      "¥": 100,
      "¦": 101,
      "§": 102,
      "¨": 103,
      "©": 104,
      "ª": 105,
      "«": 106,
      "¬": 107,
      "®": 108,
      "¯": 109,
      "°": 110,
      "±": 111,
      "²": 112,
      "³": 113,
      "´": 114,
      "µ": 115,
      "¶": 116,
      "·": 117,
      "¸": 118,
      "¹": 119,
      "º": 120,
      "»": 121,
      "¼": 122,
      "½": 123,
      "¾": 124,
      "¿": 125,
      "À": 126,
      "Á": 127,
      "Â": 128,
      "Ã": 129,
      "Ä": 130,
      "Å": 131,
      "Æ": 132,
      "Ç": 133,
      "È": 134,
      "É": 135,
      "Ê": 136,
      "Ë": 137,
      "Ì": 138,
      "Í": 139,
      "Î": 140,
      "Ï": 141,
      "Ð": 142,
      "Ñ": 143,
      "Ò": 144,
      "Ó": 145,
      "Ô": 146,
      "Õ": 147,
      "Ö": 148,
      "×": 149,
      "Ø": 150,
      "Ù": 151,
      "Ú": 152,
      "Û": 153,
      "Ü": 154,
      "Ý": 155,
      "Þ": 156,
      "ß": 157,
      "à": 158,
      "á": 159,
      "â": 160,
      "ã": 161,
      "ä": 162,
      "å": 163,
      "æ": 164,
      "ç": 165,
      "è": 166,
      "é": 167,
      "ê": 168,
      "ë": 169,
      "ì": 170,
      "í": 171,
      "î": 172,
      "ï": 173,
      "ð": 174,
      "ñ": 175,
      "ò": 176,
      "ó": 177,
      "ô": 178,
      "õ": 179,
      "ö": 180,
      "÷": 181,
      "ø": 182,
      "ù": 183,
      "ú": 184,
      "û": 185,
      "ü": 186,
      "ý": 187,
      "þ": 188,
      "ÿ": 189,
      "Ā": 190,
      "ā": 191,
      "Ă": 192,
      "ă": 193,
      "Ą": 194,
      "ą": 195,
      "Ć": 196,
      "ć": 197,
      "Ĉ": 198,
      "ĉ": 199,
      "Ċ": 200,
      "ċ": 201,
      "Č": 202,
      "č": 203,
      "Ď": 204,
      "ď": 205,
      "Đ": 206,
      "đ": 207,
      "Ē": 208,
      "ē": 209,
      "Ĕ": 210,
      "ĕ": 211,
      "Ė": 212,
      "ė": 213,
      "Ę": 214,
      "ę": 215,
      "Ě": 216,
      "ě": 217,
      "Ĝ": 218,
      "ĝ": 219,
      "Ğ": 220,
      "ğ": 221,
      "Ġ": 222,
      "ġ": 223,
      "Ģ": 224,
      "ģ": 225,
      "Ĥ": 226,
      "ĥ": 227,
      "Ħ": 228,
      "ħ": 229,
      "Ĩ": 230,
      "ĩ": 231,
      "Ī": 232,
      "ī": 233,
      "Ĭ": 234,
      "ĭ": 235,
      "Į": 236,
      "į": 237,
      "İ": 238,
      "ı": 239,
      "Ĳ": 240,
      "ĳ": 241,
      "Ĵ": 242,
      "ĵ": 243,
      "Ķ": 244,
      "ķ": 245,
      "ĸ": 246,
      "Ĺ": 247,
      "ĺ": 248,
      "Ļ": 249,
      "ļ": 250,
      "Ľ": 251,
      "ľ": 252,
      "Ŀ": 253,
      "ŀ": 254,
      "Ł": 255,
      "ł": 256,
      "Ń": 257,
      "ï¼": 258,
      "ï¼Į": 259,
      "ä¸": 260,
      "çļ": 261,
      "çļĦ": 262,
      "æľ": 263,
      "åı": 264,
      "ãĢ": 265,
      "å¤": 266,
      "çĹ": 267,
      "äº": 268,
      "ä»": 269,
      "æĺ": 270,
      "ä¹": 271,
      "åĲ": 272,
      "çĸ": 273,
      "çĶ": 274,
      "ãĢĤ": 275,
      "æĢ": 276,
      "æ²": 277,
      "ä½": 278,
      "æĺ¯": 279,
      "æľī": 280,
      "ç»": 281,
      "è¿": 282,
      "èĤ": 283,
      "æ²»": 284,
      "å°": 285,
      "æĹ": 286,
      "èĥ": 287,
      "å®": 288,
      "åĪ": 289,
      "ä¸į": 290,
      "çĸĹ": 291,
      "åħ": 292,
      "ä¹Ī": 293,
      "æ²»çĸĹ": 294,
      "çĹħ": 295,
      "åŃ": 296,
      "ï¼Ľ": 297,
      "è¡": 298,
      "æĢ§": 299,
      "åĬ": 300,
      "ï¼Ł": 301,
      "æĪ": 302,
      "è¯": 303,
      "åĮ": 304,
      "åĨ": 305,
      "¦ģ": 306,
      "èĢ": 307,
      "ä¸Ģ": 308,
      "è¦ģ": 309,
      "åı¯": 310,
      "å¥": 311,
      "æī": 312,
      "åĽ": 313,
      "ä»¥": 314,
      "ä»Ģ": 315,
      "ä»Ģä¹Ī": 316,
      "èį": 317,
      "ä¼": 318,
      "ãĢģ": 319,
      "çĶŁ": 320,
      "åº": 321,
      "æĹ¶": 322,
      "çī": 323,
      "æ³": 324,
      "æĦ": 325,
      "è§": 326,
      "æŁ": 327,
      "å¸": 328,
      "åıĳ": 329,
      "åĩ": 330,
      "å¹": 331,
      "çĤ": 332,
      "å¼": 333,
      "æĥ": 334,
      "å¥½": 335,
      "èį¯": 336,
      "æĤ": 337,
      "å¾": 338,
      "å¯": 339,
      "å¿": 340,
      "å¤ļ": 341,
      "ç§": 342,
      "èħ": 343,
      "éĩ": 344,
      "éĻ": 345,
      "æĸ": 346,
      "èĦ": 347,
      "çĹĩ": 348,
      "èĥ½": 349,
      "é£": 350,
      "äºĨ": 351,
      "åİ": 352,
      "äºĽ": 353,
      "çİ": 354,
      "æŀ": 355,
      "éĹ": 356,
      "çĶ¨": 357,
      "è¾": 358,
      "åľ": 359,
      "å¦": 360,
      "è¡Ģ": 361,
      "åĴ": 362,
      "åį": 363,
      "æķ": 364,
      "é£Ł": 365,
      "æ°": 366,
      "æľ¯": 367,
      "éĺ": 368,
      "åĮ»": 369,
      "çĤİ": 370,
      "æ£": 371,
      "æŃ": 372,
      "æŁ¥": 373,
      "èĢħ": 374,
      "çĻ": 375,
      "æł": 376,
      "åı¯ä»¥": 377,
      "æĥħ": 378,
      "æ£Ģ": 379,
      "åľ¨": 380,
      "å½": 381,
      "çİ°": 382,
      "çī©": 383,
      "åĲİ": 384,
      "æĤ£": 385,
      "éĢ": 386,
      "éĥ": 387,
      "åī": 388,
      "æĿ": 389,
      "èĩ": 390,
      "å¸¸": 391,
      "æĬ": 392,
      "ä½ĵ": 393,
      "é¢": 394,
      "åŃĲ": 395,
      "åģ": 396,
      "æ£ĢæŁ¥": 397,
      "è®": 398,
      "ä¼ļ": 399,
      "åĽł": 400,
      "ç´": 401,
      "æŀľ": 402,
      "çĽ": 403,
      "æ¯": 404,
      "æīĭ": 405,
      "å·": 406,
      "çĬ": 407,
      "éģ": 408,
      "æľīäºĽ": 409,
      "æĪĳ": 410,
      "å¦Ĥ": 411,
      "çĬ¶": 412,
      "è¿Ļ": 413,
      "æľīäºĽä»Ģä¹Ī": 414,
      "ç»ı": 415,
      "åĩº": 416,
      "æĤ£èĢħ": 417,
      "åĴĮ": 418,
      "å¿ĥ": 419,
      "å¤§": 420,
      "æľŁ": 421,
      "æİ": 422,
      "çĲ": 423,
      "ä½ł": 424,
      "ä¸Ń": 425,
      "å¯¹": 426,
      "ä¸ĭ": 427,
      "æĦı": 428,
      "ä¸ª": 429,
      "ä¸Ĭ": 430,
      "åĳ": 431,
      "æ¶": 432,
      "æĮ": 433,
      "åĲĥ": 434,
      "å°±": 435,
      "æīĭæľ¯": 436,
      "çŃ": 437,
      "æ´": 438,
      "çĲĨ": 439,
      "éħ": 440,
      "æĢİ": 441,
      "ä¸º": 442,
      "éĿ": 443,
      "åĵ": 444,
      "çľ": 445,
      "å¤į": 446,
      "éķ": 447,
      "åīį": 448,
      "ç´ł": 449,
      "éľ": 450,
      "çĺ": 451,
      "å°ı": 452,
      "æĿ¥": 453,
      "åĨµ": 454,
      "è¿ĩ": 455,
      "ç²": 456,
      "åıĬ": 457,
      "ç®": 458,
      "çĹĽ": 459,
      "å»": 460,
      "åĨħ": 461,
      "é«": 462,
      "æĸ¹": 463,
      "é¥": 464,
      "çĥ": 465,
      "æĦŁ": 466,
      "çŃī": 467,
      "ç»Ĩ": 468,
      "æĥħåĨµ": 469,
      "å¤ĸ": 470,
      "åĪ°": 471,
      "ä¹Ł": 472,
      "åĮĸ": 473,
      "æĪĸ": 474,
      "æµ": 475,
      "éĻ¢": 476,
      "éĩį": 477,
      "åĲĪ": 478,
      "äºİ": 479,
      "ç®¡": 480,
      "éĥ¨": 481,
      "æĢİä¹Ī": 482,
      "å»º": 483,
      "æ³¨": 484,
      "è¿ĺ": 485,
      "éĹ®": 486,
      "äºº": 487,
      "è®®": 488,
      "å»ºè®®": 489,
      "ä¾": 490,
      "åĮ»éĻ¢": 491,
      "çĹĩçĬ¶": 492,
      "æģ": 493,
      "æį": 494,
      "æ¬": 495,
      "æ¸": 496,
      "åºĶ": 497,
      "å¤©": 498,
      "èĤ¿": 499,
      "éģĵ": 500,
      "é«ĺ": 501,
      "éľĢ": 502,
      "å®ļ": 503,
      "çº": 504,
      "å¾Ī": 505,
      "é¥®": 506,
      "æ°´": 507,
      "åģļ": 508,
      "èĪ": 509,
      "èº": 510,
      "å°¿": 511,
      "èħº": 512,
      "èµ": 513,
      "æľĪ": 514,
      "ç»ĵ": 515,
      "ç³": 516,
      "æĶ": 517,
      "ç§į": 518,
      "éĹ´": 519,
      "ä¿": 520,
      "å¼ķ": 521,
      "èº«": 522,
      "åĬ¨": 523,
      "æľį": 524,
      "å¹´": 525,
      "ç¡": 526,
      "æ´»": 527,
      "åİ»": 528,
      "æ¬¡": 529,
      "éľĢè¦ģ": 530,
      "ï¼ļ": 531,
      "åĦ": 532,
      "åĦ¿": 533,
      "éª": 534,
      "åĪĨ": 535,
      "éķ¿": 536,
      "åŃ©": 537,
      "æĹ©": 538,
      "èį¯çī©": 539,
      "æ²¡": 540,
      "æ³ķ": 541,
      "è´": 542,
      "æľĢ": 543,
      "åĲĹ": 544,
      "è¶": 545,
      "çĺ¤": 546,
      "è°": 547,
      "å®Ŀ": 548,
      "èĨ": 549,
      "æł·": 550,
      "ç¥": 551,
      "æ³¨æĦı": 552,
      "é¥®é£Ł": 553,
      "æĭ": 554,
      "åĸ": 555,
      "ç¼": 556,
      "çļ®": 557,
      "åŃķ": 558,
      "å®«": 559,
      "çĻĮ": 560,
      "æĺ¯ä»Ģä¹Ī": 561,
      "¾çĹħ": 562,
      "èī": 563,
      "çĿ": 564,
      "éĺ´": 565,
      "çŁ": 566,
      "èµ·": 567,
      "å¦Ĥæŀľ": 568,
      "éļ": 569,
      "èĤĿ": 570,
      "èĩª": 571,
      "èı": 572,
      "è¯Ĭ": 573,
      "å¢": 574,
      "è½": 575,
      "çĸ¾çĹħ": 576,
      "åĲĮ": 577,
      "æŃ£": 578,
      "æĹł": 579,
      "è¯´": 580,
      "ç§ĳ": 581,
      "å½±": 582,
      "å¾Ĺ": 583,
      "ä½ľ": 584,
      "éĴ": 585,
      "åĬ©": 586,
      "èĻ": 587,
      "èĩ´": 588,
      "æ·": 589,
      "æĤ¨": 590,
      "èĦĳ": 591,
      "æķĪ": 592,
      "èĢĮ": 593,
      "æĪĲ": 594,
      "åŃ©åŃĲ": 595,
      "è¿Ľ": 596,
      "è¾ĥ": 597,
      "å±": 598,
      "éĩı": 599,
      "åı£": 600,
      "çľĭ": 601,
      "åİŁ": 602,
      "æĻ": 603,
      "éĻ¤": 604,
      "çĻ½": 605,
      "å¢ŀ": 606,
      "æŁĵ": 607,
      "ç²¾": 608,
      "è¡Į": 609,
      "éĥ½": 610,
      "èħ¹": 611,
      "å¯¼": 612,
      "æ¿": 613,
      "å¹¶": 614,
      "æ¿Ģ": 615,
      "å°ĳ": 616,
      "åº·": 617,
      "åĩºçİ°": 618,
      "å¤´": 619,
      "èĪ¬": 620,
      "ä¿Ŀ": 621,
      "ä¸ĢèĪ¬": 622,
      "å¹³": 623,
      "è¯·": 624,
      "åı¯èĥ½": 625,
      "èĬ": 626,
      "é£Łçī©": 627,
      "æ¸ħ": 628,
      "æ°Ķ": 629,
      "éĺ²": 630,
      "æ¯Ķ": 631,
      "èĤł": 632,
      "æ¶²": 633,
      "åº¦": 634,
      "ä¸Ķ": 635,
      "ä½Ĩ": 636,
      "åĬĽ": 637,
      "éª¨": 638,
      "çĸ¼": 639,
      "åĨį": 640,
      "è¡¨": 641,
      "æł¹": 642,
      "èĥĥ": 643,
      "çķ": 644,
      "è§ī": 645,
      "ç¥ŀ": 646,
      "çĶŁæ´»": 647,
      "æĮģ": 648,
      "åħį": 649,
      "å½ĵ": 650,
      "æķĳ": 651,
      "æ²»çĸĹæľīäºĽä»Ģä¹Ī": 652,
      "åĿ": 653,
      "åĢ": 654,
      "åĽĬ": 655,
      "ä½¿": 656,
      "ï¼Łï¼Į": 657,
      "åĬŁ": 658,
      "æ¶Ī": 659,
      "æīĢ": 660,
      "èĤ¾": 661,
      "åİĭ": 662,
      "é»": 663,
      "è§£": 664,
      "è§ģ": 665,
      "èĨľ": 666,
      "åĬł": 667,
      "æķĳæ²»": 668,
      "æĬĹ": 669,
      "éĿ¢": 670,
      "è§Ħ": 671,
      "æµģ": 672,
      "åħ¶": 673,
      "çĤ¹": 674,
      "ä¼¤": 675,
      "ä¸»": 676,
      "è´¨": 677,
      "åĮ»çĶŁ": 678,
      "åħ³": 679,
      "è¯·éĹ®": 680,
      "èĦī": 681,
      "æį®": 682,
      "çĹħæĥħ": 683,
      "ä½İ": 684,
      "å²": 685,
      "åıĬæĹ¶": 686,
      "ä¹³": 687,
      "åĬŁèĥ½": 688,
      "çĽ´": 689,
      "åįµ": 690,
      "æĬ¤": 691,
      "è°ĥ": 692,
      "ç±": 693,
      "ç¡®": 694,
      "åħ»": 695,
      "æħ": 696,
      "èıĮ": 697,
      "åıĺ": 698,
      "äº§": 699,
      "è¯¥": 700,
      "æĸ¹æ³ķ": 701,
      "æĦŁæŁĵ": 702,
      "éĢļ": 703,
      "æĹ¶éĹ´": 704,
      "å¼ķèµ·": 705,
      "ä¾¿": 706,
      "æĥ³": 707,
      "éħ¸": 708,
      "ä»Ķ": 709,
      "ä½łå¥½": 710,
      "ä»Ķç»Ĩ": 711,
      "æĽ": 712,
      "åĮħ": 713,
      "åºĬ": 714,
      "è¶ħ": 715,
      "ä¸¥": 716,
      "åŀ": 717,
      "åĪº": 718,
      "åĪ¶": 719,
      "ç¨": 720,
      "æĺİ": 721,
      "èĤº": 722,
      "æł¹æį®": 723,
      "æİ¨": 724,
      "èĲ": 725,
      "è¡¨çİ°": 726,
      "çĶ²": 727,
      "èĥŀ": 728,
      "ç«": 729,
      "ä½į": 730,
      "äºĭ": 731,
      "è¿ĳ": 732,
      "çļĦæ²»çĸĹ": 733,
      "åŃ¦": 734,
      "æŃ¤": 735,
      "æĺĵ": 736,
      "å²ģ": 737,
      "å¥³": 738,
      "åĪĹ": 739,
      "æŃ¢": 740,
      "åĬŀ": 741,
      "é¢Ī": 742,
      "ä¹ĭ": 743,
      "ä¸įè¦ģ": 744,
      "çļĦæĥħåĨµ": 745,
      "æħ¢": 746,
      "åħ¨": 747,
      "èī¯": 748,
      "ç»Ĩèĥŀ": 749,
      "æ¯Ĵ": 750,
      "åĥ": 751,
      "å®¶": 752,
      "åıį": 753,
      "èĤ²": 754,
      "ä¸¥éĩį": 755,
      "è¿Ľè¡Į": 756,
      "çĶ·": 757,
      "èĢĥ": 758,
      "åĢĻ": 759,
      "åĵį": 760,
      "ç¢": 761,
      "ç§¯": 762,
      "æķĪæŀľ": 763,
      "æı": 764,
      "èĤĮ": 765,
      "çīĩ": 766,
      "æ¯Ķè¾ĥ": 767,
      "ä»Ķç»Ĩæ£ĢæŁ¥": 768,
      "å½±åĵį": 769,
      "ç»´": 770,
      "æĬ¤çĲĨ": 771,
      "åĥı": 772,
      "æĹ¶åĢĻ": 773,
      "æŃ£å¸¸": 774,
      "ç³ĸ": 775,
      "åİŁåĽł": 776,
      "æīį": 777,
      "æĹ¥": 778,
      "æĸŃ": 779,
      "«çĹ": 780,
      "æĮĩ": 781,
      "ä¸´": 782,
      "åĪĩ": 783,
      "åĩı": 784,
      "åīįåĪĹ": 785,
      "å®Ŀå®Ŀ": 786,
      "èĭ": 787,
      "å®ŀ": 788,
      "çİ°åľ¨": 789,
      "ä¸ī": 790,
      "èħĶ": 791,
      "èº«ä½ĵ": 792,
      "è¿Ļç§į": 793,
      "çŁ¥": 794,
      "è¾ħ": 795,
      "å¼Ģ": 796,
      "å¦ĩ": 797,
      "èĻĳ": 798,
      "åīįåĪĹèħº": 799,
      "åĩł": 800,
      "çĦ": 801,
      "å¸¦": 802,
      "é»Ħ": 803,
      "å£": 804,
      "æĢĢ": 805,
      "çª": 806,
      "çī¹": 807,
      "å¹²": 808,
      "ä¸´åºĬ": 809,
      "å§": 810,
      "æ®": 811,
      "éĢĤ": 812,
      "åĽŀ": 813,
      "åģ¥": 814,
      "å¿«": 815,
      "åĳ¨": 816,
      "ç¥ŀç»ı": 817,
      "çĶ±": 818,
      "å¯¼èĩ´": 819,
      "ä¿ĿæĮģ": 820,
      "çĥŃ": 821,
      "æ²¡æľī": 822,
      "æ±": 823,
      "æģ¯": 824,
      "ä¸Ģå®ļ": 825,
      "ä»ĸ": 826,
      "æľĪç»ı": 827,
      "å°Ħ": 828,
      "ä¸İ": 829,
      "åĵª": 830,
      "ä½ķ": 831,
      "æľ¬": 832,
      "æ¡": 833,
      "åŀĭ": 834,
      "èĬĤ": 835,
      "è¾ħåĬ©": 836,
      "çĻ«çĹ": 837,
      "çĻ«çĹ«": 838,
      "éĶ": 839,
      "å¼Ĥ": 840,
      "è¿Ļä¸ª": 841,
      "åĸĿ": 842,
      "ä¸»è¦ģ": 843,
      "åĪºæ¿Ģ": 844,
      "è¯Ŀ": 845,
      "ä½Ĩæĺ¯": 846,
      "åĲ¸": 847,
      "é¢Ħ": 848,
      "éľĢè¦ģæľī": 849,
      "æĸ½": 850,
      "èĢĮä¸Ķ": 851,
      "æĢ¥": 852,
      "å¹³æĹ¶": 853,
      "é¾": 854,
      "æ¤": 855,
      "æİĴ": 856,
      "åŁ": 857,
      "çģ": 858,
      "èįĲ": 859,
      "æİ¨èįĲ": 860,
      "é¢ĺ": 861,
      "éģ¿": 862,
      "ä¸¤": 863,
      "éĹ®é¢ĺ": 864,
      "èĤ¿çĺ¤": 865,
      "çļĦçĹĩçĬ¶": 866,
      "ç±»": 867,
      "ç³»": 868,
      "ç»Ļ": 869,
      "åĨįæ¬¡": 870,
      "åİ»åĮ»éĻ¢": 871,
      "èī²": 872,
      "åıĹ": 873,
      "èĢĥèĻĳ": 874,
      "ä¸ªæľĪ": 875,
      "çļĦæİ¨èįĲ": 876,
      "çļĦæİ¨èįĲèį¯": 877,
      "å¯¹çĹĩ": 878,
      "ä¸įèĥ½": 879,
      "å¼º": 880,
      "æįŁ": 881,
      "çĦ¶": 882,
      "åĪ«": 883,
      "è¡Ģç®¡": 884,
      "è¡¥": 885,
      "çĸ¼çĹĽ": 886,
      "çķĻ": 887,
      "å®³": 888,
      "è¾ĵ": 889,
      "åķ": 890,
      "åħĪ": 891,
      "æĢİä¹ĪåĬŀ": 892,
      "åĲĮæĹ¶": 893,
      "èĢģ": 894,
      "åŃĲå®«": 895,
      "æľĢè¿ĳ": 896,
      "çļĦè¾ħåĬ©": 897,
      "è¿°": 898,
      "çĹħåĽł": 899,
      "èĤī": 900,
      "ï¼ģ": 901,
      "æ£ĢæŁ¥æľīäºĽä»Ģä¹Ī": 902,
      "ä¸¸": 903,
      "çļĦè¯Ŀ": 904,
      "çº¢": 905,
      "æĶ¾": 906,
      "å¸®": 907,
      "çĽ¸": 908,
      "çļĦæİ¨èįĲèį¯æľīäºĽä»Ģä¹Ī": 909,
      "åıĳçĶŁ": 910,
      "å¥½çļĦ": 911,
      "éĺ´éģĵ": 912,
      "çĥ§": 913,
      "ä¸Ģä¸ĭ": 914,
      "èĮ": 915,
      "è¾£": 916,
      "åģ¥åº·": 917,
      "ä¼ł": 918,
      "è¾Ľ": 919,
      "å½¢": 920,
      "åľ°": 921,
      "æ»": 922,
      "ç¾": 923,
      "çļĦæīĭæľ¯": 924,
      "åıª": 925,
      "å¡": 926,
      "éĤ": 927,
      "å·²": 928,
      "éķľ": 929,
      "çĶŁç´ł": 930,
      "ç¼ĵ": 931,
      "è¥": 932,
      "çĽ®": 933,
      "æº": 934,
      "èĦı": 935,
      "è¥¿": 936,
      "å§ĭ": 937,
      "å¦Ĥä½ķ": 938,
      "åı£æľį": 939,
      "è·": 940,
      "çĤİçĹĩ": 941,
      "èĽ": 942,
      "ä¸ĢäºĽ": 943,
      "é¼": 944,
      "çĿĢ": 945,
      "æĤ¨å¥½": 946,
      "æĢ»": 947,
      "éĿŀ": 948,
      "é¡": 949,
      "å¿ħ": 950,
      "åº·å¤į": 951,
      "éĻį": 952,
      "å®¹": 953,
      "å®«é¢Ī": 954,
      "å°½": 955,
      "âĢ": 956,
      "å¤±": 957,
      "æ¯ı": 958,
      "åıĳçĹħ": 959,
      "åĳ¢": 960,
      "çļĦæīĭæľ¯æ²»çĸĹæľīäºĽä»Ģä¹Ī": 961,
      "åºĶè¯¥": 962,
      "æ·¡": 963,
      "å¡ŀ": 964,
      "è¾Ľè¾£": 965,
      "æ³Ħ": 966,
      "èĥĨ": 967,
      "çļĦè¾ħåĬ©æ²»çĸĹæľīäºĽä»Ģä¹Ī": 968,
      "ç»Ħ": 969,
      "çļĦæĹ¶åĢĻ": 970,
      "çľ¼": 971,
      "è±": 972,
      "æĢĢåŃķ": 973,
      "è½¬": 974,
      "åĮħçļ®": 975,
      "æ³Į": 976,
      "æŀģ": 977,
      "åĽłç´ł": 978,
      "è¯ĬæĸŃ": 979,
      "éĩĩ": 980,
      "å·±": 981,
      "æĦŁè§ī": 982,
      "éĿĻ": 983,
      "çļĦé£Łçī©": 984,
      "é£İ": 985,
      "éĤ£": 986,
      "åħ¥": 987,
      "å¸®åĬ©": 988,
      "è¿ĺæĺ¯": 989,
      "æ¢": 990,
      "éħĴ": 991,
      "ç¼º": 992,
      "èĩªå·±": 993,
      "åĹ": 994,
      "å¼ł": 995,
      "å©": 996,
      "ä»¬": 997,
      "è¿Ļæł·": 998,
      "åĩºè¡Ģ": 999,
      "æīĢä»¥": 1000,
      "çĸ«": 1001,
      "ä¸įæĺ¯": 1002,
      "æĺ¾": 1003,
      "å£°": 1004,
      "æĻļ": 1005,
      "ç©": 1006,
      "å°±æĺ¯": 1007,
      "è½»": 1008,
      "èĥ¸": 1009,
      "å¤Ħ": 1010,
      "åĽŀäºĭ": 1011,
      "è°¢": 1012,
      "èĲ¥": 1013,
      "å·¦": 1014,
      "æħ¢æĢ§": 1015,
      "éĢł": 1016,
      "çķĻæĦı": 1017,
      "åŁº": 1018,
      "çĶ±äºİ": 1019,
      "é¢Ħéĺ²": 1020,
      "èĥİ": 1021,
      "çŁ¥éģĵ": 1022,
      "æľĽ": 1023,
      "èĩªèº«": 1024,
      "æĢģ": 1025,
      "ç½": 1026,
      "èĲ¥åħ»": 1027,
      "å¾®": 1028,
      "æĸ°": 1029,
      "ä¸Ńèį¯": 1030,
      "èĽĭ": 1031,
      "éĺ²æŃ¢": 1032,
      "è§Ĩ": 1033,
      "æģ¢": 1034,
      "æĹ©æ³Ħ": 1035,
      "è¿Ļç§įæĥħåĨµ": 1036,
      "æģ¢å¤į": 1037,
      "åīĤ": 1038,
      "åĵģ": 1039,
      "èĪĴ": 1040,
      "æĪ¿": 1041,
      "å°ıåĦ¿": 1042,
      "æĶ¯": 1043,
      "æ¸ħæ·¡": 1044,
      "åĵªäºĽ": 1045,
      "éĴĪ": 1046,
      "æľįçĶ¨": 1047,
      "ä¸´åºĬè¡¨çİ°": 1048,
      "åĴ³": 1049,
      "å®¹æĺĵ": 1050,
      "äºĮ": 1051,
      "ç»¼": 1052,
      "å¦ĩç§ĳ": 1053,
      "ä½ľçĶ¨": 1054,
      "æľĢå¥½": 1055,
      "ç»¼åĲĪ": 1056,
      "éļ¾": 1057,
      "ä¸ĢçĽ´": 1058,
      "è¿Ĳ": 1059,
      "è¶³": 1060,
      "åºķ": 1061,
      "éģ¿åħį": 1062,
      "æĪĸèĢħ": 1063,
      "åĽłä¸º": 1064,
      "æģ¶": 1065,
      "éħį": 1066,
      "æĢİä¹ĪåĽŀäºĭ": 1067,
      "èıľ": 1068,
      "æĦĪ": 1069,
      "å¤ļåĲĥ": 1070,
      "éĺ³": 1071,
      "ä¾§": 1072,
      "èĦĤ": 1073,
      "æķ°": 1074,
      "æĢİæł·": 1075,
      "æĶ¹": 1076,
      "ç¡¬": 1077,
      "éĿĻèĦī": 1078,
      "å±Ģ": 1079,
      "éļľ": 1080,
      "å·²ç»ı": 1081,
      "çĿ¡": 1082,
      "è¡Ģåİĭ": 1083,
      "æ¶ĪåĮĸ": 1084,
      "çİĩ": 1085,
      "å·¥": 1086,
      "è£": 1087,
      "åı³": 1088,
      "å®ŀæĸ½": 1089,
      "åĨįæ¬¡åĩºçİ°": 1090,
      "åį«": 1091,
      "åĬ¨èĦī": 1092,
      "æİ§": 1093,
      "åĭ": 1094,
      "æĳ": 1095,
      "çĪ": 1096,
      "å·´": 1097,
      "ç¢į": 1098,
      "å¾ģ": 1099,
      "åį«çĶŁ": 1100,
      "éĩĮ": 1101,
      "çİ¯": 1102,
      "åıĳçİ°": 1103,
      "ç»ĵæŀľ": 1104,
      "æ®µ": 1105,
      "ç¥Ŀ": 1106,
      "ç¼ĵè§£": 1107,
      "çŁ³": 1108,
      "åŃ¦æ£ĢæŁ¥æľīäºĽä»Ģä¹Ī": 1109,
      "é¼»": 1110,
      "çļĦä¸´åºĬè¡¨çİ°": 1111,
      "å¤ª": 1112,
      "åĨ·": 1113,
      "å¥³æĢ§": 1114,
      "ä¸ĵ": 1115,
      "ä¹ħ": 1116,
      "ä¸Ģç§į": 1117,
      "æĢ¥æĢ§": 1118,
      "ä½¿çĶ¨": 1119,
      "æ´Ĺ": 1120,
      "çĶ·æĢ§": 1121,
      "åħħ": 1122,
      "è¾ĵåįµ": 1123,
      "å¯¹äºİ": 1124,
      "å¼ķèµ·çļĦ": 1125,
      "è¾ĵåįµç®¡": 1126,
      "æľŁéĹ´": 1127,
      "éļľç¢į": 1128,
      "æīĭæľ¯æ²»çĸĹ": 1129,
      "å¼Ĥå¸¸": 1130,
      "å½±åĥı": 1131,
      "éº": 1132,
      "çĿ¾": 1133,
      "æľ¯åĲİ": 1134,
      "æİ§åĪ¶": 1135,
      "æĢ§çĶŁæ´»": 1136,
      "éĢī": 1137,
      "ä½łçļĦ": 1138,
      "ç¨ĭ": 1139,
      "æĢ»æĺ¯": 1140,
      "ä¸įåĲĮ": 1141,
      "åħ·": 1142,
      "èĢ³": 1143,
      "é¦": 1144,
      "ç»ĩ": 1145,
      "åĪĻ": 1146,
      "å±Ģéĥ¨": 1147,
      "çļĦä¸´åºĬè¡¨çİ°æľīäºĽä»Ģä¹Ī": 1148,
      "æļ": 1149,
      "èģ": 1150,
      "èĥ¶": 1151,
      "åħįçĸ«": 1152,
      "éģĹ": 1153,
      "æīįèĥ½": 1154,
      "ï¼ī": 1155,
      "ä¼ĳ": 1156,
      "åĪĩéĻ¤": 1157,
      "ç»Ł": 1158,
      "åĪ©": 1159,
      "å¾ĹäºĨ": 1160,
      "ç»Ħç»ĩ": 1161,
      "ä»İ": 1162,
      "å®Į": 1163,
      "åıĪ": 1164,
      "ç§¯æŀģ": 1165,
      "ï¼Ī": 1166,
      "éĨ": 1167,
      "æıĲ": 1168,
      "çĶ¨èį¯": 1169,
      "çĹħæ¯Ĵ": 1170,
      "çĶµ": 1171,
      "åĽĬèĤ¿": 1172,
      "æĮĩå¯¼": 1173,
      "éĻ¤äºĨ": 1174,
      "åĻ": 1175,
      "å¤Ł": 1176,
      "ä¼´": 1177,
      "å¼ķæĿ¥": 1178,
      "èĤļ": 1179,
      "åįķ": 1180,
      "æİ¥": 1181,
      "çļĦå½±åĥı": 1182,
      "ç¬": 1183,
      "èĤ¤": 1184,
      "åĽłæŃ¤": 1185,
      "çļĦå½±åĥıåŃ¦æ£ĢæŁ¥æľīäºĽä»Ģä¹Ī": 1186,
      "æĭī": 1187,
      "åį±": 1188,
      "åĪĨæ³Į": 1189,
      "è¦ģæ³¨æĦı": 1190,
      "è¿ĲåĬ¨": 1191,
      "ç§»": 1192,
      "æ·ĭ": 1193,
      "³å®ļ": 1194,
      "èį¯çī©æ²»çĸĹ": 1195,
      "èĩ´ä½¿": 1196,
      "å¯¹çĹĩæ²»çĸĹ": 1197,
      "åįģ": 1198,
      "æľº": 1199,
      "æīĵ": 1200,
      "è¶ħå£°": 1201,
      "æĺ¯åı¯ä»¥": 1202,
      "æ¸©": 1203,
      "åĲ¦": 1204,
      "ä»Ĭ": 1205,
      "åįĬ": 1206,
      "æŃ£è§Ħ": 1207,
      "åĳ¼": 1208,
      "å¿Į": 1209,
      "ç»´çĶŁç´ł": 1210,
      "æ¿Ģç´ł": 1211,
      "å¹¶ä¸Ķ": 1212,
      "ĠĠ": 1213,
      "ä¹ł": 1214,
      "å¯Ĵ": 1215,
      "æľīåĵªäºĽ": 1216,
      "æĥ¯": 1217,
      "éĽ": 1218,
      "æĽ´": 1219,
      "çĶ²çĬ¶": 1220,
      "çĽ®åīį": 1221,
      "éħįåĲĪ": 1222,
      "åıĳæĢ§": 1223,
      "çļ®èĤ¤": 1224,
      "èĶ": 1225,
      "éªĮ": 1226,
      "è½¯": 1227,
      "èħ°": 1228,
      "æ¹": 1229,
      "èĥĢ": 1230,
      "ä¹³èħº": 1231,
      "åıĸ": 1232,
      "äº¤": 1233,
      "å¤ļå°ĳ": 1234,
      "è¯ķ": 1235,
      "åı¯èĥ½æĺ¯": 1236,
      "åĲĲ": 1237,
      "åĮĸçĸĹ": 1238,
      "å¹¶åıĳ": 1239,
      "ä¸ŃåĮ»": 1240,
      "æľīçĤ¹": 1241,
      "æĢķ": 1242,
      "æŃ»": 1243,
      "ä¸įä¼ļ": 1244,
      "å¾ĭ": 1245,
      "ä¸įèī¯": 1246,
      "èĽĭçĻ½": 1247,
      "çĶ²çĬ¶èħº": 1248,
      "å¸¸è§ģ": 1249,
      "æķı": 1250,
      "èĤļåŃĲ": 1251,
      "éº»": 1252,
      "é¢ĳ": 1253,
      "æĺİæĺ¾": 1254,
      "è§Ĥ": 1255,
      "æĹ¥å¸¸": 1256,
      "æ¤į": 1257,
      "ç¬¬": 1258,
      "ç²¾ç¥ŀ": 1259,
      "æµĭ": 1260,
      "å®¤": 1261,
      "æĹ©æľŁ": 1262,
      "åħ³èĬĤ": 1263,
      "èĻļ": 1264,
      "å¥¶": 1265,
      "èĩ³": 1266,
      "éĴĻ": 1267,
      "æıı": 1268,
      "æ°§": 1269,
      "çĤİçļĦ": 1270,
      "éĥ¨ä½į": 1271,
      "éķ¿æľŁ": 1272,
      "åĶ": 1273,
      "éĢļè¿ĩ": 1274,
      "å¼ı": 1275,
      "èİ": 1276,
      "åıĮ": 1277,
      "çł": 1278,
      "ç»ıå¸¸": 1279,
      "ç»Ī": 1280,
      "åħī": 1281,
      "ç¼©": 1282,
      "æ¢Ĺ": 1283,
      "è¢": 1284,
      "åĽº": 1285,
      "éĺ»": 1286,
      "åĳ¼åĲ¸": 1287,
      "æĢİä¹Īæ²»çĸĹ": 1288,
      "åı¯èĥ½ä¼ļ": 1289,
      "éĹ¨": 1290,
      "éľī": 1291,
      "æĦıè§ģ": 1292,
      "ä¼ĳæģ¯": 1293,
      "æ¹¿": 1294,
      "éĩĩçĶ¨": 1295,
      "æ·ĭå·´": 1296,
      "ç¦ģ": 1297,
      "çĹħçļĦ": 1298,
      "åĻ¨": 1299,
      "æĭ©": 1300,
      "å¤§ä¾¿": 1301,
      "æĸ¹éĿ¢": 1302,
      "åį³": 1303,
      "å¤įåıĳ": 1304,
      "ä¹łæĥ¯": 1305,
      "éĢĢ": 1306,
      "å¹¶åıĳçĹĩ": 1307,
      "10": 1308,
      "åĲ«": 1309,
      "åıĳèĤ²": 1310,
      "å¼Ģå§ĭ": 1311,
      "æįŁä¼¤": 1312,
      "å±ŀ": 1313,
      "æ¡ĥ": 1314,
      "çĹħäºº": 1315,
      "å·¢": 1316,
      "èĶ¬": 1317,
      "å¸¸è§Ħ": 1318,
      "è®¸": 1319,
      "ãĢĤï¼Į": 1320,
      "åıĭ": 1321,
      "çī¹åĪ«": 1322,
      "æĿ¥è¯´": 1323,
      "éĢīæĭ©": 1324,
      "å»ºè®®ä½ł": 1325,
      "ç³»ç»Ł": 1326,
      "åħĭ": 1327,
      "åįµå·¢": 1328,
      "ä¸Ģå®ļè¦ģ": 1329,
      "å¿ħè¦ģ": 1330,
      "çªģ": 1331,
      "é¾Ħ": 1332,
      "çĹħåıĳ": 1333,
      "ä¸Ģæ¬¡": 1334,
      "å¢ŀå¼º": 1335,
      "åĪ°åĮ»éĻ¢": 1336,
      "æľīä»Ģä¹Ī": 1337,
      "èĤĽ": 1338,
      "å¿ĥçĲĨ": 1339,
      "å¢ŀåĬł": 1340,
      "è±¡": 1341,
      "èĶ¬èıľ": 1342,
      "åı¦": 1343,
      "åĽĽ": 1344,
      "ä¸Ģä¸ª": 1345,
      "ä»¥åıĬ": 1346,
      "ä¹Ļ": 1347,
      "ä¹Łæĺ¯": 1348,
      "å¿ĥæĥħ": 1349,
      "æ°´æŀľ": 1350,
      "éĢĤå½ĵ": 1351,
      "æł¸": 1352,
      "ç«¥": 1353,
      "æ¤İ": 1354,
      "ç³ĸå°¿": 1355,
      "åıĤ": 1356,
      "ç¡®è¯Ĭ": 1357,
      "åĩłå¤©": 1358,
      "åĪºæ¿ĢæĢ§": 1359,
      "å¤ļåĸĿ": 1360,
      "ç£": 1361,
      "å¾ĹåĪ°": 1362,
      "å¢ŀçĶŁ": 1363,
      "æłĵ": 1364,
      "åķĬ": 1365,
      "å·¥ä½ľ": 1366,
      "èĤ¢": 1367,
      "çĿ¾ä¸¸": 1368,
      "æĤ£èĢħçļĦ": 1369,
      "çĹĴ": 1370,
      "éĿŀå¸¸": 1371,
      "åĨĴ": 1372,
      "ç´§": 1373,
      "æīģ": 1374,
      "ç²Ĵ": 1375,
      "é¾Ł": 1376,
      "å¤ĸéĺ´": 1377,
      "å¨": 1378,
      "ç±³": 1379,
      "éĵ": 1380,
      "å½»": 1381,
      "ä¸ļ": 1382,
      "çĸ¾çĹħçļĦ": 1383,
      "æĦŁåĨĴ": 1384,
      "é«ĺè¡Ģåİĭ": 1385,
      "å®ī": 1386,
      "åīįåĪĹèħºçĤİ": 1387,
      "çĶŁæ´»ä¸Ń": 1388,
      "å½»åºķ": 1389,
      "èĮİ": 1390,
      "çº¤": 1391,
      "CT": 1392,
      "ç²ĺ": 1393,
      "åĦ¿ç«¥": 1394,
      "æľĭ": 1395,
      "é¾Łå¤´": 1396,
      "çĹĶ": 1397,
      "ç»Ń": 1398,
      "æľĭåıĭ": 1399,
      "åıĳçĥ§": 1400,
      "å¾Īå¤ļ": 1401,
      "åĹ½": 1402,
      "ä»£": 1403,
      "æ²»çĸĹçļĦ": 1404,
      "æľīåħ³": 1405,
      "èĪĴæľį": 1406,
      "ä»¥ä¸Ĭ": 1407,
      "åĨħèĨľ": 1408,
      "ä¸įå¥½": 1409,
      "è®¸å¤ļ": 1410,
      "æķ£": 1411,
      "åĮº": 1412,
      "åĿĹ": 1413,
      "åĴ³åĹ½": 1414,
      "ç»¼åĲĪå¾ģ": 1415,
      "20": 1416,
      "æ²¹": 1417,
      "çĽĨ": 1418,
      "è¿ŀ": 1419,
      "é¸": 1420,
      "åĬ³": 1421,
      "éĩĳ": 1422,
      "æĪĳä»¬": 1423,
      "èĥ¶åĽĬ": 1424,
      "æĲ": 1425,
      "ç¦": 1426,
      "èĤ¥": 1427,
      "çĥŁ": 1428,
      "æĭħ": 1429,
      "èģĶ": 1430,
      "æĪĳçļĦ": 1431,
      "è®¤": 1432,
      "åı¦å¤ĸ": 1433,
      "æĽ²": 1434,
      "åħ¶ä»ĸ": 1435,
      "åŃĺ": 1436,
      "æĵ": 1437,
      "æ¯į": 1438,
      "çŁŃ": 1439,
      "è¯¢": 1440,
      "å¿ĥèĦı": 1441,
      "çļĦåİŁåĽł": 1442,
      "åºĶå½ĵ": 1443,
      "çº¤ç»´": 1444,
      "çº¿": 1445,
      "æī©": 1446,
      "ç³ľ": 1447,
      "çļĦèį¯çī©": 1448,
      "æııè¿°": 1449,
      "çĵ": 1450,
      "èĦ±": 1451,
      "æĺİç¡®": 1452,
      "ä¸įçŁ¥éģĵ": 1453,
      "ä¼łæŁĵ": 1454,
      "åģľ": 1455,
      "æ¡Ī": 1456,
      "å°±è¯Ĭ": 1457,
      "éĢłæĪĲ": 1458,
      "çļĦåıĳçĹħ": 1459,
      "ç³ĸå°¿çĹħ": 1460,
      "éĶ»": 1461,
      "çļĦçĹħåĽł": 1462,
      "æīģæ¡ĥ": 1463,
      "ä»¥åħį": 1464,
      "èĦĵ": 1465,
      "åĴ½": 1466,
      "æĬĳ": 1467,
      "è®©": 1468,
      "è¢«": 1469,
      "å§ĭç»Ī": 1470,
      "æīģæ¡ĥä½ĵ": 1471,
      "è¡¥åħħ": 1472,
      "æį¢": 1473,
      "è§Ħå¾ĭ": 1474,
      "æ³¨å°Ħ": 1475,
      "å®ĥ": 1476,
      "éĺ¿": 1477,
      "éĥ½æĺ¯": 1478,
      "æ®µæĹ¶éĹ´": 1479,
      "å¸Į": 1480,
      "åĿĩ": 1481,
      "çĭ": 1482,
      "é¦ĸ": 1483,
      "å§ĭç»Īä¿ĿæĮģ": 1484,
      "åıĳä½ľ": 1485,
      "çĸ®": 1486,
      "å¯Ł": 1487,
      "çĥĤ": 1488,
      "çĹħåıĺ": 1489,
      "ç»ĵçŁ³": 1490,
      "è°ĥçĲĨ": 1491,
      "åĽ°": 1492,
      "ä¼ļå¯¼èĩ´": 1493,
      "ç©¿": 1494,
      "è¾¾": 1495,
      "çĲĥ": 1496,
      "è£Ĥ": 1497,
      "æĮī": 1498,
      "åĳķ": 1499,
      "åģı": 1500,
      "æĿ¾": 1501,
      "æĬ½": 1502,
      "åĽ´": 1503,
      "æĶ¶": 1504,
      "âĢľ": 1505,
      "åĲĳ": 1506,
      "æİª": 1507,
      "çħ": 1508,
      "ä»ħ": 1509,
      "æľīæķĪ": 1510,
      "æŃ¥": 1511,
      "æ°Ķç®¡": 1512,
      "é«ĵ": 1513,
      "çĻ½å¸¦": 1514,
      "ç»ĨèıĮ": 1515,
      "âĢĿ": 1516,
      "å¸ĮæľĽ": 1517,
      "ä»¥åĲİ": 1518,
      "å¹´é¾Ħ": 1519,
      "æİªæĸ½": 1520,
      "æľŁæľĽ": 1521,
      "ç½®": 1522,
      "å°½å¿«": 1523,
      "æĻķ": 1524,
      "è¡°": 1525,
      "æĸĳ": 1526,
      "åĸĦ": 1527,
      "æĢ§çļĦ": 1528,
      "çł´": 1529,
      "æķ´": 1530,
      "éŁ": 1531,
      "è¦ģåıĬæĹ¶": 1532,
      "å¼ķåıĳ": 1533,
      "ä¸įèĪĴæľį": 1534,
      "åĪĽ": 1535,
      "è¯ģ": 1536,
      "åĳ³": 1537,
      "èŀ": 1538,
      "èĢģå¹´": 1539,
      "èī¯å¥½çļĦ": 1540,
      "æĺ¯åĲ¦": 1541,
      "ç¡¬åĮĸ": 1542,
      "é¢ħ": 1543,
      "æĭħå¿ĥ": 1544,
      "æĬĹçĶŁç´ł": 1545,
      "æ±¤": 1546,
      "éĻĦ": 1547,
      "åĪļ": 1548,
      "è·¯": 1549,
      "å©´": 1550,
      "ç³ľçĥĤ": 1551,
      "åĲĦ": 1552,
      "åĽ¾": 1553,
      "ä¸»è¦ģæĺ¯": 1554,
      "å¤§çļĦ": 1555,
      "ä¸ľ": 1556,
      "çĤ¼": 1557,
      "éĿĴ": 1558,
      "éļı": 1559,
      "å¼±": 1560,
      "èĦ¾": 1561,
      "éĢŁ": 1562,
      "çľł": 1563,
      "çĽĲ": 1564,
      "å°ıåŃ©": 1565,
      "åıįåºĶ": 1566,
      "æ¯Ľ": 1567,
      "æ´»åĬ¨": 1568,
      "ç«ĭ": 1569,
      "ç»Ŀ": 1570,
      "å°¤": 1571,
      "åĺ": 1572,
      "åĭĥ": 1573,
      "æĻ®": 1574,
      "åĩıå°ĳ": 1575,
      "ä¸įèĥ½å¤Ł": 1576,
      "æ²»æĦĪ": 1577,
      "æ³¡": 1578,
      "è±Ĩ": 1579,
      "è¶Ĭ": 1580,
      "é©": 1581,
      "çĶŁéķ¿": 1582,
      "èĤª": 1583,
      "å®ľ": 1584,
      "èĦĤèĤª": 1585,
      "æĤ£èĢħåľ¨": 1586,
      "åħ·ä½ĵ": 1587,
      "æĺ¯ä¸įæĺ¯": 1588,
      "ç¾¤": 1589,
      "é²": 1590,
      "å®ļæľŁ": 1591,
      "¨è¯¢": 1592,
      "åĴ¨è¯¢": 1593,
      "éĺ´èĮİ": 1594,
      "åŃĲå®«åĨħèĨľ": 1595,
      "èĳ": 1596,
      "çĦ¶åĲİ": 1597,
      "åı¶": 1598,
      "è§Ĵ": 1599,
      "æĪĳæĥ³": 1600,
      "æ´ģ": 1601,
      "åįĩ": 1602,
      "è¯´æĺ¯": 1603,
      "ä¾ĭ": 1604,
      "åıįå¤į": 1605,
      "ä¿¡": 1606,
      "æ°¨": 1607,
      "ç¦»": 1608,
      "éĺ´éģĵçĤİ": 1609,
      "èįī": 1610,
      "èĥİåĦ¿": 1611,
      "åĲĪçĲĨ": 1612,
      "æĶ¹åĸĦ": 1613,
      "çļĦæ²»çĸĹæĸ¹æ³ķ": 1614,
      "æĻļæľŁ": 1615,
      "å¤ļåĸĿæ°´": 1616,
      "çĸĿ": 1617,
      "åĲĥä»Ģä¹Ī": 1618,
      "åĲĥè¾Ľè¾£": 1619,
      "å»¶": 1620,
      "èħ¹éĥ¨": 1621,
      "ä¸ĵä¸ļ": 1622,
      "æĢ§äº¤": 1623,
      "Bè¶ħ": 1624,
      "ç»ĵåĲĪ": 1625,
      "æĮĩå¯¼æĦıè§ģ": 1626,
      "åı¯ä»¥çĶ¨": 1627,
      "éĶ»çĤ¼": 1628,
      "æ¯Ķå¦Ĥ": 1629,
      "æĬĺ": 1630,
      "æĸ¹å¼ı": 1631,
      "è¡Ģæ¶²": 1632,
      "æ»´": 1633,
      "è§Ĥå¯Ł": 1634,
      "åł": 1635,
      "çĽĨèħĶ": 1636,
      "æĺ¯ä¸Ģç§į": 1637,
      "ä¸įèĤ²": 1638,
      "éħ®": 1639,
      "ç¨³å®ļ": 1640,
      "çĸĹæ³ķ": 1641,
      "æĿ¿": 1642,
      "åħĥ": 1643,
      "æī°": 1644,
      "éĩįè¦ģ": 1645,
      "èĬ±": 1646,
      "é¢Ĺ": 1647,
      "éľīç´ł": 1648,
      "ç§°": 1649,
      "éĻ©": 1650,
      "å±ŀäºİ": 1651,
      "é¦ĸåħĪ": 1652,
      "äºĶ": 1653,
      "å°¿éģĵ": 1654,
      "ç»§": 1655,
      "åħ¬": 1656,
      "åıĳè§ī": 1657,
      "æŀĲ": 1658,
      "ä»Ĭå¹´": 1659,
      "ä¼ļæľī": 1660,
      "çı": 1661,
      "çĸ¹": 1662,
      "é¥Ń": 1663,
      "æº¶": 1664,
      "ï½": 1665,
      "ä½ı": 1666,
      "åĨħåĪĨæ³Į": 1667,
      "éĥ¨åĪĨ": 1668,
      "çĪ±": 1669,
      "çļĦæĸ¹æ³ķ": 1670,
      "çķ¸": 1671,
      "å¦Ĥæŀľæĺ¯": 1672,
      "ä¸ľè¥¿": 1673,
      "æ²Ļ": 1674,
      "æĹ©æĹ¥": 1675,
      "å©ļ": 1676,
      "ä¹±": 1677,
      "æµģäº§": 1678,
      "æĺ¯æĢİä¹ĪåĽŀäºĭ": 1679,
      "å®«é¢Īç³ľçĥĤ": 1680,
      "ä¹ı": 1681,
      "éĻįä½İ": 1682,
      "æģ¶æĢ§": 1683,
      "çĨ": 1684,
      "çİ°è±¡": 1685,
      "å°¤åħ¶": 1686,
      "çĬ¶æĢģ": 1687,
      "åĩºæĿ¥": 1688,
      "çº¦": 1689,
      "æĺ¯å¤ļå°ĳ": 1690,
      "èĥ°": 1691,
      "æ¶ĪçĤİ": 1692,
      "å°±åı¯ä»¥": 1693,
      "ç²¾åŃĲ": 1694,
      "çīĻ": 1695,
      "å¤ĸç§ĳ": 1696,
      "å·¦åı³": 1697,
      "èĻ«": 1698,
      "çļĦçĹħåĽłæĺ¯ä»Ģä¹Ī": 1699,
      "é¢Ĺç²Ĵ": 1700,
      "åĩī": 1701,
      "ä¹ĻèĤĿ": 1702,
      "æľª": 1703,
      "ä¹Łä¸į": 1704,
      "è¡¡": 1705,
      "éĴĪå¯¹": 1706,
      "çĽ´èĤł": 1707,
      "åĭĥèµ·": 1708,
      "æ³»": 1709,
      "æĻļä¸Ĭ": 1710,
      "å½©": 1711,
      "åī¯": 1712,
      "éĩĩåıĸ": 1713,
      "ä¸įåŃķ": 1714,
      "æĢİæł·çļĦ": 1715,
      "ï½ŀ": 1716,
      "åĿĲ": 1717,
      "ä¹İ": 1718,
      "ç²ī": 1719,
      "åĶĳ": 1720,
      "æµ·": 1721,
      "éª¨æĬĺ": 1722,
      "ä¹ĭåĲİ": 1723,
      "é¡»": 1724,
      "éģĹä¼ł": 1725,
      "ä¸Ģæł·": 1726,
      "åħ¨èº«": 1727,
      "æĶ¯æ°Ķç®¡": 1728,
      "ä¸įéĢĤ": 1729,
      "èĦĬ": 1730,
      "æºĥ": 1731,
      "å¦Ī": 1732,
      "èģĶåĲĪ": 1733,
      "åĨł": 1734,
      "çķħ": 1735,
      "è¿ĩæķı": 1736,
      "å¾Ģ": 1737,
      "çľŁ": 1738,
      "æĸ°çĶŁ": 1739,
      "èĨı": 1740,
      "é»ĳ": 1741,
      "éĹŃ": 1742,
      "éļĶ": 1743,
      "æ¯ıå¤©": 1744,
      "çĹ°": 1745,
      "å¿ĥæĢģ": 1746,
      "åĬŁèĥ½éļľç¢į": 1747,
      "è¿ĩåº¦": 1748,
      "éĩįè§Ĩ": 1749,
      "çľĭéĩį": 1750,
      "æģ¶å¿ĥ": 1751,
      "è°¢è°¢": 1752,
      "éĤ£ä¹Ī": 1753,
      "è¿ĩéķ¿": 1754,
      "éģ¿åŃķ": 1755,
      "æĺŁ": 1756,
      "ä¸ªäºº": 1757,
      "åıĻ": 1758,
      "åıĬæĹ¶æ²»çĸĹ": 1759,
      "åĽ°éļ¾": 1760,
      "äºĴ": 1761,
      "å°Ĩ": 1762,
      "ä½ĵè´¨": 1763,
      "æŀĹ": 1764,
      "çļĦå¹¶åıĳçĹĩ": 1765,
      "äººæµģ": 1766,
      "åıĻè¿°": 1767,
      "ç¤": 1768,
      "çĹħçĲĨ": 1769,
      "?ï¼Į": 1770,
      "åĩĨ": 1771,
      "ä¾Ľ": 1772,
      "åĮ»çĶŁçļĦ": 1773,
      "å©´åĦ¿": 1774,
      "é²ľ": 1775,
      "å¦Ĥä½ķæ²»çĸĹ": 1776,
      "é©¬": 1777,
      "åĳķåĲĲ": 1778,
      "æĤ£èĢħè¿ĺ": 1779,
      "æł¹æį®ä½łçļĦ": 1780,
      "åħ±": 1781,
      "æĤ£èĢħæĿ¥è¯´": 1782,
      "èĤĮçĺ¤": 1783,
      "è½¬ç§»": 1784,
      "ç§ĺ": 1785,
      "éħ¶": 1786,
      "èħ¹èħĶ": 1787,
      "èľ": 1788,
      "çŃĶ": 1789,
      "ä¼ļå½±åĵį": 1790,
      "ä¸ºä¸»": 1791,
      "æ®ĸ": 1792,
      "æĪĴ": 1793,
      "æľįé£Ł": 1794,
      "çĺ«": 1795,
      "åĸĺ": 1796,
      "æ·±": 1797,
      "åĪºæ¿ĢæĢ§é£Łçī©": 1798,
      "å®Įåħ¨": 1799,
      "å°Ķ": 1800,
      "æŃ£å¸¸çļĦ": 1801,
      "èĭ¦": 1802,
      "å¼ķæĿ¥çļĦ": 1803,
      "æĤ£èĢħåı¯ä»¥": 1804,
      "æĶ¾å°Ħ": 1805,
      "çķ¸å½¢": 1806,
      "åĨ³å®ļ": 1807,
      "çĻĮçļĦ": 1808,
      "éĢłå½±": 1809,
      "éķ¿æĹ¶éĹ´": 1810,
      "ç¾İ": 1811,
      "æł¼": 1812,
      "æıĲé«ĺ": 1813,
      "åĲ¬": 1814,
      "æľīæĹ¶": 1815,
      "åģļäºĨ": 1816,
      "æĸ°çĶŁåĦ¿": 1817,
      "æ½": 1818,
      "è¿ĻäºĽ": 1819,
      "å¸¸è§ģçļĦ": 1820,
      "å¹²æī°": 1821,
      "å°¤åħ¶æĺ¯": 1822,
      "ç´¢": 1823,
      "åħĪå¤©": 1824,
      "é¡¹": 1825,
      "æģ°": 1826,
      "å±ķ": 1827,
      "å¥¹": 1828,
      "ç¾Ĭ": 1829,
      "åıªæľī": 1830,
      "èħ¹çĹĽ": 1831,
      "æĶ¹åıĺ": 1832,
      "è¿ĺæľī": 1833,
      "æ¯Ķè¾ĥå¥½": 1834,
      "çĻ«çĹ«çĹħ": 1835,
      "çļĦåĮ»éĻ¢": 1836,
      "çĸ¡": 1837,
      "æĸ¹æ¡Ī": 1838,
      "èħ¿": 1839,
      "æīĭæľ¯åĲİ": 1840,
      "åĨħç§ĳ": 1841,
      "åį±å®³": 1842,
      "è§¦": 1843,
      "åĸī": 1844,
      "é¸¡": 1845,
      "èĥ±": 1846,
      "æ¸ħæ´ģ": 1847,
      "ä¾¿ç§ĺ": 1848,
      "çĿ¡çľł": 1849,
      "æģ°å½ĵ": 1850,
      "å¤ĩ": 1851,
      "éĶĻ": 1852,
      "ä¼´æľī": 1853,
      "æĭ¬": 1854,
      "æºĥçĸ¡": 1855,
      "å¿ĥèĤĮ": 1856,
      "èĥĥçĤİ": 1857,
      "åı²": 1858,
      "å°±ä¼ļ": 1859,
      "åłµ": 1860,
      "å¤ļåıĳ": 1861,
      "å·®": 1862,
      "éĥ¨ä½įæĺ¯ä»Ģä¹Ī": 1863,
      "åĲĮæĪ¿": 1864,
      "è¡Ģç³ĸ": 1865,
      "åĮ»æ²»": 1866,
      "çĬ¶åĨµ": 1867,
      "å»ºè®®æĤ¨": 1868,
      "æĽ¾": 1869,
      "åĮħçļ®è¿ĩéķ¿": 1870,
      "åĪĨæŀĲ": 1871,
      "åĨ²": 1872,
      "çĽĬ": 1873,
      "ä¿ĥ": 1874,
      "ç¨ĭåº¦": 1875,
      "æĬĢ": 1876,
      "ç´¯": 1877,
      "äº¢": 1878,
      "èĨĢ": 1879,
      "æĽ²å¼ł": 1880,
      "é±": 1881,
      "è·Ł": 1882,
      "çĹĶçĸ®": 1883,
      "èĩªèº«çļĦ": 1884,
      "åİ»åĮ»éĻ¢æ£ĢæŁ¥": 1885,
      "æĢĢä¸Ĭ": 1886,
      "è¿Ļæł·æīįèĥ½": 1887,
      "çĶļ": 1888,
      "é±¼": 1889,
      "00": 1890,
      "æŀĦ": 1891,
      "å¤´çĹĽ": 1892,
      "æ²»çĸĹæĸ¹æ³ķ": 1893,
      "æĴ": 1894,
      "æī¾": 1895,
      "èĢĥèĻĳæĺ¯": 1896,
      "ç§»æ¤į": 1897,
      "åī¯ä½ľçĶ¨": 1898,
      "äºĴçĽ¸": 1899,
      "ç»ª": 1900,
      "ä»¥åīį": 1901,
      "æĵ¦": 1902,
      "æĥħç»ª": 1903,
      "æ°´èĤ¿": 1904,
      "èĲİ": 1905,
      "ç»ĻåŃ©åŃĲ": 1906,
      "å¤ĦçĲĨ": 1907,
      "ç¥ĿæĤ¨": 1908,
      "åĲ¸æĶ¶": 1909,
      "å½»åºķæģ¢å¤į": 1910,
      "æĹ©æĹ¥åº·å¤į": 1911,
      "èĤºçĤİ": 1912,
      "æł¹æį®ä½ł": 1913,
      "æĢİæł·çļĦå¸®åĬ©": 1914,
      "æģ¯èĤī": 1915,
      "æĦī": 1916,
      "åĿı": 1917,
      "å¦Ĭ": 1918,
      "æĮ¯": 1919,
      "åĨįæ¬¡åıĳçĶŁ": 1920,
      "äº§çĶŁ": 1921,
      "çĵ£": 1922,
      "èĨĢèĥ±": 1923,
      "èĦļ": 1924,
      "å¢ĥ": 1925,
      "åĬłå¼º": 1926,
      "ä¸ĭéĻį": 1927,
      "è´«": 1928,
      "äºĴçĽ¸éħįåĲĪ": 1929,
      "çªģçĦ¶": 1930,
      "èİ·": 1931,
      "åĨ³": 1932,
      "éĿĻèĦīæĽ²å¼ł": 1933,
      "çľĭçľĭ": 1934,
      "èĥĥèĤł": 1935,
      "æīĢèĩ´": 1936,
      "é»Ħçĸ": 1937,
      "éĨĩ": 1938,
      "èĥº": 1939,
      "æł·çļĦ": 1940,
      "å±Ĥ": 1941,
      "æĮģç»Ń": 1942,
      "å¨ł": 1943,
      "12": 1944,
      "ä¸Ĭè¿°": 1945,
      "æ¬²": 1946,
      "ç¨Ģ": 1947,
      "ç©º": 1948,
      "éĴł": 1949,
      "æļ´": 1950,
      "ç´§å¼ł": 1951,
      "å¦Ĭå¨ł": 1952,
      "ä»¶": 1953,
      "åīĸ": 1954,
      "ä»ĭ": 1955,
      "èĤ¡": 1956,
      "éĢı": 1957,
      "æ³¨æĦıä¼ĳæģ¯": 1958,
      "è°ĥåħ»": 1959,
      "åľ¨ä¹İ": 1960,
      "ä¹Łåı¯ä»¥": 1961,
      "åĳ¨æľŁ": 1962,
      "é»Ħçĸ¸": 1963,
      "ä¹ĭå¤ĸ": 1964,
      "å½¢æĪĲ": 1965,
      "çļĦå¹¶åıĳçĹĩæĺ¯ä»Ģä¹Ī": 1966,
      "ç»ĥ": 1967,
      "è¾¹": 1968,
      "èĥĨåĽĬ": 1969,
      "åŁºç¡": 1970,
      "çĶŁæ®ĸ": 1971,
      "æ³Įå°¿": 1972,
      "å¤«": 1973,
      "å¢ŀå¤ļ": 1974,
      "åĿļ": 1975,
      "å¤ľ": 1976,
      "åĲĥäºĨ": 1977,
      "èĦĳæ¢Ĺ": 1978,
      "å¿ħè¦ģæĹ¶": 1979,
      "æķĻ": 1980,
      "å¤įæŁ¥": 1981,
      "çº¯": 1982,
      "é»ı": 1983,
      "å®¶éķ¿": 1984,
      "å£ģ": 1985,
      "æĬĳåĪ¶": 1986,
      "ä»»": 1987,
      "æĺ¯æľī": 1988,
      "çħ§": 1989,
      "è´«è¡Ģ": 1990,
      "åŁºç¡Ģ": 1991,
      "æĬĢæľ¯": 1992,
      "çĮ": 1993,
      "ä¼¤å®³": 1994,
      "æľĪç»ıä¸į": 1995,
      "æľīæĹ¶åĢĻ": 1996,
      "åĩıä½İ": 1997,
      "ä¿®": 1998,
      "åİĭåĬĽ": 1999,
      "çļĦåıĳçĹħéĥ¨ä½įæĺ¯ä»Ģä¹Ī": 2000,
      "æ¼": 2001,
      "è¡£": 2002,
      "æ°Ł": 2003,
      "èµ°": 2004,
      "çİ¯å¢ĥ": 2005,
      "å¤±è°ĥ": 2006,
      "èĤºçĻĮ": 2007,
      "åĮħæĭ¬": 2008,
      "è¿Ľè¡Įæ²»çĸĹ": 2009,
      "åŁ¹": 2010,
      "åĪĩéĻ¤æľ¯": 2011,
      "èĴ": 2012,
      "æ³¢": 2013,
      "å¤ļæķ°": 2014,
      "ä¹Łæľī": 2015,
      "è´¹": 2016,
      "èĲİç¼©": 2017,
      "ç»ĵæł¸": 2018,
      "ä¸¥éĩįçļĦ": 2019,
      "èĤĽéĹ¨": 2020,
      "å¸ĥ": 2021,
      "ç»ĵèĬĤ": 2022,
      "éļĲ": 2023,
      "æ±Ĺ": 2024,
      "åĸĤ": 2025,
      "åĬłéĩį": 2026,
      "ä¸įè¶³": 2027,
      "ä¸ĢæŃ¥": 2028,
      "å°ıæĹ¶": 2029,
      "æĻĵ": 2030,
      "ä¹³æĪ¿": 2031,
      "é¦Ļ": 2032,
      "æ·ĭå·´ç»ĵ": 2033,
      "èİ·å¾Ĺ": 2034,
      "¥æľī": 2035,
      "åĽºå®ļ": 2036,
      "æĺ¯ä»Ģä¹ĪåİŁåĽł": 2037,
      "èħ¹æ³»": 2038,
      "åıĳçĥŃ": 2039,
      "æłĩ": 2040,
      "è¡Ģç®¡çĺ¤": 2041,
      "åłµå¡ŀ": 2042,
      "çĶļèĩ³": 2043,
      "çĺĻ": 2044,
      "åĮĸéªĮ": 2045,
      "ç»ĵèĤł": 2046,
      "çŁ¥æĻĵ": 2047,
      "æĽ¾ç»ı": 2048,
      "æ°ı": 2049,
      "éĴŁ": 2050,
      "ç½ĳ": 2051,
      "æĦīå¿«": 2052,
      "ãĢĢ": 2053,
      "åĲĥèį¯": 2054,
      "è®¤ä¸º": 2055,
      "åħĪå¤©æĢ§": 2056,
      "æºĲ": 2057,
      "ä¸Ģæ®µæĹ¶éĹ´": 2058,
      "å°½éĩı": 2059,
      "çĺĻçĹĴ": 2060,
      "ä¸Ļ": 2061,
      "æĹ¦": 2062,
      "è®Ń": 2063,
      "åıªè¦ģ": 2064,
      "çīĽ": 2065,
      "ç´Ĭ": 2066,
      "æĪĸèĢħæĺ¯": 2067,
      "äº²": 2068,
      "æľ¬äºº": 2069,
      "ç£ģ": 2070,
      "è¿Ł": 2071,
      "è¿Ļæĺ¯": 2072,
      "ä¸ºä»Ģä¹Ī": 2073,
      "å¦Ĥæŀľä¸į": 2074,
      "å¯¼èĩ´çļĦ": 2075,
      "æľ¬åĵģ": 2076,
      "å½©è¶ħ": 2077,
      "ç´Ĭä¹±": 2078,
      "ä¸Ńæ¯Ĵ": 2079,
      "ç§¯æ°´": 2080,
      "ä»£è°¢": 2081,
      "æ°´å¹³": 2082,
      "èĩªå·±çļĦ": 2083,
      "åħŃ": 2084,
      "åī§": 2085,
      "åģļä¸ª": 2086,
      "çĩ": 2087,
      "æĬµ": 2088,
      "æ¸Ĳ": 2089,
      "çļĦåı¯èĥ½": 2090,
      "ä¸ĢæĹ¦": 2091,
      "åı¯ä»¥åĲĥ": 2092,
      "åĳĪ": 2093,
      "ä¹ĭåīį": 2094,
      "åºĶçĶ¨": 2095,
      "çĶµåĽ¾": 2096,
      "åŃ¢": 2097,
      "è§£åĨ³": 2098,
      "åĽłç´łæľīäºĽä»Ģä¹Ī": 2099,
      "æĤ£æľī": 2100,
      "æĿ¡": 2101,
      "èĮĥ": 2102,
      "ä»Ĭå¤©": 2103,
      "å¯Į": 2104,
      "æĥħåĨµåĴĮ": 2105,
      "åŀĤ": 2106,
      "ä¸ĢçĤ¹": 2107,
      "èħ»": 2108,
      "åŃķå¦ĩ": 2109,
      "çªĦ": 2110,
      "æľīå¸®åĬ©": 2111,
      "è¡ĢçĹĩ": 2112,
      "å°¿é¢ĳ": 2113,
      "æĮĩå¯¼ä¸ĭ": 2114,
      "èĤĿç¡¬åĮĸ": 2115,
      "åħįçĸ«åĬĽ": 2116,
      "æ¨": 2117,
      "ä¹Ĳ": 2118,
      "æ¯ıæ¬¡": 2119,
      "å®«å¤ĸ": 2120,
      "è§īå¾Ĺ": 2121,
      "éĢļå¸¸": 2122,
      "ç¢±": 2123,
      "éŁ³": 2124,
      "è¯¦": 2125,
      "éĢĲ": 2126,
      "èĤĮèĤī": 2127,
      "çģ«": 2128,
      "é¢Ħéĺ²æİªæĸ½": 2129,
      "çĸĿæ°Ķ": 2130,
      "æ¥": 2131,
      "ç¿": 2132,
      "åŃĶ": 2133,
      "è¿Ľä¸ĢæŃ¥": 2134,
      "ç«Ń": 2135,
      "å¤ĸä¼¤": 2136,
      "å¹´äºĨ": 2137,
      "åħ·æľī": 2138,
      "¤Ĳ": 2139,
      "æĭ¥æľī": 2140,
      "ç¡®å®ļ": 2141,
      "æİĴåįµ": 2142,
      "è¯Ħ": 2143,
      "åİļ": 2144,
      "èĤĿèĦı": 2145,
      "å¤ļä¹ħ": 2146,
      "å®«å¤ĸåŃķ": 2147,
      "ä¸Ģä¸ªæľĪ": 2148,
      "ä¹Łåı¯": 2149,
      "åĬŀæ³ķ": 2150,
      "èİ«": 2151,
      "èĶ¬èıľæ°´æŀľ": 2152,
      "æī©å¼ł": 2153,
      "ĠĊ": 2154,
      "åĽ½": 2155,
      "åŃĲå®«èĤĮçĺ¤": 2156,
      "åı£èħĶ": 2157,
      "å¤´æĻķ": 2158,
      "æľĪç»ıä¸įè°ĥ": 2159,
      "åĪĿ": 2160,
      "æ°¯": 2161,
      "æĬĬ": 2162,
      "åĪĨéĴŁ": 2163,
      "çĻĮçĹĩ": 2164,
      "å¿ħé¡»": 2165,
      "ç¤º": 2166,
      "åĮ»çĶŁè¯´": 2167,
      "è¡°ç«Ń": 2168,
      "æĬµæĬĹ": 2169,
      "è¯±": 2170,
      "å¹²é¢Ħ": 2171,
      "åĳ¨åĽ´": 2172,
      "éĥģ": 2173,
      "ç´«": 2174,
      "å°ıèħ¹": 2175,
      "åĳ½": 2176,
      "éĻĲ": 2177,
      "åį¡": 2178,
      "è¯ĬçĹħ": 2179,
      "çģ¶": 2180,
      "ä½³": 2181,
      "æĺ¯çĶ±äºİ": 2182,
      "é£İéĻ©": 2183,
      "åĲĦç§į": 2184,
      "çļĦéĹ®é¢ĺ": 2185,
      "åı·": 2186,
      "åĵŃ": 2187,
      "èŀº": 2188,
      "èħ¹èħĶéķľ": 2189,
      "çĹ¿": 2190,
      "é£Łç®¡": 2191,
      "ä»»ä½ķ": 2192,
      "çģ¸": 2193,
      "é¾Łå¤´çĤİ": 2194,
      "50": 2195,
      "æľīçļĦ": 2196,
      "å¯Ĩ": 2197,
      "æĽ¿": 2198,
      "åİŁä½ĵ": 2199,
      "åħ³ç³»": 2200,
      "¡èĲ": 2201,
      "æ¸ħæ·¡é¥®é£Ł": 2202,
      "æĥħåĨµåĴĮæķĪæŀľ": 2203,
      "è¿ĩç¨ĭ": 2204,
      "çĥĪ": 2205,
      "æĪĸæĺ¯": 2206,
      "çĶ²äº¢": 2207,
      "ä¸įè¦ģåĲĥ": 2208,
      "çª¦": 2209,
      "å°Ħç²¾": 2210,
      "çĩ¥": 2211,
      "åĩĢ": 2212,
      "å¥½äºĨ": 2213,
      "ç«¯": 2214,
      "æĳĦ": 2215,
      "30": 2216,
      "æ¦": 2217,
      "è°ĥæķ´": 2218,
      "æĸ°é²ľ": 2219,
      "ç¥Ŀä½ł": 2220,
      "ä¹³èħºå¢ŀçĶŁ": 2221,
      "ä»Ģä¹Īæł·çļĦ": 2222,
      "åŃ©åŃĲçļĦ": 2223,
      "ç²ĺèĨľ": 2224,
      "åĩĿ": 2225,
      "åģ¶": 2226,
      "çĽ¸åħ³": 2227,
      "åı¯ä»¥æľįçĶ¨": 2228,
      "éĺ³çĹ¿": 2229,
      "æĢ§çĸ¾çĹħ": 2230,
      "å¤§å°ı": 2231,
      "åıĳçĤİ": 2232,
      "ä½ĵåĨħ": 2233,
      "å»ºè®®æĤ£èĢħ": 2234,
      "æ·«": 2235,
      "èī¯å¥½": 2236,
      "è£¤": 2237,
      "å®ĺ": 2238,
      "éķĩ": 2239,
      "åĪ°æŃ£è§Ħ": 2240,
      "å¯¹çĹĩæķĳæ²»": 2241,
      "âħ": 2242,
      "èĥĮ": 2243,
      "è¯Ĩ": 2244,
      "åħ¶å®ŀ": 2245,
      "çĭŃ": 2246,
      "åįĩé«ĺ": 2247,
      "ä¸Ģå®ļçļĦ": 2248,
      "å°½æĹ©": 2249,
      "èĩªèº«çļĦæĬ¤çĲĨ": 2250,
      "èĸ": 2251,
      "æ²»çĸĹæľŁéĹ´": 2252,
      "å¾ª": 2253,
      "æ··": 2254,
      "ç¼ºè¡Ģ": 2255,
      "ä¸ĢèĪ¬æĺ¯": 2256,
      "åıįåıįå¤į": 2257,
      "æļĤ": 2258,
      "æĹ¥å¸¸çĶŁæ´»ä¸Ń": 2259,
      "å®³æĢķ": 2260,
      "å¹¼": 2261,
      "æķ·": 2262,
      "æĮĽ": 2263,
      "æľįèį¯": 2264,
      "æľĢè¿ĳæĢ»æĺ¯": 2265,
      "èĮ¶": 2266,
      "è½»åº¦": 2267,
      "çıŃ": 2268,
      "æĹĭ": 2269,
      "çŃĽ": 2270,
      "çĶŁæ´»ä¹łæĥ¯": 2271,
      "è¯¦ç»Ĩ": 2272,
      "éĹ®é¢ĺçļĦ": 2273,
      "åįķçº¯": 2274,
      "ç£ģåħ±": 2275,
      "ç¹": 2276,
      "è¡Ģæłĵ": 2277,
      "åĪĨæ³Įçī©": 2278,
      "æ¢Ĺéĺ»": 2279,
      "åį³åı¯": 2280,
      "åıįåıįå¤įå¤į": 2281,
      "ä¸Ģçľĭ": 2282,
      "æĹłåĬĽ": 2283,
      "ç²¾ç´¢": 2284,
      "æł¹æ²»": 2285,
      "ç§¯æ¶²": 2286,
      "ç¹ģ": 2287,
      "ä¸Ģå¹´": 2288,
      "ä¼ļä¸įä¼ļ": 2289,
      "çĺĢ": 2290,
      "éĴ±": 2291,
      "æ²¹èħ»": 2292,
      "çĭŃçªĦ": 2293,
      "çļĦå¦ĩç§ĳ": 2294,
      "çĶŁèĤ²": 2295,
      "ç¥ĿæĤ¨åģ¥åº·": 2296,
      "ä¸įåħ¨": 2297,
      "è¡¨çİ°åĩº": 2298,
      "æīĭæ·«": 2299,
      "ä½ľæģ¯": 2300,
      "çī©çĲĨ": 2301,
      "è´¨éĩı": 2302,
      "ç£ģåħ±æĮ¯": 2303,
      "åı¸": 2304,
      "çĽ´æİ¥": 2305,
      "èĭĹ": 2306,
      "ä¿ĿæĮģèī¯å¥½çļĦ": 2307,
      "æįŁå®³": 2308,
      "çĽ®çļĦ": 2309,
      "æ³¨å°Ħæ¶²": 2310,
      "å°¼": 2311,
      "åħ´": 2312,
      "è¦ģçķĻæĦı": 2313,
      "æ´Ľ": 2314,
      "èĨľçĤİ": 2315,
      "æ±ģ": 2316,
      "æ»ŀ": 2317,
      "çĶĺ": 2318,
      "åįı": 2319,
      "æŃĩ": 2320,
      "åĩ»": 2321,
      "æĳĺ": 2322,
      "ĨèıĮ": 2323,
      "å¤ļç§į": 2324,
      "æİī": 2325,
      "å¯¹æĤ¨": 2326,
      "èĤĿçĻĮ": 2327,
      "çģµ": 2328,
      "çĸ¾çĹħçļĦåĩºçİ°": 2329,
      "ä¼ļå¯¼èĩ´ä»Ģä¹Īæł·çļĦ": 2330,
      "çĨŁ": 2331,
      "ä¼ļå¯¼èĩ´ä»Ģä¹Īæł·çļĦç»ĵæŀľ": 2332,
      "çļĦæ£ĢæŁ¥": 2333,
      "æĺ¯ä¸į": 2334,
      "åĴĭ": 2335,
      "ä½ĵæ¸©": 2336,
      "çľĭä¸Ģçľĭ": 2337,
      "æĬµæĬĹåĬĽ": 2338,
      "æľĢåĲİ": 2339,
      "ä¸ĭèĤ¢": 2340,
      "èĹ": 2341,
      "åįĹ": 2342,
      "åĢ¼": 2343,
      "çĸĹæķĪ": 2344,
      "æĿĨèıĮ": 2345,
      "äººå·¥": 2346,
      "è°ĥèĬĤ": 2347,
      "æİĴéĻ¤": 2348,
      "æļĸ": 2349,
      "15": 2350,
      "æ²»å¥½": 2351,
      "çĥ¦": 2352,
      "åģļä¸Ģä¸ĭ": 2353,
      "èĭ¥": 2354,
      "åħĥç´ł": 2355,
      "èĦ¸": 2356,
      "ä¸įæĺ¯å¾Ī": 2357,
      "åİ»å¹´": 2358,
      "äºĪ": 2359,
      "éĺ³æĢ§": 2360,
      "ä¸įåĲĮçļĦ": 2361,
      "åĳ¼åĲ¸éģĵ": 2362,
      "è¾¾åĪ°": 2363,
      "çļĦæĹ¶éĹ´": 2364,
      "èĤ¿åĿĹ": 2365,
      "ç¡Ŀ": 2366,
      "çĹħæĥħåĪĨæŀĲ": 2367,
      "éĢĲæ¸Ĳ": 2368,
      "åı¯æľī": 2369,
      "çĶŁçĲĨ": 2370,
      "æĪĳæĺ¯": 2371,
      "æŃ¤å¤ĸ": 2372,
      "åģĩ": 2373,
      "é«ĺåį±": 2374,
      "è½»å¾®": 2375,
      "èĥĸ": 2376,
      "èĳ¡èĲ": 2377,
      "åĲĪçĲĨé¥®é£Ł": 2378,
      "èĳ¡èĲĦ": 2379,
      "æĪĳå®¶": 2380,
      "åĩıè½»": 2381,
      "ä¸įä»ħ": 2382,
      "éĹ·": 2383,
      "åĲĪå¹¶": 2384,
      "ç§ĳå®¤": 2385,
      "èĤ¾èĦı": 2386,
      "åįµå·¢åĽĬèĤ¿": 2387,
      "40": 2388,
      "å¤įè¯Ĭ": 2389,
      "ä¹Łæ²¡": 2390,
      "èĪĮ": 2391,
      "æ½®": 2392,
      "é½": 2393,
      "çº§": 2394,
      "æľ¨": 2395,
      "æĤ£çĹħ": 2396,
      "åĳĬ": 2397,
      "å¤įæ£Ģ": 2398,
      "è¾ĥå¥½": 2399,
      "å¤´åŃ¢": 2400,
      "çĦ¦": 2401,
      "é£Łåĵģ": 2402,
      "åĵ®": 2403,
      "å¤įæĸ¹": 2404,
      "ç®Ĺ": 2405,
      "æķıæĦŁ": 2406,
      "ä¸Ģåĳ¨": 2407,
      "åı¯æĺ¯": 2408,
      "é£ŁçĶ¨": 2409,
      "æĳĺéĻ¤": 2410,
      "çĸ²": 2411,
      "äºĨè§£": 2412,
      "é¢¤": 2413,
      "å¤§å¤ļæķ°": 2414,
      "ä¾Ŀ": 2415,
      "ä¸Ģå¤©": 2416,
      "ä»Ķç»Ĩæ£ĢæŁ¥ç»ĵæŀľ": 2417,
      "åŃĺåľ¨": 2418,
      "èŀį": 2419,
      "çļĦå¿ĥæĢģ": 2420,
      "åİŁåıĳæĢ§": 2421,
      "åıªæĺ¯": 2422,
      "Ġï¼Į": 2423,
      "æ²ī": 2424,
      "å¿§": 2425,
      "å¾®éĩı": 2426,
      "æĢİæł·æ²»çĸĹ": 2427,
      "æī«": 2428,
      "åıĳå±ķ": 2429,
      "å°±ä¸į": 2430,
      "æĥħåĨµä¸ĭ": 2431,
      "å±±": 2432,
      "çĹī": 2433,
      "å°±åĮ»": 2434,
      "æĺ¯æĮĩ": 2435,
      "èĤĿçĤİ": 2436,
      "åĩłä¸ĭ": 2437,
      "æ²Ł": 2438,
      "å¾Ħ": 2439,
      "é¼ł": 2440,
      "å®Ī": 2441,
      "è¯¯": 2442,
      "ä½łçļĦæĥħåĨµ": 2443,
      "èĢģåħ¬": 2444,
      "å®«é¢ĪçĤİ": 2445,
      "æİ¥è§¦": 2446,
      "ç¾¤ä½ĵ": 2447,
      "æĸĻ": 2448,
      "çĺ¦": 2449,
      "éĩįåº¦": 2450,
      "åıĬæĹ¶æķĳæ²»": 2451,
      "èĤ¥å¤§": 2452,
      "åľ¨ä¹İæĢİæł·çļĦå¸®åĬ©": 2453,
      "çĶŁåĨ·": 2454,
      "ä¹³å¤´": 2455,
      "æħ¢æħ¢": 2456,
      "åĵ®åĸĺ": 2457,
      "æ»ĳ": 2458,
      "èĥ½åĬĽ": 2459,
      "åĲİæĿ¥": 2460,
      "åĲİéģĹ": 2461,
      "æĤ£èĢħä»¬": 2462,
      "éĴĪçģ¸": 2463,
      "ç»¿": 2464,
      "èį¯åĵģ": 2465,
      "è´¹çĶ¨": 2466,
      "è¿ľ": 2467,
      "ä¼ĺ": 2468,
      "ä¹Łä¼ļ": 2469,
      "çĻ½ç»Ĩèĥŀ": 2470,
      "èıĮæĢ§": 2471,
      "éĢĤå½ĵçļĦ": 2472,
      "æīģæ¡ĥä½ĵçĤİ": 2473,
      "å¹¿": 2474,
      "ç®Ģ": 2475,
      "èĤłéģĵ": 2476,
      "åħ»æĪĲ": 2477,
      "åıĹåŃķ": 2478,
      "éĩĬ": 2479,
      "çŃĽæŁ¥": 2480,
      "æŀ¶": 2481,
      "é£Łéģĵ": 2482,
      "èĤ¿å¤§": 2483,
      "éª¨é«ĵ": 2484,
      "ä»Ķç»Ĩè§Ĥå¯Ł": 2485,
      "æĶ¾çĸĹ": 2486,
      "ç¼ºä¹ı": 2487,
      "çĶŁåŃĺ": 2488,
      "çĸ«èĭĹ": 2489,
      "ĠĠĠĠ": 2490,
      "æ²ĻæĺŁ": 2491,
      "æģ¶æĢ§èĤ¿çĺ¤": 2492,
      "ç¿»": 2493,
      "ä¸ģ": 2494,
      "ä¸ĥ": 2495,
      "èĦĲ": 2496,
      "çļ®è´¨": 2497,
      "ç¢ĺ": 2498,
      "å¹³æĹ¶æ³¨æĦı": 2499,
      "æĳ©": 2500,
      "çļĦæĺ¯": 2501,
      "æĢĿ": 2502,
      "åĩºçĶŁ": 2503,
      "å¹¶ä¸į": 2504,
      "æ¿Ģåħī": 2505,
      "èĭ¯": 2506,
      "åŁºåĽł": 2507,
      "åįģåĪĨ": 2508,
      "æ¯įä¹³": 2509,
      "ä¸įçŁ¥éģĵæĢİä¹ĪåĽŀäºĭ": 2510,
      "é¤Ĳ": 2511,
      "é£Łæ¬²": 2512,
      "èĨĿ": 2513,
      "èĤĿåĬŁèĥ½": 2514,
      "ä¼¤åı£": 2515,
      "åıĬæĹ¶çļĦ": 2516,
      "è¯¥æĢİä¹ĪåĬŀ": 2517,
      "é¢ĳç¹ģ": 2518,
      "å¤ļåıĳç¾¤ä½ĵ": 2519,
      "å¾®éĩıåħĥç´ł": 2520,
      "æĺ¯å¯¹": 2521,
      "ä¸ºåŁºç¡Ģ": 2522,
      "çĿ¡è§ī": 2523,
      "éĨĴ": 2524,
      "å¸ķ": 2525,
      "é¥®é£Łæ¸ħæ·¡": 2526,
      "æĵį": 2527,
      "é©¬ä¸Ĭ": 2528,
      "å¾ªçİ¯": 2529,
      "åŁºæľ¬": 2530,
      "å¤§éĩı": 2531,
      "æĢİä¹Īæł·": 2532,
      "å¦Ĥæŀľæľī": 2533,
      "è¾ĵæ¶²": 2534,
      "çº¤ç»´åĮĸ": 2535,
      "èĢĲ": 2536,
      "å°±è¦ģåıĬæĹ¶": 2537,
      "èĤ¾åĬŁèĥ½": 2538,
      "åĪ©äºİ": 2539,
      "çĶŁéķ¿åıĳèĤ²": 2540,
      "ä¸ªäººåį«çĶŁ": 2541,
      "æģ°å½ĵé¥®é£Ł": 2542,
      "å¥½è½¬": 2543,
      "ä¸ĭæĿ¥": 2544,
      "çĺĺ": 2545,
      "åģļå¥½": 2546,
      "åģļæīĭæľ¯": 2547,
      "å½ĵåľ°": 2548,
      "å®¹æĺĵçĹħåıĳ": 2549,
      "è¡Ģå°ı": 2550,
      "å¼ķæµģ": 2551,
      "æ´»æ£Ģ": 2552,
      "èĢģå¹´äºº": 2553,
      "åī§çĥĪ": 2554,
      "èī¯æĢ§": 2555,
      "ä¸´åºĬè¯ĬæĸŃ": 2556,
      "æĶ¯æĮģ": 2557,
      "éĽĮ": 2558,
      "ç²¾ç´¢éĿĻèĦīæĽ²å¼ł": 2559,
      "æĢ§åĬŁèĥ½éļľç¢į": 2560,
      "çĹĩçļĦ": 2561,
      "åįĪ": 2562,
      "åı¯ä»¥èĢĥèĻĳ": 2563,
      "çĽĺ": 2564,
      "ç²¾æ¶²": 2565,
      "åīĸèħ¹": 2566,
      "ä»·": 2567,
      "ä»¥æ¸ħæ·¡": 2568,
      "åİī": 2569,
      "æ´»è¡Ģ": 2570,
      "è¶ħè¿ĩ": 2571,
      "è¿Ļä¸ªæĥħåĨµ": 2572,
      "æİĴä¾¿": 2573,
      "ä¸¤å¤©": 2574,
      "åİ»åĮ»éĻ¢ä»Ķç»Ĩæ£ĢæŁ¥": 2575,
      "ç©¿åĪº": 2576,
      "æ¥ļ": 2577,
      "è¡Ģå°ıæĿ¿": 2578,
      "çĽ²": 2579,
      "æµĵ": 2580,
      "çĶ·ç§ĳ": 2581,
      "åķ¥": 2582,
      "å¾®åĪĽ": 2583,
      "çŃĶæ¡Ī": 2584,
      "æĭ¿": 2585,
      "é¡º": 2586,
      "åĲĥä»Ģä¹Īèį¯": 2587,
      "ä½ıéĻ¢": 2588,
      "æĵ¦æ´Ĺ": 2589,
      "æĿĤ": 2590,
      "æīĭè¶³": 2591,
      "çļĦå½±åĵį": 2592,
      "åĨħè£¤": 2593,
      "æĤ¨çļĦ": 2594,
      "èĥ°èħº": 2595,
      "åİīå®³": 2596,
      "è¿«": 2597,
      "è¿ĩå¤ļ": 2598,
      "ä¾µ": 2599,
      "æ¸ħæ¥ļ": 2600,
      "çļĦè¾ħåĬ©æ£ĢæŁ¥æľīäºĽä»Ģä¹Ī": 2601,
      "çĽĨèħĶçĤİ": 2602,
      "æł¹æį®ä½łçļĦæııè¿°": 2603,
      "çŃīçĹĩçĬ¶": 2604,
      "è¯Ĭæ²»": 2605,
      "åĪºæ¿Ģé£Łçī©": 2606,
      "çģĮ": 2607,
      "éĨī": 2608,
      "éĻĦçĿ¾": 2609,
      "çĹīæĮĽ": 2610,
      "éģ¿åŃķèį¯": 2611,
      "Xçº¿": 2612,
      "çĹĽèĭ¦": 2613,
      "æ²¡ä»Ģä¹Ī": 2614,
      "å¹²çĩ¥": 2615,
      "èĽĭçĻ½è´¨": 2616,
      "çĶ¨éĩı": 2617,
      "èĬ¬": 2618,
      "ä½łçļĦè¿Ļç§įæĥħåĨµ": 2619,
      "ç£·": 2620,
      "å°±è¯Ĭç§ĳå®¤": 2621,
      "å°±è¯Ĭç§ĳå®¤æĺ¯ä»Ģä¹Ī": 2622,
      "åı«": 2623,
      "æĢ§åĪ«": 2624,
      "å°ıä¾¿": 2625,
      "ä¿Ŀæļĸ": 2626,
      "æĺı": 2627,
      "ä¸įçŁ¥æĻĵ": 2628,
      "éĥ½ä¼ļ": 2629,
      "æ®ĭ": 2630,
      "è¥¿åĮ»": 2631,
      "éĺ»å¡ŀ": 2632,
      "åĻ¨å®ĺ": 2633,
      "æľīåħ³ç³»": 2634,
      "ä¿ĥè¿Ľ": 2635,
      "è¿ĺä¼ļ": 2636,
      "æ¦Ĥ": 2637,
      "çĸı": 2638,
      "æĤ£èĢħæľĭåıĭ": 2639,
      "æ¶¦": 2640,
      "å¦ĩç§ĳçĸ¾çĹħçļĦåĩºçİ°": 2641,
      "ä¹ıåĬĽ": 2642,
      "éī": 2643,
      "ä»¥ä¸ĭ": 2644,
      "æĢİä¹Īæ²»": 2645,
      "èµ·æĿ¥": 2646,
      "æ¶Īå¤±": 2647,
      "ç²ĺè¿ŀ": 2648,
      "éī´": 2649,
      "14": 2650,
      "ä¸Ŀ": 2651,
      "å¢ŀå¼ºä½ĵè´¨": 2652,
      "å®īåħ¨": 2653,
      "ä¸°": 2654,
      "éĺ´éĥ¨": 2655,
      "æĪĲåĪĨ": 2656,
      "æ»¡": 2657,
      "å¤ļæ³¨æĦı": 2658,
      "çĲĨè§£": 2659,
      "æµħ": 2660,
      "éº»éĨī": 2661,
      "çĽĲéħ¸": 2662,
      "ä¿®å¤į": 2663,
      "å¯¹æĤ¨æľīå¸®åĬ©": 2664,
      "éľ²": 2665,
      "æŃ£ç¡®": 2666,
      "éĥ½æľī": 2667,
      "åĩłçİĩ": 2668,
      "éľĢè¦ģæľīçľĭéĩį": 2669,
      "é£İæ¹¿": 2670,
      "çļĦé¢Ħéĺ²æİªæĸ½": 2671,
      "å¤ļè§ģ": 2672,
      "æ¶Ĥ": 2673,
      "é«ĺçĥ§": 2674,
      "åıĺåĮĸ": 2675,
      "æĥ³è¦ģ": 2676,
      "çļĦæ²»çĸĹæĥħåĨµåĴĮæķĪæŀľ": 2677,
      "è¿Ļä¸ªéĹ®é¢ĺçļĦ": 2678,
      "çĽ¸ä¿¡": 2679,
      "éĵģ": 2680,
      "æĽ¾ç»ıçļĦæ²»çĸĹæĥħåĨµåĴĮæķĪæŀľ": 2681,
      "æ¨¡": 2682,
      "æĺ¨": 2683,
      "ä¼°": 2684,
      "æĤ£ä¸Ĭ": 2685,
      "å°ĳåĲĥ": 2686,
      "ä¸Ńèį¯æ²»çĸĹ": 2687,
      "å·²ç»ıå¼Ģå§ĭ": 2688,
      "æµĨ": 2689,
      "äº§åĲİ": 2690,
      "ç»Ŀä¸įä¼ļ": 2691,
      "å°ĸ": 2692,
      "å°¿è·¯": 2693,
      "åīĤéĩı": 2694,
      "æĶ¯æŀ¶": 2695,
      "çļĦé¥®é£Ł": 2696,
      "è¡¨çİ°ä¸º": 2697,
      "èĭ·": 2698,
      "ç»ĻäºĪ": 2699,
      "æĢ§èĦĳ": 2700,
      "éĻ¤æŃ¤": 2701,
      "æ±Ĥ": 2702,
      "ç±»åŀĭ": 2703,
      "ä»İèĢĮ": 2704,
      "åįıåĬ©": 2705,
      "æ£Ģæµĭ": 2706,
      "ç»ĵå©ļ": 2707,
      "èĤ¾èĻļ": 2708,
      "æĬĹä½ĵ": 2709,
      "å©Ĩ": 2710,
      "æĲĲ": 2711,
      "è®Ńç»ĥ": 2712,
      "è¿Ļä¸ªéĹ®é¢ĺçļĦå»ºè®®": 2713,
      "éĻ¤æŃ¤ä¹ĭå¤ĸ": 2714,
      "éĻ·": 2715,
      "éĹ¹": 2716,
      "å°¿ç®¡": 2717,
      "çĻĮç»Ĩèĥŀ": 2718,
      "æĹłæ³ķ": 2719,
      "æĺĵæ¶ĪåĮĸ": 2720,
      "ä¸īå¤©": 2721,
      "åĭ¤": 2722,
      "ç¬¬äºĮ": 2723,
      "åģľèį¯": 2724,
      "åĿļæĮģ": 2725,
      "38": 2726,
      "æīĺ": 2727,
      "åı¯ä»¥å¸®åĬ©": 2728,
      "æĸ¹æīįèĥ½": 2729,
      "æĭīèĤļåŃĲ": 2730,
      "é»ıèĨľ": 2731,
      "åĲİéģĹçĹĩ": 2732,
      "åį§": 2733,
      "åĨħçª": 2734,
      "äººä½ĵ": 2735,
      "èĩ´ä½¿çļĦ": 2736,
      "çĵľ": 2737,
      "æĬ½æĲĲ": 2738,
      "ä½ĵéĩį": 2739,
      "çĥ«": 2740,
      "æ¶ĪåĮĸä¸įèī¯": 2741,
      "èĦĳæ¢Ĺå¡ŀ": 2742,
      "MR": 2743,
      "å¤ļäºĨ": 2744,
      "æ£ĢæŁ¥ä¸Ģä¸ĭ": 2745,
      "ç²Ĺ": 2746,
      "èĤºéĥ¨": 2747,
      "è¿Ļä¸ªçĹħ": 2748,
      "èĤ¥èĥĸ": 2749,
      "å¹¼åĦ¿": 2750,
      "ä¸ĩ": 2751,
      "ä¸įçĿĢ": 2752,
      "æŁĲ": 2753,
      "å¤ļéķ¿æĹ¶éĹ´": 2754,
      "é¢Ŀ": 2755,
      "ä¿Ŀå®Ī": 2756,
      "åĵªéĩĮ": 2757,
      "ä»¥ä¸Ĭæĺ¯å¯¹": 2758,
      "çĽ´èĤłçĻĮ": 2759,
      "ä»ģ": 2760,
      "çĸ±": 2761,
      "å®ģ": 2762,
      "åİŁåĪĻ": 2763,
      "çĻ½æĸĳ": 2764,
      "çľ¼çĿ": 2765,
      "è¸": 2766,
      "çļĦæĤ£èĢħ": 2767,
      "çī©è´¨": 2768,
      "å¾Īéļ¾": 2769,
      "ä¹³èħºçĻĮ": 2770,
      "èĦĬé«ĵ": 2771,
      "å¤§èĦĳ": 2772,
      "åĲĥé¥Ń": 2773,
      "å¾Īå®³æĢķ": 2774,
      "æĪĲåĥı": 2775,
      "åĢĴ": 2776,
      "éħĴç²¾": 2777,
      "åį±éĻ©": 2778,
      "åĿĩè¡¡": 2779,
      "éķĩçĹĽ": 2780,
      "å¿ĥçĹħ": 2781,
      "éĴ¾": 2782,
      "ç¡®è®¤": 2783,
      "ä¸ĵå®¶": 2784,
      "æĬĳéĥģ": 2785,
      "å¸¸çĶ¨": 2786,
      "çŃīçŃī": 2787,
      "æµ´": 2788,
      "è¿Ļç§įçĸ¾çĹħ": 2789,
      "åĲį": 2790,
      "å¥ĩ": 2791,
      "ä¼´åıĳ": 2792,
      "é¢ħåĨħ": 2793,
      "¥éķľ": 2794,
      "ä¼¼": 2795,
      "è®¡": 2796,
      "æľ¬çĹħ": 2797,
      "è½¯éª¨": 2798,
      "çĹķ": 2799,
      "åħ«": 2800,
      "å¸Ī": 2801,
      "çĲĨåºĶ": 2802,
      "èī²ç´ł": 2803,
      "ç¦ģæŃ¢": 2804,
      "åĿıæŃ»": 2805,
      "æŃĩæģ¯": 2806,
      "åĨħçª¥éķľ": 2807,
      "éŀ": 2808,
      "ä¸įå¤ª": 2809,
      "æĤ£èĢħçĹħæĥħ": 2810,
      "æĿ¥æľĪç»ı": 2811,
      "çļĦæĦŁè§ī": 2812,
      "ç»ıæľŁ": 2813,
      "å¦ĩå¥³": 2814,
      "çļĦçĹĩçĬ¶æĺ¯ä»Ģä¹Ī": 2815,
      "è¿ĺæ²¡æľī": 2816,
      "å®«èħĶ": 2817,
      "è¾ĵåįµç®¡åłµå¡ŀ": 2818,
      "11": 2819,
      "çĶ¨æ³ķ": 2820,
      "é¢Īéĥ¨": 2821,
      "è¡¥èĤ¾": 2822,
      "ä»½": 2823,
      "çĸĳ": 2824,
      "ç»ıè¿ĩ": 2825,
      "åĨħéķľ": 2826,
      "ä¸ĢèĪ¬æĿ¥è¯´": 2827,
      "å¿Įè¾Ľè¾£": 2828,
      "æĺ¯çĶ±": 2829,
      "çĶŁåĳ½": 2830,
      "ä¸ŃèĢ³": 2831,
      "æ¸Ĺ": 2832,
      "æĥ³éĹ®": 2833,
      "æĬ¤çĲĨå¹²é¢Ħ": 2834,
      "åĽĽèĤ¢": 2835,
      "å»¶éķ¿": 2836,
      "èĸĦ": 2837,
      "ä¸°å¯Į": 2838,
      "å¥Ĺ": 2839,
      "é¥®é£Łä¸Ĭ": 2840,
      "èĤ¾çĤİ": 2841,
      "çĹħåĽłåĲİ": 2842,
      "ç½Ĺ": 2843,
      "è¯ķè¯ķ": 2844,
      "åı¯ä»¥åģļ": 2845,
      "åĩıéĢĢ": 2846,
      "çº¢èĤ¿": 2847,
      "æłĵå¡ŀ": 2848,
      "æĮīæĳ©": 2849,
      "ä»į": 2850,
      "åĲ§": 2851,
      "å¥½åĥı": 2852,
      "æĻ¨": 2853,
      "ä¸ĢçĽ´éĥ½": 2854,
      "æİ¥åıĹ": 2855,
      "æŃ£è§ĦçļĦåĮ»éĻ¢": 2856,
      "é«ĺåį±åĽłç´łæľīäºĽä»Ģä¹Ī": 2857,
      "èĤ¾çĹħ": 2858,
      "è¿Ļåĩłå¤©": 2859,
      "åĩºçļĦ": 2860,
      "æİĴå°¿": 2861,
      "èĥ¸éĥ¨": 2862,
      "åĺ±": 2863,
      "æ¯Ķä¾ĭ": 2864,
      "äº¡": 2865,
      "æķħ": 2866,
      "ä¸Ńé£İ": 2867,
      "è¡¥åħħç»´çĶŁç´ł": 2868,
      "äºļ": 2869,
      "æĸĩ": 2870,
      "çĶ¨äºİ": 2871,
      "è¯´æĺİ": 2872,
      "æĻº": 2873,
      "å²Ľ": 2874,
      "å²ģäºĨ": 2875,
      "ä¸īä¸ªæľĪ": 2876,
      "é¢Ħéĺ²å·¥ä½ľ": 2877,
      "æĤ£èĢħçļĦé¥®é£Ł": 2878,
      "ç½®æį¢": 2879,
      "å¿µ": 2880,
      "å¿ĥçĶµåĽ¾": 2881,
      "éĺ´åĽĬ": 2882,
      "èĢĥéĩı": 2883,
      "éĶģ": 2884,
      "çĪ¶": 2885,
      "åĨłçĬ¶": 2886,
      "ä¸Ĭè¿°çļĦ": 2887,
      "ä»¥éĺ²": 2888,
      "èĻ½": 2889,
      "ä½İçĥ§": 2890,
      "åķ¤": 2891,
      "å¿ĥèĦıçĹħ": 2892,
      "æĺ¨å¤©": 2893,
      "ä¸įè¿ĩ": 2894,
      "é¢Į": 2895,
      "çĽĳ": 2896,
      "æ¶ĪéĻ¤": 2897,
      "å¹²åĩĢ": 2898,
      "èħ°æ¤İ": 2899,
      "èĥĢçĹĽ": 2900,
      "çĦ¦èĻĳ": 2901,
      "åķ¤éħĴ": 2902,
      "ä¸¹": 2903,
      "åĪĢ": 2904,
      "æ²»çĸĹæĸ¹æ¡Ī": 2905,
      "æĸľ": 2906,
      "äººçļĦ": 2907,
      "éĶ®": 2908,
      "åºĶè¯¥æĺ¯": 2909,
      "æľĢå¥½æĺ¯": 2910,
      "åĭĴ": 2911,
      "åĲ¦åĪĻ": 2912,
      "èľĤ": 2913,
      "ä¸įå¿ħè¦ģ": 2914,
      "æĤ£èĢħéľĢè¦ģ": 2915,
      "ä¸ĭä½ĵ": 2916,
      "çĻ½èī²": 2917,
      "ä¿ĿæĮģå¿ĥæĥħ": 2918,
      "é¾Ļ": 2919,
      "åº·å¤įçļĦ": 2920,
      "ç¼ºæįŁ": 2921,
      "é¥®æ°´": 2922,
      "åħ³éĶ®": 2923,
      "æ®Ĭ": 2924,
      "ç½ĳèĨľ": 2925,
      "éī´åĪ«": 2926,
      "æŁĵèī²": 2927,
      "çļĦæ²»çĸĹæķĪæŀľ": 2928,
      "èĪĴçķħ": 2929,
      "çĬ¶åĨµåĴĮ": 2930,
      "çļĦçİ°è±¡": 2931,
      "æ²»çĸĹæķĪæŀľ": 2932,
      "èĥ½å¤Ł": 2933,
      "æĹ©ä¸Ĭ": 2934,
      "ä¹ĭä¸Ģ": 2935,
      "èĩªèº«åį«çĶŁ": 2936,
      "æľºä½ĵ": 2937,
      "æŃ£è§ĦåĮ»éĻ¢": 2938,
      "å¤ļå°ĳéĴ±": 2939,
      "èĵ": 2940,
      "æľīåı¯èĥ½æĺ¯": 2941,
      "é¥±": 2942,
      "åıĮä¾§": 2943,
      "æķĻèĤ²": 2944,
      "å¾Īæĭħå¿ĥ": 2945,
      "éĢļçķħ": 2946,
      "çī¹æ®Ĭ": 2947,
      "åı£æľįæ¶²": 2948,
      "éĢĢçĥ§": 2949,
      "åĸĤåħ»": 2950,
      "æī«æıı": 2951,
      "cm": 2952,
      "æľīåĪ©äºİ": 2953,
      "åı¯ä»¥éĩĩçĶ¨": 2954,
      "æĿŁ": 2955,
      "è®º": 2956,
      "å¯¹èº«ä½ĵ": 2957,
      "çĽ´éĿ¢": 2958,
      "å·¦ä¾§": 2959,
      "ä¸ĵç§ĳ": 2960,
      "æĪĴçĥŁ": 2961,
      "ä¸Ĭè¿°çļĦçŃĶæ¡Ī": 2962,
      "æľµ": 2963,
      "æ²»çĸĹåĲİ": 2964,
      "å¦»": 2965,
      "ä¸ŃçļĦ": 2966,
      "æ¬¡æķ°": 2967,
      "çĻ½è¡Ģ": 2968,
      "æĥ³çŁ¥éģĵ": 2969,
      "é¢Īæ¤İ": 2970,
      "åľ°æĸ¹": 2971,
      "éģĹç²¾": 2972,
      "åĪĽä¼¤": 2973,
      "æī¾åĩº": 2974,
      "è¦ģå¤ļ": 2975,
      "èĩŃ": 2976,
      "çķĮ": 2977,
      "æĬĹçĤİ": 2978,
      "æĦŁæŁĵçļĦ": 2979,
      "åķ¡": 2980,
      "æĤ£èĢħçļĦé¥®é£ŁçĬ¶åĨµåĴĮ": 2981,
      "æ¯«": 2982,
      "å·¨": 2983,
      "å¢ŀé«ĺ": 2984,
      "çĪ¸": 2985,
      "çł´çļ®": 2986,
      "æĶ¯æ°Ķç®¡çĤİ": 2987,
      "çļĦçĸ¾çĹħ": 2988,
      "è®°": 2989,
      "æĪĳçİ°åľ¨": 2990,
      "æ¯Ķè¾ĥå¤§": 2991,
      "åĹĵ": 2992,
      "æĢķåĨ·": 2993,
      "è¯Ħä¼°": 2994,
      "ä¼ļåĩºçİ°": 2995,
      "å¿ĥå¾ĭ": 2996,
      "è¯´çļĦ": 2997,
      "èĦĳè¡Ģç®¡": 2998,
      "èĢģæĺ¯": 2999,
      "ä¼łç»Ł": 3000,
      "èĢ³æľµ": 3001,
      "ä½łçļĦè¿Ļç§įæĥħåĨµåı¯èĥ½æĺ¯": 3002,
      "æľīåı¯èĥ½": 3003,
      "èĥĥéķľ": 3004,
      "çİĩæĺ¯å¤ļå°ĳ": 3005,
      "æľŁæľĽå¯¹æĤ¨æľīå¸®åĬ©": 3006,
      "å°ıèħ¹çĸ¼çĹĽ": 3007,
      "æīĭè¶³åı£": 3008,
      "çļĦä½ľçĶ¨": 3009,
      "æĢ§åĬŁèĥ½": 3010,
      "çļĦæ²»çĸĹæĸ¹å¼ı": 3011,
      "åı¯èĥ½ä¼ļæĺ¯": 3012,
      "åĪºæ¿ĢæĢ§çļĦé£Łçī©": 3013,
      "åĬ³ç´¯": 3014,
      "æĻ®åĭĴ": 3015,
      "æĺ¯éĿŀå¸¸": 3016,
      "å¾ħ": 3017,
      "å¤ļæĻ®åĭĴ": 3018,
      "èĥ½ä¸įèĥ½": 3019,
      "åĮĸåŃ¦": 3020,
      "äººç¾¤": 3021,
      "ç¡«": 3022,
      "é¥®é£Łæĸ¹éĿ¢": 3023,
      "åħ¶å®ĥ": 3024,
      "èĲ½": 3025,
      "èĥ¸éĹ·": 3026,
      "èģļ": 3027,
      "æĪĳæĥ³éĹ®": 3028,
      "æĶ¾å°Ħæ²»çĸĹ": 3029,
      "è¿·": 3030,
      "çĶŁçī©": 3031,
      "æŁ±": 3032,
      "é£Łä»Ģä¹Ī": 3033,
      "æ£®": 3034,
      "å°±è¦ģ": 3035,
      "æĿ¥çļĦ": 3036,
      "åı£æľįèį¯çī©": 3037,
      "å¨©": 3038,
      "ä¹°": 3039,
      "çĹħåı²": 3040,
      "å¥¥": 3041,
      "åĪ°äºĨ": 3042,
      "èĩªèº«æĬ¤çĲĨ": 3043,
      "èĦĵèĤ¿": 3044,
      "è§Ħå¾ĭä½ľæģ¯": 3045,
      "éĻĦä»¶": 3046,
      "åīĸèħ¹äº§": 3047,
      "åĹĵåŃĲ": 3048,
      "æ¶ķ": 3049,
      "åĸ·": 3050,
      "èĩªçĦ¶": 3051,
      "ç§¯æŀģæ²»çĸĹ": 3052,
      "åıĤèĢĥ": 3053,
      "éļıçĿĢ": 3054,
      "åģ¶å°Ķ": 3055,
      "çĸĹç¨ĭ": 3056,
      "çĺ¤çļĦ": 3057,
      "çĹħæĥħåıĬ": 3058,
      "çļĦæĥħåĨµä¸ĭ": 3059,
      "æľĢå¥½åİ»åĮ»éĻ¢": 3060,
      "éĽĨ": 3061,
      "13": 3062,
      "ä¸ŃæĪĲ": 3063,
      "æ¸¸": 3064,
      "å°½å¿«åº·å¤į": 3065,
      "ç«ĭåį³": 3066,
      "å¦Īå¦Ī": 3067,
      "ä»ĭåħ¥": 3068,
      "æ··åĲĪ": 3069,
      "çĹħçģ¶": 3070,
      "å¦¥": 3071,
      "æĤ£èĢħè¦ģ": 3072,
      "è¥¿èį¯": 3073,
      "ä¹ħåĿĲ": 3074,
      "çļĦä¸Ģç§į": 3075,
      "æľīæ²¡æľī": 3076,
      "ä¸įæĺĵ": 3077,
      "æĢ§èĥĥçĤİ": 3078,
      "ä¸Ģå®¶": 3079,
      "éľĢè¦ģéĩįè§Ĩ": 3080,
      "èĦĳçĺ«": 3081,
      "éĿ¢éĥ¨": 3082,
      "æľĢè¿ĳä¸įçŁ¥éģĵæĢİä¹ĪåĽŀäºĭ": 3083,
      "åºĶè¯¥æ³¨æĦı": 3084,
      "çĶ·æĢ§ä¸įèĤ²": 3085,
      "ä¸įä»ħä»ħ": 3086,
      "æĪĺ": 3087,
      "æīİ": 3088,
      "ä½ĵèĤ²": 3089,
      "æĤ£èĢħä¸Ģå®ļè¦ģ": 3090,
      "æµ®": 3091,
      "èŀºæĹĭ": 3092,
      "æľīå½±åĵį": 3093,
      "è¿Ļæ®µæĹ¶éĹ´": 3094,
      "è¿Ľè¡ĮåĴ¨è¯¢": 3095,
      "å¤ļåĲĥæ¸ħæ·¡": 3096,
      "åĲ«æľī": 3097,
      "ç»§ç»Ń": 3098,
      "è¯Ń": 3099,
      "å¤ļåıĳæĢ§": 3100,
      "åİĮ": 3101,
      "éľĩ": 3102,
      "å°¿æĢ¥": 3103,
      "åĪĨå¨©": 3104,
      "åħ³äºİ": 3105,
      "åĹľ": 3106,
      "åĺ´": 3107,
      "æ¶ĪçĤİèį¯": 3108,
      "mg": 3109,
      "ç»ľ": 3110,
      "ä¸įéľĢè¦ģ": 3111,
      "ä¸įå®ļæľŁ": 3112,
      "åıĬæĹ©": 3113,
      "éĩįçĹĩ": 3114,
      "åİ»ä¸ĵä¸ļ": 3115,
      "éĺ²å¯Ĵ": 3116,
      "æīįå¥½": 3117,
      "éĩĮéĿ¢": 3118,
      "çĹħæ¯ĴæĦŁæŁĵ": 3119,
      "æ¯Ķå¦Ĥè¯´": 3120,
      "çĮª": 3121,
      "åı¯ä»¥å¸®åĬ©åĪ°": 3122,
      "å°ļ": 3123,
      "èĥ½åĲĥ": 3124,
      "åĨħåĽºå®ļ": 3125,
      "ç»¼åĲĪçĹĩ": 3126,
      "åĽłæŃ¤æĤ£èĢħ": 3127,
      "åĨħçª¥éķľæ£ĢæŁ¥æľīäºĽä»Ģä¹Ī": 3128,
      "16": 3129,
      "æľīå¾Īå¤ļ": 3130,
      "ä¸įåĲĥ": 3131,
      "æĮº": 3132,
      "éľĢè¦ģæ³¨æĦı": 3133,
      "æľĪç»ıéĩı": 3134,
      "æĶ¾åĮĸçĸĹ": 3135,
      "æ¤įçī©": 3136,
      "èĥ°å²Ľ": 3137,
      "ä¸ŃèĢ³çĤİ": 3138,
      "çĹħåĽłåĲİå¯¹çĹĩæ²»çĸĹ": 3139,
      "æĺ¯æĢİä¹Ī": 3140,
      "éĺµ": 3141,
      "åı¯ä»¥åı£æľį": 3142,
      "æĤ£äºĨ": 3143,
      "è®²": 3144,
      "å¦ĤæŀľåŃ©åŃĲ": 3145,
      "çģ¼": 3146,
      "å®«é¢ĪçĻĮ": 3147,
      "æ¶ĪåĮĸéģĵ": 3148,
      "éĩĳæ£®": 3149,
      "éĢłæĪĲçļĦ": 3150,
      "çıł": 3151,
      "æĴŃ": 3152,
      "é½¿": 3153,
      "èļ": 3154,
      "åħ¸": 3155,
      "åĮĸèĦĵ": 3156,
      "è´´": 3157,
      "å¼Ĥä½į": 3158,
      "èĤ¿çĺ¤çļĦ": 3159,
      "æ¯ıæĹ¥": 3160,
      "æĺİæĺ¾çļĦ": 3161,
      "æł¹æį®ä½łçļĦåıĻè¿°": 3162,
      "é¸¡èĽĭ": 3163,
      "å¸ķéĩĳæ£®": 3164,
      "ä¸ŃæĪĲèį¯": 3165,
      "å¤ļæľĪ": 3166,
      "èĩªè¡Į": 3167,
      "æĹłçĹĽ": 3168,
      "åĬ©äºİ": 3169,
      "æĪĲå½¢": 3170,
      "åīįåĪĹèħºå¢ŀçĶŁ": 3171,
      "çī¹å¾ģ": 3172,
      "å¤ļåĲĥæĸ°é²ľ": 3173,
      "ä¼ļå½±åĵįåĪ°": 3174,
      "æŀĦæĪĲ": 3175,
      "ä»¤": 3176,
      "è¿ĺä¼ļå¯¼èĩ´": 3177,
      "å¾Īå¤§": 3178,
      "èĩªæĦĪ": 3179,
      "ä¸İæŃ¤": 3180,
      "è¾ĵå°¿ç®¡": 3181,
      "æī©æķ£": 3182,
      "æºĲæĢ§": 3183,
      "24": 3184,
      "èĥļ": 3185,
      "åŃ£": 3186,
      "éħ¯": 3187,
      "æĿ¥çľĭ": 3188,
      "ä¿Ŀåģ¥": 3189,
      "ä¸īçĶ²": 3190,
      "å¿«éĢŁ": 3191,
      "èĦĤèĤªèĤĿ": 3192,
      "ä¸ĬçļĦ": 3193,
      "ç¨³": 3194,
      "é»Ħèī²": 3195,
      "æīģæ¡ĥä½ĵåıĳçĤİ": 3196,
      "çĸ²åĬ³": 3197,
      "mm": 3198,
      "åĪ»": 3199,
      "æ³Ľ": 3200,
      "è¡Ģå¸¸è§Ħ": 3201,
      "æĦıè¯Ĩ": 3202,
      "æĬĹçĹħæ¯Ĵ": 3203,
      "çĲĥèıĮ": 3204,
      "çļĦä»Ķç»Ĩæ£ĢæŁ¥": 3205,
      "çļĦå¿ĥæĥħ": 3206,
      "æ²«": 3207,
      "è¯º": 3208,
      "æīŃ": 3209,
      "æĿĢ": 3210,
      "è¿ĺåı¯ä»¥": 3211,
      "é¥®é£ŁéĹ®é¢ĺ": 3212,
      "å¢ŀè¿Ľ": 3213,
      "æł¹æį®åĮ»çĶŁçļĦ": 3214,
      "æİ¨æµĭ": 3215,
      "å¼Ģæ°´": 3216,
      "å¸¦åŃ©åŃĲ": 3217,
      "èĥĨç®¡": 3218,
      "è¶ħå£°æ£ĢæŁ¥": 3219,
      "åĶĩ": 3220,
      "å¤ĸéĺ´çĻ½æĸĳ": 3221,
      "æľĢè¿ĳæĢ»æĺ¯èĤļåŃĲ": 3222,
      "çļĦå¦ĩç§ĳåģļä¸Ģä¸ĭ": 3223,
      "æī¾åĩºçĹħåĽłåĲİå¯¹çĹĩæ²»çĸĹ": 3224,
      "æľĢå¥½åİ»åĮ»éĻ¢çļĦå¦ĩç§ĳåģļä¸Ģä¸ĭ": 3225,
      "ä¸įä»ħä»ħä¼ļå½±åĵį": 3226,
      "è¿ĺä¼ļå¯¼èĩ´å¦ĩç§ĳçĸ¾çĹħçļĦåĩºçİ°": 3227,
      "æľīä¸ª": 3228,
      "è¡ĢèĦĤ": 3229,
      "æĬ¥": 3230,
      "éħļ": 3231,
      "çªĿ": 3232,
      "åĩĨå¤ĩ": 3233,
      "åıªæľīè¿Ļæł·æīįèĥ½": 3234,
      "å¤ļéķ¿": 3235,
      "çĶ¨ä»Ģä¹Ī": 3236,
      "çŃĭ": 3237,
      "èĤ¿èĥĢ": 3238,
      "è´¨æĢ§": 3239,
      "åĨłå¿ĥçĹħ": 3240,
      "æĺŁæľŁ": 3241,
      "çĽ²çĽ®": 3242,
      "ä¸İæŃ¤åĲĮæĹ¶": 3243,
      "åĲŀ": 3244,
      "ä¸įæĦĪ": 3245,
      "è¾¨": 3246,
      "ä¸Ĭçļ®": 3247,
      "åĩºçİ°äºĨ": 3248,
      "éĶĮ": 3249,
      "æ»ĭ": 3250,
      "æĲı": 3251,
      "é£ŁéģĵçĻĮ": 3252,
      "25": 3253,
      "æĨ": 3254,
      "å¤§å¤«": 3255,
      "ä¸ĭèį¯": 3256,
      "æīĭæľ¯çļĦ": 3257,
      "å¢ŀå¤§": 3258,
      "æł¹æį®ä»Ķç»Ĩæ£ĢæŁ¥ç»ĵæŀľ": 3259,
      "åħ¨éĿ¢": 3260,
      "ç¢İ": 3261,
      "æıĴ": 3262,
      "ä¸¤ä¸ªæľĪ": 3263,
      "åıĹæįŁ": 3264,
      "éĴĻåĮĸ": 3265,
      "æľīæķĪçļĦ": 3266,
      "è¶ĬæĿ¥": 3267,
      "æ°Łæ²ĻæĺŁ": 3268,
      "çļĦåı¯èĥ½æĢ§": 3269,
      "åºŃ": 3270,
      "æŀ¢": 3271,
      "æ£ĢæŁ¥ç»ĵæŀľ": 3272,
      "çĬ¯": 3273,
      "å¿ĥåĬ¨": 3274,
      "å¤§æ¦Ĥ": 3275,
      "çº¸": 3276,
      "èĥĥçĻĮ": 3277,
      "èĢģå©Ĩ": 3278,
      "çļĦèį¯": 3279,
      "æĢ§æ²»çĸĹ": 3280,
      "åĴĸ": 3281,
      "éĢĨ": 3282,
      "è¿ĺèĥ½": 3283,
      "æĥ³å¾ĹåĪ°": 3284,
      "æŃ£å¸¸åĲĹ": 3285,
      "åĲ¸çĥŁ": 3286,
      "å¯¹çĹĩä¸ĭèį¯": 3287,
      "æĶ¯åİŁä½ĵ": 3288,
      "æ°§åĮĸ": 3289,
      "ç§°ä¸º": 3290,
      "ä¹Ĳè§Ĥ": 3291,
      "è¶ĬæĿ¥è¶Ĭ": 3292,
      "é³": 3293,
      "å°¾": 3294,
      "ä¸įå®ľ": 3295,
      "åľ¨çĶŁæ´»ä¸Ń": 3296,
      "ç²¥": 3297,
      "ä¹Łè¦ģ": 3298,
      "è¿ĺè¦ģ": 3299,
      "çĹĩçĬ¶çļĦ": 3300,
      "å±ħ": 3301,
      "æĬ¤çĲĨæĸ¹éĿ¢": 3302,
      "ä¸¤æ¬¡": 3303,
      "è£ħ": 3304,
      "åĳ¼åĲ¸åĽ°éļ¾": 3305,
      "ä¾ĭå¦Ĥ": 3306,
      "åĮ»çĶŁçļĦæĮĩå¯¼ä¸ĭ": 3307,
      "åĨ²æ´Ĺ": 3308,
      "MRI": 3309,
      "æĺ¥": 3310,
      "æĥĬ": 3311,
      "è§ĦèĮĥ": 3312,
      "åĲ¸åħ¥": 3313,
      "ç»Ļå®Ŀå®Ŀ": 3314,
      "èľľ": 3315,
      "éĽĮæ¿Ģç´ł": 3316,
      "18": 3317,
      "¨Ģ": 3318,
      "è¨Ģ": 3319,
      "åıī": 3320,
      "æĹģ": 3321,
      "ä¸įéĶĻ": 3322,
      "åĨ¬": 3323,
      "åİķ": 3324,
      "è¡Ģæ¸ħ": 3325,
      "åĮ»åŃ¦": 3326,
      "ä½ĵå¤ĸ": 3327,
      "æĻĴ": 3328,
      "èĤ¾ç»ĵçŁ³": 3329,
      "å½±åĵįçĶŁèĤ²": 3330,
      "ç¥ŀç»ıç³»ç»Ł": 3331,
      "çĥŃæ°´": 3332,
      "åı³ä¾§": 3333,
      "ï¼īï¼Į": 3334,
      "å¾ĹåĪ°ç¼ĵè§£": 3335,
      "è¯±åıĳ": 3336,
      "æŁĵèī²ä½ĵ": 3337,
      "åħ¸åŀĭ": 3338,
      "åĬ¡": 3339,
      "æŁĶ": 3340,
      "å°ıäº§": 3341,
      "ç¼ĺ": 3342,
      "å¹³è¡¡": 3343,
      "åİĭåĪ¶": 3344,
      "å¦ĩç§ĳçĤİçĹĩ": 3345,
      "ç¬¬ä¸Ģæ¬¡": 3346,
      "éĵ¶": 3347,
      "ä¸įåı¯ä»¥": 3348,
      "åįł": 3349,
      "èħºçĺ¤": 3350,
      "ç¼ĵæħ¢": 3351,
      "æīĵåĩ»": 3352,
      "æ·±åº¦": 3353,
      "å¸Ĥ": 3354,
      "ä¼ļèĩ´ä½¿": 3355,
      "æīĭæľ¯åĪĩéĻ¤": 3356,
      "åĵº": 3357,
      "è¡Įä¸º": 3358,
      "å°ĳéĩı": 3359,
      "è¡¨éĿ¢": 3360,
      "åĿ¦": 3361,
      "å¹²åĳķ": 3362,
      "åĽºéĨĩ": 3363,
      "ç»ĨèıĮæĢ§": 3364,
      "å½©èī²": 3365,
      "å¾Ģå¾Ģ": 3366,
      "å¿§å¿ĥ": 3367,
      "æľ«": 3368,
      "ä¹¦": 3369,
      "æĹı": 3370,
      "åĪ°åºķ": 3371,
      "é«ĺåİĭ": 3372,
      "ç»ĵæŀĦ": 3373,
      "è´Ŀ": 3374,
      "èĤĿçĹħ": 3375,
      "èĤłèĥĥ": 3376,
      "åİĭè¿«": 3377,
      "åĸĿåķ¤éħĴ": 3378,
      "å¤±å¸¸": 3379,
      "ç©´": 3380,
      "è¯ķéªĮ": 3381,
      "æ°¢": 3382,
      "å¾Īé«ĺ": 3383,
      "åĪĨä¸º": 3384,
      "éķ¿äºĨ": 3385,
      "ä¸ĢèĪ¬æĥħåĨµä¸ĭ": 3386,
      "è§īçĿĢ": 3387,
      "æĿ¡ä»¶": 3388,
      "èĻ½çĦ¶": 3389,
      "ä¸įåĪ°": 3390,
      "åİĺ": 3391,
      "é¢ľ": 3392,
      "éħ°": 3393,
      "çľ©": 3394,
      "é¥®éħĴ": 3395,
      "è°·": 3396,
      "ä¸ĢèĪ¬æ²»çĸĹ": 3397,
      "ç¨į": 3398,
      "äºĭé¡¹": 3399,
      "å®¶äºº": 3400,
      "æ±Ģ": 3401,
      "å®ŀæĸ½æ²»çĸĹ": 3402,
      "åįģäºĮ": 3403,
      "éĺ»æ»ŀ": 3404,
      "çļĦä¸ľè¥¿": 3405,
      "ä¹ī": 3406,
      "èĤ©": 3407,
      "åĮ»åĺ±": 3408,
      "æĪĳä»Ĭå¹´": 3409,
      "é«ĭ": 3410,
      "åģļè¿ĩ": 3411,
      "æ¸ħçĥŃ": 3412,
      "åĿł": 3413,
      "ä¸»åĬ¨èĦī": 3414,
      "ä¹ĭéĹ´": 3415,
      "ä¸¤ç§į": 3416,
      "çº¢æĸĳ": 3417,
      "å¥¶ç²ī": 3418,
      "ç»§åıĳæĢ§": 3419,
      "åįģåĪĨçļĦ": 3420,
      "ï¼Įï¼Į": 3421,
      "åĳĢ": 3422,
      "åĨħè¡£": 3423,
      "å¤©äºĨ": 3424,
      "åĢ¾": 3425,
      "çļĦæ²»çĸĹåĳ¨æľŁ": 3426,
      "ä¸¤ä¸ª": 3427,
      "çĪ·": 3428,
      "æŃ»äº¡": 3429,
      "éĶ»çĤ¼èº«ä½ĵ": 3430,
      "åĨħåĪĨæ³Įå¤±è°ĥ": 3431,
      "çĶŁæ®ĸåĻ¨": 3432,
      "æļĤæĹ¶": 3433,
      "èŀįåĲĪ": 3434,
      "çļĦé¢Ħéĺ²æİªæĸ½æľīäºĽä»Ģä¹Ī": 3435,
      "çľ¼çĿĽ": 3436,
      "çĻ½è¡ĢçĹħ": 3437,
      "åİķæīĢ": 3438,
      "çĸ¾": 3439,
      "ä¸įå¤§": 3440,
      "åİ¥": 3441,
      "åī²": 3442,
      "æĬĹèıĮ": 3443,
      "åĩıåİĭ": 3444,
      "ä¸īéĺ³": 3445,
      "æĺ¯åı¯ä»¥åĩıä½İ": 3446,
      "çļĦæ²»çĸĹåĳ¨æľŁå¤ļéķ¿": 3447,
      "å¤ļçķĻæĦı": 3448,
      "æľ¯åīį": 3449,
      "æĪĳåİ»å¹´": 3450,
      "åĲĥçĤ¹": 3451,
      "å°ıåŃ©åŃĲ": 3452,
      "å¾Īå¥½": 3453,
      "å¾Īå¤§çļĦ": 3454,
      "èĬ½": 3455,
      "éľĢè¦ģæľīéķ¿æľŁ": 3456,
      "å¤ļåĲĥèĶ¬èıľæ°´æŀľ": 3457,
      "å¿ĥçĲĨçĬ¶æĢģ": 3458,
      "çļĦåĲĮæĹ¶": 3459,
      "ä¸įåı¯": 3460,
      "æĤ£åĦ¿": 3461,
      "å¤įæĿĤ": 3462,
      "æµ¸": 3463,
      "å¾Īä¸¥éĩį": 3464,
      "ç»ĵçļĦ": 3465,
      "åıįå¤įåıĳ": 3466,
      "çĿĢåĩī": 3467,
      "æĹ¥å¸¸çĶŁæ´»": 3468,
      "çī¹åĪ«çļĦ": 3469,
      "äº¦": 3470,
      "æµĳ": 3471,
      "åģļçĪ±": 3472,
      "å°¿å¸¸è§Ħ": 3473,
      "æķĪæŀľå¥½": 3474,
      "ä¸»è¦ģçĹĩçĬ¶": 3475,
      "åĴĸåķ¡": 3476,
      "æ²»çĸĹå¥½": 3477,
      "è¡Ģæµģ": 3478,
      "åı¯ä»¥éĢļè¿ĩ": 3479,
      "ç®¡çĲĨ": 3480,
      "åĬ¨çī©": 3481,
      "è¿Ľé£Ł": 3482,
      "åĪĩå¼Ģ": 3483,
      "çĻ«çĹ«çļĦ": 3484,
      "ç©¶": 3485,
      "ç©¿åŃĶ": 3486,
      "éĢŁåº¦": 3487,
      "èĤ¡éª¨": 3488,
      "æİĴåįµæľŁ": 3489,
      "èī¯å¥½çļĦæ²»çĸĹæķĪæŀľ": 3490,
      "çļĦå¿ĥæĢģåİ»": 3491,
      "æł¹æį®åĮ»çĶŁçļĦæĦıè§ģ": 3492,
      "æĥ³å¾ĹåĪ°æĢİæł·çļĦå¸®åĬ©": 3493,
      "åĵºä¹³": 3494,
      "åİĺç±³": 3495,
      "60": 3496,
      "ï¼İ": 3497,
      "åį´": 3498,
      "åľ¨æ²»çĸĹ": 3499,
      "å¹´æľŁ": 3500,
      "åĸľ": 3501,
      "ç¢°": 3502,
      "çľŁèıĮ": 3503,
      "éģµ": 3504,
      "æĿ¥äºĭ": 3505,
      "éĩįæĸ°": 3506,
      "è´Ł": 3507,
      "è¾ĥå¤ļ": 3508,
      "åħ¶ä¸Ń": 3509,
      "æħĮ": 3510,
      "å¼Ĥåĳ³": 3511,
      "è¿ĲçĶ¨": 3512,
      "ä¼ĳåħĭ": 3513,
      "å¯ĴåĨ·": 3514,
      "ç»ĨèıĮæĦŁæŁĵ": 3515,
      "èĮĥåĽ´": 3516,
      "é£İéĻ©è¯Ħä¼°": 3517,
      "åħ»æĪĲèī¯å¥½çļĦ": 3518,
      "Ġ2": 3519,
      "åĨ°": 3520,
      "èį¯æµģ": 3521,
      "å¤´çĸ¼": 3522,
      "èĤłæ¢Ĺéĺ»": 3523,
      "åľ°åĮº": 3524,
      "éľīèıĮæĢ§": 3525,
      "èĤ¢ä½ĵ": 3526,
      "CTæ£ĢæŁ¥": 3527,
      "åĨłçĬ¶åĬ¨èĦī": 3528,
      "çļĦé«ĺåį±åĽłç´łæľīäºĽä»Ģä¹Ī": 3529,
      "æľīä¸Ģ": 3530,
      "å½Ĵ": 3531,
      "åĲĪéĢĤ": 3532,
      "æľĢä½³": 3533,
      "èħ¹æ°´": 3534,
      "ä½İäºİ": 3535,
      "åĨįæ¬¡åĩºçİ°äºĨ": 3536,
      "ä¸įèī¯åıįåºĶ": 3537,
      "æ·ĭå·´çĺ¤": 3538,
      "çī¹åĪ«æĺ¯": 3539,
      "å°±åı¯ä»¥äºĨ": 3540,
      "ä¸īçĶ²åĮ»éĻ¢": 3541,
      "æĺ¯åı¯ä»¥åĩıä½İçĹħåıĳ": 3542,
      "é£İéĻ©è¯Ħä¼°åĽłç´łæľīäºĽä»Ģä¹Ī": 3543,
      "æ¾": 3544,
      "çļĦå¤ļåıĳç¾¤ä½ĵ": 3545,
      "æľīåĬ©äºİ": 3546,
      "ä¸įçĶ¨": 3547,
      "å¤ĸçĶ¨": 3548,
      "å¾Īå¿«": 3549,
      "åģļå®Į": 3550,
      "èī¾": 3551,
      "è¾ĥå¤§": 3552,
      "ä¿ĿæĬ¤": 3553,
      "æİ¨æĭ¿": 3554,
      "åıįæµģ": 3555,
      "ä¸Ģå®ļèĥ½": 3556,
      "åĲĥè¾Ľè¾£åĪºæ¿Ģ": 3557,
      "èĦĬæŁ±": 3558,
      "æĤ£èĢħåı¯ä»¥å°½å¿«åº·å¤į": 3559,
      "ä¿Ŀå®Īæ²»çĸĹ": 3560,
      "æ¯Ķä¾ĭæĺ¯å¤ļå°ĳ": 3561,
      "èħĲ": 3562,
      "çĻ¾": 3563,
      "æ¸ħéĻ¤": 3564,
      "æİ¨è¿Ł": 3565,
      "éĤ£åĩłå¤©": 3566,
      "éļ¾åıĹ": 3567,
      "å¯¹äºİçĶ·æĢ§": 3568,
      "ä½ĵèĤ²éĶ»çĤ¼": 3569,
      "19": 3570,
      "çĽĸ": 3571,
      "åīįåĩłå¤©": 3572,
      "å¾Īå®¹æĺĵ": 3573,
      "èĢĮä¸ĶåįģåĪĨçļĦ": 3574,
      "ä¸¤å¹´": 3575,
      "éº¦": 3576,
      "æĢķå¯Ĵ": 3577,
      "ä¿¡å¿ĥ": 3578,
      "æģ¶å¿ĥåĳķåĲĲ": 3579,
      "å°¤åħ¶æĺ¯æĿ¥äºĭ": 3580,
      "èĥĥèĤłéģĵ": 3581,
      "ç¥Ŀä½łæĹ©æĹ¥åº·å¤į": 3582,
      "å¾Īå®³æĢķå½±åĵįçĶŁèĤ²": 3583,
      "æµ®èĤ¿": 3584,
      "ä¸İæŃ¤åĲĮæĹ¶æĤ£èĢħè¿ĺ": 3585,
      "ç»ĵçļĦå©ļ": 3586,
      "èĢĮä¸ĶåįģåĪĨçļĦæĢķåĨ·": 3587,
      "å°¤åħ¶æĺ¯æĿ¥äºĭéĤ£åĩłå¤©": 3588,
      "å¤§å®¶": 3589,
      "åĮ»çĶŁæĮĩå¯¼ä¸ĭ": 3590,
      "å®¶éĩĮ": 3591,
      "å®Ŀå®ĿçļĦ": 3592,
      "æ²¡æľīä»Ģä¹Ī": 3593,
      "è·³": 3594,
      "è¿Ļæł·ä¸Ģå®ļèĥ½": 3595,
      "éĽ¾": 3596,
      "éĩįè¦ģçļĦ": 3597,
      "æĤ£çĹħæ¯Ķä¾ĭæĺ¯å¤ļå°ĳ": 3598,
      "å°¿è·¯æĦŁæŁĵ": 3599,
      "æīĭè¶³åı£çĹħ": 3600,
      "åĮ¹": 3601,
      "æ³ª": 3602,
      "ä¸Ńä¸Ģå®ļ": 3603,
      "éĿ¢çĺ«": 3604,
      "æĢĢåŃķäºĨ": 3605,
      "æĽ´å¹´æľŁ": 3606,
      "ä¸įåŃķä¸įèĤ²": 3607,
      "çļĦå®Ŀå®Ŀ": 3608,
      "çĹ¹": 3609,
      "æĺ¯æ¯Ķè¾ĥ": 3610,
      "ä¼ļå¼ķèµ·": 3611,
      "ä¼ļåĨįæ¬¡åĩºçİ°": 3612,
      "åĽłåŃĲ": 3613,
      "è½¦": 3614,
      "è½¬åĮĸ": 3615,
      "èĩªèº«çļĦçĹĩçĬ¶": 3616,
      "çĿ¾ä¸¸çĤİ": 3617,
      "æº¶æ¶²": 3618,
      "åĨħç§ĳçĸ¾çĹħ": 3619,
      "åĽłæŃ¤æĤ£èĢħè¦ģåıĬæĹ¶": 3620,
      "é¹": 3621,
      "åı¯çĶ¨": 3622,
      "æĪĲäºº": 3623,
      "ä½Ĩæĺ¯çĶ±äºİ": 3624,
      "å¹¶ä¸ĶæĹ¥å¸¸çĶŁæ´»ä¸Ń": 3625,
      "ç¦ģå¿Į": 3626,
      "å§ĭç»Īä¿ĿæĮģå¿ĥæĥħ": 3627,
      "çł´è£Ĥ": 3628,
      "æ²»æĦĪçİĩæĺ¯å¤ļå°ĳ": 3629,
      "æ¼ı": 3630,
      "éŃ": 3631,
      "çļĦçĹħ": 3632,
      "çļĦå°±è¯Ĭç§ĳå®¤æĺ¯ä»Ģä¹Ī": 3633,
      "å¯¼ç®¡": 3634,
      "çĽ¸å¯¹": 3635,
      "ä¹ħäºĨ": 3636,
      "çĹħæ¯ĴæĢ§": 3637,
      "éĽ·": 3638,
      "å¢ŀåĬłèĲ¥åħ»": 3639,
      "æ¯ĽçĹħ": 3640,
      "æĻ®éĢļ": 3641,
      "çļĦäºº": 3642,
      "çļĦè¡¨çİ°": 3643,
      "å¼¥": 3644,
      "ä¸¥éĩįçļĦè¯Ŀ": 3645,
      "ç¥ŀç»ıåħĥ": 3646,
      "è½¯èĨı": 3647,
      "è§ĴèĨľ": 3648,
      "æľĢè¿ĳæĢ»æĺ¯èĤļåŃĲå°ıèħ¹çĸ¼çĹĽ": 3649,
      "æĪĳåİ»å¹´ç»ĵçļĦå©ļ": 3650,
      "æľīä¸Ģå®ļçļĦ": 3651,
      "åĴª": 3652,
      "ç»ıçļ®": 3653,
      "ä¸Ńæŀ¢": 3654,
      "é«ĺçĥŃ": 3655,
      "åĮħèĮİ": 3656,
      "æĺĵåıįåıįå¤įå¤į": 3657,
      "éĢĤåĲĪ": 3658,
      "æľ¬èº«": 3659,
      "è¥¿æŀĹ": 3660,
      "å¤±çľł": 3661,
      "ç¼ºæ°§": 3662,
      "ç¡®è¯Ĭä¸º": 3663,
      "å¿ĥçĲĨçĬ¶æĢģä¹Łæĺ¯": 3664,
      "..": 3665,
      "er": 3666,
      "çļĦåŃ©åŃĲ": 3667,
      "å®½": 3668,
      "å¥ĭ": 3669,
      "ä»¥æŃ¤": 3670,
      "æĪĳæľī": 3671,
      "è¿ĺä¸į": 3672,
      "éļĻ": 3673,
      "è¯·æııè¿°": 3674,
      "çĻ«çĹ«åıĳä½ľ": 3675,
      "èĥĨæ±ģ": 3676,
      "å¦ĩç§ĳçĹħ": 3677,
      "åģľæŃ¢": 3678,
      "çĭ¬": 3679,
      "æĤ£èĢħçļĦé¥®é£ŁçĬ¶åĨµåĴĮå¿ĥçĲĨçĬ¶æĢģä¹Łæĺ¯": 3680,
      "èĥ°å²Ľç´ł": 3681,
      "åĢ¾åĲĳ": 3682,
      "çĻľ": 3683,
      "åľ¨åĮ»çĶŁçļĦæĮĩå¯¼ä¸ĭ": 3684,
      "ä½ĵæ£Ģ": 3685,
      "çº³": 3686,
      "åĬ¨çĶ¨": 3687,
      "æĹ©åŃķ": 3688,
      "ä½İä¸ĭ": 3689,
      "è¡¥éĴĻ": 3690,
      "å¤Ħæĸ¹": 3691,
      "åħħè¶³": 3692,
      "åįĬå¹´": 3693,
      "çħİ": 3694,
      "å®ļæľŁå¤įæŁ¥": 3695,
      "å¤«å¦»": 3696,
      "çļ®è´¨æ¿Ģç´ł": 3697,
      "çļĦå¥½": 3698,
      "çļĦä¼¤å®³": 3699,
      "çīµ": 3700,
      "ç¼Ŀ": 3701,
      "èĤ¾ä¸Ĭ": 3702,
      "æħİ": 3703,
      "ç»Ħç»ĩåŃ¦æ£ĢæŁ¥æľīäºĽä»Ģä¹Ī": 3704,
      "çłĶ": 3705,
      "Bè¶ħæ£ĢæŁ¥": 3706,
      "åĵŃéĹ¹": 3707,
      "èĳ¡èĲĦç³ĸ": 3708,
      "æ¾¡": 3709,
      "çļĦè¯ĬæĸŃ": 3710,
      "èĤĭ": 3711,
      "èĥ¡": 3712,
      "è´¥": 3713,
      "å¼ķèµ·çļĦçĹĩçĬ¶": 3714,
      "æŃ¤çĹħ": 3715,
      "åıĳçĶŁæĶ¹åıĺ": 3716,
      "éĻįæ¸©": 3717,
      "âĢĶ": 3718,
      "èĥ¸èħĶ": 3719,
      "è§Ĩç½ĳèĨľ": 3720,
      "é¼»æ¶ķ": 3721,
      "åŀĤä½ĵ": 3722,
      "éĺ³çĹ¿æĹ©æ³Ħ": 3723,
      "éŀĺ": 3724,
      "æŃ£è§ĦçļĦåĮ»éĻ¢è¯ĬçĹħ": 3725,
      "æĻºåĬĽ": 3726,
      "æµĳèº«": 3727,
      "åĬ¿": 3728,
      "å¾Īå¥½çļĦ": 3729,
      "åģļåĪ°": 3730,
      "æ³¨æĦıä¸ªäººåį«çĶŁ": 3731,
      "èħ¹èĥĢ": 3732,
      "åĪĩå¿Į": 3733,
      "åĸĿèį¯": 3734,
      "åĲĮæĹ¶å¤ļ": 3735,
      "æĪĳæĥ³çŁ¥éģĵ": 3736,
      "æº¶è¡Ģ": 3737,
      "èĵĿ": 3738,
      "åİ»ä¸ĵä¸ļæŃ£è§ĦçļĦåĮ»éĻ¢è¯ĬçĹħ": 3739,
      "æ·±åº¦çĿ¡çľł": 3740,
      "ä½łåı¯ä»¥": 3741,
      "ä¸Ńåº¦": 3742,
      "ä¹Łå°±ä¸į": 3743,
      "æĺ¯ä»Ģä¹ĪçĹħ": 3744,
      "æ°Ķè¡Ģ": 3745,
      "åĬłçıŃ": 3746,
      "æŃ¢çĹĽ": 3747,
      "éĺ²æŃ¢è¾Ľè¾£": 3748,
      "æĪ¿äºĭ": 3749,
      "æ¤įåħ¥": 3750,
      "åĪ°åĮ»éĻ¢åģļ": 3751,
      "çĥŁéħĴ": 3752,
      "çļĦæ²»çĸĹæĸ¹å¼ıæĺ¯ä»Ģä¹Ī": 3753,
      "--": 3754,
      "ä¸įæĸŃ": 3755,
      "åı¯è§ģ": 3756,
      "è¡Ģå°¿": 3757,
      "ä¸¥éĩįåĲĹ": 3758,
      "ä¾ĽåıĤèĢĥ": 3759,
      "å´": 3760,
      "èĥ½æ²»": 3761,
      "åľ¨åĮ»éĻ¢": 3762,
      "åī¥": 3763,
      "èĦĳéĥ¨": 3764,
      "ç«Ļ": 3765,
      "é»Ħä½ĵ": 3766,
      "é¢ĦåĲİ": 3767,
      "ç±»èį¯çī©": 3768,
      "æĳ¸": 3769,
      "ä¸įåĲĮæīĢä»¥": 3770,
      "æ°§æ°Łæ²ĻæĺŁ": 3771,
      "è¯¢éĹ®": 3772,
      "çīĽå¥¶": 3773,
      "ä¿ĿæĮģèī¯å¥½çļĦå¿ĥæĥħ": 3774,
      "æĵįåĬ³": 3775,
      "èķ": 3776,
      "çļĦåĽłç´ł": 3777,
      "è¯ī": 3778,
      "çĲĨæĥ³": 3779,
      "é¥®æļ´": 3780,
      "èĢĮä¸Ķå¯¹äºİçĶ·æĢ§": 3781,
      "æ¤Ĵ": 3782,
      "çģŃ": 3783,
      "æ¹¿çĸ¹": 3784,
      "é¸£": 3785,
      "éĶ»ç»ĥ": 3786,
      "è®©æĪĳ": 3787,
      "éŁ¦": 3788,
      "ç¤¾": 3789,
      "æŁĲäºĽ": 3790,
      "æĪĲå½¢æľ¯": 3791,
      "èĤ¾ä¸Ĭèħº": 3792,
      "ä¹Łå°±ä¸įä¸Ģæł·": 3793,
      "èĢĮä¸Ķå¯¹äºİçĶ·æĢ§æĤ£èĢħæĿ¥è¯´": 3794,
      "çŀ": 3795,
      "çļĦæİ¨èįĲèį¯æľīåĵªäºĽ": 3796,
      "å¥³æĢ§çļĦ": 3797,
      "èĻļå¼±": 3798,
      "ä»¥åħįå¯¹": 3799,
      "åħ´å¥ĭ": 3800,
      "35": 3801,
      "in": 3802,
      "åıĶ": 3803,
      "å¤ı": 3804,
      "ä»Ģä¹ĪåİŁåĽł": 3805,
      "çĲĨçĸĹ": 3806,
      "åĵĮ": 3807,
      "æ¿ĢåĬ¨": 3808,
      "è§ĨåĬĽ": 3809,
      "ç´§æĢ¥": 3810,
      "éľĢè¦ģæľīçľĭéĩįèĩªèº«çļĦæĬ¤çĲĨ": 3811,
      "åĲŀåĴ½": 3812,
      "é¥®æļ´é£Ł": 3813,
      "åĲ»": 3814,
      "è¦ģå§ĭç»Īä¿ĿæĮģ": 3815,
      "éĻħ": 3816,
      "éĿł": 3817,
      "åŃķæľŁ": 3818,
      "å£®": 3819,
      "æĺ¾ç¤º": 3820,
      "å¤ļåĲĥä¸ĢäºĽ": 3821,
      "ç§¯æŀģçļĦå¿ĥæĢģåİ»": 3822,
      "åħ³èĬĤçĤİ": 3823,
      "å¼ķåıĳçļĦ": 3824,
      "ä¾Ľè¡Ģ": 3825,
      "æļ´é¥®æļ´é£Ł": 3826,
      "çļĤ": 3827,
      "å¤ļé¥®æ°´": 3828,
      "äºĨä¸įå¿ħè¦ģ": 3829,
      "åľĨ": 3830,
      "é£ŁçĸĹ": 3831,
      "æīĭæľ¯æķĳæ²»": 3832,
      "åĦ¿åŃĲ": 3833,
      "è¾ĥéķ¿": 3834,
      "éĥ½ä¸į": 3835,
      "å¹³å¸¸": 3836,
      "çĹħæĥħä¸¥éĩį": 3837,
      "çĹħæĥħæĺĵåıįåıįå¤įå¤į": 3838,
      "åĵªå®¶": 3839,
      "éķľæ£ĢæŁ¥": 3840,
      "æ¢°": 3841,
      "çĸ±çĸ¹": 3842,
      "æł¹æį®ä»Ķç»Ĩæ£ĢæŁ¥ç»ĵæŀľåĨį": 3843,
      "é¢ľèī²": 3844,
      "èħ±": 3845,
      "æĪĳæľĢè¿ĳ": 3846,
      "ä½łæīĢ": 3847,
      "å¾Īå°ĳ": 3848,
      "éĺ´æĢ§": 3849,
      "æĪĲåĬŁ": 3850,
      "çĹħæĥħçļĦ": 3851,
      "æľºåĪ¶": 3852,
      "æ°¨åŁº": 3853,
      "çĨ¬": 3854,
      "æ³Įå°¿ç³»": 3855,
      "ĠĠĠĠĠ": 3856,
      "å½©èī²å¤ļæĻ®åĭĴ": 3857,
      "çĸ¤": 3858,
      "ãĢĤ(": 3859,
      "ä¸Ģä¼ļ": 3860,
      "æłĳ": 3861,
      "æ£ĢéªĮ": 3862,
      "å¤§é¼ł": 3863,
      "åĲĥçļĦ": 3864,
      "åĨħçļĦ": 3865,
      "èĤłçĤİ": 3866,
      "åĮ»çĶŁè¯´æĺ¯": 3867,
      "åĪĩåı£": 3868,
      "çī¹çĤ¹": 3869,
      "ä¸´åºĬä¸Ĭ": 3870,
      "èĢĥèĻĳä¸º": 3871,
      "æĢĢåŃķçļĦ": 3872,
      "ç»´çĶŁç´łB": 3873,
      "è¿ĩæķıæĢ§": 3874,
      "èĩªèº«çļĦæĬ¤çĲĨå·¥ä½ľ": 3875,
      "èĥļèĥİ": 3876,
      "åįģäºĮæĮĩ": 3877,
      "èĥľ": 3878,
      "å¼¹": 3879,
      "å°ıèĤł": 3880,
      "åºĶæ³¨æĦı": 3881,
      "èĤ¾å°ı": 3882,
      "åħ¶æ¬¡": 3883,
      "ä»ĸä»¬": 3884,
      "çº¢ç´ł": 3885,
      "åĭ¿": 3886,
      "ä»¥æ¸ħæ·¡é£Łçī©": 3887,
      "Ļçĺ": 3888,
      "ä¸įå½ĵ": 3889,
      "çĹĽç»ı": 3890,
      "èĤĿç»Ĩèĥŀ": 3891,
      "ä¸Ģå®ļè¦ģæ³¨æĦı": 3892,
      "æİĴåĩº": 3893,
      "éĻįåİĭ": 3894,
      "200": 3895,
      "é¢ħèĦĳ": 3896,
      "åŃĲå®«åĨħèĨľçĤİ": 3897,
      "æĤ£èĢħè¿ĺéľĢè¦ģéĩįè§Ĩ": 3898,
      "åıįå¤įåıĳä½ľ": 3899,
      "çĸĻçĺ": 3900,
      "åĮĹ": 3901,
      "ä¸Ģèµ·": 3902,
      "éĺ¶": 3903,
      "åīįæ®µæĹ¶éĹ´": 3904,
      "æģ¼": 3905,
      "çºµ": 3906,
      "è¯´çļĦæĥħåĨµ": 3907,
      "æĪĲçĨŁ": 3908,
      "æ¸ħæ´Ĺ": 3909,
      "äº§åīį": 3910,
      "æ¡Ĥ": 3911,
      "åľ°é»Ħ": 3912,
      "åĲ«éĩı": 3913,
      "çĸĻçĺ©": 3914,
      "37": 3915,
      "ç»ŀ": 3916,
      "è¿ħ": 3917,
      "ï¼Łï¼Ł": 3918,
      "å¤§éĥ¨åĪĨ": 3919,
      "è¯´è¯Ŀ": 3920,
      "èĦĳçĶµåĽ¾": 3921,
      "ä¸ªæľĪäºĨ": 3922,
      "ä¹ħæ²»": 3923,
      "æ¯įäº²": 3924,
      "å¦Ĥæŀľä¸įåıĬæĹ¶æ²»çĸĹ": 3925,
      "ä¸ĢæĹ¦åıĳçİ°": 3926,
      "ä¿ĿæĮģèī¯å¥½çļĦå¿ĥæĢģ": 3927,
      "ä¿ĿæĮģå¿ĥæĥħèĪĴçķħ": 3928,
      "æĩ": 3929,
      "çļĦæķĳæ²»": 3930,
      "æľīä¸Ģå®ļ": 3931,
      "æľīä¸ĢäºĽ": 3932,
      "åħ°": 3933,
      "ç§ģ": 3934,
      "æŁ¥åĩºæĿ¥": 3935,
      "åĳ¤": 3936,
      "å°¿æ¶²": 3937,
      "æľĪä»½": 3938,
      "æĪĲä»Ģä¹Ī": 3939,
      "å½ĵæĹ¶": 3940,
      "è§£æ¯Ĵ": 3941,
      "åĮ»çĶŁè¯¢éĹ®": 3942,
      "åĪ¶åīĤ": 3943,
      "çº¢èī²": 3944,
      "æłĩåĩĨ": 3945,
      "è¿ħéĢŁ": 3946,
      "åĪ¤": 3947,
      "å¤§çº¦": 3948,
      "æĦıæĢĿ": 3949,
      "èºģ": 3950,
      "èµĸ": 3951,
      "éª¶": 3952,
      "å±ģ": 3953,
      "åĪ¶åĵģ": 3954,
      "èĭĵ": 3955,
      "é¼ĵ": 3956,
      "åĮħçļ®æīĭæľ¯": 3957,
      "è¶³å¤Ł": 3958,
      "æ¢ĹæŃ»": 3959,
      "æĶ¶ç¼©": 3960,
      "æĤ£èĢħåľ¨çĶŁæ´»ä¸Ń": 3961,
      "ä¹ħæ²»ä¸įæĦĪ": 3962,
      "æĺ¯åľ¨": 3963,
      "æĺ¯åķ¥": 3964,
      "åħĨ": 3965,
      "ä¼ļè½¬åĮĸ": 3966,
      "ä¸ĭåİ»": 3967,
      "ä¸Ĭåįĩ": 3968,
      "æ¶¨": 3969,
      "æĮĤ": 3970,
      "çĻ½å¤©": 3971,
      "è¿Ļç§įçĹħ": 3972,
      "æİĴæ³Ħ": 3973,
      "éĻ¤äºĨè¦ģ": 3974,
      "å¨ģ": 3975,
      "æĬ½çĥŁ": 3976,
      "åĪļå¼Ģå§ĭ": 3977,
      "æīĢèĩ´çļĦ": 3978,
      "æ¼«": 3979,
      "è¿ĩç¨ĭä¸Ń": 3980,
      "éĢĢçĥ§èį¯": 3981,
      "éľīèıĮæĢ§éĺ´éģĵçĤİ": 3982,
      "ä¼ļè½¬åĮĸæĪĲä»Ģä¹Ī": 3983,
      "çļĦæķĪæŀľ": 3984,
      "ä»ª": 3985,
      "ç¥Ľ": 3986,
      "çļ®ä¸ĭ": 3987,
      "çĶ²çĬ¶èħºåĬŁèĥ½": 3988,
      "å¿ĥçĲĨæĬ¤çĲĨ": 3989,
      "éĺ¿èİ«": 3990,
      "å¹´é¾Ħæĺ¯å¤ļå°ĳ": 3991,
      "ç»§åıĳ": 3992,
      "èľĤèľľ": 3993,
      "ä¸Ĭè¿°çļĦçŃĶæ¡Īåı¯ä»¥å¸®åĬ©åĪ°": 3994,
      "æ©": 3995,
      "Ġ3": 3996,
      "çļĦåĩºçİ°": 3997,
      "çļĦçĤİçĹĩ": 3998,
      "çĹĺ": 3999,
      "æĢ§è´«è¡Ģ": 4000,
      "å¾·": 4001,
      "åįĥ": 4002,
      "åĲĥä¸į": 4003,
      "çĺ¢": 4004,
      "è¿ĺéľĢè¦ģæľī": 4005,
      "èĨ³": 4006,
      "çĻ½æ²«": 4007,
      "å®¶åºŃ": 4008,
      "ç¢³": 4009,
      "åİ»åĮ»éĻ¢åģļ": 4010,
      "çľŁçļĦ": 4011,
      "ä¿®è¡¥": 4012,
      "åŁ¹åħ»": 4013,
      "åŁ¹è®Ń": 4014,
      "èĨĿåħ³èĬĤ": 4015,
      "å¤ļè§ģäºİ": 4016,
      "çĶ¨æ³ķçĶ¨éĩı": 4017,
      "æĺ¯éĿŀå¸¸å¤§çļĦ": 4018,
      "æĪĺèĥľ": 4019,
      "åĲ»åĲĪ": 4020,
      "æľīè¡Ģ": 4021,
      "åĨ»": 4022,
      "å¿Ĺ": 4023,
      "åĲİçļĦ": 4024,
      "æĪĳå°±": 4025,
      "æĤ£èĢħæĹ¥å¸¸": 4026,
      "æĭĶ": 4027,
      "è¯¥æĢİä¹Īæ²»çĸĹ": 4028,
      "å¼ĤæĢ§": 4029,
      "çº¢ç»Ĩèĥŀ": 4030,
      "è¯ģæĺİ": 4031,
      "éĩįè§Ĩèĩªèº«çļĦæĬ¤çĲĨå·¥ä½ľ": 4032,
      "åĴĭåĬŀ": 4033,
      "ç¡ĿåĶĳ": 4034,
      "80": 4035,
      "ä¸įæ¸ħ": 4036,
      "å¤ļåĽĬ": 4037,
      "å¿ĥå®¤": 4038,
      "æİ¢": 4039,
      "é¥®é£Łä¸Ń": 4040,
      "éļĨ": 4041,
      "éĥ½çŁ¥éģĵ": 4042,
      "æĦĪåĲĪ": 4043,
      "åĶĲ": 4044,
      "ç¦ģçĶ¨": 4045,
      "çªģåĩº": 4046,
      "è¿ŀç»Ń": 4047,
      "æĮīæĹ¶": 4048,
      "éŁ§": 4049,
      "å©´å¹¼åĦ¿": 4050,
      "é¦ĸåħĪè¦ģ": 4051,
      "åĪĿæľŁ": 4052,
      "åĭ¤æį¢": 4053,
      "çľ©æĻķ": 4054,
      "çĺ¢çĹķ": 4055,
      "æ²»çĸĹåĲĹ": 4056,
      "å¯»": 4057,
      "å¤įä½į": 4058,
      "çŃīåĪ°": 4059,
      "æ²¡äºĭ": 4060,
      "æķĳæ²»æľŁéĹ´": 4061,
      "éĢļæ°Ķ": 4062,
      "åıªèĥ½": 4063,
      "åĹª": 4064,
      "åħħè¡Ģ": 4065,
      "èħ°çĹĽ": 4066,
      "æĺ¯åĲ¦æľī": 4067,
      "ä»ĭæĺ¯": 4068,
      "éĢıæŀĲ": 4069,
      "æĳĦåħ¥": 4070,
      "çĶ·ç§ĳçĹħ": 4071,
      "ä»¥æŃ¤æĿ¥": 4072,
      "70": 4073,
      "çļĦåĨħçª¥éķľæ£ĢæŁ¥æľīäºĽä»Ģä¹Ī": 4074,
      "æľīæīĢ": 4075,
      "ä¸Ģå¼Ģå§ĭ": 4076,
      "å¤ļçļĦ": 4077,
      "åĴ¬": 4078,
      "åı¯ä»¥åħĪ": 4079,
      "å®ļæĹ¶": 4080,
      "æ³¨æĦıé¥®é£Ł": 4081,
      "ç²¾åĽĬ": 4082,
      "ä¸įè¦ģåĲĥè¾Ľè¾£": 4083,
      "èº«ä½ĵåģ¥åº·": 4084,
      "ç±»çļĦ": 4085,
      "åķ¶": 4086,
      "æıĲç¤º": 4087,
      "èĶ¬èıľåĴĮ": 4088,
      "åĴ½çĹĽ": 4089,
      "éĺ¿å¥ĩ": 4090,
      "èįīèį¯": 4091,
      "æ»´èĻ«": 4092,
      "ç®Ģä»ĭæĺ¯": 4093,
      "æ¯įä¹³åĸĤåħ»": 4094,
      "æµĵåº¦": 4095,
      "åį§åºĬ": 4096,
      "çĳ": 4097,
      "æĺ¯æŃ£å¸¸çļĦ": 4098,
      "æĭĨ": 4099,
      "æĭį": 4100,
      "æ¯ĴçĹĩ": 4101,
      "ä¸¥éĩįäºĨ": 4102,
      "å¾®æ³¢": 4103,
      "ç´«çĻľ": 4104,
      "æµħè¡¨": 4105,
      "çļĦåıĳçĶŁ": 4106,
      "çļĦåī¯ä½ľçĶ¨": 4107,
      "åı¯å¼ķèµ·": 4108,
      "åĲĥä¸ľè¥¿": 4109,
      "çĹĽé£İ": 4110,
      "å±İ": 4111,
      "éĥ½éĿŀå¸¸": 4112,
      "ä¿Ŀè¯ģ": 4113,
      "æ¶²ä½ĵ": 4114,
      "å½ĵçĦ¶": 4115,
      "å¼ĢäºĨ": 4116,
      "é»ĦçļĦ": 4117,
      "çĥ§ä¼¤": 4118,
      "èĥĨçº¢ç´ł": 4119,
      "å¦ĩç§ĳæ£ĢæŁ¥": 4120,
      "è¯ķçº¸": 4121,
      "éģĹä¼łåĽłç´ł": 4122,
      "ç©ºæ°Ķ": 4123,
      "å¿ĥå¾ĭå¤±å¸¸": 4124,
      "æľīè®¸å¤ļ": 4125,
      "è¦ģæĺ¯": 4126,
      "åıĳçĥ«": 4127,
      "åĮ»çĸĹ": 4128,
      "æŁ¥åĩº": 4129,
      "æĬĸ": 4130,
      "çŃīèį¯çī©æ²»çĸĹ": 4131,
      "åĮĸçĺĢ": 4132,
      "æĪĸå¤Ħæĸ¹": 4133,
      "ç³Ĭ": 4134,
      "æĹ©äº§": 4135,
      "ç»´æĮģ": 4136,
      "æ±¡": 4137,
      "åıĹåĪ°": 4138,
      "ä¼łæĴŃ": 4139,
      "ç¼ºéĻ·": 4140,
      "ç¦ı": 4141,
      "çħ®": 4142,
      "ç»Ŀç»ı": 4143,
      "æĬĳåĪ¶åīĤ": 4144,
      "çĪ¶æ¯į": 4145,
      "åįģäºĮæĮĩèĤł": 4146,
      "äºĽä»Ģä¹Ī": 4147,
      "æŀķ": 4148,
      "è¡ĢèĤ¿": 4149,
      "èĩĤ": 4150,
      "ä¼ļéĺ´éĥ¨": 4151,
      "å¯¹æĤ£èĢħä»¬": 4152,
      "æµİ": 4153,
      "èµĦ": 4154,
      "çŁ«": 4155,
      "æĹłæķĪ": 4156,
      "çĶ²åĩı": 4157,
      "åĲĲçĻ½æ²«": 4158,
      "åģıæĸ¹": 4159,
      "çļĦæĸ¹æ³ķæ²»çĸĹ": 4160,
      "åĳĬè¯ī": 4161,
      "éĻĦçĿ¾çĤİ": 4162,
      "æĪĲåĪĨæĪĸå¤Ħæĸ¹": 4163,
      "éŃĶ": 4164,
      "å¯¹æĤ£èĢħä»¬å¸¦": 4165,
      "ä½Ļ": 4166,
      "ä¸įæĥ³": 4167,
      "çĶ¨ä¸įçĿĢ": 4168,
      "åĮ»å¸Ī": 4169,
      "éĢģ": 4170,
      "æĤ£èĢħèĥ½": 4171,
      "åĮ»éĻ¢æ£ĢæŁ¥": 4172,
      "èĦĳåĩºè¡Ģ": 4173,
      "å±Ī": 4174,
      "æ¶Īçĺ¦": 4175,
      "çĶ·åŃ©": 4176,
      "æĭīç¨Ģ": 4177,
      "éº»æľ¨": 4178,
      "éĵ¾": 4179,
      "èµ°è·¯": 4180,
      "æĤ£èĢħæľĭåıĭçĲĨåºĶ": 4181,
      "è¹": 4182,
      "æĺ¯åĽłä¸º": 4183,
      "æĢ§æ¬²": 4184,
      "èħĭ": 4185,
      "çĶ¨æīĭ": 4186,
      "æķ¢": 4187,
      "ä¸ĬçıŃ": 4188,
      "åĬŁèĥ½ç´Ĭä¹±": 4189,
      "åĸĿéħĴ": 4190,
      "åľ°å¹³": 4191,
      "èĥĨåĽºéĨĩ": 4192,
      "èĥ¸çĹĽ": 4193,
      "èĥİçĽĺ": 4194,
      "è®©åŃ©åŃĲ": 4195,
      "ç¾ĬèĤī": 4196,
      "èĤ¡æ²Ł": 4197,
      "æĺıè¿·": 4198,
      "åĮ¹æŀĹ": 4199,
      "å´©": 4200,
      "èĿ": 4201,
      "å¥½å¤Ħ": 4202,
      "å¤ļé£Ł": 4203,
      "æŀĿ": 4204,
      "åĪ°çİ°åľ¨": 4205,
      "å°¿ä¸į": 4206,
      "ç§ĳåŃ¦": 4207,
      "éª¨è´¨": 4208,
      "æł¹æį®æĤ¨": 4209,
      "çī¹åĪ": 4210,
      "éĢĤéĩı": 4211,
      "æľĪç»ıåĳ¨æľŁ": 4212,
      "è½¬å¥½": 4213,
      "ç¼ºéĴĻ": 4214,
      "æģ¢å¤įåģ¥åº·": 4215,
      "æ¶ĪåĮĸçļĦé£Łçī©": 4216,
      "èħ°éħ¸": 4217,
      "é¸Ń": 4218,
      "çĭ¼": 4219,
      "æĪĴéħĴ": 4220,
      "HC": 4221,
      "åı¯æĢķ": 4222,
      "çİ»": 4223,
      "èħ¹èĤ¡æ²Ł": 4224,
      "ä¸ĢèĪ¬åľ¨": 4225,
      "éª¨éª": 4226,
      "è¡¨çļ®": 4227,
      "è§ĦåĪĻ": 4228,
      "«çĹĴ": 4229,
      "åĸĿæ°´": 4230,
      "æ¢ħ": 4231,
      "éĺ²æŃ¢æĢ§çĶŁæ´»": 4232,
      "åıĪç§°": 4233,
      "æĭīåĶĳ": 4234,
      "åįĬæľĪ": 4235,
      "åĮºåĪ«": 4236,
      "æĶ¾å°Ħæ²»çĸĹæľīäºĽä»Ģä¹Ī": 4237,
      "å¿ħè¦ģæĹ¶åı¯ä»¥": 4238,
      "ç¥Ŀä½łåģ¥åº·": 4239,
      "éĩįæĸ°è°ĥæķ´": 4240,
      "å¢ŀåĬłèĲ¥åħ»è¡¥åħħç»´çĶŁç´ł": 4241,
      "èĨ³é£Ł": 4242,
      "çī¹åĪ«çĹĴ": 4243,
      "NA": 4244,
      "ä¸ĺ": 4245,
      "çļĦä¸»è¦ģ": 4246,
      "çļĦåľ°æĸ¹": 4247,
      "ä¹Į": 4248,
      "å¹½": 4249,
      "æŀ¸": 4250,
      "åįİ": 4251,
      "æ°ĳ": 4252,
      "ä¸ĬæĢ»æĺ¯": 4253,
      "å¤ĸçĹĶ": 4254,
      "èį¯çī©æķĳæ²»": 4255,
      "è¿Ľåħ¥": 4256,
      "ç²¾çĹĩ": 4257,
      "çĶ²ç¡ĿåĶĳ": 4258,
      "ä½įç½®": 4259,
      "åĵªä¸ª": 4260,
      "åıĹåĩī": 4261,
      "ä¸Ńèį¯è°ĥçĲĨ": 4262,
      "æľºæ¢°": 4263,
      "éľīèıĮ": 4264,
      "åĻ¨è´¨æĢ§": 4265,
      "çĽĬæ°Ķ": 4266,
      "æĤ£ä¸ĬäºĨ": 4267,
      "çĴ": 4268,
      "ãĢĤãĢĤ": 4269,
      "ç»µ": 4270,
      "å¥½åĩł": 4271,
      "äºĨæīĭæľ¯æ²»çĸĹ": 4272,
      "å¿ĥåĬĽ": 4273,
      "ä¸ĬåİķæīĢ": 4274,
      "çľ¶": 4275,
      "æľĢå¥½çļĦ": 4276,
      "é¥®é£ŁçļĦ": 4277,
      "æ·¤": 4278,
      "æĻ¶": 4279,
      "å°ĳæķ°": 4280,
      "å¤´éĥ¨": 4281,
      "åįµæ³¡": 4282,
      "æľ¯åĲİä¸Ģå®ļè¦ģ": 4283,
      "è½¯çļĦé£Łçī©": 4284,
      "çĹħäººçļĦ": 4285,
      "æľīä»Ģä¹ĪçĹĩçĬ¶": 4286,
      "åŃĲå®«åĨħèĨľå¼Ĥä½į": 4287,
      "èĳĹ": 4288,
      "å°¿éģĵåı£": 4289,
      "åıĻè¿°çļĦæĥħåĨµ": 4290,
      "ç¾Ĭæ°´": 4291,
      "è½»å¾®çļĦ": 4292,
      "çĽĳæµĭ": 4293,
      "å¾Īé«ĺåħ´": 4294,
      "å¯ĴåĨ·é£Łçī©": 4295,
      "çĶľ": 4296,
      "èĤ½": 4297,
      "ä¸įå¿ħ": 4298,
      "ä¸Ģä¾§": 4299,
      "è¦ģæł¹æį®": 4300,
      "å¿į": 4301,
      "ä¹Łå°±æĺ¯": 4302,
      "æľĢå¸¸è§ģçļĦ": 4303,
      "æ¶Īèŀį": 4304,
      "å¸¦è¡Ģ": 4305,
      "å£°éŁ³": 4306,
      "éº»çĹ¹": 4307,
      "ç¨Ģè½¯çļĦé£Łçī©": 4308,
      "è¯±åĽł": 4309,
      "èĹı": 4310,
      "å¤ļåĲĥæ¸ħæ·¡ç¨Ģè½¯çļĦé£Łçī©": 4311,
      "ï¼ħ": 4312,
      "çļĦé£İéĻ©è¯Ħä¼°åĽłç´łæľīäºĽä»Ģä¹Ī": 4313,
      "æŀ£": 4314,
      "çĶ¨ç§¯æŀģçļĦå¿ĥæĢģåİ»": 4315,
      "åľ¨åĮ»çĶŁæĮĩå¯¼ä¸ĭ": 4316,
      "æİĮ": 4317,
      "å°ıçļĦ": 4318,
      "å»ºè®®åİ»": 4319,
      "æģĲ": 4320,
      "åģļä¸º": 4321,
      "è°±": 4322,
      "æĺ¯ä»Ģä¹Īçĸ¾çĹħ": 4323,
      "éĴī": 4324,
      "åıĺåĬ¨": 4325,
      "ä¸īæ¬¡": 4326,
      "è¾ĵåįµç®¡ç§¯æ°´": 4327,
      "æıĲä¾Ľ": 4328,
      "ç²¾ç¥ŀçĬ¶æĢģ": 4329,
      "å°¿éģĵçĤİ": 4330,
      "èĦĳæ¢ĹæŃ»": 4331,
      "çļĦå¦ĩç§ĳçĸ¾çĹħ": 4332,
      "ç»¿èī²": 4333,
      "è¿Ļç§įçĸ¾çĹħä¸įæĺĵ": 4334,
      "çłĶç©¶": 4335,
      "çĹħéŃĶ": 4336,
      "ä¸Ģå²ģ": 4337,
      "å¿Ĩ": 4338,
      "åľ¨æĹ¥å¸¸çĶŁæ´»": 4339,
      "ä¸ĭåŀĤ": 4340,
      "ä¸ºäºĨ": 4341,
      "æĿ¥æ²»çĸĹ": 4342,
      "å»ºè®®çĶ¨": 4343,
      "å°¿çĹĽ": 4344,
      "å¦ĤæŀľéĢīæĭ©": 4345,
      "ç¥ŀç»ıçĹĽ": 4346,
      "æĺ¾åĥı": 4347,
      "ä¸ĵå¿ĥ": 4348,
      "ä¸ŃåĮ»æ²»çĸĹ": 4349,
      "ç£¨": 4350,
      "æĺİç¡®è¯ĬæĸŃ": 4351,
      "åĳ¼åĲ¸éģĵæĦŁæŁĵ": 4352,
      "è¾¨è¯ģ": 4353,
      "çĭ¼çĸ®": 4354,
      "å¿ĥåĬĽè¡°ç«Ń": 4355,
      "17": 4356,
      "åĲ¡": 4357,
      "çĸ£": 4358,
      "æĺ¯éľĢè¦ģæľī": 4359,
      "ä¸įçŁ¥": 4360,
      "åŃĹ": 4361,
      "èĥ½æ²»å¥½": 4362,
      "åı¯ä»¥å¾ĹåĪ°ç¼ĵè§£": 4363,
      "åĲİåĨį": 4364,
      "éĢĶ": 4365,
      "æĬ¹": 4366,
      "æĤ£èĢħåĪĩå¿Į": 4367,
      "ä¸Ńèįīèį¯": 4368,
      "ç²ª": 4369,
      "æ³¨æĦıçļĦ": 4370,
      "éĩıè¡¨": 4371,
      "éĺ²æ²»": 4372,
      "æł¹æľ¬": 4373,
      "èĥĥèĥĢ": 4374,
      "æĬĹè¡¡": 4375,
      "æĸ¹æ³ķä¹Łå°±ä¸įä¸Ģæł·": 4376,
      "çĶ·äºº": 4377,
      "æķĪæŀľä¸į": 4378,
      "åīįåĪĹèħºæ¶²": 4379,
      "çĽ¸åºĶ": 4380,
      "åĮħçļ®é¾Łå¤´çĤİ": 4381,
      "åĽłæŃ¤æ²»çĸĹ": 4382,
      "æ¸©æ°´": 4383,
      "ç£º": 4384,
      "éĴĪå¯¹æĢ§": 4385,
      "ç©ºèħ¹": 4386,
      "è¯´æĺİä¹¦": 4387,
      "éĻĦä»¶çĤİ": 4388,
      "æľĪç»ıéĩıå°ĳ": 4389,
      "ç»ŀçĹĽ": 4390,
      "éĺ¿èİ«è¥¿æŀĹ": 4391,
      "çİ»çĴ": 4392,
      "çİ»çĴĥ": 4393,
      "å¤ļå¹´": 4394,
      "ä¹Łå¾Ī": 4395,
      "èº«å¿ĥ": 4396,
      "åİ»äºĨ": 4397,
      "éĥ½åı¯ä»¥": 4398,
      "åĪĩæľ¯": 4399,
      "åģ¥åº·æ£ĢæŁ¥": 4400,
      "èĥĨç»ĵçŁ³": 4401,
      "å¸ĮæľĽæĤ£èĢħçĹħæĥħ": 4402,
      "æ²»æĦĪçļĦ": 4403,
      "åĬłéĩįçĹħæĥħ": 4404,
      "âħ¡": 4405,
      "çģĮæ³¨": 4406,
      "éķĩçĹĽèį¯": 4407,
      "é³ŀ": 4408,
      "éģµåĮ»åĺ±": 4409,
      "éĺ¶æ®µ": 4410,
      "å¹½éĹ¨": 4411,
      "æľ¯åĲİä¸Ģå®ļè¦ģéĩįè§Ĩèĩªèº«çļĦæĬ¤çĲĨå·¥ä½ľ": 4412,
      "å¦ĤæŀľéĢīæĭ©äºĨæīĭæľ¯æ²»çĸĹ": 4413,
      "å¸ĮæľĽæĤ£èĢħçĹħæĥħåı¯ä»¥å¾ĹåĪ°ç¼ĵè§£": 4414,
      "ä¼Ĳ": 4415,
      "æīĭæĮĩ": 4416,
      "éĹ´éļĶ": 4417,
      "åı£åĲĲçĻ½æ²«": 4418,
      "ç«Ł": 4419,
      "èĭı": 4420,
      "çī¹åıĳæĢ§": 4421,
      "çº¢éľīç´ł": 4422,
      "æ¹¿çĥŃ": 4423,
      "éĺ¿åı¸": 4424,
      "æĮīçħ§": 4425,
      "åģıçĺ«": 4426,
      "å®ľé£Łä»Ģä¹Ī": 4427,
      "æĶ¹åĸĦçļĦ": 4428,
      "ä¸įæĺ¯å¾Īå¥½": 4429,
      "é½Ĳ": 4430,
      "æĨĭ": 4431,
      "ä¹Ĳè§ĤçļĦå¿ĥæĢģ": 4432,
      "çĨ¬å¤ľ": 4433,
      "45": 4434,
      "åļ": 4435,
      "çļĦèį¯çī©æ²»çĸĹ": 4436,
      "æĢ§æ¿Ģç´ł": 4437,
      "å¿Ļ": 4438,
      "åĲİå°±": 4439,
      "æīĭèĦļ": 4440,
      "åĩºéĻ¢": 4441,
      "çŃīåĪºæ¿ĢæĢ§é£Łçī©": 4442,
      "çºª": 4443,
      "åģļçļĦ": 4444,
      "å°¿éħ¸": 4445,
      "éĺ´èĻļ": 4446,
      "èĩªæĪĳ": 4447,
      "æ°ĶèĤ¿": 4448,
      "åĬŁæķĪ": 4449,
      "æł¹æį®æĤ¨çļĦ": 4450,
      "æĺĵåĲ¸æĶ¶": 4451,
      "é»Ħé»ĦçļĦ": 4452,
      "ä½Ĩæĺ¯ä¸ĢèĪ¬æ²»çĸĹ": 4453,
      "å·¦æ°§æ°Łæ²ĻæĺŁ": 4454,
      "ç²Ĵç»Ĩèĥŀ": 4455,
      "çĽĲæ°´": 4456,
      "æĤ£èĢħè¿ĺéľĢè¦ģæľīçľĭéĩį": 4457,
      "åĬłå¼ºèĲ¥åħ»": 4458,
      "æľĢåĲİç¥Ŀ": 4459,
      "åĵºä¹³æľŁ": 4460,
      "éŁ§å¸¦": 4461,
      "èĶ¬èıľåĴĮæ°´æŀľ": 4462,
      "éĺ¿å¥ĩéľīç´ł": 4463,
      "éĥ½éĿŀå¸¸å¤§": 4464,
      "??": 4465,
      "è¤": 4466,
      "æľīçĤİçĹĩ": 4467,
      "çĤİæĢ§": 4468,
      "ä¸Ĭæľī": 4469,
      "æĢİä¹Īå¤ĦçĲĨ": 4470,
      "éĹ´çĽĺ": 4471,
      "åĲĮç§į": 4472,
      "ä¸Ķæ²»çĸĹåĲİ": 4473,
      "åıĺæĢ§": 4474,
      "éħ¸éĴł": 4475,
      "è¿ĳæľŁ": 4476,
      "å§ĳ": 4477,
      "åıĹä½ĵ": 4478,
      "èĩªå·±æĺ¯åı¯ä»¥": 4479,
      "éģ¿åħįè¾Ľè¾£": 4480,
      "é¼»çĤİ": 4481,
      "å¤ªè¿ĩ": 4482,
      "å¥³æĢ§ä¸įåŃķ": 4483,
      "èĤļåŃĲçĸ¼": 4484,
      "ç¼©çŁŃ": 4485,
      "åıĳèĤ²ä¸įèī¯": 4486,
      "æĬ½åĬ¨": 4487,
      "è¡°å¼±": 4488,
      "éĹŃå¡ŀ": 4489,
      "åº·å¤įçļĦåĩłçİĩ": 4490,
      "è¦ģå¤ļçľĭéĩį": 4491,
      "èŀºæĹĭCT": 4492,
      "ç´§æĢ¥éģ¿åŃķèį¯": 4493,
      "åĪ¤æĸŃ": 4494,
      "æĪĺèĥľçĹħéŃĶ": 4495,
      "éĺ¿åı¸åĮ¹æŀĹ": 4496,
      "èĩªå·±æĺ¯åı¯ä»¥æĪĺèĥľçĹħéŃĶ": 4497,
      "èĩªå·±æĺ¯åı¯ä»¥æĪĺèĥľçĹħéŃĶçļĦ": 4498,
      "æĺł": 4499,
      "åı¯èĢĥèĻĳ": 4500,
      "å¼ĵ": 4501,
      "æīĭæ®µ": 4502,
      "ä¸ĭèħ¹": 4503,
      "é¥¥": 4504,
      "ä¹Łæ²¡æľī": 4505,
      "æ´»å¤ļä¹ħ": 4506,
      "æķĪçĶ¨": 4507,
      "éĿ¢å¯¹": 4508,
      "æµģè¡Ģ": 4509,
      "å²Ķ": 4510,
      "éħ¸éĴ¾": 4511,
      "åŃ¦æ£ĢæŁ¥": 4512,
      "é¡¿": 4513,
      "é£İå¯Ĵ": 4514,
      "èĩªèº«åħįçĸ«": 4515,
      "æľįçĶ¨èį¯çī©": 4516,
      "èģĮ": 4517,
      "å¹¶ä¸Ķæ³¨æĦı": 4518,
      "çł´åĿı": 4519,
      "èĦ¾èĥĥ": 4520,
      "åĿĲæµ´": 4521,
      "æģ°å½ĵçĶ¨èį¯": 4522,
      "ä¼ĺè´¨": 4523,
      "ç½®æį¢æľ¯": 4524,
      "ä¸İæŃ¤åĲĮæĹ¶æĤ£èĢħè¿ĺè¦ģæ³¨æĦı": 4525,
      "åĽłæŃ¤æ²»çĸĹä¸Ńä¸Ģå®ļ": 4526,
      "å¤ļåģļ": 4527,
      "æŁ¥æĺİ": 4528,
      "ä¸ĭéĿ¢": 4529,
      "ä½ľä¸º": 4530,
      "èĬĿ": 4531,
      "åĮħåĿĹ": 4532,
      "èº«ä½ĵçļĦ": 4533,
      "åģ¥åº·æķĻèĤ²": 4534,
      "åºĶè¯¥æĢİä¹ĪåĬŀ": 4535,
      "çľ¼çĲĥ": 4536,
      "ç¼ĵè§£çļĦ": 4537,
      "æĽ´å¥½": 4538,
      "è½¯ç»Ħç»ĩ": 4539,
      "çļĦåıĳçĹħå¹´é¾Ħæĺ¯å¤ļå°ĳ": 4540,
      "åħ·ä½ĵæĥħåĨµ": 4541,
      "éĤ£ä¹Īå°±è¦ģåıĬæĹ¶": 4542,
      "å¯ĨåĪĩ": 4543,
      "åħ¶å®ŀå¾ĹäºĨ": 4544,
      "çĹħæĥħåıĬåº·å¤įçļĦåĩłçİĩ": 4545,
      "ä¸Ĭè¿°çļĦçŃĶæ¡Īåı¯ä»¥å¸®åĬ©åĪ°ä½ł": 4546,
      "å¤¹": 4547,
      "æĹ¢": 4548,
      "æĢ§è´¨": 4549,
      "æĪª": 4550,
      "åı¯ä»¥éĢīæĭ©": 4551,
      "æĬ±": 4552,
      "å°±æľī": 4553,
      "çŃīåĽłç´ł": 4554,
      "è¿ĺæ²¡": 4555,
      "å»ºè®®åı£æľį": 4556,
      "ä½İçĽĲ": 4557,
      "æŃ¢è¡Ģ": 4558,
      "èĢĮä¸ĶåĨħè¡£": 4559,
      "èĩªèº«é¥®é£Ł": 4560,
      "æĢ»æĺ¯æĦŁè§ī": 4561,
      "ç§¯æŀģäºĴçĽ¸éħįåĲĪ": 4562,
      "ç²ĺæ¶²": 4563,
      "æĲŃ": 4564,
      "çļĦåİŁåĽłæĺ¯ä»Ģä¹Ī": 4565,
      "äººæµģåĲİ": 4566,
      "æľ¬äººä¸ĭä½ĵ": 4567,
      "åĪ°æŃ£è§ĦåĮ»éĻ¢": 4568,
      "ä¸ĬæĢ»æĺ¯é»Ħé»ĦçļĦ": 4569,
      "ä¸Ķæ²»çĸĹåĲİå®¹æĺĵçĹħåıĳ": 4570,
      "çĹħæĥħåıĬåº·å¤įçļĦåĩłçİĩéĥ½éĿŀå¸¸å¤§": 4571,
      "èĢĮä¸ĶåĨħè¡£ä¸ĬæĢ»æĺ¯é»Ħé»ĦçļĦ": 4572,
      "æľ¬äººä¸ĭä½ĵçī¹åĪ«çĹĴ": 4573,
      "28": 4574,
      "ĠæĽ¾ç»ıçļĦæ²»çĸĹæĥħåĨµåĴĮæķĪæŀľ": 4575,
      "äºı": 4576,
      "åĪ®": 4577,
      "ä¸įéĢļ": 4578,
      "å¤ļæ¬¡": 4579,
      "å·Ŀ": 4580,
      "æĦıå¤ĸ": 4581,
      "æīĭæľ¯æĳĺéĻ¤": 4582,
      "ä¸ºå¥½çļĦ": 4583,
      "å¼ķäº§": 4584,
      "å°ĳåĲĥè¾Ľè¾£": 4585,
      "æ¶Īæ¯Ĵ": 4586,
      "ç¡®ä¿Ŀ": 4587,
      "ä¸įè¦ģéģ¿": 4588,
      "åıįæĺł": 4589,
      "æİĴåĩºæĿ¥": 4590,
      "æĺ¾èĳĹ": 4591,
      "å®ŀæĸ½æķĳæ²»": 4592,
      "é¼»åĴ½": 4593,
      "çĻ½å¸¦å¢ŀå¤ļ": 4594,
      "æĦīå¿«çļĦå¿ĥæĥħ": 4595,
      "æ´»è¡ĢåĮĸçĺĢ": 4596,
      "å¿µçıł": 4597,
      "23": 4598,
      "çļĦçĶŁæ´»": 4599,
      "å°ģ": 4600,
      "çĤ¸": 4601,
      "åĴĮæ²»çĸĹ": 4602,
      "ä¸Ńå¿ĥ": 4603,
      "åĳĺ": 4604,
      "åĲĥè¿ĩ": 4605,
      "åĮħè£ħ": 4606,
      "å¥³åĦ¿": 4607,
      "æīįåı¯ä»¥": 4608,
      "å®ŀéªĮ": 4609,
      "å§ľ": 4610,
      "æ¢¦": 4611,
      "å¤ªéĺ³": 4612,
      "éĢīçĶ¨": 4613,
      "åıĮæĸ¹": 4614,
      "éĢĢçĥŃ": 4615,
      "å¸¸è§Ħæ£ĢæŁ¥": 4616,
      "åı¶éħ¸": 4617,
      "äº¢è¿Ľ": 4618,
      "è®¤ä¸ºè¿Ļæł·ä¸Ģå®ļèĥ½": 4619,
      "ä¸ĢçĤ¹åĦ¿": 4620,
      "æĢ§åĪ«åĢ¾åĲĳ": 4621,
      "è®°å¿Ĩ": 4622,
      "å¦Ĥæŀľä¸įåıĬæĹ¶æ²»çĸĹä¼ļå½±åĵįåĪ°": 4623,
      "æĢ§åĪ«åĢ¾åĲĳæĺ¯åķ¥": 4624,
      "åĤ": 4625,
      "åĬ²": 4626,
      "åľŁ": 4627,
      "é£Łè¾Ľè¾£": 4628,
      "è¿Ļä¹Ī": 4629,
      "å¾Īä¹ħäºĨ": 4630,
      "å¹´åīį": 4631,
      "è¯´æĪĳ": 4632,
      "éĥ½æ²¡": 4633,
      "æ¸ħå®«": 4634,
      "ä¸¥éĩįèĢħ": 4635,
      "åĽŀçŃĶ": 4636,
      "æİ§åĪ¶çĹħæĥħ": 4637,
      "æĤ£èĢħåľ¨æ²»çĸĹ": 4638,
      "ç¦»åŃĲ": 4639,
      "æĺ¯ä¸Ģç§įå®¹æĺĵçĹħåıĳ": 4640,
      "å°¤åħ¶æĺ¯æĬ¤çĲĨæĸ¹éĿ¢": 4641,
      "çī©çĲĨéĻįæ¸©": 4642,
      "å¹¶ä¸įåı¯æĢķ": 4643,
      "ä»¥æŃ¤æĿ¥å¢ŀå¼ºä½ĵè´¨": 4644,
      "æĺ¯ä¸Ģç§įå®¹æĺĵçĹħåıĳçļĦå¦ĩç§ĳçĸ¾çĹħ": 4645,
      "ĳå°¾": 4646,
      "ä¸§": 4647,
      "æľīæĹł": 4648,
      "éĺĳå°¾": 4649,
      "å¿ĥè¡Ģç®¡": 4650,
      "å¯¹ä½ł": 4651,
      "åĵ¥": 4652,
      "æ¸´": 4653,
      "åº·åĶĳ": 4654,
      "èĥĥçĹĽ": 4655,
      "æĬĹæĦŁæŁĵ": 4656,
      "åĬŁèĥ½æĢ§": 4657,
      "åıįå°Ħ": 4658,
      "ä¸īç»´": 4659,
      "åīįåĪĹèħºåĽĬèĤ¿": 4660,
      "ä»ĸæ±Ģ": 4661,
      "åĵªç§į": 4662,
      "èĲ¥åħ»ä¸įèī¯": 4663,
      "é¼»èħĶ": 4664,
      "é¼»çª¦": 4665,
      "100": 4666,
      "æĺİç¡®çĹħåĽł": 4667,
      "éĿĴéľīç´ł": 4668,
      "æĹ©æĹ¥æģ¢å¤įåģ¥åº·": 4669,
      "æĤ£èĢħåı¯ä»¥åľ¨": 4670,
      "è¯Ħä»·": 4671,
      "å¹¶ä¸ĶæĹ¥å¸¸çĶŁæ´»ä¸Ńè¦ģ": 4672,
      "çĹĬ": 4673,
      "ä¹Ŀ": 4674,
      "åı¯ä»¥ä½¿çĶ¨": 4675,
      "æĿĲ": 4676,
      "å¿ĥæħĮ": 4677,
      "å¯¹æĤ£èĢħçļĦ": 4678,
      "æĦıä¹ī": 4679,
      "èĻ¾": 4680,
      "èĦĳèĲİç¼©": 4681,
      "èĤ¾çĽ": 4682,
      "çļĦæ²»çĸĹæĸ¹æ¡Ī": 4683,
      "å¸¦çļĦ": 4684,
      "çī¹å¼ĤæĢ§": 4685,
      "å§¿": 4686,
      "ç¥ŀç»ıåĨħç§ĳ": 4687,
      "åĮħçļ®çİ¯": 4688,
      "åĬ¨èĦīç¡¬åĮĸ": 4689,
      "å¥³æĢ§éľĢè¦ģæľīçľĭéĩįèĩªèº«çļĦæĬ¤çĲĨ": 4690,
      "ä¸ŃåĮ»ä¸Ńèį¯": 4691,
      "æĦıè§ģå»ºè®®": 4692,
      "å¤ĸéĺ´çĺĻçĹĴ": 4693,
      "èĦ±ä½į": 4694,
      "âĢĿï¼Į": 4695,
      "æĬĹçĶŁç´łæ²»çĸĹ": 4696,
      "æµģäº§åĲİ": 4697,
      "ä¸Ģæł·çļĦ": 4698,
      "éĹŃç»ı": 4699,
      "åĩĨç¡®": 4700,
      "æİ¥åıĹæ²»çĸĹ": 4701,
      "ä¸¹åıĤ": 4702,
      "æľīå½±åĵįåĲĹ": 4703,
      "æĺ¯ä»Ģä¹Īçĸ¾çĹħçļĦçĹĩçĬ¶": 4704,
      "21": 4705,
      "90": 4706,
      "ãĢĭ": 4707,
      "å¤ļä¸º": 4708,
      "çİ©": 4709,
      "åīĶ": 4710,
      "æĪĳä¹Ł": 4711,
      "å¤§äºĨ": 4712,
      "åĬ¨åĬĽ": 4713,
      "å®«åĨħ": 4714,
      "åı¯èĥ½æĺ¯ä»Ģä¹Īçĸ¾çĹħçļĦçĹĩçĬ¶": 4715,
      "é¡¶": 4716,
      "è½¬æ°¨": 4717,
      "èĤĽè£Ĥ": 4718,
      "çĲĥèĽĭçĻ½": 4719,
      "è¡Ģæ¶²å¾ªçİ¯": 4720,
      "éļĶä»£": 4721,
      "ä¸ĵç§ĳåĮ»éĻ¢": 4722,
      "æµ¸æ¶¦": 4723,
      "å§ĭç»Īä¿ĿæĮģå¿ĥæĥħæĦīå¿«": 4724,
      "ä¾Ľè¡Ģä¸įè¶³": 4725,
      "ç§ģå¤Ħ": 4726,
      "åĶĲæ°ı": 4727,
      "çļĦä¸Ģ": 4728,
      "çļĦèº«ä½ĵ": 4729,
      "ä¸įæĮ¯": 4730,
      "åı¯çĶ±äºİ": 4731,
      "åĲİæľŁ": 4732,
      "éķģ": 4733,
      "è§£éĩĬ": 4734,
      "åĬłå¿«": 4735,
      "çĹħæĥħå¾Īä¸¥éĩį": 4736,
      "è¾ħåĬ©æ²»çĸĹ": 4737,
      "å¼Ĥçī©": 4738,
      "éĺ´éģĵåĩºè¡Ģ": 4739,
      "æĢĢåŃķåĲĹ": 4740,
      "åıĤåĬł": 4741,
      "æĺİç¡®ç¡®è¯Ĭ": 4742,
      "éª¨æĬĺçļĦæīĭæľ¯æ²»çĸĹæľīäºĽä»Ģä¹Ī": 4743,
      "é«ĭåħ³èĬĤ": 4744,
      "çĹĬæĦĪ": 4745,
      "çļĦçĶ¨æ³ķçĶ¨éĩı": 4746,
      "æľīä¸įåĲĮçļĦ": 4747,
      "å¤ļæĺ¯": 4748,
      "éĻĪ": 4749,
      "æĿŀ": 4750,
      "å¯¹èĥİåĦ¿": 4751,
      "éĿ¶": 4752,
      "åĨħçĹĶ": 4753,
      "çŃīèį¯çī©": 4754,
      "èĨĪ": 4755,
      "çĹħåĽłæĺ¯ä»Ģä¹Ī": 4756,
      "è·ĳ": 4757,
      "è¯ĬæĸŃä¸º": 4758,
      "æĹ¥å¸¸é¥®é£Ł": 4759,
      "åĽ°æī°": 4760,
      "å¤ľéĹ´": 4761,
      "è¡¨çİ°åĩºä¸º": 4762,
      "å¼¥æ¼«": 4763,
      "ä¸įåĲĮæīĢä»¥éĩĩçĶ¨": 4764,
      "å¢ŀåĬłèĲ¥åħ»è¡¥åħħç»´çĶŁç´łå¾®éĩıåħĥç´ł": 4765,
      "36": 4766,
      "çĹħä¾ĭ": 4767,
      "è¦ģä¿ĿæĮģ": 4768,
      "ä»Ģä¹Īçĸ¾çĹħ": 4769,
      "å¤ļä¼ĳæģ¯": 4770,
      "åĴĻ": 4771,
      "åįľ": 4772,
      "å¸¸å¸¸": 4773,
      "æĬĵ": 4774,
      "é¢ŀ": 4775,
      "å¤§èĤł": 4776,
      "æĪĸåĲĳ": 4777,
      "å°¿æ¯ĴçĹĩ": 4778,
      "åİ»æ£ĢæŁ¥": 4779,
      "ä½ľå¥½": 4780,
      "æ·Ģ": 4781,
      "èĦĳå®¤": 4782,
      "å¹³åĿĩ": 4783,
      "ä¼¤æįŁ": 4784,
      "äºĭæĥħ": 4785,
      "æŃ¢åĴ³": 4786,
      "è¿Ľè¡Įæ£ĢæŁ¥": 4787,
      "åģ¥èĦ¾": 4788,
      "éĨĭ": 4789,
      "èħ°éĥ¨": 4790,
      "è¢ĭ": 4791,
      "å¾ĹåĪ°æİ§åĪ¶": 4792,
      "éĿŀå¸¸çļĦ": 4793,
      "çº¤ç»´çĺ¤": 4794,
      "éĹŃåĲĪ": 4795,
      "åĸīåĴĻ": 4796,
      "å¹¿æ³Ľ": 4797,
      "æĶ¯æĮģæĢ§æ²»çĸĹ": 4798,
      "æĺĵæ¶ĪåĮĸæĺĵåĲ¸æĶ¶": 4799,
      "éľĩé¢¤": 4800,
      "æł¹æį®ä»Ķç»Ĩæ£ĢæŁ¥ç»ĵæŀľåĨįèĢĥèĻĳ": 4801,
      "åľ¨æĹ¥å¸¸çĶŁæ´»é¥®é£Łä¸Ń": 4802,
      "æĺĵæ¶ĪåĮĸæĺĵåĲ¸æĶ¶é¥®é£Ł": 4803,
      "ãĢĬ": 4804,
      "è¦ģåģļ": 4805,
      "å¼Ł": 4806,
      "çĻ«": 4807,
      "å¤©å·¦åı³": 4808,
      "éĹ´è´¨": 4809,
      "åĪĨåŃĲ": 4810,
      "çĻĮåıĺ": 4811,
      "èħ¹èĨľ": 4812,
      "æ°ĶèĻļ": 4813,
      "åĬłåĩı": 4814,
      "æľ¬æĸĩ": 4815,
      "åıĹç²¾": 4816,
      "èĤīçĺ¤": 4817,
      "åº·å¤įéĢŁåº¦": 4818,
      "åıĳçİ°èĩªå·±": 4819,
      "èĤĽèĤł": 4820,
      "ç«ĭåĪ»": 4821,
      "åıĬæĹ¶æ²»çĸĹæĺ¯åı¯ä»¥åĩıä½İçĹħåıĳ": 4822,
      "æĪĴæİī": 4823,
      "æľįé£Łèį¯çī©": 4824,
      "åīĸå®«": 4825,
      "éĢıæĺİ": 4826,
      "æ·ĭå·´ç»ĵèĤ¿å¤§": 4827,
      "èī¯æĢ§èĤ¿çĺ¤": 4828,
      "å¤ļåĲĥæĸ°é²ľèĶ¬èıľæ°´æŀľ": 4829,
      "æĬ¥åĳĬ": 4830,
      "åľ¨çĶŁæ´»ä¸ŃçĶ¨": 4831,
      "an": 4832,
      "ä¸Ľ": 4833,
      "çļĦä¹łæĥ¯": 4834,
      "æĿĥ": 4835,
      "ä½ĵå¾ģ": 4836,
      "å¤§äºİ": 4837,
      "éĩįå»º": 4838,
      "æ¬¢": 4839,
      "å¾Īæĺ¯": 4840,
      "å¹´è½»": 4841,
      "æ´»æĢ§": 4842,
      "è§Ħæł¼": 4843,
      "ä¸¥æł¼": 4844,
      "ç»Ĩèĥŀçĺ¤": 4845,
      "ç³ĸçļ®è´¨æ¿Ģç´ł": 4846,
      "å¹²ç»Ĩèĥŀ": 4847,
      "å°Ħé¢ĳ": 4848,
      "çĻ«çĹ«çĹħçļĦ": 4849,
      "ç»ĻæĪĳ": 4850,
      "å¼ºçĽ´": 4851,
      "å¼łåĬĽ": 4852,
      "åħħåĪĨ": 4853,
      "ç¬¬ä¸Ģ": 4854,
      "æ¤İä½ĵ": 4855,
      "å¯Łè§ī": 4856,
      "éĿĴåħī": 4857,
      "æ½®æ¹¿": 4858,
      "åĿĩè¡¡èĲ¥åħ»": 4859,
      "26": 4860,
      "bè¶ħ": 4861,
      "è¤Ĳ": 4862,
      "ä¸¾": 4863,
      "æĺĶ": 4864,
      "ä¼ı": 4865,
      "æĸ¯": 4866,
      "æ£ĢæŁ¥åĩº": 4867,
      "ä¸ĬéĿ¢": 4868,
      "åĲĥä¸ĢäºĽ": 4869,
      "è¿ĩäºİ": 4870,
      "çľĭäºĨ": 4871,
      "çľĭèį¯åĵģ": 4872,
      "å¹³æ»ĳ": 4873,
      "è¯·åıĤ": 4874,
      "è¯¥å¦Ĥä½ķ": 4875,
      "å®¶æĹı": 4876,
      "èº«ä½ĵèĲ¥åħ»": 4877,
      "èĢĮä¸Ķè¿ĺ": 4878,
      "è¾£æ¤Ĵ": 4879,
      "åıªä¾ĽåıĤèĢĥ": 4880,
      "åıĳçĹħåİŁåĽł": 4881,
      "æ¢¨": 4882,
      "åŁºåºķ": 4883,
      "è§Ĩç¥ŀç»ı": 4884,
      "å®¹æĺĵæ¶ĪåĮĸçļĦé£Łçī©": 4885,
      "å·²ç»ıæľī": 4886,
      "åĬ¨èĦīçĺ¤": 4887,
      "éĽĦ": 4888,
      "åįµå·¢çĻĮ": 4889,
      "éļıå¸¦çļĦ": 4890,
      "åĺĮ": 4891,
      "é»ĳèī²ç´ł": 4892,
      "æ³Įå°¿å¤ĸç§ĳ": 4893,
      "èĴĻ": 4894,
      "å¦Ĥæŀľä¸įç¡®å®ļ": 4895,
      "èį¯åĵģåı¯çĶ±äºİ": 4896,
      "æĵįä½ľ": 4897,
      "åİĮé£Ł": 4898,
      "è¯´æĺİä¹¦æĪĸåĲĳ": 4899,
      "åĲĮç§įèį¯åĵģåı¯çĶ±äºİ": 4900,
      "åĮħè£ħè§Ħæł¼": 4901,
      "çľĭèį¯åĵģéļıå¸¦çļĦ": 4902,
      "è¯·åıĤçľĭèį¯åĵģéļıå¸¦çļĦ": 4903,
      "è¯´æĺİä¹¦æĪĸåĲĳåĮ»çĶŁè¯¢éĹ®": 4904,
      "è¯·åıĤçľĭèį¯åĵģéļıå¸¦çļĦè¯´æĺİä¹¦æĪĸåĲĳåĮ»çĶŁè¯¢éĹ®": 4905,
      "çļĦæ²»æĦĪçİĩæĺ¯å¤ļå°ĳ": 4906,
      "æľīæ°§": 4907,
      "è¿Ķ": 4908,
      "ä¸įäºĨ": 4909,
      "æĢ§æĹ©": 4910,
      "ä»Ģä¹Īæĺ¯": 4911,
      "ä»Ģä¹ĪæĹ¶åĢĻ": 4912,
      "ä¼¸": 4913,
      "æ³¥": 4914,
      "å¥½åĲĹ": 4915,
      "å¤ļé¤Ĳ": 4916,
      "åĨħèĦı": 4917,
      "åĲĪæĪĲ": 4918,
      "åĮ»éĻ¢æ²»çĸĹ": 4919,
      "é«ĺèĽĭçĻ½": 4920,
      "çº¹": 4921,
      "åĬ¨ä½ľ": 4922,
      "èĦĳçĺ¤": 4923,
      "æ¶ĪéĢĢ": 4924,
      "æµģæĦŁ": 4925,
      "èĤºæ°ĶèĤ¿": 4926,
      "ä¸»è¦ģæľī": 4927,
      "ç»Ļä¸İ": 4928,
      "åıĹå¯Ĵ": 4929,
      "èĥĨéģĵ": 4930,
      "åĹĿ": 4931,
      "èĥ¸åı£": 4932,
      "äºĮåįģ": 4933,
      "éĿĻèĦīè¡Ģæłĵ": 4934,
      "æļĹ": 4935,
      "åįĬä¸ªæľĪ": 4936,
      "æľīåĵªäºĽçĹĩçĬ¶": 4937,
      "çĶ²çĬ¶èħºç»ĵèĬĤ": 4938,
      "è±ĨèħĲ": 4939,
      "æµ·ç»µ": 4940,
      "æ³Įå°¿ç³»ç»Ł": 4941,
      "çŃĽæŁ¥æľīäºĽä»Ģä¹Ī": 4942,
      "è¸ı": 4943,
      "åħħè¶³çļĦ": 4944,
      "éĿĴåħīçľ¼": 4945,
      "âĳ": 4946,
      "æĦ¿": 4947,
      "å¤ļå¤§": 4948,
      "å·ŀ": 4949,
      "å¿ĥçİĩ": 4950,
      "é«Ĥ": 4951,
      "åŃķåĽĬ": 4952,
      "éĴ¢": 4953,
      "å¢ŀåİļ": 4954,
      "éħ¸çĹĽ": 4955,
      "æĮĩæłĩ": 4956,
      "æľĪç»ıæĿ¥": 4957,
      "èĢģäºº": 4958,
      "éĤª": 4959,
      "å¦Ĥä½ķæľī": 4960,
      "çĶµè§£": 4961,
      "ç»´çĶŁç´łC": 4962,
      "èİ²": 4963,
      "å¸¸è§ĦæĬ¤çĲĨ": 4964,
      "æ½ľ": 4965,
      "ç¢İçŁ³": 4966,
      "æ±¡æŁĵ": 4967,
      "HCG": 4968,
      "å¾Īé«ĺåħ´ä¸º": 4969,
      "æľīæ°§è¿ĲåĬ¨": 4970,
      "ct": 4971,
      "åĽ¢": 4972,
      "æ³°": 4973,
      "ç§ĭ": 4974,
      "æĿı": 4975,
      "å¤§ä¸īéĺ³": 4976,
      "åĦ¿ç§ĳ": 4977,
      "åĪĨæĪĲ": 4978,
      "å¦Ĥæŀľä½ł": 4979,
      "è¯´èĩªå·±": 4980,
      "éĢļé£İ": 4981,
      "æĦŁè§īåĪ°": 4982,
      "ä¸ĢçĽ´åľ¨": 4983,
      "åĪ©çĶ¨": 4984,
      "å¤ĸéĺ´æ¸ħæ´ģ": 4985,
      "æ¯Ľç»Ĩ": 4986,
      "èĻ«çĹħ": 4987,
      "ä¸ªäººçļĦ": 4988,
      "çĵ£èĨľ": 4989,
      "è¡Ģå°ıæĿ¿åĩıå°ĳ": 4990,
      "éī´åĪ«è¯ĬæĸŃ": 4991,
      "åĮĸèĦĵæĢ§": 4992,
      ".ï¼Į": 4993,
      "Ŀåįľ": 4994,
      "ä¸įåĲĥè¾Ľè¾£": 4995,
      "ä¸įè§ĦåĪĻ": 4996,
      "ä¸ĢæĹ¥": 4997,
      "å¥½äºĽ": 4998,
      "æ°®": 4999,
      "å·©": 5000,
      "æĤ£èĢħéľĢè¦ģæľī": 5001,
      "æĤ£èĢħå¹´é¾Ħ": 5002,
      "åĳĨ": 5003,
      "ç®¡çĶ¨": 5004,
      "åĬ¨æĢģ": 5005,
      "èĨ¨": 5006,
      "ä¹³éħ¸": 5007,
      "åŀ¢": 5008,
      "åħ¨éĥ¨": 5009,
      "èĭĶ": 5010,
      "ç±»ä¼¼": 5011,
      "ç¼ĵéĩĬ": 5012,
      "çĿĢæĢ¥": 5013,
      "æŀģåĨ·": 5014,
      "å±Ģéĥ¨çļĦ": 5015,
      "æ¸©åº¦": 5016,
      "å¿Įé£Łä»Ģä¹Ī": 5017,
      "çĶ²çĬ¶èħºçĻĮ": 5018,
      "ä¹Łæĺ¯å¾Ī": 5019,
      "èĤ¥åİļ": 5020,
      "åģıé«ĺ": 5021,
      "åŃĲå®«åĨħèĨľçĻĮ": 5022,
      "æ²ŁéĢļ": 5023,
      "åľ°é»Ħä¸¸": 5024,
      "ä¼Ĳä»ĸæ±Ģ": 5025,
      "çĶµè§£è´¨": 5026,
      "¾è§£": 5027,
      "çļĦå°ı": 5028,
      "çĹ£": 5029,
      "æľīéĹ®é¢ĺ": 5030,
      "æľīè§Ħå¾ĭ": 5031,
      "ä¸įæĢİä¹Ī": 5032,
      "åı¯ä»¥åĲĹ": 5033,
      "ä½ĵåĬĽ": 5034,
      "æĪĳåĴĮ": 5035,
      "ä¸ĭåįĪ": 5036,
      "éħĮ": 5037,
      "çº¾è§£": 5038,
      "èĩªä½ĵ": 5039,
      "åĢį": 5040,
      "çĽ´å¾Ħ": 5041,
      "èĤºåĬ¨èĦī": 5042,
      "åŀĭèĤĿçĤİ": 5043,
      "çģ°": 5044,
      "ç³»èĨľ": 5045,
      "å½¢æĢģ": 5046,
      "ä¸ĢçĽ´æ²¡": 5047,
      "éĺ³èĻļ": 5048,
      "å±Ģéĥ¨æ²»çĸĹ": 5049,
      "æİ¥ç§į": 5050,
      "è¦ģæ³¨æĦıä»Ģä¹Ī": 5051,
      "åĮĸçĸĹæľīäºĽä»Ģä¹Ī": 5052,
      "éĹ¨è¯Ĭ": 5053,
      "å¤§ä¾¿éĢļçķħ": 5054,
      "æ³¨å°ĦçĶ¨": 5055,
      "çĻ½å¸¦å¼Ĥå¸¸": 5056,
      "åĴ¨è¯¢ä¸Ģä¸ĭ": 5057,
      "æ°¨éħ¸": 5058,
      "åį¡åĽł": 5059,
      "å¯Ĩåº¦": 5060,
      "âħł": 5061,
      "æĪĳå®¶å®Ŀå®Ŀ": 5062,
      "çĶ¨ä»Ģä¹Īèį¯": 5063,
      "éĽ¾åĮĸ": 5064,
      "äºĨä¸įå¿ħè¦ģçļĦå½±åĵį": 5065,
      "ä»¥æ¸ħæ·¡é£Łçī©ä¸ºä¸»": 5066,
      "çļĦåĩºçİ°ä¸įä»ħä»ħä¼ļå½±åĵį": 5067,
      "å²Ķå¼Ģ": 5068,
      "è½¬æ°¨éħ¶": 5069,
      "åīĸå®«äº§": 5070,
      "ä¸įä¸Ĭ": 5071,
      "è¦ģä¿ĿæĮģèī¯å¥½çļĦå¿ĥæĥħ": 5072,
      "éģŃ": 5073,
      "å¿ĥéĩĮ": 5074,
      "çŃīæ²»çĸĹ": 5075,
      "è¿ĺè¦ģæ³¨æĦı": 5076,
      "åİ»åģļ": 5077,
      "åİŁåıĳ": 5078,
      "èĬª": 5079,
      "èĥĥéħ¸": 5080,
      "çİ°åľ¨å·²ç»ı": 5081,
      "åīįåĪĹèħºçĤİçļĦ": 5082,
      "å§Ĳ": 5083,
      "çĥŃæķ·": 5084,
      "æľĪç»ıæİ¨è¿Ł": 5085,
      "æ¡¥": 5086,
      "æĢĢåŃķæľŁéĹ´": 5087,
      "å±ĢéĻĲ": 5088,
      "çĿ¡ä¸įçĿĢ": 5089,
      "ç¥ĿæĹ©æĹ¥åº·å¤į": 5090,
      "åĴ½åĸī": 5091,
      "å¿ĥèĤĮæ¢ĹæŃ»": 5092,
      "ç»ĵèĤłçĻĮ": 5093,
      "å¯ĮåĲ«": 5094,
      "ä¾Ŀèµĸ": 5095,
      "çģ¼çĥŃ": 5096,
      "æŀ¸æĿŀ": 5097,
      "èº«å¿ĥåģ¥åº·": 5098,
      "äºĳ": 5099,
      "æĺ¯éľĢè¦ģ": 5100,
      "ä¸įæŃ£å¸¸": 5101,
      "æĥĳ": 5102,
      "ä¸ªå¤ļæľĪ": 5103,
      "ä¸ºå¥½": 5104,
      "çľģ": 5105,
      "å¤įåĲĪ": 5106,
      "çŃīæĥħåĨµ": 5107,
      "é«ĺçļĦ": 5108,
      "èµ¤": 5109,
      "éªĳ": 5110,
      "åĪĨå¸ĥ": 5111,
      "æĹłçĹĩçĬ¶": 5112,
      "éĩıçļĦ": 5113,
      "éª¨å¤´": 5114,
      "æµģåĩº": 5115,
      "åĬŁèĥ½ä¸įåħ¨": 5116,
      "ç¥ŀç»ıè¡°å¼±": 5117,
      "éĶ°": 5118,
      "æº¢": 5119,
      "ä½¿çĶ¨èį¯çī©": 5120,
      "åħ·å¤ĩ": 5121,
      "æĹ©æľŁçĹĩçĬ¶": 5122,
      "å¹¶åıĳçĹĩæĺ¯ä»Ģä¹Ī": 5123,
      "æııè¿°çļĦæĥħåĨµ": 5124,
      "åħ·ä½ĵçļĦ": 5125,
      "æĢİæł·çļĦåįıåĬ©": 5126,
      "è¿ĩåº¦çļĦ": 5127,
      "æĤ£èĢħåı¯ä»¥æł¹æį®åĮ»çĶŁçļĦæĦıè§ģ": 5128,
      "æıĲé«ĺæĤ£èĢħ": 5129,
      "ç¾Ĭè§Ĵ": 5130,
      "åľ¨ä¹İæĢİæł·çļĦåįıåĬ©": 5131,
      "æĳĦåıĸ": 5132,
      "èĹ¤": 5133,
      "ä¿Ŀæļĸå·¥ä½ľ": 5134,
      "å¿ĥåĬ¨è¿ĩ": 5135,
      "èĤ¾çĽĤ": 5136,
      "åīĶéĻ¤": 5137,
      "æł¹æį®ä»Ķç»Ĩæ£ĢæŁ¥ç»ĵæŀľåĨįèĢĥèĻĳæ²»çĸĹ": 5138,
      "å¯Łè§īåĪ°": 5139,
      "on": 5140,
      "çļĦæĬ¤çĲĨ": 5141,
      "æľīè¿ĩ": 5142,
      "çĹħç¨ĭ": 5143,
      "è¦ģå°½å¿«": 5144,
      "åľ¨æ²»çĸĹæľŁéĹ´": 5145,
      "æĮ¤": 5146,
      "æ´¥": 5147,
      "å°ıèħ¿": 5148,
      "çľĭä¸Ģä¸ĭ": 5149,
      "å¹³çīĩ": 5150,
      "èĥĥéĥ¨": 5151,
      "æĬĹåİŁ": 5152,
      "éĿ¢ç¥ŀç»ı": 5153,
      "ç¨ł": 5154,
      "åĥµ": 5155,
      "æķĪæŀľä¸įå¥½": 5156,
      "å®ŀéĻħ": 5157,
      "åĽŀå£°": 5158,
      "åıªå¥½": 5159,
      "åıĳçĹħçİĩ": 5160,
      "éħįç½®": 5161,
      "æıĲåīį": 5162,
      "æĹ©æľŁçļĦ": 5163,
      "éĢļè¿ĩæīĭæľ¯": 5164,
      "åĿĩåı¯": 5165,
      "çĽĨèħĶç§¯æ¶²": 5166,
      "é¥ŃåĲİ": 5167,
      "æĸ°çĶŁåĦ¿é»Ħçĸ¸": 5168,
      "å¤ĩåŃķ": 5169,
      "éĻĲåĪ¶": 5170,
      "æ¶ĤæĬ¹": 5171,
      "ç¡«éħ¸": 5172,
      "æ¸¸ç¦»": 5173,
      "æħİçĶ¨": 5174,
      "åĺĮåĳ¤": 5175,
      "en": 5176,
      "æ§": 5177,
      "ä¸įæĺİ": 5178,
      "æĢ§çĹħåıĺ": 5179,
      "èį·": 5180,
      "æĹ¶æľº": 5181,
      "å¦Ĥæľī": 5182,
      "æīĭæľ¯åĲĹ": 5183,
      "è´µ": 5184,
      "çļ®çĵ£": 5185,
      "èĥĥæºĥçĸ¡": 5186,
      "èĤ¾æ°Ķ": 5187,
      "å¥³æľĭåıĭ": 5188,
      "æ¯Ķè¾ĥä¸¥éĩį": 5189,
      "é»Ħè¿ŀ": 5190,
      "ä½Ĩæĺ¯æĪĳ": 5191,
      "ä¸¤åĳ¨": 5192,
      "ä¸¤ä¾§": 5193,
      "è·Ŀ": 5194,
      "æľºä¼ļ": 5195,
      "æĽ´æį¢": 5196,
      "éħįåĲĪåĮ»çĶŁ": 5197,
      "çī©çĲĨæ²»çĸĹ": 5198,
      "èĦ¸èī²": 5199,
      "çĶŁçĲĨæĢ§": 5200,
      "æĪĴçĥŁæĪĴéħĴ": 5201,
      "ä¸įéĶĻçļĦ": 5202,
      "ml": 5203,
      "çĸ¯": 5204,
      "è¿¹": 5205,
      "æĪ´": 5206,
      "æī¶": 5207,
      "æĤ¬": 5208,
      "åı¯ä»¥åľ¨": 5209,
      "æĺ¯ä»Ģä¹ĪæĥħåĨµ": 5210,
      "çľĭè¿ĩ": 5211,
      "ç²¾ç®¡": 5212,
      "åĬĽæ°Ķ": 5213,
      "æ¡¡": 5214,
      "éĤ£äºĽ": 5215,
      "éļ¾æ²»": 5216,
      "åį«çĶŁä¹łæĥ¯": 5217,
      "ç¼ĵè§£çĹĩçĬ¶": 5218,
      "æ´Ĺæ¶²": 5219,
      "ï¼īãĢĤ": 5220,
      "æĥ¯èī¯å¥½çļĦ": 5221,
      "åį³ä½¿": 5222,
      "çī¹åĪ«ä¸įèĪĴæľį": 5223,
      "æī©å¤§": 5224,
      "çļĦåıĳçĹħæĢ§åĪ«åĢ¾åĲĳæĺ¯åķ¥": 5225,
      "åĩĿè¡Ģ": 5226,
      "æħ¢æħ¢ä¼ļ": 5227,
      "ç®Ģåįķ": 5228,
      "æ¨¡å¼ı": 5229,
      "å¥¥ç¾İ": 5230,
      "æĥĬåİ¥": 5231,
      "çļĦè¯ĬæĸŃæĺ¯ä»Ģä¹Ī": 5232,
      "å½©èī²å¤ļæĻ®åĭĴè¶ħå£°": 5233,
      "22": 5234,
      "DNA": 5235,
      "åĪĴ": 5236,
      "ä¸įçķħ": 5237,
      "çĹħçĹĩ": 5238,
      "èĥ½åĲ¦": 5239,
      "çĶ¨åĬĽ": 5240,
      "æĪĳèĢģåħ¬": 5241,
      "è¿Ļæĺ¯æĢİä¹ĪåĽŀäºĭ": 5242,
      "ä¸Ńè¥¿åĮ»": 5243,
      "åĲĥå¥¶": 5244,
      "åīįåĲİ": 5245,
      "æĪĸçĹħåĽł": 5246,
      "å¹´çºª": 5247,
      "è¶¾": 5248,
      "è¡¨è¾¾": 5249,
      "è§£çŃĶ": 5250,
      "çŁ¥è¯Ĩ": 5251,
      "ä»ĸçļĦ": 5252,
      "è¡Ģç®¡åĨħ": 5253,
      "è¡Ģç®¡éĢłå½±": 5254,
      "æģ¢å¤įæŃ£å¸¸": 5255,
      "æĢİæł·æ²»": 5256,
      "èĶĵ": 5257,
      "äº¤åıī": 5258,
      "éº»çĥ¦": 5259,
      "æµĭå®ļ": 5260,
      "æ·ĭå·´ç»Ĩèĥŀ": 5261,
      "ç»ĵèĤłçĤİ": 5262,
      "âħ¢": 5263,
      "æ´ĽèĬ¬": 5264,
      "çĶŁåĨ·çļĦé£Łçī©": 5265,
      "æ¿Ģåħīæ²»çĸĹ": 5266,
      "å¤ļæ³¨æĦıèĩªèº«åį«çĶŁ": 5267,
      "çļĦå¤ļåıĳç¾¤ä½ĵæĺ¯": 5268,
      "å¿µçıłèıĮ": 5269,
      "ä¸§å¤±": 5270,
      "27": 5271,
      "39": 5272,
      "çļĦåĬŁèĥ½": 5273,
      "çļĦæ£ĢæŁ¥æľīäºĽä»Ģä¹Ī": 5274,
      "èĥ«": 5275,
      "ä¸įéĢĢ": 5276,
      "çĹħåİŁ": 5277,
      "çĹħåİŁä½ĵ": 5278,
      "åı¯åĩºçİ°": 5279,
      "å¥Ī": 5280,
      "çĶŁèıĮ": 5281,
      "æ³¼": 5282,
      "èį¯çĲĨ": 5283,
      "å¤ļåĬ¨": 5284,
      "èħ®": 5285,
      "åĵĳ": 5286,
      "æµĬ": 5287,
      "å»ºè®®åİ»åĮ»éĻ¢": 5288,
      "çĶŁæ´»è´¨éĩı": 5289,
      "å¼ĢæĶ¾": 5290,
      "å°ĦäºĨ": 5291,
      "çĻ«çĹ«æĤ£èĢħ": 5292,
      "å¹³æĹ¶çķĻæĦı": 5293,
      "åİ»åĮ»éĻ¢åģļäºĨ": 5294,
      "è¿Ļæł·çļĦæĥħåĨµ": 5295,
      "æĺ¾å¾®": 5296,
      "ç§¯æŀģçļĦ": 5297,
      "èħ°çĸ¼": 5298,
      "éĢīæĭ©ä¸Ģå®¶": 5299,
      "è±Ĩç±»": 5300,
      "èĥİåĦ¿çļĦ": 5301,
      "æº¶æłĵ": 5302,
      "åħŃåĳ³": 5303,
      "åĴĭåĽŀäºĭ": 5304,
      "ä»¥æ¸ħæ·¡ä¸ºä¸»": 5305,
      "æ®ĭçķĻ": 5306,
      "æĻ¨åĭĥ": 5307,
      "ç¼ĿåĲĪ": 5308,
      "èµĦæĸĻ": 5309,
      "çŁ«æŃ£": 5310,
      "èģĮä¸ļ": 5311,
      ")ï¼Ľ": 5312,
      "CM": 5313,
      "æĺ¯ä¸Ģä¸ª": 5314,
      "ä¸įè§ģ": 5315,
      "åºı": 5316,
      "ä¸ŃåĽ½": 5317,
      "ä¸ĭé¢Į": 5318,
      "åĮĸçĹ°": 5319,
      "æ¸£": 5320,
      "æ³¨æĦıä¿Ŀæļĸ": 5321,
      "å°ĳè§ģ": 5322,
      "æ°Ķèĥ¸": 5323,
      "åİĭçĹĽ": 5324,
      "ä½İèĦĤ": 5325,
      "ä½İè¡Ģåİĭ": 5326,
      "æĹ¶éĹ´çŁŃ": 5327,
      "ä¸¥ä»¤": 5328,
      "æ±Ł": 5329,
      "è¿Ļä¸ªæĹ¶åĢĻ": 5330,
      "æĶ¾å¿ĥ": 5331,
      "èĽĽ": 5332,
      "æīĵåĹĿ": 5333,
      "ä»¥åħįåĬłéĩįçĹħæĥħ": 5334,
      "ä¸ĵä¸ļæ²»çĸĹ": 5335,
      "çĨı": 5336,
      "ä¹ĻèĤĿçĹħæ¯Ĵ": 5337,
      "000": 5338,
      "çħ§å°Ħ": 5339,
      "å¸¸çĶ¨çļĦ": 5340,
      "ä½Ĩæĺ¯çĶ±äºİæĤ£èĢħçĹħæĥħ": 5341,
      "èĬĿéº»": 5342,
      "éĴ¢æĿ¿": 5343,
      "éħĮæĥħ": 5344,
      ")ï¼Į": 5345,
      "åı¤": 5346,
      "æ²³": 5347,
      "æľīå¥½å¤Ħ": 5348,
      "åĮĢ": 5349,
      "æĹ¶æľŁ": 5350,
      "åĩ¸": 5351,
      "è®¾": 5352,
      "åĴĮé¢Ħéĺ²": 5353,
      "å»ºè®®åıĬæĹ¶": 5354,
      "åºĶåıĬæĹ¶": 5355,
      "çľĭåĪ°": 5356,
      "åĨįçĶŁ": 5357,
      "èĥĥçĸ¼": 5358,
      "ä¹³èĨı": 5359,
      "åįµåŃĲ": 5360,
      "ç¡®åĪĩ": 5361,
      "åıĺå¾Ĺ": 5362,
      "è¯¥æĢİä¹Ī": 5363,
      "éħ¸æĢ§": 5364,
      "å½±åĵįçļĦ": 5365,
      "å½±åĵįåĪ°": 5366,
      "è¾ĵç²¾ç®¡": 5367,
      "å¡«": 5368,
      "èĦıåĻ¨": 5369,
      "çľ¼åºķ": 5370,
      "æģ¶åĮĸ": 5371,
      "é¼»å¡ŀ": 5372,
      "èĤļèĦĲ": 5373,
      "åįķä¾§": 5374,
      "è¯ķç®¡": 5375,
      "ä¸įèī¯åĪºæ¿Ģ": 5376,
      "æ¤įéª¨": 5377,
      "ä¸įåŃķçĹĩ": 5378,
      "çĹħçĲĨæĢ§": 5379,
      "é£Łæ¬²ä¸įæĮ¯": 5380,
      "ä¸´åºĬè¯ĬæĸŃä¸Ĭ": 5381,
      "èĥ°èħºçĤİ": 5382,
      "çĸıæĿ¾": 5383,
      "çĪ¸çĪ¸": 5384,
      "ç²¥æł·": 5385,
      "ç¢°è§¦": 5386,
      "ç¦ģå¿ĮçĹĩ": 5387,
      "èĤ¾å°ıçĲĥ": 5388,
      "çĳŀ": 5389,
      "åŃĲå®«åĨħèĨľå¼Ĥä½įçĹĩ": 5390,
      "åµ": 5391,
      "è¦": 5392,
      "Ġ4": 5393,
      "æ²»çĸĹå¤ĸ": 5394,
      "çĹħèıĮ": 5395,
      "ä»¥ä¸º": 5396,
      "æ£ī": 5397,
      "ä½łçİ°åľ¨": 5398,
      "ä¸ªä½ĵ": 5399,
      "è¿ĩé¥±": 5400,
      "ä¹Łä¸įå¥½": 5401,
      "è¿ĺåı¯": 5402,
      "èį¯çī©æµģäº§": 5403,
      "é¥®é£Łä¹łæĥ¯": 5404,
      "çļ®çĸ¹": 5405,
      "èµ·åĪ°": 5406,
      "è¾ĥä¸º": 5407,
      "åı¯èĥ½æĢ§": 5408,
      "èĥĥçĹħ": 5409,
      "æĸ¹æ³ķæ²»çĸĹ": 5410,
      "æīįä¼ļ": 5411,
      "åĩıå°ı": 5412,
      "å£«": 5413,
      "åĨįæ¬¡çĹħåıĳ": 5414,
      "ç¾Ł": 5415,
      "åº·å¤įæ²»çĸĹ": 5416,
      "æīĭæľ¯æ²»çĸĹçļĦ": 5417,
      "èĢ³é¸£": 5418,
      "ç¦ģåĲĥè¾Ľè¾£": 5419,
      "åĪ°åĮ»éĻ¢æ£ĢæŁ¥": 5420,
      "å®īæİĴ": 5421,
      "åģıé£Ł": 5422,
      "ç»Ŀå¤§å¤ļæķ°": 5423,
      "åĴ¨è¯¢çĽ®çļĦ": 5424,
      "æķĻåŃ¦": 5425,
      "è¯¦ç»ĨçĹħæĥħåıĬ": 5426,
      "çĶĺèįī": 5427,
      "ç£·éħ¸": 5428,
      "å¿Įè¾Ľè¾£é£Łçī©": 5429,
      "çĪ¶äº²": 5430,
      "æĸľè§Ĩ": 5431,
      "å¿ĥåĬ¨åĽ¾": 5432,
      "èķī": 5433,
      "ç²¾åĽĬçĤİ": 5434,
      "é¥®é£ŁçļĦè°ĥçĲĨ": 5435,
      "æ³¨æĦıçļĦäºĭé¡¹": 5436,
      "ä¸¥ä»¤ç¦ģæŃ¢": 5437,
      "Î²": 5438,
      "çļĦçĹħäºº": 5439,
      "çļĦåį±å®³": 5440,
      "çļĦåĮ»æ²»": 5441,
      "æĪ·": 5442,
      "å¿ĥæĪ¿": 5443,
      "åĲĥäºĽ": 5444,
      "ä¹Łè¦ģæ³¨æĦı": 5445,
      "é«ĺé¾Ħ": 5446,
      "é«ĺéĶ°": 5447,
      "å¾ĪçĹĽ": 5448,
      "å¾Īçĸ¼": 5449,
      "èº«ä¸Ĭ": 5450,
      "åĲĮäºĭ": 5451,
      "æŃ£åľ¨": 5452,
      "éħ¸ä¸Ńæ¯Ĵ": 5453,
      "é¢ĪåĬ¨èĦī": 5454,
      "åĪĩåĭ¿": 5455,
      "èĭ±": 5456,
      "åĩłä¸ª": 5457,
      "èĤīèĬ½": 5458,
      "åıĳçĶŁäºİ": 5459,
      "é¡½": 5460,
      "æħ¢æĢ§çĤİçĹĩ": 5461,
      "åįķä½į": 5462,
      "å¹¶ä¸ĶçķĻæĦı": 5463,
      "å¾ĹåĪ°èī¯å¥½çļĦæ²»çĸĹæķĪæŀľ": 5464,
      "ç±³æĿ¾": 5465,
      "çĭĹ": 5466,
      "èİ·å¾Ĺèī¯å¥½çļĦæ²»çĸĹæķĪæŀľ": 5467,
      "æ¨ª": 5468,
      "çº¢æĸĳçĭ¼çĸ®": 5469,
      "ä¸İæŃ¤åĲĮæĹ¶æĤ£èĢħè¿ĺè¦ģæ³¨æĦıéĢīæĭ©ä¸Ģå®¶": 5470,
      "èħ®èħº": 5471,
      "è¦Ĩ": 5472,
      "è¯¦ç»ĨçĹħæĥħåıĬåĴ¨è¯¢çĽ®çļĦ": 5473,
      "é«ĺéĶ°éħ¸éĴ¾": 5474,
      "%ï¼Į": 5475,
      "å³": 5476,
      "çļĦä¸Ńèį¯": 5477,
      "çļĦæĤ£çĹħæ¯Ķä¾ĭæĺ¯å¤ļå°ĳ": 5478,
      "ä»Ļ": 5479,
      "è¦ģæĢİä¹Īæ²»çĸĹ": 5480,
      "æĤ¸": 5481,
      "èĦĸ": 5482,
      "åľº": 5483,
      "è¡ĢæµĨ": 5484,
      "éĢ¸": 5485,
      "æĬ¬": 5486,
      "æĪĳèĩªå·±": 5487,
      "å¿ĥæĤ¸": 5488,
      "ä¸Ĭçģ«": 5489,
      "åıĬåħ¶": 5490,
      "æĪĸçĶ¨éĩı": 5491,
      "äººåıĤ": 5492,
      "é«ĺé¢ĳ": 5493,
      "çºł": 5494,
      "å¤´åıĳ": 5495,
      "èĤłç³»èĨľ": 5496,
      "è§£æĥĳ": 5497,
      "æĦŁæŁĵçļĦæİ¨èįĲèį¯æľīäºĽä»Ģä¹Ī": 5498,
      "èĤºç»ĵæł¸": 5499,
      "æ¯Ĵç´ł": 5500,
      "èº«ä½ĵæĥħåĨµ": 5501,
      "éĤ»": 5502,
      "åıĳçĹħæĹ¶éĹ´": 5503,
      "å¤ļåĲĥäºĽ": 5504,
      "ï¼īãĢģ": 5505,
      "åĪ©å°¿": 5506,
      "è¶ħå£°å¿ĥåĬ¨åĽ¾": 5507,
      "æµĭè¯ķ": 5508,
      "èĦ±åŀĤ": 5509,
      "éģ¿åŃķå¥Ĺ": 5510,
      "æĶ¾å°ĦæĢ§": 5511,
      "çĽĬçĶŁèıĮ": 5512,
      "ä¸ĢæĹ¦åıĳè§ī": 5513,
      "é£Łç®¡çĻĮ": 5514,
      "ä¸įåĲĮçļĦåĮħè£ħè§Ħæł¼": 5515,
      "æľīåħ³ç³»çļĦ": 5516,
      "çĶ¨æ³ķæĪĸçĶ¨éĩı": 5517,
      "åĸľæ¬¢": 5518,
      "é»Ħä½ĵéħ®": 5519,
      "çļĤèĭ·": 5520,
      "å§¿åĬ¿": 5521,
      "æľīä¸įåĲĮçļĦçĶ¨æ³ķæĪĸçĶ¨éĩı": 5522,
      "å¼¥æ¼«æĢ§": 5523,
      "æľ¬æĸĩåıªä¾ĽåıĤèĢĥ": 5524,
      "åĲĮç§įèį¯åĵģåı¯çĶ±äºİä¸įåĲĮçļĦåĮħè£ħè§Ħæł¼": 5525,
      "æħ¢æħ¢ä¼ļæĶ¹åĸĦçļĦ": 5526,
      "ç¦ģåĲĥè¾Ľè¾£éħĴ": 5527,
      "åĲĮç§įèį¯åĵģåı¯çĶ±äºİä¸įåĲĮçļĦåĮħè£ħè§Ħæł¼æľīä¸įåĲĮçļĦçĶ¨æ³ķæĪĸçĶ¨éĩı": 5528,
      "ä¸įä½ı": 5529,
      "åĴ¯": 5530,
      "åı¯ä»¥åĸĿ": 5531,
      "åľ¨å®¶": 5532,
      "æĪĳåľ¨": 5533,
      "è¿Ļä¸¤å¤©": 5534,
      "æĮĳ": 5535,
      "çĲĨä»Ģä¹Īçĸ¾çĹħ": 5536,
      "é¥¿": 5537,
      "å¦Ĥæŀľæ²¡": 5538,
      "è¾ĥé«ĺ": 5539,
      "éĥ½èĥ½": 5540,
      "å¤´é¢ħ": 5541,
      "æĬĹçĻ«çĹ«": 5542,
      "è¯¥å¦Ĥä½ķæ²»çĸĹ": 5543,
      "æĦŁæŁĵæĢ§": 5544,
      "åŃ¦ä¹ł": 5545,
      "çī¹æķĪ": 5546,
      "æĢ¥è¯Ĭ": 5547,
      "æĶ¾çĶµ": 5548,
      "éķľä¸ĭ": 5549,
      "ç¼ºå°ĳ": 5550,
      "æ¸ħæ·¡å®¹æĺĵæ¶ĪåĮĸçļĦé£Łçī©": 5551,
      "çĿ¡åįĪ": 5552,
      "éĽ¶": 5553,
      "æł¸æ¡ĥ": 5554,
      "å®ļæľŁå¤įè¯Ĭ": 5555,
      "èĳ±": 5556,
      "è¿Ļæł·æīįèĥ½å¾ĹåĪ°èī¯å¥½çļĦæ²»çĸĹæķĪæŀľ": 5557,
      "è°ĥèĬĤèº«å¿ĥåģ¥åº·": 5558,
      "çĺ¦èĤī": 5559,
      "æĪĳæĥ³éĹ®ä¸Ģä¸ĭ": 5560,
      "æ··åĲĪçĹĶ": 5561,
      "åŃ£èĬĤ": 5562,
      "ç©´ä½į": 5563,
      "å¤§å®¶éĥ½çŁ¥éģĵ": 5564,
      "èĥ½æ²»çĲĨä»Ģä¹Īçĸ¾çĹħ": 5565,
      "åĭ¤æį¢åĨħè£¤": 5566,
      "è¤Ĳèī²": 5567,
      "ç¾Ĭè§Ĵé£İ": 5568,
      "34": 5569,
      "çļĦå¹²æī°": 5570,
      "çļĦç»Ħç»ĩåŃ¦æ£ĢæŁ¥æľīäºĽä»Ģä¹Ī": 5571,
      "ä¸įå¤ļ": 5572,
      "ä¸įåĿļ": 5573,
      "å¯Ħ": 5574,
      "åįĴ": 5575,
      "çĻ£": 5576,
      "åľ¨æĹ©æľŁ": 5577,
      "ä½ĵä½į": 5578,
      "æĹ©æĻ¨": 5579,
      "èĦĳç§¯æ°´": 5580,
      "æµģé¼»æ¶ķ": 5581,
      "äº§åĵģ": 5582,
      "æł¹æį®èĩªèº«": 5583,
      "æ¯ĴæĢ§": 5584,
      "å½±åĵįäºĨ": 5585,
      "åĩłç§į": 5586,
      "é¡¾": 5587,
      "éĻįçĶŁ": 5588,
      "åºĶè¯¥æĢİä¹Īæ²»çĸĹ": 5589,
      "çķĻæĦıæŃĩæģ¯": 5590,
      "éĻ¤äºĨåıĬæĹ¶æ²»çĸĹ": 5591,
      "æ¿Ģç´łæ°´å¹³": 5592,
      "å¤ļåĸĿçĥŃæ°´": 5593,
      "çĶŁæ´»ä¸Ńè¦ģæ³¨æĦı": 5594,
      "çĦ¶åĲİåĨį": 5595,
      "æ»´çľ¼": 5596,
      "é¡»æ³¨æĦıçļĦäºĭé¡¹": 5597,
      "è¿Ļæł·æīįèĥ½èİ·å¾Ĺèī¯å¥½çļĦæ²»çĸĹæķĪæŀľ": 5598,
      "è¡£åİŁä½ĵ": 5599,
      "çĽ¸åħ³æ£ĢæŁ¥": 5600,
      "èĥĮéĥ¨": 5601,
      "æł¹æį®ä½łçļĦæııè¿°å±ŀäºİ": 5602,
      "ä¸įåı¯ä»¥åĲĥè¾Ľè¾£åĪºæ¿Ģ": 5603,
      "éľĢè¦ģæľīéķ¿æľŁçļĦèį¯çī©": 5604,
      "éª¨éª¼": 5605,
      "çİ»çĴĥä½ĵ": 5606,
      "ç²¥æł·ç¡¬åĮĸ": 5607,
      "çĿ¡åįĪè§ī": 5608,
      "32": 5609,
      "´çķĻ": 5610,
      "çļĦç»ĵæŀľ": 5611,
      "æĺ¯æľĢ": 5612,
      "è¦ģçľĭ": 5613,
      "å¥½è±¡": 5614,
      "å°±æ²¡": 5615,
      "è¿ĩäºĨ": 5616,
      "è¿ĺéľĢè¦ģæ³¨æĦı": 5617,
      "äººæ°ĳ": 5618,
      "å»ºè®®æĤ£èĢħåľ¨": 5619,
      "æľĪåŃĲ": 5620,
      "ç»ĵæīİ": 5621,
      "åİ»æ²»çĸĹ": 5622,
      "è´²": 5623,
      "æł·åŃĲ": 5624,
      "ç¼Ķ": 5625,
      "èĦĳèĨľ": 5626,
      "æīĢåĲ«": 5627,
      "è§ģäºİ": 5628,
      "äº§ç§ĳ": 5629,
      "ç«¹": 5630,
      "æŃ¤æĹ¶": 5631,
      "è¿Ľè¡Įç³»ç»Ł": 5632,
      "æ¯Ķè¾ĥå¥½çļĦ": 5633,
      "æľĪç»ıæľŁ": 5634,
      "ç»ĻçĤ¹": 5635,
      "è¿Ļç§įæĥħåĨµæĺ¯": 5636,
      "éļ¾ä»¥": 5637,
      "æĢ¥æĢ§æľŁ": 5638,
      "ç¬¬ä¸ī": 5639,
      "è®¤çŁ¥": 5640,
      "å¸ĮæľĽä¸Ĭè¿°çļĦçŃĶæ¡Īåı¯ä»¥å¸®åĬ©åĪ°ä½ł": 5641,
      "çº¦èİ«": 5642,
      "æ½´çķĻ": 5643,
      "æł¹æį®ä½łçļĦæĥħåĨµ": 5644,
      "çĶŁæ®ĸéģĵ": 5645,
      "é»ıè¿ŀ": 5646,
      "èĴ¸": 5647,
      "éļĲçĹĽ": 5648,
      "è¿ľç«¯": 5649,
      "çĽĳæĬ¤": 5650,
      "çĪ·çĪ·": 5651,
      "ä½łæīĢè¿°": 5652,
      "å¿ħè¦ģæĹ¶åı¯ä»¥å®ļæľŁå¤įè¯Ĭ": 5653,
      "éļĶä»£éģĹä¼ł": 5654,
      "åĿĩè¡¡èĲ¥åħ»å¤ļåĲĥæĸ°é²ľèĶ¬èıľæ°´æŀľ": 5655,
      "ä¸įåı¯ä»¥åĲĥè¾Ľè¾£åĪºæ¿ĢçĶŁåĨ·çļĦé£Łçī©": 5656,
      "HP": 5657,
      "çļĦèĲ¥åħ»": 5658,
      "åı°": 5659,
      "ãĢĤï¼Ī": 5660,
      "æĺ¯åĵªéĩĮ": 5661,
      "æľīäºĨ": 5662,
      "ä¸įæ¸ħæ¥ļ": 5663,
      "èĢĹ": 5664,
      "åı¯ä½¿": 5665,
      "çĶŁäº§": 5666,
      "åģ¿": 5667,
      "å·¾": 5668,
      "éģ¥": 5669,
      "å¿ĥåĮħ": 5670,
      "å¿ĥç»ŀçĹĽ": 5671,
      "å°±æĥ³": 5672,
      "æĦŁåĪ°": 5673,
      "åĪ°å½ĵåľ°": 5674,
      "å°¿å°¿": 5675,
      "è¡ĮäºĨ": 5676,
      "å°ĳé£Ł": 5677,
      "æ°Ķéģĵ": 5678,
      "è§ģæķĪ": 5679,
      "èıĮç´ł": 5680,
      "èĢĮä¸Ķå¿ħè¦ģæĹ¶åı¯ä»¥å®ļæľŁå¤įè¯Ĭ": 5681,
      "åŁŁ": 5682,
      "æĶ¾æĿ¾": 5683,
      "éĺ´éģĵçĤİçļĦ": 5684,
      "ä¼łå¯¼": 5685,
      "èĪĴéĢĤ": 5686,
      "å¦ĩç§ĳçĸ¾çĹħ": 5687,
      "ä¸įåĲĮç¨ĭåº¦": 5688,
      "çĶ¨èį¯æ²»çĸĹ": 5689,
      "åĽłæŃ¤è¦ģå°½å¿«": 5690,
      "æŃ£è§ĦçļĦ": 5691,
      "å¿Įå°±è¯Ĭ": 5692,
      "çĽ®åīįæ²»çĸĹ": 5693,
      "åĽºç²¾": 5694,
      "èĦĤèĤªçĺ¤": 5695,
      "å¹³æĹ¶æ³¨æĦıé¥®é£ŁçļĦè°ĥçĲĨ": 5696,
      "çĽ¸ä¿¡å¤§å®¶éĥ½çŁ¥éģĵ": 5697,
      "å°ĸçĵ£": 5698,
      "é¢Īæ¤İçĹħ": 5699,
      "ä¼łç»Łä¸Ńèį¯": 5700,
      "ä¸įå®ļæľŁå¤įæ£Ģ": 5701,
      "çīµå¼ķ": 5702,
      "ä¸įè¦ģéģ¿å¿Įå°±è¯Ĭ": 5703,
      "å¥¥ç¾İæĭīåĶĳ": 5704,
      "èį¯çĲĨä½ľçĶ¨": 5705,
      "çĶŁæ´»ä¸Ńè¦ģæ³¨æĦıé¥®é£ŁéĹ®é¢ĺ": 5706,
      "è´²éĹ¨": 5707,
      "åĽłæŃ¤è¦ģå°½å¿«æİ¥åıĹæ²»çĸĹ": 5708,
      "ä¸įæ´ģ": 5709,
      "å¼Ħ": 5710,
      "å¿ĺ": 5711,
      "åĴ¸": 5712,
      "ä¼ļéĺ´": 5713,
      "æĤ£èĢħçĹĩçĬ¶": 5714,
      "ä¸ĭèħ¹éĥ¨": 5715,
      "èºº": 5716,
      "å°¿åºĬ": 5717,
      "ç»ĵç¼Ķ": 5718,
      "å¼ķèĩ´": 5719,
      "éľĢè¦ģåģļ": 5720,
      "çĿĳ": 5721,
      "å¦Ĥæŀľæ²¡æľī": 5722,
      "è¿Ľå±ķ": 5723,
      "å¹¶ä¸įæĺ¯": 5724,
      "å°ĳå¹´": 5725,
      "åº¦çļĦ": 5726,
      "éĿ¢ç§¯": 5727,
      "æħ°": 5728,
      "å²ģçļĦ": 5729,
      "èħĶåĨħ": 5730,
      "å¹³æĹ¶éľĢè¦ģ": 5731,
      "ï¼ģï¼ģ": 5732,
      "éĤ£ç§į": 5733,
      "é¢Ħéĺ²åĴĮ": 5734,
      "éĴĪåĪº": 5735,
      "æĶ¹èī¯": 5736,
      "åĨ·æķ·": 5737,
      "æŃ£è§Ħæ²»çĸĹ": 5738,
      "æľīçĤ¹çĸ¼": 5739,
      "å¿ĥçĲĨåĽłç´ł": 5740,
      "èĥĨåĽĬçĤİ": 5741,
      "é¦Ļèķī": 5742,
      "èĩªå·±çļĦèº«ä½ĵ": 5743,
      "èĤ¾åĬŁèĥ½ä¸įåħ¨": 5744,
      "é£İæ¹¿æĢ§": 5745,
      "çļĦé¢Ħéĺ²æİªæĸ½æľīåĵªäºĽ": 5746,
      "ä»ĭåħ¥æ²»çĸĹ": 5747,
      "è¯Ńè¨Ģ": 5748,
      "æ»´èĻ«æĢ§": 5749,
      "è¸ıåħ¥": 5750,
      "ç»ĵç¼Ķç»Ħç»ĩ": 5751,
      "çļĦé£Łåĵģ": 5752,
      "äº¬": 5753,
      "çĤĴ": 5754,
      "å¼¯": 5755,
      "èĥ½æ´»å¤ļä¹ħ": 5756,
      "åİĨ": 5757,
      "åı¯ä»¥æ²»çĸĹ": 5758,
      "åı¯ä»¥éĩĩåıĸ": 5759,
      "ä¸Ĭä¸ªæľĪ": 5760,
      "æĺ¯ä»Ģä¹ĪæĦıæĢĿ": 5761,
      "èıĬ": 5762,
      "æĪĲéķ¿": 5763,
      "ä¹³æ±ģ": 5764,
      "ä¸¥éĩįæĤ£èĢħæĿ¥è¯´": 5765,
      "å°½åı¯èĥ½": 5766,
      "å¤±ç¦ģ": 5767,
      "è¿Ļæł·çļĦ": 5768,
      "æĳĶ": 5769,
      "åıĳçĥ§çļĦæĥħåĨµ": 5770,
      "æķ´ä½ĵ": 5771,
      "åĽ¾åĥı": 5772,
      "äºĶå¤©": 5773,
      "æ²ĻåĿ¦": 5774,
      "çĹħçĲĨæ£ĢæŁ¥": 5775,
      "èĴľ": 5776,
      "å¤ļç§įç»´çĶŁç´ł": 5777,
      "ç¡Ŀéħ¸": 5778,
      "ä¾Ŀæį®": 5779,
      "æĥ³éĹ®ä¸Ģä¸ĭ": 5780,
      "çļĦå¤ļåıĳç¾¤ä½ĵæĺ¯ä»Ģä¹Ī": 5781,
      "çŀ³": 5782,
      "èĿ¶": 5783,
      "ç¦ģå¿ĮçĹĩæĺ¯ä»Ģä¹Ī": 5784,
      "èĦĸåŃĲ": 5785,
      "å¯ĦçĶŁ": 5786,
      "ar": 5787,
      "çļĦçİ¯å¢ĥ": 5788,
      "æĢ§ä¸įåŃķ": 5789,
      "è¦ģåŃ©åŃĲ": 5790,
      "è¦ģæĢİä¹ĪåĬŀ": 5791,
      "æĿľ": 5792,
      "åĩºæ±Ĺ": 5793,
      "å¤§èħ¿": 5794,
      "éĿ©": 5795,
      "å¤įåıĳæĢ§": 5796,
      "å°ıé¼ł": 5797,
      "èĤ¿çī©": 5798,
      "æ³¨æĦıä»Ģä¹Ī": 5799,
      "åĸ¹": 5800,
      "èĩªåĬ¨": 5801,
      "éĥ½è¦ģ": 5802,
      "èĤ¾ç§¯æ°´": 5803,
      "æį®ä½łæīĢè¿°": 5804,
      "è¿Ľè¡ĮæĢ§": 5805,
      "ä»Ķç»Ĩæ£ĢæŁ¥åĩº": 5806,
      "æĢĢçĸĳ": 5807,
      "åº·å¤įè®Ńç»ĥ": 5808,
      "éĤ£ä¸ª": 5809,
      "ç»¼åĲĪè¯Ħä»·": 5810,
      "éģ¿åħįä¸įèī¯åĪºæ¿Ģ": 5811,
      "èĢ³å±İ": 5812,
      "èĥ¶è´¨": 5813,
      "æľºèĥ½": 5814,
      "èĩ³å°ĳ": 5815,
      "å¢ŀå¼ºèĲ¥åħ»": 5816,
      "éĿĴå¹´": 5817,
      "åĺ§": 5818,
      "éĺ´èĮİåĭĥèµ·": 5819,
      "é»ĳèī²": 5820,
      "é¸¡èĤī": 5821,
      "å¸ĥæ´ĽèĬ¬": 5822,
      "å¤ļåıĳç¾¤ä½ĵæĺ¯": 5823,
      "ç±»åŀĭçļĦ": 5824,
      "ä¿ĿæĮģå¿ĥæĥħæĦīå¿«": 5825,
      "çĽ´éĿ¢å®ĥ": 5826,
      "æ¸ħçĥŃè§£æ¯Ĵ": 5827,
      "æł¹æį®åĮ»çĶŁçļĦæĦıè§ģæĿ¥": 5828,
      "éª¨è´¨çĸıæĿ¾": 5829,
      "æ·Ģç²ī": 5830,
      "åħŃåĳ³åľ°é»Ħä¸¸": 5831,
      "75": 5832,
      "çļĦåħ³ç³»": 5833,
      "æĺ¯å®¹æĺĵ": 5834,
      "æľīæķĪæŀľ": 5835,
      "æľīåı¯èĥ½ä¼ļ": 5836,
      "å°ĺ": 5837,
      "åľĪ": 5838,
      "åı¯ä»¥ç»ĻåŃ©åŃĲ": 5839,
      "å¤§åĩºè¡Ģ": 5840,
      "ä¸ŃæľŁ": 5841,
      "ä¸ºå®ľ": 5842,
      "è¿ĩåĬ³": 5843,
      "å¤ĸåĩº": 5844,
      "åĪĨè£Ĥ": 5845,
      "æĹ©è¡°": 5846,
      "èį¯çī©çļĦ": 5847,
      "å¤´æĺı": 5848,
      "æ°ĶçŁŃ": 5849,
      "ä¹ĭåĵģ": 5850,
      "ä¸´åºĬçĹĩçĬ¶": 5851,
      "é¾Ī": 5852,
      "åħĪåħĨ": 5853,
      "çĽ¸åĲĮ": 5854,
      "äºĮçĶ²": 5855,
      "ï¼īï¼Ľ": 5856,
      "ä¸Ģä¸ªå¤ļæľĪ": 5857,
      "çŁŃæļĤ": 5858,
      "æī©å±ķ": 5859,
      "èĦ±èĲ½": 5860,
      "ä¸ĵä¸ļçļĦ": 5861,
      "æĻļä¸ĬçĿ¡è§ī": 5862,
      "åĨłèĦī": 5863,
      "åĨ³å®ļä¸Ģå®¶": 5864,
      "åĲ¬åĬĽ": 5865,
      "ç´§å¼łåĴĮ": 5866,
      "å¦Ĭå¨łæľŁ": 5867,
      "å°½éĩıéģ¿åħį": 5868,
      "åĩĿèĥ¶": 5869,
      "åŁºæľ¬ä¸Ĭ": 5870,
      "å¦ĩç§ĳçĸ¾çĹħçļĦåĩºçİ°ä¸įä»ħä»ħä¼ļå½±åĵį": 5871,
      "è¸Ŀ": 5872,
      "æĻĴå¤ªéĺ³": 5873,
      "æ³Įå°¿ç³»æĦŁæŁĵ": 5874,
      "çºµéļĶ": 5875,
      "çĶ¨ç§¯æŀģçļĦå¿ĥæĢģåİ»çĽ´éĿ¢å®ĥ": 5876,
      "èĶĵå»¶": 5877,
      "¯èĭĵ": 5878,
      "çļĦå¸®åĬ©": 5879,
      "çļĦç®Ģä»ĭæĺ¯": 5880,
      "æĺ¯å¾Ī": 5881,
      "èį¡": 5882,
      "æĹ¶çļĦ": 5883,
      "å¼Ľ": 5884,
      "åı¯ä»¥åİ»": 5885,
      "åı¯ä»¥æľįé£Ł": 5886,
      "éģĩ": 5887,
      "ç»ıéªĮ": 5888,
      "åĴĮåĮ»çĶŁ": 5889,
      "å°±å°ĦäºĨ": 5890,
      "èħºä½ĵ": 5891,
      "çĸ¼çļĦ": 5892,
      "èĤ¾çĻĮ": 5893,
      "æķĳæ²»çļĦ": 5894,
      "çĤ¹æ»´": 5895,
      "ç¡®å®ŀ": 5896,
      "æĹ¶éĹ´è¾ĥéķ¿": 5897,
      "æ¯Ķè¾ĥå¤ļ": 5898,
      "åīįåĪĹèħºçĻĮ": 5899,
      "åĩłä¸ªæľĪ": 5900,
      "çī¹å®ļ": 5901,
      "ä¸»è¦ģè¡¨çİ°ä¸º": 5902,
      "å¼ºçļĦ": 5903,
      "åŃĲå®«é¢Ī": 5904,
      "æĶ¾æŁĶ": 5905,
      "èĮ¯èĭĵ": 5906,
      "å·²æľī": 5907,
      "åħ¥è·¯": 5908,
      "å¤Ħäºİ": 5909,
      "çĶ¨èį¯æľŁéĹ´": 5910,
      "æīĵäºĨ": 5911,
      "å¹¶ä¸Ķè¦ģå§ĭç»Īä¿ĿæĮģ": 5912,
      "æįŁä¼¤çļĦæİ¨èįĲèį¯æľīäºĽä»Ģä¹Ī": 5913,
      "æ¤İç®¡": 5914,
      "æĪĳä»¬åºĶå½ĵ": 5915,
      "çĻ½å¸¦å¸¸è§Ħ": 5916,
      "é¡¹çĽ®": 5917,
      "å¿ĥèĤĮçĹħ": 5918,
      "æĥħç»ªç¨³å®ļ": 5919,
      "èĴĤ": 5920,
      "é¢Ŀå¤ĸ": 5921,
      "èĥ½æ²»å¥½åĲĹ": 5922,
      "èĩªèº«é¥®é£ŁæĬ¤çĲĨ": 5923,
      "åıĹç²¾åįµ": 5924,
      "æ»´çľ¼æ¶²": 5925,
      "ä¸įå®¹æĺĵ": 5926,
      "ä¸įç¨³å®ļ": 5927,
      "çĹħäºĨ": 5928,
      "ï¼ŁâĢĿ": 5929,
      "åıĳé«ĺçĥ§": 5930,
      "åĩ¹": 5931,
      "å¥½å¤ļ": 5932,
      "å¥½åĳ¢": 5933,
      "ä¼ļå¾Ĺ": 5934,
      "åĨħå®¹": 5935,
      "å¤ĸä¾§": 5936,
      "æĪĸæľī": 5937,
      "é«ĺåº¦": 5938,
      "å¾Īéĩįè¦ģ": 5939,
      "èµ¶": 5940,
      "ç»ĵæĿŁ": 5941,
      "éĹ´æŃĩ": 5942,
      "åİ»ä»Ķç»Ĩæ£ĢæŁ¥": 5943,
      "æ³¨æĦıåĬĽ": 5944,
      "æ³¨æĦıäºĭé¡¹": 5945,
      "è¡ĮæĢ§": 5946,
      "ä¸ĢèĪ¬æĥħåĨµ": 5947,
      "åĬłåī§": 5948,
      "åĪºçĹĽ": 5949,
      "ä¹ĭåĨħ": 5950,
      "æ¯Ķè¾ĥå°ı": 5951,
      "ä»Ķç»Ĩæ£ĢæŁ¥è¯ĬæĸŃ": 5952,
      "éĢĤçĶ¨äºİ": 5953,
      "èĥ¸çīĩ": 5954,
      "åĨ·åĨ»": 5955,
      "æľīçĤ¹çĹĽ": 5956,
      "åĳ¼åĲ¸ç³»ç»Ł": 5957,
      "æĲº": 5958,
      "å§ĭç»Īä¿ĿæĮģå¤ĸéĺ´æ¸ħæ´ģ": 5959,
      "éĿĴæĺ¥": 5960,
      "å°±åı¯ä»¥çļĦ": 5961,
      "éĴĪå¯¹æĢ§çļĦ": 5962,
      "æµ·é²ľ": 5963,
      "æł¹æį®ä½łè¯´": 5964,
      "ç¼ºè¡ĢæĢ§": 5965,
      "ä¸ĵå®¶å»ºè®®": 5966,
      "å®«èħĶéķľ": 5967,
      "å¤ļåĲĥæ¸ħæ·¡çļĦé£Łçī©": 5968,
      "å°ļæľª": 5969,
      "MRIæ£ĢæŁ¥": 5970,
      "è´¥è¡ĢçĹĩ": 5971,
      "æ³¼å°¼": 5972,
      "è¯ķç®¡å©´åĦ¿": 5973,
      "åįĴä¸Ń": 5974,
      "å»ºè®®æĤ£èĢħåľ¨æĹ¥å¸¸çĶŁæ´»ä¸Ń": 5975,
      "65": 5976,
      "HB": 5977,
      "ï¼į": 5978,
      "ä¸įåĩº": 5979,
      "ä¸įå®ī": 5980,
      "ä»¥ä¾¿": 5981,
      "æĹ¶å¸¸": 5982,
      "åıĳé»Ħ": 5983,
      "æ£ĺ": 5984,
      "åľ¨æĹ¥å¸¸çĶŁæ´»ä¸Ń": 5985,
      "çĺ«çĹ": 5986,
      "å°ıä¸īéĺ³": 5987,
      "æĿ¥äºĨ": 5988,
      "è¿ĩé«ĺ": 5989,
      "èħºçĻĮ": 5990,
      "éĹ´éļĻ": 5991,
      "åĪĨåĮĸ": 5992,
      "èĦĳçĤİ": 5993,
      "çĹħæĥħå°½å¿«": 5994,
      "äº§å¦ĩ": 5995,
      "ä¾¿è¡Ģ": 5996,
      "ç»ĨèĥŀçĻĮ": 5997,
      "èĤĮæĹłåĬĽ": 5998,
      "åĩłä¹İ": 5999,
      "å¹³æĹ¶è¦ģ": 6000,
      "ç±»çļĦèį¯çī©": 6001,
      "è¾Ľè¾£é£Łçī©": 6002,
      "æħ¢æĢ§åīįåĪĹèħºçĤİ": 6003,
      "å¹¶ä¸ĶåĲĪçĲĨé¥®é£Ł": 6004,
      "æĸ¹éĿ¢çļĦ": 6005,
      "ä¹Ļéħ°": 6006,
      "CTæī«æıı": 6007,
      "çļĦåıĳçĹħåİŁåĽł": 6008,
      "ç»Ŀå¯¹": 6009,
      "ç¨³å®ļçļĦ": 6010,
      "èĬ±çĶŁ": 6011,
      "èĨĢèĥ±çĤİ": 6012,
      "å¼ķæµģæľ¯": 6013,
      "æĹłçĹĽäººæµģ": 6014,
      "çĸ¾æĤ£": 6015,
      "çĸ¤çĹķ": 6016,
      "åĤ¬": 6017,
      "åµĮ": 6018,
      "çºłæŃ£": 6019,
      "æĮĳé£Ł": 6020,
      "çĺ«çĹª": 6021,
      "èł": 6022,
      "ä¸įæŃ¢": 6023,
      "è¦ģæ±Ĥ": 6024,
      "æĸ¤": 6025,
      "åľ¨å½ĵåľ°": 6026,
      "è¿ĻéĩĮ": 6027,
      "ä¸ŃæĻļæľŁ": 6028,
      "å°ıèĦĳ": 6029,
      "ç²®": 6030,
      "é«ĺèĦĤ": 6031,
      "åİ»éĻ¤": 6032,
      "åŃķéħ®": 6033,
      "éĩıå°ĳ": 6034,
      "éĥ½å¾Ī": 6035,
      "æķĳæ²»åĲİ": 6036,
      "éĿ¢èī²": 6037,
      "èĭį": 6038,
      "èº«ä½ĵçĬ¶åĨµ": 6039,
      "ç¥ŀç»ıæįŁä¼¤": 6040,
      "ç»Ļä»ĸ": 6041,
      "æ»¤": 6042,
      "ä¸ĢçĽ´æ²¡æľī": 6043,
      "å¤ļåĲĥæ°´æŀľ": 6044,
      "ç¡¬åº¦": 6045,
      "çĿ¡åīį": 6046,
      "åĲĲå¥¶": 6047,
      "éĵĤ": 6048,
      "æ»´æ³¨": 6049,
      "çīĻé½¿": 6050,
      "æĥħç»ªæ¿ĢåĬ¨": 6051,
      "æł¹æį®ä½łæīĢ": 6052,
      "å½¢æĪĲçļĦ": 6053,
      "åĮ»çĶŁè¯´æĪĳ": 6054,
      "ä»·æł¼": 6055,
      "åıªæľīè¿Ļæł·æīįèĥ½éĻįä½İ": 6056,
      "åħ»æĪĲèī¯å¥½çļĦçĶŁæ´»ä¹łæĥ¯": 6057,
      "æ¯Ľç»Ĩè¡Ģç®¡": 6058,
      "é¡½åĽº": 6059,
      "is": 6060,
      "kg": 6061,
      "âĦ": 6062,
      "çĹ´": 6063,
      "ä¼ļæĺ¯": 6064,
      "å¤§åŃ¦": 6065,
      "ä¸ĭçļĦ": 6066,
      "è¿ĩå¤§": 6067,
      "çŃīçĸ¾çĹħ": 6068,
      "æĤ¨çļĦæĥħåĨµ": 6069,
      "åŃ©åŃĲå¦Ĥæŀľ": 6070,
      "èĬ¦": 6071,
      "æĮģç»§": 6072,
      "åĮ»çĶŁä¼ļ": 6073,
      "ä¸įè¦ģéĶĻ": 6074,
      "æĮĩçĶ²": 6075,
      "ç³»åĪĹ": 6076,
      "æº´": 6077,
      "ä¸įåĲĮçĹħåĽł": 6078,
      "æĺ¯åı¯ä»¥åº·å¤įçļĦ": 6079,
      "æľīçĤ¹åıĳçĥ§": 6080,
      "éķ¿æľŁçļĦ": 6081,
      "ç³ĸå°¿çĹħçļĦ": 6082,
      "æ²»çĸĹçļĦå¥½": 6083,
      "éĿĴå°ĳå¹´": 6084,
      "éģ¿åŃķæİªæĸ½": 6085,
      "å¤ļåıĳåľ°åĮº": 6086,
      "å½»åºķæģ¢å¤įå¼ķåıĳ": 6087,
      "åĪ°æŃ£è§Ħä¸īçĶ²åĮ»éĻ¢": 6088,
      "äººå·¥æµģäº§": 6089,
      "èĥ°èħºçĻĮ": 6090,
      "éĹ¹èĤļåŃĲ": 6091,
      "æĬĳéĥģçĹĩ": 6092,
      "æĤ£èĢħåľ¨çĶŁæ´»ä¸Ńè¿ĺéľĢè¦ģæ³¨æĦı": 6093,
      "åĳĬè¯īæĪĳ": 6094,
      "âĦĥ": 6095,
      "å¤ļåıĳåľ°åĮºæĺ¯åĵªéĩĮ": 6096,
      "æľīå¿ħè¦ģ": 6097,
      "ä¸įä½³": 6098,
      "è¦ģæĢİä¹Ī": 6099,
      "èĩĢ": 6100,
      "ä½ĵç§¯": 6101,
      "å·§": 6102,
      "ä¸ŃéĹ´": 6103,
      "å¯¹çĸ¾çĹħçļĦ": 6104,
      "ä¸Ĭèħ¹éĥ¨": 6105,
      "åĲĥå®Į": 6106,
      "è¿ĩæĿ¥": 6107,
      "å»ºè®®æľĢå¥½": 6108,
      "åĪĨç±»": 6109,
      "åĪĨæķ£": 6110,
      "çļ®çĤİ": 6111,
      "èĤĿè¡Ģç®¡çĺ¤": 6112,
      "æĹłæĺİæĺ¾": 6113,
      "å±ĳ": 6114,
      "çľĭè§ģ": 6115,
      "ä¸ĢèĪ¬éľĢè¦ģ": 6116,
      "åĽĬæĢ§": 6117,
      "æīĢæľī": 6118,
      "æĹ¶éĹ´éķ¿": 6119,
      "è¿Ľè¡Įæ²»çĸĹçļĦ": 6120,
      "å¸¦æĿ¥": 6121,
      "åĸĿäºĨ": 6122,
      "åİ»åĮ»éĻ¢è¿Ľè¡Į": 6123,
      "çº¢çĤ¹": 6124,
      "çĤİçĹĩçļĦ": 6125,
      "åıĳçĹħæľºåĪ¶": 6126,
      "ä¸ĢçĽ´è§īå¾Ĺ": 6127,
      "è¾ĵåįµç®¡éĢłå½±": 6128,
      "éĥ¨ä½įçļĦ": 6129,
      "åħĭæĭī": 6130,
      "æ²»çĸĹçļĦåĲĮæĹ¶": 6131,
      "éĩĳçīĩ": 6132,
      "éĩĳå±ŀ": 6133,
      "åĪĽéĿ¢": 6134,
      "å®ľæ¸ħæ·¡": 6135,
      "çļĦæ²»çĸĹæĸ¹æ³ķæľīè®¸å¤ļ": 6136,
      "æľīçļĦè¯´æĺ¯": 6137,
      "éķĩéĿĻ": 6138,
      "èĳ¡èĲĦçĲĥèıĮ": 6139,
      "èĢĲåıĹ": 6140,
      "æ¨¡ç³Ĭ": 6141,
      "æ¯«åįĩ": 6142,
      "åĲĮæĹ¶å¤ļéĩįè§Ĩ": 6143,
      "ç¤¾ä¼ļ": 6144,
      "åĵªå®¶åĮ»éĻ¢": 6145,
      "å¼¹æĢ§": 6146,
      "æĢ§æĹ©çĨŁ": 6147,
      "å¿ĥåĬ¨è¿ĩéĢŁ": 6148,
      "¹æŀľ": 6149,
      "Î±": 6150,
      "Ġ5": 6151,
      "įéģ¥": 6152,
      "ä¸ĸ": 6153,
      "åı®": 6154,
      "çĹ¢": 6155,
      "æĺ¯ä¸Ģ": 6156,
      "æĺ¯æ²¡": 6157,
      "æľīçĹ°": 6158,
      "èĤĺ": 6159,
      "ä¸įçĦ¶": 6160,
      "åħ¼": 6161,
      "åĨľ": 6162,
      "æĥ§": 6163,
      "èį¯æ²»çĸĹ": 6164,
      "éĢįéģ¥": 6165,
      "æĤ£èĢħæĢ§åĪ«": 6166,
      "å¤§åĲĹ": 6167,
      "å¯¹æĬĹ": 6168,
      "ä¸Ĭç¿»": 6169,
      "åĪ°ä½ł": 6170,
      "æľįåĬ¡": 6171,
      "éķ¿çļĦ": 6172,
      "èĤĿç§»æ¤į": 6173,
      "èĦĳç»Ĩèĥŀ": 6174,
      "å¹¶æ²¡æľī": 6175,
      "ä¸ĢèĪ¬ä¸į": 6176,
      "å½ĵå½Ĵ": 6177,
      "æĬĹåĩĿ": 6178,
      "åĬŁèĥ½çļĦ": 6179,
      "äº§æ£Ģ": 6180,
      "æĥ³åĲĲ": 6181,
      "è¶ħè¶Ĭ": 6182,
      "èĭ¹æŀľ": 6183,
      "é»ĦèĬª": 6184,
      "èĢĮä¸Ķä¹Łä¸į": 6185,
      "å¹³æĹ¶è¦ģæ³¨æĦı": 6186,
      "åķī": 6187,
      "é¼»åŃĲ": 6188,
      "èĤĽåĳ¨": 6189,
      "æł¸ç£ģåħ±æĮ¯": 6190,
      "åĬ³éĢ¸": 6191,
      "æĲŀ": 6192,
      "çĵ¶": 6193,
      "è¡¥åħħèº«ä½ĵèĲ¥åħ»": 6194,
      "æĸĳåĿĹ": 6195,
      "è±ĨåĪ¶åĵģ": 6196,
      "æľªè§ģ": 6197,
      "èĲİç¼©æĢ§èĥĥçĤİ": 6198,
      "çĶĺæ²¹": 6199,
      "çľ¼çĿĳ": 6200,
      "è§ĦèĮĥçļĦæ£ĢæŁ¥": 6201,
      "åĿłèĥĢ": 6202,
      "ç¢³éħ¸": 6203,
      "æĤ£èĢħæľĭåıĭçĲĨåºĶå§ĭç»Īä¿ĿæĮģ": 6204,
      "ä¸Ńè¥¿åĮ»ç»ĵåĲĪ": 6205,
      "å¤ļåĬ¨çĹĩ": 6206,
      "çļĦåĮ»æ²»æĸ¹æ³ķä¹Łå°±ä¸įä¸Ģæł·": 6207,
      "%ãĢĤ": 6208,
      "åĲĵ": 6209,
      "ä¸įè§Ħå¾ĭ": 6210,
      "å¿½": 6211,
      "éĩİ": 6212,
      "èĥ½éĩı": 6213,
      "è¡Ģçº¢": 6214,
      "è¿Ļæ¬¡": 6215,
      "æĤ£èĢħçĽ´éĿ¢": 6216,
      "å¯¹åŃ©åŃĲ": 6217,
      "ä¸ªå°ıæĹ¶": 6218,
      "ç³Ļ": 6219,
      "èĢĮå¯¼èĩ´": 6220,
      "è¿Ľåİ»": 6221,
      "è¾ĥå¥½çļĦ": 6222,
      "åı¯èĥ½ä¸İ": 6223,
      "èĥĥåı£": 6224,
      "ä¸įè¦ģå¤ª": 6225,
      "å¼Ģèħ¹": 6226,
      "çªĴ": 6227,
      "éĢĤåºĶ": 6228,
      "åĽŀå®¶": 6229,
      "æľ¬çĹħçļĦ": 6230,
      "ä¸»è¦ģè¿ĺæĺ¯": 6231,
      "è¾Ľè¾£åĪºæ¿ĢæĢ§é£Łçī©": 6232,
      "æĻļé¥Ń": 6233,
      "æĹ©æ³ĦçļĦ": 6234,
      "å®ŀæĸ½ä»Ķç»Ĩæ£ĢæŁ¥": 6235,
      "ç¥Ŀåģ¥åº·": 6236,
      "ç»´çĶŁç´łD": 6237,
      "èĥĢæ°Ķ": 6238,
      "æ¢Ĺå¡ŀ": 6239,
      "åįµå·¢æĹ©è¡°": 6240,
      "çªģåıĺ": 6241,
      "çļĦåİŁåĽłå¾Īå¤ļ": 6242,
      "èĦ±æ°´": 6243,
      "åĿĩåĮĢ": 6244,
      "ä¸»è¦ģæĺ¯çĶ±äºİ": 6245,
      "éĺ´èĮİå¤´": 6246,
      "è¿Ļæł·æīįèĥ½å¯¹çĹĩæ²»çĸĹ": 6247,
      "è¾¹ç¼ĺ": 6248,
      "èİ·å¾Ĺåº·å¤į": 6249,
      "ä¸ĻèĤĿ": 6250,
      "åıªè¦ģåľ¨æĹ©æľŁ": 6251,
      "æĳĦæ°ı": 6252,
      "çĥ¦èºģ": 6253,
      "è®¡ç®Ĺ": 6254,
      "æĤ£èĢħéľĢè¦ģæł¹æį®èĩªèº«": 6255,
      "åĲĮæĹ¶å¤ļçľĭéĩį": 6256,
      "å°¿ä¸įå°½": 6257,
      "è®°å¿ĨåĬĽ": 6258,
      "é»ĳèī²ç´łçĺ¤": 6259,
      "è¿Ľè¡Įç³»ç»Łè§ĦèĮĥçļĦæ£ĢæŁ¥": 6260,
      "çĹħæĥħå°½å¿«åĪ°æŃ£è§Ħä¸īçĶ²åĮ»éĻ¢": 6261,
      "èłķ": 6262,
      "æĤ£èĢħéľĢè¦ģæł¹æį®èĩªèº«çĹħæĥħå°½å¿«åĪ°æŃ£è§Ħä¸īçĶ²åĮ»éĻ¢": 6263,
      "æĤ£èĢħéľĢè¦ģæł¹æį®èĩªèº«çĹħæĥħå°½å¿«åĪ°æŃ£è§Ħä¸īçĶ²åĮ»éĻ¢è¿Ľè¡Įç³»ç»Łè§ĦèĮĥçļĦæ£ĢæŁ¥": 6264,
      "31": 6265,
      "çļĦæĬĹçĶŁç´ł": 6266,
      "åĲĬ": 6267,
      "æĺ¯ä¸ª": 6268,
      "æľīèĬĤ": 6269,
      "è¦ģç§¯æŀģ": 6270,
      "å¤ļåľ¨": 6271,
      "å¤ļåĴ¨è¯¢": 6272,
      "ä¸ĬèĤ¢": 6273,
      "ä¸Ĭåĳ¼åĲ¸éģĵæĦŁæŁĵ": 6274,
      "å°±èĥ½": 6275,
      "ç²ĳ": 6276,
      "åĲĪçĶ¨": 6277,
      "çĹĩçĬ¶æĺ¯ä»Ģä¹Ī": 6278,
      "é«ĺäºİ": 6279,
      "é¥®æĸĻ": 6280,
      "é¥®é£Łä»¥æ¸ħæ·¡ä¸ºä¸»": 6281,
      "æ·»": 6282,
      "èĤłèĥĥçĤİ": 6283,
      "æ¶ĪèĤ¿": 6284,
      "æį®è¯´": 6285,
      "ä¸įè¦ģæľī": 6286,
      "çĶ·å®Ŀ": 6287,
      "æĮĩæķ°": 6288,
      "å¼Ģé¢ħ": 6289,
      "ä¿ĿæĮģæ²ŁéĢļ": 6290,
      "åŀĭç³ĸå°¿çĹħ": 6291,
      "éľĢè¦ģæľīåıĬæĹ¶": 6292,
      "éĹ®é¢ĺè¡¥åħħ": 6293,
      "éĨĽ": 6294,
      "çļ®èĤ¤æ¸ħæ´ģ": 6295,
      "éĢĤå½ĵè¿ĲåĬ¨": 6296,
      "å¾ĹåĪ°ä¸ĵä¸ļæ²»çĸĹ": 6297,
      "è¡¥åħħå¤ļç§įç»´çĶŁç´ł": 6298,
      "æĶ¯æ°Ķç®¡æī©å¼ł": 6299,
      "äº§çĶŁçļĦ": 6300,
      "å¤ĸä¼¤æĢ§": 6301,
      "èħ¹èħĶéķľæīĭæľ¯": 6302,
      "æ²¹èħ»é£Łçī©": 6303,
      "å°±åĮ»è¯Ĭæ²»": 6304,
      "ç»¿è±Ĩ": 6305,
      "å°±è¦ģåıĬæĹ¶å°±åĮ»è¯Ĭæ²»": 6306,
      "å¾Īéļ¾åıĹ": 6307,
      "ä¸°å¯ĮçļĦ": 6308,
      "æĤ£èĢħéľĢè¦ģå¤ļåĴ¨è¯¢": 6309,
      "ä¹ħåĿĲä¹ħ": 6310,
      "åįłä½į": 6311,
      "èĤ¡éª¨å¤´": 6312,
      "çĹħæĥħä¸¥éĩįå°±è¦ģ": 6313,
      "ä¸ĢæĹ¦åıĳçİ°èĩªèº«çļĦçĹĩçĬ¶": 6314,
      "æĤ£èĢħèĥ½å¾ĹåĪ°ä¸ĵä¸ļæ²»çĸĹ": 6315,
      "éĢĶå¾Ħ": 6316,
      "æī¶æŃ£": 6317,
      "æĻ¨åĭĥäºĨ": 6318,
      "äººæ°ĳåĮ»éĻ¢": 6319,
      "åĴĮåĮ»çĶŁä¿ĿæĮģæ²ŁéĢļ": 6320,
      "çªĴæģ¯": 6321,
      "æĤ£èĢħéľĢè¦ģå¤ļåĴ¨è¯¢ä¸ĵå®¶å»ºè®®": 6322,
      "çļ±": 6323,
      "çļĦéĥ¨ä½į": 6324,
      "æľīåĲ¦": 6325,
      "ä¸įåĪ©": 6326,
      "çĶŁåŃ©åŃĲ": 6327,
      "ä¼ļå¼ķæĿ¥": 6328,
      "çĽĽ": 6329,
      "æĤ£èĢħåı¯ä»¥çĶ¨": 6330,
      "ä½łè¯´çļĦ": 6331,
      "ä¸ªæĺŁæľŁ": 6332,
      "æ´ĭ": 6333,
      "åīįå¤©": 6334,
      "å°ıå¿ĥ": 6335,
      "åĨħæľī": 6336,
      "çĥ¯": 6337,
      "å¤ĸçķĮ": 6338,
      "èº¯": 6339,
      "æĹ©åıĳçİ°": 6340,
      "é¥®é£Łè¦ģ": 6341,
      "èµ·äºĽ": 6342,
      "æĪĲä¸º": 6343,
      "åİŁåıĳçĹħ": 6344,
      "èħ¹èĨľçĤİ": 6345,
      "åĢ¦": 6346,
      "èĨľç©¿åŃĶ": 6347,
      "åħ»è¡Ģ": 6348,
      "åŀ«": 6349,
      "å¥³äºº": 6350,
      "ä¸įè¦ģçĽ²çĽ®": 6351,
      "æ¡ĳ": 6352,
      "ä½Ĩæĺ¯æľĢè¿ĳ": 6353,
      "åķ¼": 6354,
      "ä¸¸è°ĥçĲĨ": 6355,
      "çº¢ç³ĸ": 6356,
      "ç¡¬èĨľ": 6357,
      "æĳĨ": 6358,
      "ç¼ĵè§£çĹħæĥħ": 6359,
      "è¾ĵåįµç®¡ä¸įéĢļ": 6360,
      "å®ĮæĪĲ": 6361,
      "äº¤æµģ": 6362,
      "æĤ£èĢħçļĦæĹ¥å¸¸": 6363,
      "æ²»çĸĹçļĦæĸ¹æ³ķ": 6364,
      "ä»¥ä¸ĬçļĦ": 6365,
      "æ²¹çĤ¸": 6366,
      "çŁŃæľŁ": 6367,
      "åĪļåĪļ": 6368,
      "æ³¡æ¾¡": 6369,
      "å¹²æī°ç´ł": 6370,
      "æ¸ħæ´ģåį«çĶŁ": 6371,
      "å¿ĥèĤĮç¼ºè¡Ģ": 6372,
      "åĸĤå¥¶": 6373,
      "æľ¬äººæľĢè¿ĳä¸įçŁ¥éģĵæĢİä¹ĪåĽŀäºĭ": 6374,
      "åįķçº¯æĢ§": 6375,
      "åıĬæĹ¶æķĳæ²»æĺ¯åı¯ä»¥åĩıä½İçĹħåıĳ": 6376,
      "è¿ľç¦»": 6377,
      "æµĵèĮ¶": 6378,
      "é¡ºäº§": 6379,
      "é¡ºåĪ©": 6380,
      "ä¸ĭä½ĵçī¹åĪ«ä¸įèĪĴæľį": 6381,
      "æĪĴçĥŁéħĴ": 6382,
      "ä»¤å¾Ĺ": 6383,
      "éħ°èĥº": 6384,
      "åıĶåıĶ": 6385,
      "åį§åºĬä¼ĳæģ¯": 6386,
      "æĹ©äº§åĦ¿": 6387,
      "éĿ¶åĲĳ": 6388,
      "ç¼ĵéĩĬçīĩ": 6389,
      "éģŃåĪ°": 6390,
      "èĤīèĬ½èĤ¿": 6391,
      "çĹ´åĳĨ": 6392,
      "èĢĮä¸Ķä¹Łä¸įæĻ¨åĭĥäºĨ": 6393,
      "è¡Ģçº¢èĽĭçĻ½": 6394,
      "æľ¬äººæľĢè¿ĳä¸įçŁ¥éģĵæĢİä¹ĪåĽŀäºĭä¸ĭä½ĵçī¹åĪ«ä¸įèĪĴæľį": 6395,
      "©å®¤": 6396,
      "æľīå®³": 6397,
      "çĹħçļĦæİ¨èįĲèį¯æľīäºĽä»Ģä¹Ī": 6398,
      "ä»Ģä¹Īèį¯": 6399,
      "è¿ĩé¥¥": 6400,
      "æľĢå¸¸è§ģ": 6401,
      "çļ®æįŁ": 6402,
      "èĦĳèĦĬ": 6403,
      "éĥ½æ²¡æľī": 6404,
      "æ°Ķä½ĵ": 6405,
      "å¡ŀç±³æĿ¾": 6406,
      "çľ¼ç§ĳ": 6407,
      "çİĩé«ĺ": 6408,
      "å¤ªå¤ļ": 6409,
      "å¥³æĢ§æĤ£èĢħåı¯ä»¥å°½å¿«åº·å¤į": 6410,
      "å±Ģéĥ¨åį«çĶŁ": 6411,
      "çĶµèĦĳ": 6412,
      "éº»çĸ¹": 6413,
      "åģľç»ı": 6414,
      "éĻĦè¿ĳ": 6415,
      "ç¦»å©ļ": 6416,
      "åĲĥä»Ģä¹Īå¥½": 6417,
      "å·®å¼Ĥ": 6418,
      "æĽ¾ç»ıæ²»çĸĹ": 6419,
      "è®¤ä¸ºèĩªå·±æĺ¯åı¯ä»¥æĪĺèĥľçĹħéŃĶçļĦ": 6420,
      "èĪĮå¤´": 6421,
      "èĢĲèį¯": 6422,
      "æĤ£èĢħè¦ģè®¤ä¸ºèĩªå·±æĺ¯åı¯ä»¥æĪĺèĥľçĹħéŃĶçļĦ": 6423,
      "æĨ©å®¤": 6424,
      "èĳ¡èĲĦç³ĸéħ¸": 6425,
      "åľĨå½¢": 6426,
      "æĭĨçº¿": 6427,
      "æĪ·å¤ĸ": 6428,
      "éľĢè¦ģæľīéķ¿æľŁçļĦèį¯çī©ä¿ĿæĮģ": 6429,
      "ä¸įè¦ģéĶĻè¿ĩ": 6430,
      "PD": 6431,
      "çļĦæŃ£å¸¸": 6432,
      "çĹĤ": 6433,
      "åĲī": 6434,
      "æĺ¯è¦ģ": 6435,
      "èĤ¯": 6436,
      "åħĶ": 6437,
      "èħķ": 6438,
      "è¡Ģåŀĭ": 6439,
      "è¡Ģä¸Ŀ": 6440,
      "æĪĳå¾Ī": 6441,
      "è¿Ļä¸Ģ": 6442,
      "è¿ĩéĩı": 6443,
      "è¿ĩæĢ§çĶŁæ´»": 6444,
      "çĥ¤": 6445,
      "æĹ©æ²»çĸĹ": 6446,
      "æľĢå¤§": 6447,
      "èĤĿèĤ¾": 6448,
      "èĦĳç»Ħç»ĩ": 6449,
      "çĹħæĥħæııè¿°": 6450,
      "ä½İè¡Ģç³ĸ": 6451,
      "å£³": 6452,
      "çĻ«çĹ«çĹħäºº": 6453,
      "éĶĲ": 6454,
      "åĲĮæĹ¶çľĭéĩį": 6455,
      "å¥½çļĦå¿ĥæĥħ": 6456,
      "æħ¢æĢ§èĥĥçĤİ": 6457,
      "æģ¢å¤įçļĦ": 6458,
      "æĪ¿é¢¤": 6459,
      "éĿĻèĦīçĤİ": 6460,
      "ä¸įåĲĮçļĦçĹĩçĬ¶": 6461,
      "å¿Įé£Ł": 6462,
      "âĢĿãĢĤ": 6463,
      "éļıæĦı": 6464,
      "è¡Ģæ¶²éĢıæŀĲ": 6465,
      "åĩºæĿ¥çļĦ": 6466,
      "è¿ĩæķıèĢħ": 6467,
      "åĲ¬è¯´": 6468,
      "æĴķ": 6469,
      "å¦Ĥæŀľä¸įåıĬæĹ¶æķĳæ²»": 6470,
      "è¯±å¯¼": 6471,
      "å°±è¦ģåıĬæĹ¶å°±è¯Ĭ": 6472,
      "çĽ´éĿ¢çĸ¾çĹħ": 6473,
      "éľĩèį¡": 6474,
      "ä¸ĺçĸ¹": 6475,
      "æģĲæĥ§": 6476,
      "æĲºå¸¦": 6477,
      "åĬ³éĢ¸ç»ĵåĲĪ": 6478,
      "IC": 6479,
      "çļĦåĨįæ¬¡åıĳçĶŁ": 6480,
      "çļĦçŃĽæŁ¥æľīäºĽä»Ģä¹Ī": 6481,
      "ãĢĳ": 6482,
      "æĺ¯å¾ĹäºĨ": 6483,
      "çĶŁæĪĲ": 6484,
      "å¤ļå·´": 6485,
      "èħĵ": 6486,
      "è¾Ĳ": 6487,
      "åı¯ä»¥åºĶçĶ¨": 6488,
      "åĲİå¤©": 6489,
      "æĪĳåĦ¿åŃĲ": 6490,
      "ç´łè´¨": 6491,
      "æĪĸåħ¶ä»ĸ": 6492,
      "è¿ĺéľĢè¦ģ": 6493,
      "æľĢç»Ī": 6494,
      "è½®": 6495,
      "èĦĳä¸Ńé£İ": 6496,
      "çĻ½çļĦ": 6497,
      "ä½įäºİ": 6498,
      "çļĦæ²»çĸĹåĴĮé¢Ħéĺ²": 6499,
      "ä¸įè¦ģé£ŁçĶ¨": 6500,
      "çĶ·æĸ¹": 6501,
      "åİŁåĽłå¼ķèµ·çļĦ": 6502,
      "èº«ä½ĵæĹ©æĹ¥æģ¢å¤įåģ¥åº·": 6503,
      "åīįåĪĹèħºéĴĻåĮĸ": 6504,
      "ç¥ŀç»ıæĢ§": 6505,
      "çĸ¼çĹĽæĦŁ": 6506,
      "æľĢè¿ĳæĦŁè§ī": 6507,
      "æĶ¾æħ¢": 6508,
      "è·Į": 6509,
      "æ¯ıå¹´": 6510,
      "ç¼ºå¤±": 6511,
      "æľĢå¥½ä»¥æ¸ħæ·¡é£Łçī©ä¸ºä¸»": 6512,
      "ç»¼åĲĪæ²»çĸĹ": 6513,
      "æ´Ĺæ¾¡": 6514,
      "çĶ·æĢ§æĤ£èĢħåı¯ä»¥å°½å¿«åº·å¤į": 6515,
      "çĶ¨èį¯æĸ¹æ¡Ī": 6516,
      "åĻ»": 6517,
      "ç¬¬ä¸īå¤©": 6518,
      "ç²¾ç¥ŀä¸Ĭ": 6519,
      "ç²¾ç¥ŀç´§å¼ł": 6520,
      "æµĭéĩı": 6521,
      "å¢ŀå¼ºæĬµæĬĹåĬĽ": 6522,
      "åĽĽä¸ªæľĪ": 6523,
      "èĨĢèĥ±çĻĮ": 6524,
      "æľīæĹ¶åĢĻä¼ļ": 6525,
      "è¡£æľį": 6526,
      "è¿ĩç¨ĭç¼ĵæħ¢": 6527,
      "æķıæĦŁæĢ§": 6528,
      "åģļå¥½éĺ²å¯Ĵ": 6529,
      "å¾®åĪĽæīĭæľ¯": 6530,
      "çģĮèĤł": 6531,
      "æĤ£èĢħæľĭåıĭä»¬": 6532,
      "ä»įçĦ¶": 6533,
      "ä¸įå¿ħè¦ģçļĦä¼¤å®³": 6534,
      "çĽ²çĽ®é¥®é£Ł": 6535,
      "ä¸įæĸŃå¢ŀå¤ļ": 6536,
      "æĤ£èĢħåĪĩå¿ĮçĽ²çĽ®é¥®é£Ł": 6537,
      "åĽłæŃ¤æ²»çĸĹä¸Ńä¸Ģå®ļç§¯æŀģäºĴçĽ¸éħįåĲĪ": 6538,
      "è¿Ķæµģ": 6539,
      "éļ¾æ²»æĢ§": 6540,
      "ä¸ĢæĹ¦åıĳè§īèĩªèº«çļĦçĹĩçĬ¶": 6541,
      "åĺ§åķ¶": 6542,
      "29": 6543,
      "ol": 6544,
      "ĠãĢĤ": 6545,
      "çļĦåīį": 6546,
      "çļĦæ°´": 6547,
      "çļĦæĸ¹å¼ı": 6548,
      "æľīäºº": 6549,
      "æľīçļĦæĹ¶åĢĻ": 6550,
      "æľīå¤ļå°ĳ": 6551,
      "ä¸įå»ºè®®": 6552,
      "ä¸įä¸¥éĩį": 6553,
      "åĬ±": 6554,
      "è¯¾": 6555,
      "åĨĻ": 6556,
      "ä¼Ĭ": 6557,
      "ä¼ŀ": 6558,
      "çİī": 6559,
      "åľ¨æľĪç»ı": 6560,
      "åĲİæŀľ": 6561,
      "åĲİåıĪ": 6562,
      "åŃĲä»ģ": 6563,
      "çĬ¶ä½ĵ": 6564,
      "æĤ£èĢħå°½å¿«": 6565,
      "éľĢè¦ģè§Ħå¾ĭä½ľæģ¯": 6566,
      "èį¯çī©çŃī": 6567,
      "å¦ĤæŀľçĹĩçĬ¶": 6568,
      "è½´": 6569,
      "åı£èĩŃ": 6570,
      "éĥ½æľīåĵªäºĽ": 6571,
      "èĤłçĻĮ": 6572,
      "åıĺå¤§": 6573,
      "ä¹ĭä¸º": 6574,
      "çĶ·æľĭåıĭ": 6575,
      "èĤĮèħ±": 6576,
      "å®ŀè¡Į": 6577,
      "èº«ä½ĵä¸įèĪĴæľį": 6578,
      "è¡¥æ°Ķ": 6579,
      "åºĶè¯¥åģļåĪ°": 6580,
      "çľ¼çľ¶": 6581,
      "è¾ĵåįµç®¡çĤİ": 6582,
      "åı¯èĥ½æĺ¯çĶ±äºİ": 6583,
      "éĵľ": 6584,
      "æĬ½è¡Ģ": 6585,
      "çº¦æĿŁ": 6586,
      "éĴĪå¯¹æĤ£èĢħæĿ¥è¯´": 6587,
      "åĿĲéª¨": 6588,
      "åİ»åĮ»éĻ¢æ£ĢæŁ¥ä¸Ģä¸ĭ": 6589,
      "åħŃé¡¹": 6590,
      "æ°¯åĮĸ": 6591,
      "éħĴç²¾èĤĿ": 6592,
      "åĨħéķľä¸ĭ": 6593,
      "ç»ĨèıĮæĢ§éĺ´éģĵçĤİ": 6594,
      "æĬĹèıĮèį¯çī©": 6595,
      "ä¸Ńæŀ¢ç¥ŀç»ıç³»ç»Ł": 6596,
      "ç¤¾åĮº": 6597,
      "æ¢ħæ¯Ĵ": 6598,
      "ç²ªä¾¿": 6599,
      "è®¤ä¸ºè¿Ļæł·ä¸Ģå®ļèĥ½èİ·å¾Ĺåº·å¤į": 6600,
      "æĤ£èĢħåı¯ä»¥åľ¨çĲĨè§£": 6601,
      "æĹ¥å¸¸é¥®é£Łå¤ļåĲĥæ¸ħæ·¡ç¨Ģè½¯çļĦé£Łçī©": 6602,
      "æĿĥå¨ģ": 6603,
      "éĢļé£İåĴĮ": 6604,
      "å°±è¦ģåıĬæĹ¶å°±è¯Ĭè¯ĬçĹħ": 6605,
      "åģļå¥½éĺ²å¯Ĵä¿Ŀæļĸå·¥ä½ľ": 6606,
      "al": 6607,
      "ic": 6608,
      "çļĦå¸¸è§ģ": 6609,
      "çļĦä¿¡å¿ĥ": 6610,
      "æĺ¯ä¸įèĥ½": 6611,
      "èĤ±": 6612,
      "ä¸įå¥½çļĦ": 6613,
      "ä¸įè¶ħè¿ĩ": 6614,
      "æ²»çĸĹäºĨ": 6615,
      "æĪļ": 6616,
      "å¹¸": 6617,
      "çĶ¨çĤ¹": 6618,
      "å¸¸æľī": 6619,
      "æ¯ķ": 6620,
      "æĸ¹ä¾¿": 6621,
      "å»ºè®®åħĪ": 6622,
      "æ¬ł": 6623,
      "åģļäººæµģ": 6624,
      "èº«é«ĺ": 6625,
      "åİ»è¿ĩ": 6626,
      "èıĩ": 6627,
      "éĴĿ": 6628,
      "èĦĳèĨľçĤİ": 6629,
      "ä¿ĿèĤĿ": 6630,
      "èĤ¾éĺ³èĻļ": 6631,
      "è¯·éĹ®åĮ»çĶŁ": 6632,
      "èĤºçĤİçļĦ": 6633,
      "è¿ĳè§Ĩ": 6634,
      "å¥³åŃ©": 6635,
      "æ¯Ķè¾ĥçļĦ": 6636,
      "æĬ¤çĲĨä¹Łæĺ¯å¾Ī": 6637,
      "è¾ħé£Ł": 6638,
      "æ±ī": 6639,
      "å¹³æĹ¶åºĶè¯¥æ³¨æĦı": 6640,
      "åľ°å¡ŀç±³æĿ¾": 6641,
      "å®«é¢Īæģ¯èĤī": 6642,
      "åºĶè¯¥åıĬæĹ¶": 6643,
      "éĺ²æŃ¢ä¹ħåĿĲ": 6644,
      "æģ¢å¤įéĢłæĪĲ": 6645,
      "æķ°æį®": 6646,
      "éĿĻèĦīæ»´æ³¨": 6647,
      "åħįçĸ«åĬŁèĥ½": 6648,
      "ç§»ä½į": 6649,
      "åĬ³åĬ¨": 6650,
      "æĵħ": 6651,
      "é¦ĸéĢī": 6652,
      "æľŁæľĽçĶ·æĢ§æĤ£èĢħåı¯ä»¥å°½å¿«åº·å¤į": 6653,
      "æĻ®åĪ©": 6654,
      "ä½ıäºĨ": 6655,
      "ä¹ĻèĤĿçĸ«èĭĹ": 6656,
      "éĴĪå¯¹æĢ§æ²»çĸĹ": 6657,
      "æıĲé«ĺåħįçĸ«åĬĽ": 6658,
      "äº²æĪļ": 6659,
      "ç¢±æĢ§": 6660,
      "å»ºè®®æĤ£èĢħåıĬæĹ¶": 6661,
      "çĶŁçĲĨçĽĲæ°´": 6662,
      "äºĨè§£ä¸Ģä¸ĭ": 6663,
      "é¢ĳç¹ģçļĦ": 6664,
      "åī§çĥĪè¿ĲåĬ¨": 6665,
      "åĲ¦åĪĻä¼ļèĩ´ä½¿": 6666,
      "å¦»åŃĲ": 6667,
      "æĤ£èĢħçļĦé¥®é£ŁçĬ¶åĨµåĴĮæĬ¤çĲĨä¹Łæĺ¯å¾Ī": 6668,
      "æ¯«åħĭ": 6669,
      "æ¯«ç±³": 6670,
      "æıĴæīĭ": 6671,
      "åī²åĮħçļ®": 6672,
      "é¹¿": 6673,
      "ä½Ĩæĺ¯çĶ±äºİæĤ£èĢħçĹĩçĬ¶": 6674,
      "å±ģèĤ¡": 6675,
      "æĤ£èĢħåľ¨çĶŁæ´»ä¸Ńè¿ĺéľĢè¦ģæľī": 6676,
      "åĲĥä¸įä¸ĭåİ»": 6677,
      "å°Ħé¢ĳæ¶Īèŀį": 6678,
      "éĿĴæĺ¥æľŁ": 6679,
      "èĦĳèĦĬæ¶²": 6680,
      "å¦Ĥæŀľä¸įåıĬæĹ¶æķĳæ²»ä¼ļå½±åĵįåĪ°": 6681,
      "çļĦæ²»çĸĹåĴĮé¢Ħéĺ²æĸ¹æ³ķ": 6682,
      "æģ¢å¤įéĢłæĪĲäºĨä¸įå¿ħè¦ģçļĦå½±åĵį": 6683,
      "SA": 6684,
      "ãĢĲ": 6685,
      "æĺ¯æ²¡æľī": 6686,
      "ä¸įçĸ¼": 6687,
      "ä¸įç¨³": 6688,
      "æĢ§èħº": 6689,
      "æĢ§èĤºçĤİ": 6690,
      "åı¯åĪĨä¸º": 6691,
      "çī¡": 6692,
      "åĲİèĢħ": 6693,
      "æ¯ģ": 6694,
      "å¿ĥè·³": 6695,
      "ä½łè¿Ļç§įæĥħåĨµ": 6696,
      "åĲĥæĻļé¥Ń": 6697,
      "å°±å¥½äºĨ": 6698,
      "æĿ¥éĢīæĭ©": 6699,
      "è¿ĩæĹ©": 6700,
      "åĨħä¾§": 6701,
      "å°¿è¡Ģ": 6702,
      "èĤĿç´ł": 6703,
      "èıł": 6704,
      "éª¨çĽĨ": 6705,
      "èĤ¾åĽĬèĤ¿": 6706,
      "è¯¥çĹħ": 6707,
      "ä¸¥éĩįæĹ¶": 6708,
      "æīįæĺ¯": 6709,
      "åīįåĪĹèħºèĤ¥å¤§": 6710,
      "ä¿ĿæĮģä¼ļéĺ´éĥ¨": 6711,
      "å¹³æĹ¶å¤ļæ³¨æĦıèĩªèº«åį«çĶŁ": 6712,
      "ç»Ļèį¯": 6713,
      "æĶ¾åľ¨": 6714,
      "å¸®ä½ł": 6715,
      "åıĳçĶŁåľ¨": 6716,
      "æĤ¨å¥½åĮ»çĶŁ": 6717,
      "æħ¢æĢ§å®«é¢ĪçĤİ": 6718,
      "åĽłä¸ºæĹ©æľŁçļĦ": 6719,
      "å¼Ĥå¸¸æĶ¾çĶµ": 6720,
      "åįģå¤©": 6721,
      "æ·ĭå·´ç®¡": 6722,
      "æ·ĭå·´çĻĮ": 6723,
      "æľīä»Ģä¹Īå¥½": 6724,
      "å¿ĥçĲĨåİĭåĬĽ": 6725,
      "å½»åºķæ¸ħéĻ¤": 6726,
      "æį¢èį¯": 6727,
      "éĺ¿æīĺ": 6728,
      "æĿ¾å¼Ľ": 6729,
      "è¡°èĢģ": 6730,
      "æ¯Ľå·¾": 6731,
      "æĤ£èĢħåľ¨æķĳæ²»": 6732,
      "é²ģ": 6733,
      "æ»´èĢ³": 6734,
      "æĢĢä¸ĬäºĨ": 6735,
      "çĶŁæ®ĸç³»ç»Ł": 6736,
      "å°¿é¢ĳå°¿æĢ¥": 6737,
      "å°Ħç²¾å¿«": 6738,
      "æĤ£èĢħä»¬ä¸įè¦ģéĶĻè¿ĩ": 6739,
      "éª¨é«ĵçĺ¤": 6740,
      "åĭ¤éĢļé£İåĴĮ": 6741,
      "ä»¥éĺ²è¿ĩåĬ³": 6742,
      "æĺ¯æĢİä¹ĪäºĨ": 6743,
      "åħ»æĪĲèī¯å¥½çļĦåį«çĶŁä¹łæĥ¯": 6744,
      "èī¾æ»ĭ": 6745,
      "åĲ»åĲĪæľ¯": 6746,
      "æĤ£èĢħæĹ¥å¸¸éľĢè¦ģè§Ħå¾ĭä½ľæģ¯": 6747,
      "å¯¹æĤ£èĢħä»¬å¸¦ç»Ļ": 6748,
      "éĵ¾çĲĥèıĮ": 6749,
      "åĮħçļ®çİ¯åĪĩæľ¯": 6750,
      "éĨĭéħ¸": 6751,
      "æĥ¯èī¯å¥½çļĦçĶŁæ´»ä¹łæĥ¯": 6752,
      "äº¤åıīæĦŁæŁĵ": 6753,
      "æ²»çĸĹçļĦå¥½æĹ¶æľº": 6754,
      "æĤ£èĢħæľĭåıĭä»¬åºĶè¯¥åģļåĪ°": 6755,
      "æĤ£èĢħä»¬ä¸įè¦ģéĶĻè¿ĩæ²»çĸĹçļĦå¥½æĹ¶æľº": 6756,
      "åĭ¤éĢļé£İåĴĮå¤ļåĸĿçĥŃæ°´": 6757,
      ")ãĢĤ": 6758,
      "CO": 6759,
      "èĤŁ": 6760,
      "æĹ§": 6761,
      "å®£": 6762,
      "ä¸įçĪ±": 6763,
      "èĥ½åĸĿ": 6764,
      "æ£Ĵ": 6765,
      "åı¯ä»¥éĢĤå½ĵ": 6766,
      "åĳĭ": 6767,
      "éħĲ": 6768,
      "åĨħéļľ": 6769,
      "åĲĪåīĤ": 6770,
      "å¤©æ°Ķ": 6771,
      "é«ĺä½į": 6772,
      "å®ļéĩı": 6773,
      "éª¤": 6774,
      "åĪĨè§£": 6775,
      "è´®": 6776,
      "é¥®é£Łå®ľæ¸ħæ·¡": 6777,
      "æĹłè®º": 6778,
      "çľĭåĮ»çĶŁ": 6779,
      "åİŁæĿ¥": 6780,
      "æł¹éĥ¨": 6781,
      "æµģè´¨": 6782,
      "ä½İçĥŃ": 6783,
      "åħ¨æĦĪ": 6784,
      "è¿Ļä¸ªéĹ®é¢ĺ": 6785,
      "åķ¦": 6786,
      "åºĶè¯¥æĢİä¹Ī": 6787,
      "é¢Ħéĺ²æĦŁæŁĵ": 6788,
      "å°ıåĦ¿æīģæ¡ĥä½ĵçĤİ": 6789,
      "ä¸ĢçĽ´æľī": 6790,
      "å¤ªå°¼": 6791,
      "è¾ĵåįµç®¡éĢļ": 6792,
      "åĻľ": 6793,
      "çĶ²çĬ¶èħºç´ł": 6794,
      "çĶ²çĬ¶èħºçĺ¤": 6795,
      "æĹ¥å¸¸æ¸ħæ·¡é¥®é£Ł": 6796,
      "è¢Ń": 6797,
      "èĤĽçĺĺ": 6798,
      "æķ£ç»ĵ": 6799,
      "åŃĺæ´»": 6800,
      "çº¤ç»´ç´ł": 6801,
      "ä»¥åħįå¼ķåıĳ": 6802,
      "å®ĥçļĦ": 6803,
      "çĭĤ": 6804,
      "ç½®åħ¥": 6805,
      "ç»Ŀå¤§éĥ¨åĪĨ": 6806,
      "å¤ĸç§ĳçĸ¾çĹħ": 6807,
      "åĭĥèµ·ä¸įåĿļ": 6808,
      "æĶ¯æ°Ķç®¡åĵ®åĸĺ": 6809,
      "è¿Łç¼ĵ": 6810,
      "ä¸įè¦ģåĲĥåĪºæ¿ĢæĢ§é£Łçī©": 6811,
      "å»ºè®®æĤ£èĢħå¤ļçķĻæĦı": 6812,
      "æľįèį¯æľŁéĹ´": 6813,
      "èĬ¬å¤ªå°¼": 6814,
      "ç£·èĦĤ": 6815,
      "éĺ´éĥ¨åį«çĶŁ": 6816,
      "æ¨¡åŀĭ": 6817,
      "éħĴç²¾æĢ§": 6818,
      "æĥ³éĹ®éĹ®": 6819,
      "åĹĵåŃĲçĸ¼": 6820,
      "è´Łæĭħ": 6821,
      "æµħè¡¨æĢ§èĥĥçĤİ": 6822,
      "åļ¼": 6823,
      "è¦ģå¤ļçľĭéĩįèĩªèº«é¥®é£ŁæĬ¤çĲĨ": 6824,
      "å¹¶ä¸ĶæĹ¥å¸¸çĶŁæ´»ä¸Ńè¦ģä»¥éĺ²è¿ĩåĬ³": 6825,
      "éĽ¾åĮĸåĲ¸åħ¥": 6826,
      "è¿ĩåº¦çļĦç´§å¼łåĴĮ": 6827,
      "èĭįçĻ½": 6828,
      "èłķåĬ¨": 6829,
      "æ·»åĬł": 6830,
      "å¥½çļĦå¿ĥæĥħå¯¹çĸ¾çĹħçļĦ": 6831,
      "ç²¾ç¥ŀä¸Ĭè¿ĩåº¦çļĦç´§å¼łåĴĮ": 6832,
      "ä½Ĩæĺ¯çĶ±äºİæĤ£èĢħçĹĩçĬ¶ä¸įåĲĮæīĢä»¥éĩĩçĶ¨": 6833,
      "ä¿ĿæĮģä¼ļéĺ´éĥ¨çļ®èĤ¤æ¸ħæ´ģ": 6834,
      "çļĦåĩłçİĩ": 6835,
      "æľīåįıåĬ©": 6836,
      "æľīå¼Ĥåĳ³": 6837,
      "æĹº": 6838,
      "ä¸įåĩºæĿ¥": 6839,
      "ä¸įæķ¢": 6840,
      "æ²»çĸĹåºĶè¯¥": 6841,
      "æ²»çĸĹæĸ¹å¼ı": 6842,
      "æĪĬ": 6843,
      "åı¯éĩĩçĶ¨": 6844,
      "æĤ¦": 6845,
      "äºĨä¸ĢäºĽ": 6846,
      "æľ¯ä¸Ń": 6847,
      "åı¯ä»¥åĪ°åĮ»éĻ¢": 6848,
      "è®¿": 6849,
      "æĤ£èĢħåºĶ": 6850,
      "æĤ£èĢħä¸įè¦ģ": 6851,
      "å¤§åĮ»éĻ¢": 6852,
      "ä¸Ĭä¸ĭ": 6853,
      "å°±éľĢè¦ģ": 6854,
      "ä¸ºä¸»è¦ģ": 6855,
      "åĵ¦": 6856,
      "éľį": 6857,
      "å°ıäºİ": 6858,
      "å»ºè®®åģļ": 6859,
      "æ¬¡åıĳçĹħ": 6860,
      "æ³¨æĦıåį«çĶŁ": 6861,
      "èĦĳä¾Ľè¡Ģä¸įè¶³": 6862,
      "æĪĲå¹´": 6863,
      "åŃ©åŃĲçļĦæĥħåĨµ": 6864,
      "è¾ĥè½»": 6865,
      "ä¿ĿåŃĺ": 6866,
      "èĤłæº¶": 6867,
      "éª¨éª¨æĬĺ": 6868,
      "èĥĥçª¦": 6869,
      "è¯·éĹ®å®Ŀå®Ŀ": 6870,
      "èĤºçº¤ç»´åĮĸ": 6871,
      "å¸¦ç»Ļ": 6872,
      "èĤ¿çĺ¤çĸ¾çĹħ": 6873,
      "èĮĦ": 6874,
      "çľ¼éĥ¨": 6875,
      "æħ¢æĢ§çĸ¾çĹħ": 6876,
      "è¿Ļç§įæĥħåĨµä¸ĭ": 6877,
      "éļ¾è¿ĩ": 6878,
      "æĢ§çĶŁæ´»çļĦ": 6879,
      "æīĵéĴĪ": 6880,
      "æĺ¯åı¯ä»¥çļĦ": 6881,
      "æĽ´åĬł": 6882,
      "çłĤ": 6883,
      "æĬĳæŃ¢": 6884,
      "æķ´ä¸ª": 6885,
      "çīĻé¾Ī": 6886,
      "éģĹä¼łæĢ§": 6887,
      "æ¯ıå¤©éĥ½": 6888,
      "åĮ»çĶŁçļĦçĶ¨èį¯æĸ¹æ¡Ī": 6889,
      "çĹĶçĸ®èĨı": 6890,
      "èĥĨåĽĬç»ĵçŁ³": 6891,
      "é»ıæ¶²": 6892,
      "å°½æĹ©å°±åĮ»": 6893,
      "æľ¨èĢ³": 6894,
      "èĦĲå¸¦": 6895,
      "è¾ĵæ¶²æ²»çĸĹ": 6896,
      "æİĴå°¿åĽ°éļ¾": 6897,
      "èĩªèº«åį«çĶŁæĥħåĨµ": 6898,
      "æīŃè½¬": 6899,
      "æĩĪ": 6900,
      "æİ¢æŁ¥": 6901,
      "åĥµç¡¬": 6902,
      "æ»´èĻ«æĢ§éĺ´éģĵçĤİ": 6903,
      "æł¹æį®ä½łè¯´çļĦçĹĩçĬ¶": 6904,
      "è¿ĩé¥¥æĪĸ": 6905,
      "æĽ¾ç»ıæ²»çĸĹæĥħåĨµåĴĮæķĪæŀľ": 6906,
      "è¾Ĳå°Ħ": 6907,
      "CD": 6908,
      "Ig": 6909,
      "ST": 6910,
      "çļĦåĪºæ¿Ģ": 6911,
      "çĹ«": 6912,
      "ä¸įä¸Ģå®ļ": 6913,
      "åı¯åı£æľį": 6914,
      "ä»¥å¾Ģ": 6915,
      "åºĹ": 6916,
      "äºĨä¸Ģ": 6917,
      "åı¯ä»¥åĨ³å®ļ": 6918,
      "ä¼ļæľīåĵªäºĽ": 6919,
      "å¦Ĥä¸ĭ": 6920,
      "åĴĮèĶ¬èıľ": 6921,
      "æĮ«": 6922,
      "å¾Īä¸įèĪĴæľį": 6923,
      "çĻ½åĨħéļľ": 6924,
      "èħ¹å£ģ": 6925,
      "ä¸ĢèĪ¬çļĦ": 6926,
      "éª¨ç§ĳ": 6927,
      "èĥĥç²ĺèĨľ": 6928,
      "æł¹æį®æĥħåĨµ": 6929,
      "åıįéħ¸": 6930,
      "çīĩåĴĮ": 6931,
      "æ¯Ķè¾ĥé«ĺ": 6932,
      "åĩıèĤ¥": 6933,
      "èĭĦ": 6934,
      "ä¸īä¸ĥ": 6935,
      "å¦ĩäº§ç§ĳ": 6936,
      "åĩłåĳ¨": 6937,
      "çĥŃéĩı": 6938,
      "ä½Ĩæĺ¯å¦Ĥæŀľ": 6939,
      "åĲĮæĹ¶è¦ģå¤ļçľĭéĩįèĩªèº«é¥®é£ŁæĬ¤çĲĨ": 6940,
      "çĿĢåºĬ": 6941,
      "è¿ĺæĺ¯æľī": 6942,
      "è¿ĺæĺ¯è¦ģ": 6943,
      "èĥ¸èĨľ": 6944,
      "éĢłè¡Ģ": 6945,
      "èĥİå¿ĥ": 6946,
      "èĲ¥åħ»æĶ¯æĮģ": 6947,
      "æľĢå¥½ä¸įè¦ģ": 6948,
      "å¤ļåĲĥèĶ¬èıľ": 6949,
      "å¯ĴæĪĺ": 6950,
      "è½¯åĮĸ": 6951,
      "åĽĽå¤©": 6952,
      "å½»åºķæ¶ĪéĻ¤": 6953,
      "æį¢æĸ°": 6954,
      "æľŁæľĽæĤ£èĢħåı¯ä»¥æł¹æį®åĮ»çĶŁçļĦæĦıè§ģ": 6955,
      "éŁŃ": 6956,
      "é©±": 6957,
      "åıįå¤įåĩºçİ°": 6958,
      "ç§°ä¹ĭä¸º": 6959,
      "æº¶è§£": 6960,
      "çĽĬæ¯į": 6961,
      "åİ»åĮ»éĻ¢æ£ĢæŁ¥è¯´æĺ¯": 6962,
      "åĪ°æŃ£è§ĦçļĦåĮ»éĻ¢": 6963,
      "å¤ļç§įä¸įåĲĮ": 6964,
      "æĬµæĬĹåĬĽä¸ĭéĻį": 6965,
      "æĤ£èĢħä»¬æĹ©æĹ¥åº·å¤į": 6966,
      "èĤ¾åĬŁèĥ½è¡°ç«Ń": 6967,
      "ç¬¬ä¸Ģæ¬¡éĹ®é¢ĺè¡¥åħħ": 6968,
      "æľīä¸Ģå®ļæķĪæŀľ": 6969,
      "å¤ļåĽĬåįµå·¢": 6970,
      "æľºæ¢°éĢļæ°Ķ": 6971,
      "å·©åĽº": 6972,
      "è¿ĩé¥¥æĪĸè¿ĩé¥±": 6973,
      "AB": 6974,
      "PA": 6975,
      "Ġ1": 6976,
      "ĠæĤ¨å¥½": 6977,
      "çļĦçĽ®çļĦ": 6978,
      "åıł": 6979,
      "å°º": 6980,
      "ä¸įç®¡": 6981,
      "æ²»çĸĹä¸Ĭ": 6982,
      "æĢ§æºĥçĸ¡": 6983,
      "èĢ½": 6984,
      "åı¯è¡Į": 6985,
      "åı¯å¯¼èĩ´": 6986,
      "èĦ²": 6987,
      "éĹ»": 6988,
      "å¦¹": 6989,
      "è®¨": 6990,
      "çĬ¬": 6991,
      "å¤§å¤ļ": 6992,
      "åĳĽ": 6993,
      "æĢİä¹ĪäºĨ": 6994,
      "å»ºè®®éĩĩçĶ¨": 6995,
      "å»ºè®®åĪ°åĮ»éĻ¢": 6996,
      "ç»ĵçĸ¤": 6997,
      "éľĢè¦ģéħįåĲĪåĮ»çĶŁ": 6998,
      "æĭĩ": 6999,
      "æĭĸ": 7000,
      "çĻ½éħĴ": 7001,
      "å¹¶æľī": 7002,
      "åĬłä¸Ĭ": 7003,
      "åĮ»çĶŁç»Ļ": 7004,
      "èıĮç¾¤": 7005,
      "åıĺå½¢": 7006,
      "ä½įåŃĲ": 7007,
      "å¥³å®Ŀå®Ŀ": 7008,
      "çĶ·å¥³": 7009,
      "ä¿ĿæĮģå¤§ä¾¿éĢļçķħ": 7010,
      "å¹³æĹ¶ç¦ģåĲĥè¾Ľè¾£éħĴ": 7011,
      "æİĴçŁ³": 7012,
      "ä¸¤å²ģ": 7013,
      "åĪ«äºº": 7014,
      "çļĦè¯Ŀåı¯ä»¥": 7015,
      "åıªè¦ģåıĬæĹ¶": 7016,
      "å¦Ĥä½ķæ²»": 7017,
      "éĻįç³ĸ": 7018,
      "åĮħçļ®åŀ¢": 7019,
      "ä¸įæĺ¯çī¹åĪ«çļĦ": 7020,
      "çķĻæĦıé¥®é£Ł": 7021,
      "èĲ¥åħ»ç¥ŀç»ı": 7022,
      "åıĳçİ°çĹĩçĬ¶": 7023,
      "èĢ³èĨľç©¿åŃĶ": 7024,
      "è§Ĥæ³¨": 7025,
      "å®īç¥ŀ": 7026,
      "åħ¶ä»ĸçļĦ": 7027,
      "ä¼łæŁĵæĢ§": 7028,
      "ä¸įéĢĤçĹĩçĬ¶": 7029,
      "ç¾ĬçĻ«": 7030,
      "åĵŃåķ¼": 7031,
      "æł¹æ²»æĢ§": 7032,
      "èĦ¸ä¸Ĭ": 7033,
      "æĪĳå®¶åŃ©åŃĲ": 7034,
      "åįģåĪĨéĩįè¦ģ": 7035,
      "ä½ıéĻ¢æ²»çĸĹ": 7036,
      "éĺ»å¡ŀæĢ§": 7037,
      "èĤºéĥ¨æĦŁæŁĵ": 7038,
      "ä¸°å¯ĮçļĦé£Łçī©": 7039,
      "ä¸ĢçĽ´éĥ½æ²¡": 7040,
      "æĬĹçĤİæ²»çĸĹ": 7041,
      "å·¨å¤§": 7042,
      "çģŃèıĮ": 7043,
      "æĤ£èĢħæľĭåıĭçĲĨåºĶä¿ĿæĮģèī¯å¥½çļĦå¿ĥæĢģ": 7044,
      "æľĢåĲİç¥ĿæĤ£èĢħä»¬æĹ©æĹ¥åº·å¤į": 7045,
      "é¼»åĴ½çĻĮ": 7046,
      "éħįç½®æķĳæ²»": 7047,
      "è¿¹è±¡": 7048,
      "åĴ¯è¡Ģ": 7049,
      "ä¹ħåĿĲä¹ħéªĳ": 7050,
      "éŁŃèıľ": 7051,
      "Â°": 7052,
      "âī": 7053,
      "çļĦæĢ§çĶŁæ´»": 7054,
      "æ²»å¥½çļĦ": 7055,
      "ä¸įèµ·": 7056,
      "ä¸įå¤Ł": 7057,
      "ä¸įé½Ĳ": 7058,
      "ä»Ģä¹ĪçĹĩçĬ¶": 7059,
      "åºĨ": 7060,
      "æŃª": 7061,
      "åı¯ä»¥åįıåĬ©": 7062,
      "ä½ĵçİ°": 7063,
      "æ£ĢæŁ¥ç¡®è¯Ĭ": 7064,
      "æĤ£èĢħæĬĹè¡¡": 7065,
      "å¯¹å®Ŀå®Ŀ": 7066,
      "å»ĵ": 7067,
      "åĨħå¤ĸ": 7068,
      "åĨħæľį": 7069,
      "çŃīé£Łçī©": 7070,
      "åģļä¸ĢäºĽ": 7071,
      "èħºæł·": 7072,
      "ç§įæ¤į": 7073,
      "è°ĵ": 7074,
      "èĩªè§ī": 7075,
      "èĩªä¸»": 7076,
      "å¹¶åħ»æĪĲèī¯å¥½çļĦåį«çĶŁä¹łæĥ¯": 7077,
      "çķ¥": 7078,
      "è§£åīĸ": 7079,
      "èĤºæ³¡": 7080,
      "èī¯æĢ§çļĦ": 7081,
      "å¹³æĹ¶å¤ļ": 7082,
      "çĽ¸å½ĵ": 7083,
      "åģ¥åº·æĥħåĨµ": 7084,
      "å¤±åİ»": 7085,
      "åħ¥ä¾µ": 7086,
      "åĴ³çĹ°": 7087,
      "å¼Ĥå¸¸çļĦ": 7088,
      "èĢ³çĹĽ": 7089,
      "åħįçĸ«çĲĥèĽĭçĻ½": 7090,
      "éĻ¤äºĨåıĬæĹ¶æķĳæ²»": 7091,
      "åıĸçŁ³": 7092,
      "çĶ²çĬ¶èħºèĤ¿": 7093,
      "èĤļåŃĲçĹĽ": 7094,
      "å®¤åĨħ": 7095,
      "åįµå·¢åĬŁèĥ½": 7096,
      "åı¦ä¸Ģ": 7097,
      "æĤ£èĢħçļĦåħįçĸ«åĬĽ": 7098,
      "å¨ĥ": 7099,
      "çŁŃæĹ¶éĹ´": 7100,
      "è®©æĪĳä»¬": 7101,
      "è§ĴåĮĸ": 7102,
      "åħ¬åı¸": 7103,
      "ç¾İåĽ½": 7104,
      "å¿ĥèĤĮçĤİ": 7105,
      "æĦīæĤ¦": 7106,
      "å±ĤèŀºæĹĭCT": 7107,
      "åģĩæĢ§": 7108,
      "å¹¿åĳĬ": 7109,
      "æĢ§èĦĳçĹħ": 7110,
      "ç¬¬äºĮå¤©": 7111,
      "åį§ä½į": 7112,
      "æŁĲç§į": 7113,
      "è¿Ľè¡ĮåĴ¨è¯¢ä¸Ģä¸ĭ": 7114,
      "ä¸ŃèĢ³çĤİèĢ³æľµ": 7115,
      "å¥³æĢ§çļĦåģ¥åº·": 7116,
      "èĤ¾å°ıç®¡": 7117,
      "éĴĪå¯¹æĢ§çļĦæ²»çĸĹ": 7118,
      "é³ŀçĬ¶": 7119,
      "å°ģéĹŃ": 7120,
      "åľ¨çĶŁæ´»ä¸ŃçĶ¨åģıæĸ¹": 7121,
      ")ãĢģ": 7122,
      "as": 7123,
      "çļĦåĬŁæķĪ": 7124,
      "çĹ¤": 7125,
      "æľīçĽĬ": 7126,
      "ä¸įåĬ¨": 7127,
      "çĶŁæ°Ķ": 7128,
      "æ³³": 7129,
      "æŁ´": 7130,
      "å¤ļæ±Ĺ": 7131,
      "æĪĳä¸įçŁ¥éģĵ": 7132,
      "æĪĳèĢģå©Ĩ": 7133,
      "æĤ£èĢħå¥³": 7134,
      "ä½łæııè¿°": 7135,
      "åıĬæĮģç»Ń": 7136,
      "æģ©": 7137,
      "åĪĨç¦»": 7138,
      "èµ·æĲı": 7139,
      "æĹłçī¹æ®Ĭ": 7140,
      "åŃ©åŃĲè¿ĺ": 7141,
      "æ¶²åĮĸ": 7142,
      "ä¹ĭç±»çļĦ": 7143,
      "é»Ħæ°´": 7144,
      "çªĹ": 7145,
      "ç¥ŀç»ıçĤİ": 7146,
      "æľ¬æ¬¡åıĳçĹħ": 7147,
      "ä½Ĩæĺ¯ä¸ĢèĪ¬": 7148,
      "åıĹç´¯": 7149,
      "ä¸¸æ²»çĸĹ": 7150,
      "éĺ´éģĵåı£": 7151,
      "è¾Ľè¾£åĪºæ¿Ģ": 7152,
      "éĤ£éĩĮ": 7153,
      "è¿ĺæĺ¯æ¯Ķè¾ĥ": 7154,
      "ç¡¬åĿĹ": 7155,
      "åıĳçİ°äºĨ": 7156,
      "ç¥ĿæĤ£èĢħ": 7157,
      "æĢ»æĺ¯è¯´": 7158,
      "æĢ»æĺ¯åĩºçİ°": 7159,
      "éħįåĲĪèĤłèĥĥ": 7160,
      "æ¹ĸ": 7161,
      "éĺ»æĸŃ": 7162,
      "ç³»ç»ŁæĢ§": 7163,
      "ä¹ĻåŀĭèĤĿçĤİ": 7164,
      "ä»£åģ¿": 7165,
      "è¢«åį´": 7166,
      "æķ´å½¢": 7167,
      "å¼ķåıĳä¸įåĲĮçļĦçĹĩçĬ¶": 7168,
      "åĪļåĩºçĶŁ": 7169,
      "å¼±è§Ĩ": 7170,
      "ä¿¡åı·": 7171,
      "ä¹Łä¸įæĥ³": 7172,
      "éļĶç¦»": 7173,
      "åħ±æµİ": 7174,
      "æļ´éľ²": 7175,
      "å®¶éķ¿éľĢè¦ģéħįåĲĪåĮ»çĶŁ": 7176,
      "æłĩæľ¬": 7177,
      "å¥½äºĨä¸Ģæ®µæĹ¶éĹ´": 7178,
      "è¦ģçķĻæĦıé¥®é£Ł": 7179,
      "å¤´åŃ¢åħĭ": 7180,
      "çĸıèĤĿ": 7181,
      "åĪĽä¼¤æĢ§": 7182,
      "èĩŃåĳ³": 7183,
      "æľĢè¿ĳä¸įçŁ¥éģĵæĢİä¹ĪåĽŀäºĭæĢ»æĺ¯æĦŁè§ī": 7184,
      "å¦ĤæŀľåŃ©åŃĲè¢«åį´": 7185,
      "æĶ¯åİŁä½ĵæĦŁæŁĵ": 7186,
      "é«ĺåİĭæ°§": 7187,
      "çļĦå¥½ä¹łæĥ¯": 7188,
      "æĻºåĬĽä½İä¸ĭ": 7189,
      "æ©ĺ": 7190,
      "æĭįçīĩ": 7191,
      "æķĪæŀľä¸įæĺİæĺ¾": 7192,
      "æľĢåĲİç¥Ŀå¥³æĢ§æĤ£èĢħåı¯ä»¥å°½å¿«åº·å¤į": 7193,
      "éĺĳå°¾çĤİ": 7194,
      "æĪĴæİīæĢ§äº¤": 7195,
      "èĥ«éª¨": 7196,
      "å¤ĸåĩºè¿ĲåĬ¨": 7197,
      "ä¸įåĲĮçĹħåĽłå¼ķåıĳä¸įåĲĮçļĦçĹĩçĬ¶": 7198,
      "éĢįéģ¥ä¸¸": 7199,
      "æľ¬æ¬¡åıĳçĹħåıĬæĮģç»Ń": 7200,
      "éħįåĲĪèĤłèĥĥåĩıåİĭ": 7201,
      "åħ±æµİå¤±è°ĥ": 7202,
      "å¦ĤæŀľåŃ©åŃĲè¢«åį´ç¡®è¯Ĭä¸º": 7203,
      "33": 7204,
      "CI": 7205,
      "es": 7206,
      "Ġä½łå¥½": 7207,
      "æľīä¸ĢçĤ¹": 7208,
      "èĥģ": 7209,
      "ä¸įå¯¹": 7210,
      "ä¸įé«ĺ": 7211,
      "æŁ¿": 7212,
      "èĥ½å¥½": 7213,
      "çĶ¨æĿ¥": 7214,
      "åįļ": 7215,
      "æĿ¨": 7216,
      "æĪĳå¾ĹäºĨ": 7217,
      "è¿Ļç±»": 7218,
      "åĴĮå·¥ä½ľ": 7219,
      "ä¸Ĭæµ·": 7220,
      "åĵĪ": 7221,
      "å¤ĸåĳ¨": 7222,
      "èµ·çĹħ": 7223,
      "æĹłçī¹å®ļ": 7224,
      "èĤ¾éĺ´èĻļ": 7225,
      "åĮ»çĶŁå»ºè®®": 7226,
      "éĢļéģĵ": 7227,
      "æķĪæŀľè¾ĥå¥½": 7228,
      "æīįè¡Į": 7229,
      "æĸŃè£Ĥ": 7230,
      "çİ°åľ¨æĺ¯": 7231,
      "ä¸īå¹´": 7232,
      "åĳ¨å²ģ": 7233,
      "ç±»é£İæ¹¿": 7234,
      "ç±»åĽºéĨĩ": 7235,
      "èĤīç±»": 7236,
      "éĺ´éģĵåĨħ": 7237,
      "èĥĨç¢±": 7238,
      "åĽłç´łæĪĸçĹħåĽł": 7239,
      "äºĮæ¬¡": 7240,
      "æĪĸèĢħæĽ´æį¢": 7241,
      "çĶ²çĬ¶èħºæ¿Ģç´ł": 7242,
      "æ¹¿çĸ£": 7243,
      "æįŁä¼¤çļĦè¾ħåĬ©æ²»çĸĹæľīäºĽä»Ģä¹Ī": 7244,
      "æľīä»Ģä¹ĪåĬŀæ³ķ": 7245,
      "åģıä½İ": 7246,
      "æĿ¾æĩĪ": 7247,
      "å¸ĮæľĽæĪĳçļĦ": 7248,
      "ä¸ĵä¸ļåĮ»éĻ¢": 7249,
      "åłĨ": 7250,
      "ç²¾åŃĲçļĦ": 7251,
      "å·®ä¸įå¤ļ": 7252,
      "åĲĮæĪ¿åĲİ": 7253,
      "èĥĨåĽĬæģ¯èĤī": 7254,
      "ä¼¤å®³æ¯Ķè¾ĥå¤§": 7255,
      "éļĲçªĿ": 7256,
      "åı¯ä»¥åĲĥçĤ¹": 7257,
      "æ¥¼": 7258,
      "è¿Ľä¸ĢæŃ¥æ£ĢæŁ¥": 7259,
      "æĸ°é²ľçļĦ": 7260,
      "èĥĮçĹĽ": 7261,
      "æŃ¤å¤ĸæĤ£èĢħæĹ¥å¸¸éľĢè¦ģè§Ħå¾ĭä½ľæģ¯": 7262,
      "ä¹³å¤´çĬ¶": 7263,
      "æĤ£èĢħæľĭåıĭåºĶå½ĵ": 7264,
      "åģľèį¯æĪĸèĢħæĽ´æį¢": 7265,
      "æ¸Ĺåĩº": 7266,
      "èį¯æµģåĲİ": 7267,
      "å¹¶ä¸ĶæĹ¥å¸¸çĶŁæ´»ä¸Ńè¦ģå¤ļçľĭéĩį": 7268,
      "åĲŀåĴ½åĽ°éļ¾": 7269,
      "éĻįåİĭèį¯": 7270,
      "æĤ£èĢħè¿ĺéľĢè¦ģéĩįè§Ĩé¥®é£Łæĸ¹éĿ¢": 7271,
      "æĤ£èĢħåĪĩå¿Įåģľèį¯æĪĸèĢħæĽ´æį¢": 7272,
      "éĹ´çĽĺçªģåĩº": 7273,
      "åĶĲæ°ıçŃĽæŁ¥": 7274,
      "å¹²ç»Ĩèĥŀç§»æ¤į": 7275,
      "èĩªåĬ¨åħįçĸ«": 7276,
      "æ³¼å°¼æĿ¾": 7277,
      "å¹³æĹ¶åºĶè¯¥æ³¨æĦıå¤ļåĸĿæ°´": 7278,
      "ä»¥åħįå¼ķåıĳä¸įå¿ħè¦ģçļĦä¼¤å®³": 7279,
      "æĤ£èĢħä¸įè¦ģä¹ħåĿĲä¹ħéªĳ": 7280,
      "å¹¶ä¸ĶæĹ¥å¸¸çĶŁæ´»ä¸Ńè¦ģå¤ļçľĭéĩįèĩªèº«æĬ¤çĲĨ": 7281,
      "æĤ£èĢħåĪĩå¿Įåģľèį¯æĪĸèĢħæĽ´æį¢èį¯çī©æ²»çĸĹ": 7282,
      "åª": 7283,
      "çļĦè¡¨çİ°åĩº": 7284,
      "çļĦæĶ¾å°Ħæ²»çĸĹæľīäºĽä»Ģä¹Ī": 7285,
      "åĲ¹": 7286,
      "æĺ¯å±ŀäºİ": 7287,
      "ç»ķ": 7288,
      "ä¸įæĺİæĺ¾": 7289,
      "ä¸įæİĴéĻ¤": 7290,
      "æĢ§çĹħ": 7291,
      "ä¸Ģç³»åĪĹ": 7292,
      "çĶŁç²¾": 7293,
      "çĶŁå®Į": 7294,
      "åĩĭ": 7295,
      "å¯¿": 7296,
      "ç§Ĵ": 7297,
      "é£ŀ": 7298,
      "çĶ¨çļĦ": 7299,
      "æľ¯æ²»çĸĹ": 7300,
      "æĪĳè¿Ļ": 7301,
      "æĪĳæĦŁè§ī": 7302,
      "åĴĮåħ¶ä»ĸ": 7303,
      "ä¸Ĭèħ¹": 7304,
      "å¤ĸçº¿": 7305,
      "å»ºè®®å°½æĹ©": 7306,
      "åĮ»éĻ¢çļĦ": 7307,
      "æ¬£": 7308,
      "å¾Īæľīå¸®åĬ©": 7309,
      "èĪħ": 7310,
      "å¼ķå¯¼": 7311,
      "æĭľ": 7312,
      "çļ®å±Ĥ": 7313,
      "å¾ĹçŁ¥": 7314,
      "èĦĳæ°´èĤ¿": 7315,
      "å¢ŀéķ¿": 7316,
      "æ°Ķåĳ³": 7317,
      "èĤłåĨħ": 7318,
      "ä¸»æ²»": 7319,
      "åĮ»çĶŁä½łå¥½": 7320,
      "èĤºçĻĮçļĦ": 7321,
      "å¥³æĸ¹": 7322,
      "æŃ£å¸¸äºº": 7323,
      "èĭĽ": 7324,
      "æľ¬æĿ¥": 7325,
      "è¿Ļä¸ªæľĪ": 7326,
      "éľĢè¦ģæľīæģ°å½ĵé¥®é£Ł": 7327,
      "èĽĩ": 7328,
      "èĲ¥åħ»åĿĩè¡¡": 7329,
      "å¾®å°ı": 7330,
      "èĪĴå¼ł": 7331,
      "éĩĮæľī": 7332,
      "çĶ·æĢ§çĸ¾çĹħ": 7333,
      "æ¸©å¼Ģæ°´": 7334,
      "ç»´çĶŁç´łA": 7335,
      "ç²¾ç¥ŀéļľç¢į": 7336,
      "å¥¶æ°´": 7337,
      "åĶ¯": 7338,
      "ç¦ģçĥŁéħĴ": 7339,
      "åĽĽç»´": 7340,
      "åĽ´äº§": 7341,
      "æĭħå¿ĥçļĦ": 7342,
      "ä¿¡å¿µ": 7343,
      "æĺ¯ä¸Ģç§įå¸¸è§ģçļĦ": 7344,
      "ç´¯ç§¯": 7345,
      "åĪĿæŃ¥": 7346,
      "èŀºæĿĨèıĮ": 7347,
      "èĸ¯": 7348,
      "åıįåıįå¤įå¤įå¤įåıĳ": 7349,
      "æ²īçĿĢ": 7350,
      "åıĹåŃķæĥħåĨµ": 7351,
      "åĲĥä»Ģä¹Īèį¯å¥½": 7352,
      "çĽ¸ä¿¡è¿Ļæł·ä¸Ģå®ļèĥ½": 7353,
      "è®¡æķ°": 7354,
      "ç¼ºæįŁçļĦæīĭæľ¯æ²»çĸĹæľīäºĽä»Ģä¹Ī": 7355,
      "åıªæľīè¿Ļæł·æīįèĥ½æıĲé«ĺæĤ£èĢħ": 7356,
      "ä¸įåĪ°çļĦ": 7357,
      "èĥ¸èħĶç§¯æ¶²": 7358,
      "éŀĺèĨľ": 7359,
      "éĺ²æŃ¢è¾Ľè¾£é£Łçī©": 7360,
      "åįĥä¸ĩ": 7361,
      "å¹½éĹ¨èŀºæĿĨèıĮ": 7362,
      "å¹¶ä¸Ķæ³¨æĦıè¡¥åħħç»´çĶŁç´ł": 7363,
      "æĲŃéħį": 7364,
      "é¼»çª¦çĤİ": 7365,
      "åµĮé¡¿": 7366,
      "åıªæľīè¿Ļæł·æīįèĥ½éĻįä½İæĤ£èĢħæĬĹè¡¡": 7367,
      "æĳĦæ°ıåº¦": 7368,
      "çĽĬæ¯įèįī": 7369,
      "âī¥": 7370,
      "Rh": 7371,
      "ro": 7372,
      "çļĦæ¯ĽçĹħ": 7373,
      "å¤®": 7374,
      "ä¸įçĹĽ": 7375,
      "ä¸ĢåĲĮ": 7376,
      "åĽŃ": 7377,
      "ä»Ģä¹ĪçĹħ": 7378,
      "åıĳäºİ": 7379,
      "èħĮ": 7380,
      "çĹĩçļĦæİ¨èįĲèį¯æľīäºĽä»Ģä¹Ī": 7381,
      "çĶ¨äºĨ": 7382,
      "çĶ¨åĲĹ": 7383,
      "è¡ĢåĿĹ": 7384,
      "æŁ¥ä¸Ģä¸ĭ": 7385,
      "æł¡": 7386,
      "åľ¨é¥®é£Łä¸Ĭ": 7387,
      "å¿ĥè¡°": 7388,
      "éĥ¨çļĦ": 7389,
      "è¿ĺéľĢè¦ģéĩįè§Ĩ": 7390,
      "äººåĳĺ": 7391,
      "é«ĺçļĦé£Łçī©": 7392,
      "é«ĺèĦĤèĤª": 7393,
      "é«ĺè¡Ģç³ĸ": 7394,
      "é«ĺæ½®": 7395,
      "éĹ´æĸŃ": 7396,
      "èº«çĲĨ": 7397,
      "åİ»æŃ£è§ĦåĮ»éĻ¢": 7398,
      "èį¯çī©æĿ¥": 7399,
      "éĺ´åĶĩ": 7400,
      "è½½": 7401,
      "åŃ©åŃĲæľĢè¿ĳæĢ»æĺ¯": 7402,
      "çĻ½çĻ½çļĦ": 7403,
      "å¢ŀæ®ĸ": 7404,
      "åĩºçİ°è¿Ļç§įæĥħåĨµ": 7405,
      "ä¿Ŀåħ»": 7406,
      "æīĢå¼ķèµ·çļĦ": 7407,
      "ä¼¤åıĬ": 7408,
      "æł¹æį®çĹħæĥħ": 7409,
      "åıįèĢĮ": 7410,
      "æı¡": 7411,
      "åĳ¨åĲİ": 7412,
      "ç¥ŀç»ıåĬŁèĥ½": 7413,
      "å¸®æĪĳ": 7414,
      "ä¸ĢäºĽéĢĢçĥ§èį¯": 7415,
      "å¿ħåĪ©": 7416,
      "å®«é¢ĪèĤ¥å¤§": 7417,
      "æ¯ıåĳ¨": 7418,
      "åĩºè¡Ģéĩı": 7419,
      "éģ¿åħįåĬ³ç´¯": 7420,
      "éģ¿åħįçĿĢåĩī": 7421,
      "ç»ĵæŀľæĺ¯": 7422,
      "çĶ·æĢ§çļĦ": 7423,
      "è¾ĵåįµç®¡ç²ĺè¿ŀ": 7424,
      "èħ°éª¶": 7425,
      "çĶ²çĬ¶èħºçĤİ": 7426,
      "èĩ³äºİ": 7427,
      "å¤ļåĸĿå¼Ģæ°´": 7428,
      "çĤ¼åĮĸ": 7429,
      "å®ļæľŁæ£ĢæŁ¥": 7430,
      "åħ¬åĪĨ": 7431,
      "çīĻåĳ¨": 7432,
      "æĴĳ": 7433,
      "ç¥ĿæĤ¨æĹ©æĹ¥åº·å¤į": 7434,
      "èĴ²": 7435,
      "åįĹçĵľ": 7436,
      "é¢¤åĬ¨": 7437,
      "è¯ķè¯ķçľĭ": 7438,
      "åĹľçĿ¡": 7439,
      "æīĵåĩ»é£Łçī©": 7440,
      "åĮĹäº¬": 7441,
      "æĻ¶çĬ¶ä½ĵ": 7442,
      "æĤ£èĢħè¿ĺéľĢè¦ģæľīçľĭéĩįé¥®é£Łæĸ¹éĿ¢": 7443,
      "åľ¨æĹ¥å¸¸çĶŁæ´»é¥®é£Łä¸Ńä¸Ģå®ļè¦ģ": 7444,
      "æľĪç»ıæĿ¥æ½®": 7445,
      "ç»ĻçĤ¹éķĩçĹĽèį¯": 7446,
      "è§ģæķĪå¿«": 7447,
      "çŀ³åŃĶ": 7448,
      "åĪĨæķ£çīĩ": 7449,
      "æ¯ķç«Ł": 7450,
      "èħºæł·ä½ĵ": 7451,
      "åĩĭäº¡": 7452,
      "èĭĽåĪ»": 7453,
      "49": 7454,
      "MS": 7455,
      "å«": 7456,
      "çļĦåķĬ": 7457,
      "çļĦåİīå®³": 7458,
      "çļĦéī´åĪ«è¯ĬæĸŃ": 7459,
      "äºī": 7460,
      "æľīä¸Ģä¸ª": 7461,
      "è¿ģ": 7462,
      "èĥį": 7463,
      "ä¸įéľĢ": 7464,
      "ä¸įå°ĳ": 7465,
      "ä¸įæĬ½çĥŁ": 7466,
      "è¦ģå¦Ĥä½ķ": 7467,
      "å¥½å¥½": 7468,
      "å¤ļç³ĸ": 7469,
      "è¡Ģä¾¿": 7470,
      "æ°¸": 7471,
      "æłĢ": 7472,
      "æĤ£å¤Ħ": 7473,
      "æĿ¯": 7474,
      "ä¼ļéĢłæĪĲ": 7475,
      "æĪĳå¦Īå¦Ī": 7476,
      "è¿ĻçĹħ": 7477,
      "è¿ĻæĥħåĨµ": 7478,
      "å¤§åīĤéĩı": 7479,
      "ä½łä»¬": 7480,
      "å¯¹æľ¬åĵģ": 7481,
      "å¯¹äººä½ĵ": 7482,
      "å¯¹å¾ħ": 7483,
      "ä¸ĭåĿł": 7484,
      "å°±éľĢè¦ģæľī": 7485,
      "ä¸ºéĩįè¦ģ": 7486,
      "è¿ĩåĲİ": 7487,
      "å»ºè®®åı¯ä»¥": 7488,
      "åĮ»éĻ¢ä»Ķç»Ĩæ£ĢæŁ¥": 7489,
      "å¤©å¤©": 7490,
      "çº±": 7491,
      "é¥®çĶ¨": 7492,
      "æĹ©åº·å¤į": 7493,
      "èį¯çī©çĽ¸": 7494,
      "æľĢå¤ļ": 7495,
      "éĴ¡": 7496,
      "ä¿Ŀèĥİ": 7497,
      "èĤłéķľ": 7498,
      "æĬĹèĤ¿çĺ¤": 7499,
      "è´¨çĸĳ": 7500,
      "ä¹³ç³ĸ": 7501,
      "è¯¥æĢİä¹Īæł·": 7502,
      "ä¾¿åĲİ": 7503,
      "åĪ¶å®ļ": 7504,
      "æīįçŁ¥éģĵ": 7505,
      "å®ŀè´¨": 7506,
      "åĩłå¹´": 7507,
      "æľĪç»ıå¤±è°ĥ": 7508,
      "çļĦçĹĩçĬ¶æľīåĵªäºĽ": 7509,
      "ä¸ªæľĪå®Ŀå®Ŀ": 7510,
      "çķĻä¸ĭ": 7511,
      "éĿŀçī¹å¼ĤæĢ§": 7512,
      "è½»è½»": 7513,
      "èĥİåģľ": 7514,
      "ä¸ĢçĽ´åĽ°æī°": 7515,
      "æĳĩ": 7516,
      "çİ¯ç´ł": 7517,
      "å®ĮåĸĦ": 7518,
      "çĶµè§Ĩ": 7519,
      "ç¼©å°ı": 7520,
      "æįŁä¼¤çļĦæīĭæľ¯æ²»çĸĹæľīäºĽä»Ģä¹Ī": 7521,
      "å»ºè®®ä½łæľĢå¥½": 7522,
      "çªģåıĳæĢ§": 7523,
      "åĪ°åĮ»éĻ¢åģļä¸ª": 7524,
      "å¿ĥçĲĨæ²»çĸĹ": 7525,
      "èĦĵæĢ§": 7526,
      "éĺ¿ç±³": 7527,
      "æĺ¯åĲ¦æŃ£å¸¸": 7528,
      "èĳµ": 7529,
      "åĲĪçĲĨèĨ³é£Ł": 7530,
      "èĭ¦åıĤ": 7531,
      "èĭ¦æģ¼": 7532,
      "å¤ĩæĦŁ": 7533,
      "ç´¯åıĬ": 7534,
      "æ·ĭå·´ç»ĵçĤİ": 7535,
      "çīĽèĤī": 7536,
      "ç£ģåħ±æĮ¯æĪĲåĥı": 7537,
      "å¤§éĩıçļĦ": 7538,
      "çĸıéĢļ": 7539,
      "åĿļæĮģæ²»çĸĹ": 7540,
      "ä¸įå¤ªèĪĴæľį": 7541,
      "æ¸Ĺè¡Ģ": 7542,
      "éĽĨä¸Ń": 7543,
      "æ¸¸æ³³": 7544,
      "éĺµåıĳæĢ§": 7545,
      "æ¤įåħ¥æľ¯": 7546,
      "äºĨä¸įå¿ħè¦ģçļĦå¹²æī°": 7547,
      "è¶³å¤ŁçļĦ": 7548,
      "è¹²": 7549,
      "åĬłå¿«åº·å¤įéĢŁåº¦": 7550,
      "å¾Īé«ĺåħ´ä¸ºä½ł": 7551,
      "ä½İèĦĤé¥®é£Ł": 7552,
      "ä¸įåĲĮç¨ĭåº¦çļĦ": 7553,
      "å¯ĦçĶŁèĻ«": 7554,
      "æĶ¾æħ¢åº·å¤įéĢŁåº¦": 7555,
      "ç¾ĬçĻ«çĸ¯": 7556,
      "%-": 7557,
      "çļĦåģ¥åº·": 7558,
      "çļĦå¤§å°ı": 7559,
      "ä¸įä¹ħ": 7560,
      "ä¸įä¸Ģæł·": 7561,
      "æĢ§çĬ¶": 7562,
      "æĢ§åĩºè¡Ģ": 7563,
      "åĮ®": 7564,
      "å¤ļå¤©": 7565,
      "èĥ½åģļ": 7566,
      "å¿ĥèĦĳè¡Ģç®¡": 7567,
      "å¯¹åŃ©åŃĲçļĦ": 7568,
      "ä¸Ĭæ¶ĪåĮĸéģĵ": 7569,
      "å»ºè®®å°½å¿«": 7570,
      "å¤©åĲİ": 7571,
      "ç§įç±»": 7572,
      "éķ¿å¤§": 7573,
      "ä½ľçĹĽ": 7574,
      "èĦĳå¤ĸä¼¤": 7575,
      "è¾ĥå°ı": 7576,
      "å±ı": 7577,
      "åı£æ°´": 7578,
      "çĻ½æľ¯": 7579,
      "æ°Ķæ»ŀ": 7580,
      "æĬĹçĻĮ": 7581,
      "åıĬæĹ¶å¾ĹåĪ°": 7582,
      "åıĺæĪĲ": 7583,
      "å¥³äººçļĦ": 7584,
      "åħ¨éº»": 7585,
      "æķĪæŀľçļĦ": 7586,
      "é»Ħæĸĳ": 7587,
      "åŀĭçļĦ": 7588,
      "ä¸įèĥ½åĲĥ": 7589,
      "åıĳçĶŁçļĦ": 7590,
      "åģ¥åº·çļĦ": 7591,
      "æ¯ıæĻļ": 7592,
      "ç»ĦçļĦä¸´åºĬè¡¨çİ°æľīäºĽä»Ģä¹Ī": 7593,
      "æŀģå°ĳéĩı": 7594,
      "åĹ³": 7595,
      "æģ¢å¤įæľŁ": 7596,
      "åĪĻåºĶ": 7597,
      "ç»Ħç»ĩçļĦ": 7598,
      "æĺ¯åı¯ä»¥ç¨³å®ļçļĦ": 7599,
      "çĽ®åīįä¸ĢèĪ¬æĥħåĨµ": 7600,
      "éĿŀå¸¸æĭħå¿ĥ": 7601,
      "æĻķåĢĴ": 7602,
      "æ¯ĽåĽĬ": 7603,
      "ä¾ĭåģĩ": 7604,
      "åĨħåĪĨæ³Įç´Ĭä¹±": 7605,
      "å¤ĸç§ĳæīĭæľ¯": 7606,
      "èĦĬæ¤İ": 7607,
      "è¿ĩåº¦åĬ³ç´¯": 7608,
      "å¥¹çļĦ": 7609,
      "åĨ²åīĤ": 7610,
      "æī¾åĪ°": 7611,
      "è¿Ľä¸ĢæŃ¥ä»Ķç»Ĩæ£ĢæŁ¥": 7612,
      "åı£èħĶçĻĮ": 7613,
      "çĽ¸åħ³æĢ§": 7614,
      "çĶŁåĨ·é£Łçī©": 7615,
      "ä¾µè¢Ń": 7616,
      "ç²Ĺç³Ļ": 7617,
      "èĩªèº«æĬ¤çĲĨå·¥ä½ľ": 7618,
      "åı¯ä»¥å¸®åĬ©åĪ°æĤ¨": 7619,
      "åĬ¡å¿ħè¦ģ": 7620,
      "éľĢè¦ģæľīéķ¿æľŁçļĦ": 7621,
      "ä¸İæŃ¤åĲĮæĹ¶æĤ£èĢħè¿ĺè¦ģçķĻæĦı": 7622,
      "èĵĿåħī": 7623,
      "çĶľé£Ł": 7624,
      "æł¹æľ¬ä¸Ĭ": 7625,
      "è¤¥": 7626,
      "ä½İçĽĲé¥®é£Ł": 7627,
      "ä»¥æŃ¤æĿ¥å¢ŀå¼ºä½ĵè´¨åĬłå¿«åº·å¤įéĢŁåº¦": 7628,
      "åĬłåĩıæ²»çĸĹ": 7629,
      "èĨ¨èĥĢ": 7630,
      "èĤºåĬ¨èĦīé«ĺåİĭ": 7631,
      "å±ĢéĻĲæĢ§": 7632,
      "çĹħåİŁèıĮ": 7633,
      "éĽ¶é£Ł": 7634,
      "å·§åħĭ": 7635,
      "æĲºå¸¦èĢħ": 7636,
      "èıłèıľ": 7637,
      "42": 7638,
      "CR": 7639,
      "PE": 7640,
      "il": 7641,
      "èŃ": 7642,
      "ä¸²": 7643,
      "æĢĴ": 7644,
      "èĥ¡èĲ": 7645,
      "å®Ĺ": 7646,
      "æĢ§åĮĸ": 7647,
      "çĶŁäºĨ": 7648,
      "å¹ħ": 7649,
      "å¤ļä¸ª": 7650,
      "åİ¿": 7651,
      "æĪĳå¾Īæĭħå¿ĥ": 7652,
      "ä¸ŃèĢģå¹´": 7653,
      "ä¸Ńè¿ĺéľĢè¦ģéĩįè§Ĩ": 7654,
      "å°±å¼Ģå§ĭ": 7655,
      "çĥ·": 7656,
      "çŃīæ£ĢæŁ¥": 7657,
      "å¤ĸåĽºå®ļ": 7658,
      "ä¹Łä¸įè¦ģ": 7659,
      "éĩįåŀĭ": 7660,
      "å»ºè®®æľįçĶ¨": 7661,
      "åºĶåľ¨": 7662,
      "èĤ¿çĹĽ": 7663,
      "é«ĺè¡ĢèĦĤ": 7664,
      "åĸĬ": 7665,
      "å¦ĤæŀľæĤ¨": 7666,
      "èĩªåıĳæĢ§": 7667,
      "åŃ©åŃĲçļĦçĹĩçĬ¶": 7668,
      "å¹¶éĿŀ": 7669,
      "å¤´çļ®": 7670,
      "ä¿ĿçķĻ": 7671,
      "è¯¥åıĬæĹ¶æķĳæ²»": 7672,
      "éħ¸å¥¶": 7673,
      "çĶ²åŁº": 7674,
      "å²ģä»¥ä¸ĭ": 7675,
      "ä¸īåıī": 7676,
      "éľĢè¦ģæľīåģļ": 7677,
      "èĤ¿çĺ¤ç»Ĩèĥŀ": 7678,
      "å¼ºåĮĸ": 7679,
      "è¡¥è¡Ģ": 7680,
      "åĲĮæĹ¶æĤ£èĢħæĹ¥å¸¸": 7681,
      "æ¯ıä¸ª": 7682,
      "ç¼ºéĵģ": 7683,
      "å·¦è¾¹": 7684,
      "èĥİåĬ¨": 7685,
      "æģ¶åıĺ": 7686,
      "æĶ¹è¿Ľ": 7687,
      "èģĭ": 7688,
      "æıĲéĨĴ": 7689,
      "ä¹³èħºçĤİ": 7690,
      "èĽĭçĻ½å°¿": 7691,
      "çĸ¾çĹħçļĦä¿¡å¿µ": 7692,
      "ä»£è¡¨": 7693,
      "åĮºåŁŁ": 7694,
      "æĪĳä»¬éĥ½çŁ¥éģĵ": 7695,
      "æĭħå¿§": 7696,
      "éĢłæĪĲå°ıåĦ¿": 7697,
      "æľīæķĪçļĦæ²»çĸĹ": 7698,
      "ç½®ç®¡": 7699,
      "æĺ¯åĲ¦æĺ¯": 7700,
      "åĺ¶": 7701,
      "åĲĪçĲĨçĶ¨èį¯": 7702,
      "çļĦæ²»çĸĹæĸ¹æ³ķæľīå¾Īå¤ļ": 7703,
      "å»¶åĲİ": 7704,
      "é©¬è¥¿": 7705,
      "æĤ£èĢħåı¯ä»¥åıĬæĹ¶å¾ĹåĪ°": 7706,
      "ä¼´æľīä½İçĥ§": 7707,
      "æ³¢åĬ¨": 7708,
      "æĽ¿ä»£": 7709,
      "èĮ¶ç¢±": 7710,
      "è½»åº¦çļĦ": 7711,
      "æ²īç§¯": 7712,
      "çĽ²çĽ®çļĦ": 7713,
      "è®¡åĪĴ": 7714,
      "éĩįçĹĩèĤĮæĹłåĬĽ": 7715,
      "æĤ£èĢħçļĦé¥®é£ŁçĬ¶åĨµåĴĮå¿ĥçĲĨçĬ¶æĢģä¹Łæĺ¯åįģåĪĨéĩįè¦ģ": 7716,
      "ä¸ĢæĹ¦åıĳçİ°åĲİå°±": 7717,
      "çĹĺçĹĺ": 7718,
      "æľīæīĢå¸®åĬ©": 7719,
      "åģļä¸ºéħįç½®æķĳæ²»": 7720,
      "ä»¥æŃ¤æĿ¥å¢ŀå¼ºä½ĵè´¨æĶ¾æħ¢åº·å¤įéĢŁåº¦": 7721,
      "èĤ¾æ°Ķä¸¸": 7722,
      "é«ĺèĦĤè¡ĢçĹĩ": 7723,
      "æĤ£èĢħçļĦåħįçĸ«åĬĽä»¥åıĬ": 7724,
      "ä½Ĩæĺ¯ä¸ĢèĪ¬æķĳæ²»": 7725,
      "éļĲçªĿåĨ²æ´Ĺ": 7726,
      "å·§åħĭåĬĽ": 7727,
      "èĥ¡èĲĿåįľ": 7728,
      "åĲĮæĹ¶æĤ£èĢħæĹ¥å¸¸ä¸Ńè¿ĺéľĢè¦ģéĩįè§Ĩ": 7729,
      "æĤ£èĢħåı¯ä»¥åıĬæĹ¶å¾ĹåĪ°æķĳæ²»": 7730,
      "ä¸ĢæĹ¦åıĳçİ°åĲİå°±è¯¥åıĬæĹ¶æķĳæ²»": 7731,
      "ch": 7732,
      "us": 7733,
      "çļĦå¥³æĢ§": 7734,
      "ä¸įå®Įåħ¨": 7735,
      "ä»¥åĨħ": 7736,
      "ä»¥å¤ĸ": 7737,
      "ä¼¯": 7738,
      "èħĳ": 7739,
      "éĻª": 7740,
      "æŁ¥äºĨ": 7741,
      "åĲİåı¯": 7742,
      "ä¼ļåıĳçĶŁ": 7743,
      "æīĭæ³ķ": 7744,
      "æĪĳå¥³åĦ¿": 7745,
      "å¦ĤæŃ¤": 7746,
      "è¿ĻæĹ¶": 7747,
      "è¿Ļä½į": 7748,
      "ç»ıæµİ": 7749,
      "ä½łè¯´çļĦæĥħåĨµ": 7750,
      "å°±çĸ¼": 7751,
      "å°±æ²¡äºĭ": 7752,
      "æ´ŀ": 7753,
      "åīįåºŃ": 7754,
      "éľľ": 7755,
      "å°ıåı¶": 7756,
      "ä¹Łä¸įæĺ¯": 7757,
      "ä¹ŁæĢ»æĺ¯": 7758,
      "æĪĸçĶ¨": 7759,
      "éĩįå¤į": 7760,
      "æ³¨æĦıè¦ģä¿ĿæĮģèī¯å¥½çļĦå¿ĥæĥħ": 7761,
      "æĭŁ": 7762,
      "åŃķåīį": 7763,
      "èĢĮå¼Ĥ": 7764,
      "è¾ĥéĩį": 7765,
      "è¾ĥè¿ĳ": 7766,
      "åı£å¹²": 7767,
      "çľĭçĿĢ": 7768,
      "åĩºçİ°çļĦ": 7769,
      "æ¸ħèĤº": 7770,
      "ä¸Ķæķĳæ²»åĲİ": 7771,
      "éª¨çĵ£": 7772,
      "æ¶ĪçĤİçļĦ": 7773,
      "æīĢè°ĵ": 7774,
      "çĹħæĥħå¾ĹåĪ°": 7775,
      "è°ĥç»ı": 7776,
      "èĤĮå¼łåĬĽ": 7777,
      "ä¸īä¸ª": 7778,
      "ä¸īåįģ": 7779,
      "ä¿ĿæĮģèĩªèº«åį«çĶŁ": 7780,
      "è¿Ļä¸ªæĺ¯": 7781,
      "åĲ¸æ°§": 7782,
      "éĹ®é¢ĺä¸ĢçĽ´åĽ°æī°": 7783,
      "åĪ«çļĦ": 7784,
      "è¡Ģç®¡çĤİ": 7785,
      "åķĨ": 7786,
      "åĲĮæĹ¶è¦ģ": 7787,
      "è·ĥ": 7788,
      "æĢĢåŃķåĲİ": 7789,
      "æīĢä»¥æĪĳ": 7790,
      "äºĮç»´": 7791,
      "å¤ļåĲĥçĤ¹": 7792,
      "æĢİæł·æīįèĥ½": 7793,
      "åıĳçİ°æľī": 7794,
      "éĻ¤äºĨå¯¹çĹĩæ²»çĸĹ": 7795,
      "è¶ħå£°éĢłå½±": 7796,
      "æŃ»ç²¾çĹĩ": 7797,
      "ç²¾ç¥ŀåİĭåĬĽ": 7798,
      "ç»Īèº«": 7799,
      "å¢ŀå¼ºæī«æıı": 7800,
      "åĬ³æįŁ": 7801,
      "çŁŃå°ı": 7802,
      "æĺİç¡®çļĦ": 7803,
      "éļıè®¿": 7804,
      "æĺ¯ä¸įæĺ¯æľī": 7805,
      "å»¶è¿Ł": 7806,
      "éĶĻæŀĦ": 7807,
      "åĬłå¼ºéĶ»çĤ¼": 7808,
      "æĮģç»ŃæĢ§": 7809,
      "ä¸Ĭè¿°æĥħåĨµ": 7810,
      "å°½éĩıä¸įè¦ģ": 7811,
      "é¢Ħéĺ²æİªæĸ½æľīåĵªäºĽ": 7812,
      "å»ºè®®æĤ£èĢħå¤ļæ³¨æĦı": 7813,
      "çĶŁåŃĺè´¨éĩı": 7814,
      "è¥¿åĮ»æ²»çĸĹ": 7815,
      "æ¶Ĥçīĩ": 7816,
      "ç²Ĺç²®": 7817,
      "é¢Ŀåı¶": 7818,
      "è¸ª": 7819,
      "èĸĦå¼±": 7820,
      "æĬĹçĤİèį¯": 7821,
      "çĹħæ¯ĴæĢ§èĤĿçĤİ": 7822,
      "è¿ĺä¸įå¤Ł": 7823,
      "èĤ¾ä¸Ĭèħºç´ł": 7824,
      "ä»¥æ¸ħæ·¡é£Łçī©ä¸ºåŁºç¡Ģ": 7825,
      "é¼ĵåĬ±": 7826,
      "éģ¿åħįè¾Ľè¾£åĪºæ¿Ģé£Łçī©": 7827,
      "å¹¶ä¸ĶæĹ¥å¸¸çĶŁæ´»ä¸Ńè¦ģè§Ħå¾ĭ": 7828,
      "æ¡¡éª¨": 7829,
      "é¢Ħéĺ²åĴĮæ²»çĸĹæĸ¹æ³ķ": 7830,
      "åıªè¦ģåıĬæĹ¶åıĳçİ°çĹĩçĬ¶": 7831,
      "å¦ĤæŀľåŃ©åŃĲè¢«åį´ç¡®è¯Ĭä¸ºå°ıåĦ¿": 7832,
      "åĹ³æ°Ķ": 7833,
      "ä¸Ķæķĳæ²»åĲİå®¹æĺĵçĹħåıĳ": 7834,
      "%ï½ŀ": 7835,
      "46": 7836,
      "48": 7837,
      "SH": 7838,
      "èŁ": 7839,
      "Ġ,": 7840,
      "çļĦåı¯èĥ½ä¼ļ": 7841,
      "çļĦæĳĦåħ¥": 7842,
      "çĶ°": 7843,
      "èĥ³": 7844,
      "ä¸įæ²»": 7845,
      "åŃ¤": 7846,
      "è¦ģèĢĥèĻĳ": 7847,
      "åı¯åľ¨": 7848,
      "åĩ¡": 7849,
      "èį¯æ°´": 7850,
      "èĦĨ": 7851,
      "è¡Ģè±¡": 7852,
      "ä¸ŃåįĪ": 7853,
      "ä¸Ńå¤®": 7854,
      "åīįä¸¤å¤©": 7855,
      "æĥħåĨµçļĦ": 7856,
      "ä¹Łèĥ½": 7857,
      "ä¹Łå°±": 7858,
      "çĹĩçĬ¶åĴĮ": 7859,
      "åºĶéģ¿åħį": 7860,
      "å°¿æ½´çķĻ": 7861,
      "ç»ĵèĨľ": 7862,
      "æľĢä¸»è¦ģ": 7863,
      "çŁ¿": 7864,
      "å¦ĤæŀľåĨįæ¬¡åĩºçİ°": 7865,
      "èĤĿæ²¹": 7866,
      "åĲĮåŃ¦": 7867,
      "èĦĳè¡Ģæłĵ": 7868,
      "éĥ½ä¼ļæľī": 7869,
      "æ¸ħæī«": 7870,
      "çķı": 7871,
      "æ¶ĪèĢĹ": 7872,
      "æķĳæ²»ä¸Ńä¸Ģå®ļ": 7873,
      "çĹħæĥħå¾ĹåĪ°æİ§åĪ¶": 7874,
      "èĲĿåįľ": 7875,
      "æ¯Ĵåī¯ä½ľçĶ¨": 7876,
      "æıī": 7877,
      "æŃ£å¸¸æĥħåĨµä¸ĭ": 7878,
      "éĶ¥": 7879,
      "åĸĿçĤ¹": 7880,
      "è¡¥ä¸Ń": 7881,
      "è¾ĵè¡Ģ": 7882,
      "çĽ¸äºĴ": 7883,
      "è·ĸ": 7884,
      "æĢ»ç®¡": 7885,
      "æ¢¢": 7886,
      "å¤Ħåľ¨": 7887,
      "å·¦å¿ĥå®¤": 7888,
      "å®¹æĺĵèĩ´ä½¿": 7889,
      "äºĮå°ĸçĵ£": 7890,
      "çİ¯ä¸Ļ": 7891,
      "å¤ªå¤§": 7892,
      "è¾ĵåįµç®¡éĺ»å¡ŀ": 7893,
      "ä»İå°ı": 7894,
      "æ¸©çĥŃ": 7895,
      "å¸¸è§ģäºİ": 7896,
      "åĳ¼åĲ¸è¡°ç«Ń": 7897,
      "åıĳèĤ²ä¸įåħ¨": 7898,
      "ä¸Ģæ¬¡æĢ§": 7899,
      "æĦŁåĨĴäºĨ": 7900,
      "è®©ä»ĸ": 7901,
      "åıĳä½ľæĹ¶": 7902,
      "ä»ħä¾ĽåıĤèĢĥ": 7903,
      "çĻ½å¸¦æ£ĢæŁ¥": 7904,
      "åĩīè¡Ģ": 7905,
      "ä¹Łä¸įçŁ¥æĻĵ": 7906,
      "ä¸įéĢĤæĦŁ": 7907,
      "æ·±éĥ¨": 7908,
      "ä¿ĥä½¿": 7909,
      "é±¼èĤĿæ²¹": 7910,
      "çĶŁæ®ĸåĻ¨å®ĺ": 7911,
      "æ°ŁåĵĮ": 7912,
      "å¿ħé¡»è¦ģ": 7913,
      "åį¡é©¬è¥¿": 7914,
      "åĪ°æŃ£è§ĦçļĦ": 7915,
      "å±±èį¯": 7916,
      "å¤ļåıĳç¾¤ä½ĵæĺ¯ä»Ģä¹Ī": 7917,
      "åī§çĥĪçĸ¼çĹĽ": 7918,
      "æŃ£ç¡®çļĦ": 7919,
      "çĽ¸ä¿¡èĩªå·±æĺ¯åı¯ä»¥æĪĺèĥľçĹħéŃĶçļĦ": 7920,
      "å°ĸéĶĲ": 7921,
      "ç¬¬äºĮæ¬¡": 7922,
      "åĸ·åļ": 7923,
      "æıĴç®¡": 7924,
      "æŁĵèī²ä½ĵå¼Ĥå¸¸": 7925,
      "å£®éĺ³": 7926,
      "ä¿®è¡¥æľ¯": 7927,
      "èħĭä¸ĭ": 7928,
      "ä¸ĺèĦĳ": 7929,
      "ç£ºéħ¸": 7930,
      "éĹ´éļĶç¼ºæįŁ": 7931,
      "è¤ª": 7932,
      "å¦Ĥæŀľä¸įåıĬæĹ¶æ²»çĸĹä¼ļå½±åĵįåĪ°èº«ä½ĵæĥħåĨµ": 7933,
      "è±ĨèħĲæ¸£": 7934,
      "æĿıä»ģ": 7935,
      "è·Ŀç¦»": 7936,
      "å¥Īå¾·": 7937,
      "çĭĹèĤī": 7938,
      "å½»åºķæģ¢å¤įå¼ķåıĳäºĨä¸įå¿ħè¦ģçļĦå¹²æī°": 7939,
      "èĤ¯å®ļ": 7940,
      "å¸®ä½łå°½å¿«": 7941,
      "çĹ¤çĸ®": 7942,
      "æľ¬æ¬¡åıĳçĹħåıĬæĮģç»ŃçļĦæĹ¶éĹ´": 7943,
      "åĶ¯ä¸Ģ": 7944,
      "éŀĺèĨľç§¯æ¶²": 7945,
      "èį¯çī©çĽ¸ä½ľçĶ¨": 7946,
      "ä¸İæŃ¤åĲĮæĹ¶æĤ£èĢħè¿ĺè¦ģçķĻæĦıåĨ³å®ļä¸Ģå®¶": 7947,
      "åĸ·åļı": 7948,
      "99": 7949,
      "II": 7950,
      "æ²¿": 7951,
      "æ²»çĸĹä¸»è¦ģæĺ¯": 7952,
      "æĢ§åĴĮ": 7953,
      "æ³Ĭ": 7954,
      "èį¯çļĦ": 7955,
      "åľ¨æĢ§çĶŁæ´»": 7956,
      "ä½ĵæł¼": 7957,
      "å°±ä¼ļæľī": 7958,
      "è¿ĺå¥½": 7959,
      "è¿ĺæľīçĤ¹": 7960,
      "è¿ĺä¼ļæľī": 7961,
      "éĹ´æİ¥": 7962,
      "åŃķæ£Ģ": 7963,
      "çŁ®": 7964,
      "èĤĿåĽĬèĤ¿": 7965,
      "æĹłç²¾åŃĲ": 7966,
      "ä¸ĢèĪ¬åı¯ä»¥": 7967,
      "æ¸ħåĪĽ": 7968,
      "åĨįçĶ¨": 7969,
      "èĥĥé»ıèĨľ": 7970,
      "èĦīåĨ²": 7971,
      "åĬŁèĥ½å¤±è°ĥ": 7972,
      "è¿ĳç«¯": 7973,
      "è¿Ľè¡Įè¯¦ç»Ĩ": 7974,
      "æŃ£å¸¸çİ°è±¡": 7975,
      "ä¸īéĩĳçīĩ": 7976,
      "èħĶéļĻ": 7977,
      "å§¨": 7978,
      "éĢĤå®ľ": 7979,
      "è¿Ļä¸ªçĸ¾çĹħ": 7980,
      "è¡¥æ¶²": 7981,
      "è·µ": 7982,
      "èĩªå·±ä¹Ł": 7983,
      "å¤Ħå¥³": 7984,
      "çķĻæĦıéĺ²å¯Ĵ": 7985,
      "æĹ©æ³ĦçļĦåİŁåĽł": 7986,
      "æĪ¿å®¤": 7987,
      "çĪ¬": 7988,
      "åıĳçİ°èĩªå·±çļĦ": 7989,
      "åħįçĸ«æĢ§ä¸įåŃķ": 7990,
      "ç»´çĶŁç´łE": 7991,
      "æĽ´ä¸º": 7992,
      "çļ®èĤ¤çĹħ": 7993,
      "ä¸įèī¯çļĦ": 7994,
      "ç²¾ç¥ŀåĽłç´ł": 7995,
      "èĩ³ä»Ĭ": 7996,
      "çĹħçļĦåıĳçĹħ": 7997,
      "çī¹åĪ«éĩįè¦ģ": 7998,
      "ç³ĸå°¿çĹħäºº": 7999,
      "é¸½": 8000,
      "æĿ¾è§£": 8001,
      "ä»¥åĲİçļĦ": 8002,
      "è¦ģåıĬæĹ¶åİ»ä¸ĵä¸ļæŃ£è§ĦçļĦåĮ»éĻ¢è¯ĬçĹħ": 8003,
      "é¢ħéª¨": 8004,
      "èĦ¾èĦı": 8005,
      "çıį": 8006,
      "åĭĥèµ·åĬŁèĥ½éļľç¢į": 8007,
      "æµ·å¸¦": 8008,
      "è¿ĻäºĽçĹĩçĬ¶": 8009,
      "æ¯Ķè¾ĥå¥½åĳ¢": 8010,
      "æºĥçĸ¡æĢ§": 8011,
      "ä»¥åīįå¤ļäºĨ": 8012,
      "å½»åºķæģ¢å¤įçļĦ": 8013,
      "æł¹æį®ä½łè¯´çļĦæĥħåĨµ": 8014,
      "çĮ´": 8015,
      "æĦīå¿«ä¹Ĳè§ĤçļĦå¿ĥæĢģ": 8016,
      "çīĽé»Ħ": 8017,
      "æĹĭè½¬": 8018,
      "éĩĬæĶ¾": 8019,
      "ä¸´åºĬè¯ĬæĸŃçĹĩçĬ¶": 8020,
      "æ®ĭåŃĺ": 8021,
      "æ¦Ĥçİĩ": 8022,
      "æ»¡æĦı": 8023,
      "æĺĵæ¶ĪåĮĸçļĦé£Łçī©": 8024,
      "131": 8025,
      "æĤ£èĢħä¸Ģå®ļè¦ģé¥®é£Łæ¸ħæ·¡": 8026,
      "é»Ħèī²çļĦ": 8027,
      "æ»ĭéĺ´": 8028,
      "éĢĨè¡Į": 8029,
      "ä¸»åĬ¨èĦīçĵ£": 8030,
      "åĪĩå¼Ģå¤įä½į": 8031,
      "åĲĥè¾Ľè¾£åĪºæ¿ĢçļĦé£Łçī©": 8032,
      "å®¶éĩĮäºº": 8033,
      "æ³ªéģĵ": 8034,
      "æĤ£èĢħçļĦé¥®é£ŁçĬ¶åĨµåĴĮå¿ĥçĲĨçĬ¶æĢģä¹Łæĺ¯çī¹åĪ«éĩįè¦ģ": 8035,
      "èĤĭéª¨": 8036,
      "åıįå¤įåıĳä½ľçļĦ": 8037,
      "ç²¾ç¥ŀçĬ¶æĢģä¸įæĺ¯å¾Īå¥½": 8038,
      "é£İå¯ĴæĦŁåĨĴ": 8039,
      "èĤĽèĤłç§ĳ": 8040,
      "å¾Īæĺ¯æĭħå¿ĥ": 8041,
      "ä¸įåĲĥè¾Ľè¾£åĪºæ¿ĢæĢ§çļĦé£Łçī©": 8042,
      "æ§Ĳ": 8043,
      "èĦ¸èī²ä¹ŁæĢ»æĺ¯": 8044,
      "çĨıæ´Ĺ": 8045,
      "ä»¥ä¸ºæĺ¯": 8046,
      "äººåıĤçļĤèĭ·": 8047,
      "éĿ©åħ°": 8048,
      "æĭĩæĮĩ": 8049,
      "æŁ´èĥ¡": 8050,
      "èĦ¸èī²ä¹ŁæĢ»æĺ¯çĻ½çĻ½çļĦ": 8051,
      "at": 8052,
      "hc": 8053,
      "çļĦåĲ¸æĶ¶": 8054,
      "çļĦè¯ĬçĹħ": 8055,
      "çļĦæķĪçĶ¨": 8056,
      "çĶ¾": 8057,
      "æĺ¯ä¸ºä»Ģä¹Ī": 8058,
      "ä¸įæĿ¥": 8059,
      "è¡į": 8060,
      "æĢ§çŁ¥è¯Ĩ": 8061,
      "çĶŁå§ľ": 8062,
      "äºĨåĲĹ": 8063,
      "è¡ĢçĺĢ": 8064,
      "é¢Ĩ": 8065,
      "æ£ĢæŁ¥åĴĮ": 8066,
      "ä¼ļå¯¹": 8067,
      "æĪĳèĩªå·±çļĦèº«ä½ĵ": 8068,
      "çĬ¶è¡Ģç®¡çĺ¤": 8069,
      "åĩºäºĨ": 8070,
      "æĤ£èĢħçĶ·": 8071,
      "åĴĮè¾Ľè¾£": 8072,
      "çĲ¥": 8073,
      "ä¸ŃåĮ»éĻ¢": 8074,
      "ä¸ĭæ¬¡": 8075,
      "ä¸ĬäºĨ": 8076,
      "ä¸ºçī¹å¾ģ": 8077,
      "åĨħéĻ·": 8078,
      "æĦŁæĥħ": 8079,
      "ä¹Łä¸įçŁ¥éģĵ": 8080,
      "ç®¡èħĶ": 8081,
      "æĢİä¹Īè§£åĨ³": 8082,
      "å»ºè®®æĥ¯èī¯å¥½çļĦçĶŁæ´»ä¹łæĥ¯": 8083,
      "åºĶæ¿Ģ": 8084,
      "å®ļä½į": 8085,
      "éĹ´è´¨æĢ§": 8086,
      "æ´»åĬĽ": 8087,
      "è´Ń": 8088,
      "èĨĬ": 8089,
      "èĤĿèĦ¾": 8090,
      "ä¸ĢèĪ¬éĥ½æĺ¯": 8091,
      "åħ³æ³¨": 8092,
      "çĹħæĥħå¥½è½¬": 8093,
      "ä½İèĦĤèĤª": 8094,
      "ä¸¥éĩįç¨ĭåº¦": 8095,
      "èĤĮæ³¨": 8096,
      "æĸŃå±Ĥ": 8097,
      "å®ŀè·µ": 8098,
      "çİ°åľ¨çļĦæĥħåĨµ": 8099,
      "è¿Ļä¸ªæ¯ĽçĹħ": 8100,
      "ç±»çļĦé£Łçī©": 8101,
      "ç»Ļäºº": 8102,
      "æĢİä¹ĪåĬŀåĳ¢": 8103,
      "åıĳçĶŁçİĩ": 8104,
      "æ»¨": 8105,
      "å¡ĳ": 8106,
      "æĢ»æĦŁè§ī": 8107,
      "å¿ħéĢī": 8108,
      "å¤±è¡¡": 8109,
      "èĥĨæĢ»ç®¡": 8110,
      "çļĦæĹ¶åĢĻåıĬæĹ¶æ²»çĸĹ": 8111,
      "è¯ĬæĸŃæĺ¯": 8112,
      "æĦŁè§īæ²¡æľī": 8113,
      "å®¹æĺĵå¯¼èĩ´": 8114,
      "åĬ¨èĦīæłĵå¡ŀ": 8115,
      "å¤ªå¥½": 8116,
      "ä»İæĿ¥": 8117,
      "ä»İæł¹æľ¬ä¸Ĭ": 8118,
      "çĶµåŃĲ": 8119,
      "åįķèĥŀ": 8120,
      "åĽłæŃ¤æķĳæ²»ä¸Ńä¸Ģå®ļ": 8121,
      "è¦ģæ³¨æĦıé¥®é£Ł": 8122,
      "ĠĠĠ": 8123,
      "éħįåĲĪä¸ĢäºĽ": 8124,
      "äº¤æĦŁ": 8125,
      "ç²ĺç¨ł": 8126,
      "è®¸å¤ļæ¬¡": 8127,
      "çº¤ç»´èħºçĺ¤": 8128,
      "ç³ĸå°¿çĹħæĤ£èĢħ": 8129,
      "ç»ĨèıĮåħ¥ä¾µ": 8130,
      "ç«ĭåĮ»éĻ¢": 8131,
      "è§Ĵåº¦": 8132,
      "å»¶ç¼ĵ": 8133,
      "ä¸ĵä¸ļçļĦåĮ»éĻ¢": 8134,
      "Bè¶ħä»Ķç»Ĩæ£ĢæŁ¥": 8135,
      "åıĻè¿°çļĦ": 8136,
      "æĤ£èĢħè¿ĺéľĢè¦ģ": 8137,
      "åĨ²è¡Ģ": 8138,
      "ç§»æ¤įæľ¯": 8139,
      "çĮĿ": 8140,
      "ç½ĳä¸Ĭ": 8141,
      "ä¸ºä»Ģä¹Īä¼ļ": 8142,
      "çª¦æĢ§": 8143,
      "å¤§å°ıä¾¿": 8144,
      "æ··æĤ¬": 8145,
      "æļĤåģľ": 8146,
      "åįķçº¯çļĦ": 8147,
      "èĤĿçĻĮæĻļæľŁ": 8148,
      "åĩºçĶŁåĲİ": 8149,
      "ä¾µåħ¥": 8150,
      "ä¾µçĬ¯": 8151,
      "ä¸Ĭçļ®ç»Ĩèĥŀ": 8152,
      "ä¸įåĲĮæīĢä»¥éĩĩåıĸ": 8153,
      "æĭĨåĪĨ": 8154,
      "è®¤ä¸ºè¿Ļæł·ä¸Ģå®ļèĥ½å°Ĩ": 8155,
      "åıĤåĬłä½ĵèĤ²éĶ»çĤ¼": 8156,
      "è·ĳæŃ¥": 8157,
      "å¾Īé«ĺåħ´ä¸ºæĤ¨": 8158,
      "äºĳåįĹ": 8159,
      "ä¸ĢçĽ´è§īå¾ĹæĪĳèĩªå·±çļĦèº«ä½ĵ": 8160,
      "åħĭæĭīéľīç´ł": 8161,
      "ç¡¬èĨľå¤ĸ": 8162,
      "ä¸įæĺ¯çī¹åĪ«çļĦèĪĴæľį": 8163,
      "å¯¿åĳ½": 8164,
      "èĥ³èĨĬ": 8165,
      "ä¸ĢçĽ´è§īå¾ĹæĪĳèĩªå·±çļĦèº«ä½ĵä¸įæĺ¯çī¹åĪ«çļĦèĪĴæľį": 8166,
      "AC": 8167,
      "AL": 8168,
      "µèµ°": 8169,
      "çļĦå¼Ĥå¸¸": 8170,
      "çļĦä¸įåĲĮ": 8171,
      "æľīé«ĺè¡Ģåİĭ": 8172,
      "æ²»åĲĹ": 8173,
      "ä¸įå¹²åĩĢ": 8174,
      "æĪı": 8175,
      "ä¸ĢåĪ°": 8176,
      "ä¸Ģéĺµ": 8177,
      "ä»Ģä¹ĪçļĦ": 8178,
      "æĹ¶ä¸į": 8179,
      "æĸ¥": 8180,
      "åı¯ä»¥éĢĤå½ĵçļĦ": 8181,
      "åľ¨ä¸Ģèµ·": 8182,
      "åĲİéĿ¢": 8183,
      "åĩºåİ»": 8184,
      "åĴĮçĶŁæ´»": 8185,
      "å¤§èĴľ": 8186,
      "ä¸ŃæĢ§": 8187,
      "ä¸Ĭæĸ¹": 8188,
      "ä¸Ĭæ¬¡": 8189,
      "åīįèĢħ": 8190,
      "åĨħç¿»": 8191,
      "åĪ°æĤ¨": 8192,
      "ä¹Łæĺ¯åı¯ä»¥": 8193,
      "éĩįç»Ħ": 8194,
      "çĹĩçĬ¶æľīåĵªäºĽ": 8195,
      "å¤©åĨħ": 8196,
      "å¾Īå°ı": 8197,
      "èµĽ": 8198,
      "åĪĨæľŁ": 8199,
      "èį¯çī©æĺ¯": 8200,
      "è°ģ": 8201,
      "éĺ´æ¯Ľ": 8202,
      "èĤĿèĥĨ": 8203,
      "æĹłèıĮ": 8204,
      "æĹłåĪĽ": 8205,
      "çĻ½å¼Ģæ°´": 8206,
      "éĺ²æĬ¤": 8207,
      "èĥĥä¸ĭåŀĤ": 8208,
      "åĬłéĢŁ": 8209,
      "æķĳæ²»ä¸»è¦ģæĺ¯": 8210,
      "éĢļä¾¿": 8211,
      "è¡¨çİ°çļĦ": 8212,
      "çĶ·åŃ©åŃĲ": 8213,
      "èº«ä½ĵæĬµæĬĹåĬĽ": 8214,
      "åīįåĪĹèħºçĹĽ": 8215,
      "åīįåĪĹèħºçĸ¾çĹħ": 8216,
      "ä½Ĩæĺ¯ä¸įçŁ¥éģĵ": 8217,
      "ä¸¤èĢħ": 8218,
      "ç»Ļä½ł": 8219,
      "åİ»åĮ»éĻ¢åģļä¸ª": 8220,
      "åı£æľįæĬĹçĶŁç´ł": 8221,
      "æ¯ıä¸ªäºº": 8222,
      "æīĢä»¥è¯´": 8223,
      "éĢłçĺĺ": 8224,
      "äºĮèĥİ": 8225,
      "è¶³éĩı": 8226,
      "åĬ¨èĦīç²¥æł·ç¡¬åĮĸ": 8227,
      "é¼»ä¸Ń": 8228,
      "åħįçĸ«æĬĳåĪ¶åīĤ": 8229,
      "åĪ©å¤ļ": 8230,
      "ç§¯æŀģå¯¹çĹĩæ²»çĸĹ": 8231,
      "éĻ¤äºĨæľįèį¯": 8232,
      "ä¼´éļı": 8233,
      "æĺ¯åı¯ä»¥ç¼ĵè§£çļĦ": 8234,
      "é¢ĳçİĩ": 8235,
      "ç²¾ç¥ŀä¸įå¥½": 8236,
      "åı¯èĥ½ä¼ļèĩ´ä½¿": 8237,
      "å¤įåıĳçİĩ": 8238,
      "åĪ°åĮ»éĻ¢ä»Ķç»Ĩæ£ĢæŁ¥": 8239,
      "èģĶç³»": 8240,
      "è®¤è¯Ĩ": 8241,
      "çļĦåİŁåĽłæľī": 8242,
      "èĦ±ç¦»": 8243,
      "éĺ¿èĥ¶": 8244,
      "å¸ĮæľĽå¯¹æĤ¨æľīå¸®åĬ©": 8245,
      "ä¿¡æģ¯": 8246,
      "åħ¨èº«çĹĩçĬ¶": 8247,
      "æĴµèµ°": 8248,
      "èĥĥèĤłçĤİ": 8249,
      "ä¸¥éĩįçļĦçĸ¾çĹħ": 8250,
      "èŀºéĴī": 8251,
      "ä»»ä½ķçļĦ": 8252,
      "ä½ĵåĨħçļĦ": 8253,
      "æĮĽç¼©": 8254,
      "æ´Ľå°Ķ": 8255,
      "æ²īæ²ī": 8256,
      "æĢİæł·æ²»çĸĹå¥½": 8257,
      "ç¢ĺä¼ı": 8258,
      "åī§çĥĪçļĦ": 8259,
      "å¾®åĪĽæīĭæľ¯æ²»çĸĹ": 8260,
      "æĥ³è¦ģå¾ĹåĪ°": 8261,
      "åĲĥé¥ŃæĦŁè§īæ²¡æľī": 8262,
      "èĥĥéķľæ£ĢæŁ¥": 8263,
      "æĤ£èĢħè¦ģçĽ¸ä¿¡èĩªå·±æĺ¯åı¯ä»¥æĪĺèĥľçĹħéŃĶçļĦ": 8264,
      "éĺ»æ»ŀåīĤ": 8265,
      "èĥĨæ±ģåıįæµģ": 8266,
      "æ¡ĤæŀĿ": 8267,
      "çĶ¨ç§¯æŀģçļĦå¿ĥæĢģåİ»éĿ¢å¯¹": 8268,
      "ç«ŁçĦ¶": 8269,
      "ä½Ĩæĺ¯ä¸ĢèĪ¬æ²»çĸĹæĹ¶éĹ´è¾ĥéķ¿": 8270,
      "æĦıå¤ĸæĢĢåŃķ": 8271,
      "åľ¨çĶŁæ´»ä¸ŃçĶ¨é£ŁçĸĹ": 8272,
      "ä¸¾åĬŀ": 8273,
      "æĤ£èĢħéľĢè¦ģæľīæ¸ħæ·¡é¥®é£Ł": 8274,
      "ä½Ĩæĺ¯çĶ±äºİæĤ£èĢħçĹħæĥħä¸įåĲĮæīĢä»¥éĩĩçĶ¨": 8275,
      "å»ºè®®æĤ£èĢħåľ¨æĹ¥å¸¸çĶŁæ´»ä¸Ńè¦ģçķĻæĦıé¥®é£Ł": 8276,
      "çĹ¢çĸ¾": 8277,
      "ç¥ĿæĤ£èĢħèº«ä½ĵæĹ©æĹ¥æģ¢å¤įåģ¥åº·": 8278,
      "æĢ»æĺ¯è¯´åĲĥä¸įä¸ĭåİ»": 8279,
      "è¿ģå»¶": 8280,
      "çļĦè¯ĬçĹħæĸ¹æ³ķä¹Łå°±ä¸įä¸Ģæł·": 8281,
      "åįķèĥŀèıĮ": 8282,
      "åĲĥé¥ŃæĦŁè§īæ²¡æľīä»¥åīįå¤ļäºĨ": 8283,
      "Ġ6": 8284,
      "ĠãĢĢ": 8285,
      "çļĦç¨ĭåº¦": 8286,
      "ä½Ŀ": 8287,
      "æĺ¯ä¸įä¼ļ": 8288,
      "ç»į": 8289,
      "ç»Ĵ": 8290,
      "æ²»çĸĹè¿ĩ": 8291,
      "è¦ģåĲĥ": 8292,
      "è¦ģå¤ļå°ĳéĴ±": 8293,
      "åı¯éĢĤå½ĵ": 8294,
      "æī¿": 8295,
      "ä»¥éĺ²æŃ¢": 8296,
      "åºĵ": 8297,
      "å¥½åıĳäºİ": 8298,
      "å¾¡": 8299,
      "å¤ļæł·": 8300,
      "èħŃ": 8301,
      "è¡ĢæĢ§": 8302,
      "åľ¨çĶ¨èį¯æľŁéĹ´": 8303,
      "çİ°ä»£": 8304,
      "ä½ĵæ¶²": 8305,
      "åĽłäºº": 8306,
      "åĽłèĢĮ": 8307,
      "å¿ĥåĨħèĨľ": 8308,
      "å¤§ç±»": 8309,
      "ä¸ŃæĸŃ": 8310,
      "ä¸ĭèħĶ": 8311,
      "ä¸Ĭéķ¿äºĨ": 8312,
      "æīĭæľ¯ä¹ĭåĲİ": 8313,
      "åīįæľŁ": 8314,
      "è¿ĩåİ»": 8315,
      "åĨħçļ®": 8316,
      "å¤©çĦ¶": 8317,
      "æ°´åĪĨ": 8318,
      "æ°´æ³¡": 8319,
      "åĪĨæµģ": 8320,
      "è´£": 8321,
      "æĺ¯ä»Ģä¹ĪæĹ¶åĢĻ": 8322,
      "èµ·åºĬ": 8323,
      "èĤĿæįŁä¼¤": 8324,
      "èĤĿåĮº": 8325,
      "èĤĿèħ¹æ°´": 8326,
      "èĢĮå®ļ": 8327,
      "èĢĮå¼ķèµ·çļĦ": 8328,
      "æĪĲä»½": 8329,
      "åŃ©åŃĲæīģæ¡ĥä½ĵåıĳçĤİ": 8330,
      "éĥ½æľīä»Ģä¹Ī": 8331,
      "æ¿Ģéħ¶": 8332,
      "éª¨åħ³èĬĤ": 8333,
      "åĨįåģļ": 8334,
      "åĬłçĶ¨": 8335,
      "æķĳæ²»å¤ĸ": 8336,
      "æĬĹè¿ĩæķı": 8337,
      "æµģé£Ł": 8338,
      "æĬ¤èĤĿ": 8339,
      "æĸ¹æ³ķæĺ¯ä»Ģä¹Ī": 8340,
      "ä»Ķç»Ĩæ£ĢæŁ¥åĩºçļĦ": 8341,
      "æŃ£å¸¸èĮĥåĽ´": 8342,
      "ä¸īèģĶ": 8343,
      "æľĪç»ıæľŁéĹ´": 8344,
      "éľĢè¦ģæľīçķĻæĦı": 8345,
      "ä¸¤å¹´äºĨ": 8346,
      "å¯¹çĹĩä½¿çĶ¨èį¯çī©": 8347,
      "çķĻç½®": 8348,
      "æľĢè¿ĳåĩłåĳ¨": 8349,
      "éĺ´éģĵæµģè¡Ģ": 8350,
      "æħ¢æĢ§çĽĨèħĶçĤİ": 8351,
      "çķĻæĦıä¸ªäººåį«çĶŁ": 8352,
      "éģ¿åħįåĽł": 8353,
      "å¤ļåĲĥåĲ«": 8354,
      "æķ°éĩı": 8355,
      "å·²ç»ıæĺ¯": 8356,
      "æľ¯åĲİæĬ¤çĲĨ": 8357,
      "ç»Ħç»ĩçĹħçĲĨ": 8358,
      "åįķåıĳ": 8359,
      "è¶ħå£°è¯ĬæĸŃ": 8360,
      "åįĬå¤ľ": 8361,
      "å¿Įé£Łè¾Ľè¾£": 8362,
      "æľīçĤ¹ä¸įèĪĴæľį": 8363,
      "æŃ»äºĨ": 8364,
      "éĴĻçīĩ": 8365,
      "å¤§ä¾¿åĩºè¡Ģ": 8366,
      "æľīä»Ģä¹Īå½±åĵį": 8367,
      "æľīä»Ģä¹Īåį±å®³": 8368,
      "ç±³éĿŀ": 8369,
      "é¾Łå¤´æķıæĦŁ": 8370,
      "æľĭåıĭè¯´": 8371,
      "æķ£æŃ¥": 8372,
      "æķ£æĴŃ": 8373,
      "éĩĳåĮ®": 8374,
      "æīģæ¡ĥä½ĵéļĲçªĿåĨ²æ´Ĺ": 8375,
      "æľīæķĪçļĦæ²»çĸĹæĸ¹æ³ķ": 8376,
      "æľŁæľĽæĪĳçļĦ": 8377,
      "éĿĴèıľ": 8378,
      "èĦ¾æ°Ķ": 8379,
      "æ·±éĿĻèĦīè¡Ģæłĵ": 8380,
      "ç¾İæīĺ": 8381,
      "åĨ²åĩ»": 8382,
      "åİ»åĮ»éĻ¢æ£ĢæŁ¥äºĨ": 8383,
      "æĴŀ": 8384,
      "åĳ¨æľŁè¾ĥéķ¿": 8385,
      "è¡£çī©": 8386,
      "ç»ĵèĬĤæĢ§": 8387,
      "æ´ĽéŁ¦": 8388,
      "çĥ¦æģ¼": 8389,
      "åģļæīĭæľ¯åĲĹ": 8390,
      "ç©¿åĪºæ´»æ£Ģ": 8391,
      "çĥ«ä¼¤": 8392,
      "è½¯éª¨çĺ¤": 8393,
      "æĥ³éĹ®ä¸ĭ": 8394,
      "èĢĥéĩıæķĳæ²»": 8395,
      "éĶģéª¨": 8396,
      "åħ³éĶ®çļĦ": 8397,
      "æĪĳæĥ³éĹ®éĹ®": 8398,
      "ä¸įåĲĥåĪºæ¿ĢæĢ§çļĦé£Łçī©": 8399,
      "å®¶äººç²¾ç¥ŀçĬ¶æĢģä¸įæĺ¯å¾Īå¥½": 8400,
      "äº¦åı¯": 8401,
      "æĹ©åŃķè¯ķçº¸": 8402,
      "åī¥èĲ½": 8403,
      "éĻ¤äºĨè¦ģé©¬ä¸Ĭ": 8404,
      "å¯¹æĤ£èĢħä»¬å¸¦æĿ¥çļĦ": 8405,
      "å¿įèĢĲ": 8406,
      "æĬ±æĭ¬": 8407,
      "æĬĹæĦŁæŁĵæ²»çĸĹ": 8408,
      "å¼Łå¼Ł": 8409,
      "å¼ºçĽ´æĢ§": 8410,
      "åħħè¶³çļĦæ·±åº¦çĿ¡çľł": 8411,
      "ä½Ĩæĺ¯çĶ±äºİæĤ£èĢħçĹħæĥħä¸įåĲĮæīĢä»¥éĩĩåıĸ": 8412,
      "å³°": 8413,
      "HPV": 8414,
      "å°ĳé£Łå¤ļé¤Ĳ": 8415,
      "æĶ¾æŁĶçĹħæĥħ": 8416,
      "éĹ´æŃĩæĢ§": 8417,
      "é¡½åĽºæĢ§": 8418,
      "ä¸įè¦ģé£ŁçĶ¨åĪºæ¿Ģé£Łçī©": 8419,
      "èī¾æ»ĭçĹħ": 8420,
      "ä½łæııè¿°çļĦ": 8421,
      "ä¸įæĬ½çĥŁåĸĿåķ¤éħĴ": 8422,
      "çº±å¸ĥ": 8423,
      "èħĶéļĻæĢ§": 8424,
      "å¾Īæĺ¯æĭħå¿ĥåĳ¢": 8425,
      "55": 8426,
      "æª": 8427,
      "ĠæĮĩå¯¼æĦıè§ģ": 8428,
      "çļĦæįŁä¼¤": 8429,
      "ä»ĳ": 8430,
      "æĺ¯éĢļè¿ĩ": 8431,
      "æĢ§éª¨æĬĺ": 8432,
      "æĢ§ç´«çĻľ": 8433,
      "ä¸Ģå°ı": 8434,
      "ä¸ĢåĪĩ": 8435,
      "å¤ļæ³¨æĦıä¼ĳæģ¯": 8436,
      "çİĭ": 8437,
      "çĶ¨ä¸Ńèį¯": 8438,
      "åľ¨äºİ": 8439,
      "åľ¨åģļ": 8440,
      "åľ¨æŃ¤": 8441,
      "åĲİè·¯": 8442,
      "æĿī": 8443,
      "åģ»": 8444,
      "çĽĹ": 8445,
      "æĪĳçĪ¶äº²": 8446,
      "è¿ĩä¸Ģæ¬¡": 8447,
      "è¿ĩä¸Ģä¼ļ": 8448,
      "çŃīæĸ¹æ³ķ": 8449,
      "åºĶç«ĭåį³": 8450,
      "åĪĨåĪ«": 8451,
      "æľĢä¸º": 8452,
      "çĺ¤ä½ĵ": 8453,
      "è°Ĳ": 8454,
      "èµ·å±ħ": 8455,
      "å¦Ĥæŀľè¯´": 8456,
      "èĤĿåĨħ": 8457,
      "èĩ´çĹħèıĮ": 8458,
      "èĦĳå¹²": 8459,
      "è¿ĽèĢĮ": 8460,
      "åı¯èĥ½åĴĮ": 8461,
      "åı¯èĥ½å¯¼èĩ´": 8462,
      "æ°Ķæ²īæ²ī": 8463,
      "éª¨è½¬ç§»": 8464,
      "èĥĥçĤİçļĦ": 8465,
      "èĦīç»ľ": 8466,
      "çĹħæĥħå¾ĹåĪ°ç¼ĵè§£": 8467,
      "åıĺæĢģ": 8468,
      "èĤºåĬŁèĥ½": 8469,
      "æķĪæŀľæ¯Ķè¾ĥ": 8470,
      "ç³ĸæµĨ": 8471,
      "çİ°åľ¨çļĦ": 8472,
      "ä»ĸæľī": 8473,
      "ä»ĸæĢ»æĺ¯è¯´åĲĥä¸įä¸ĭåİ»": 8474,
      "å¹³æĹ¶è¦ģçķĻæĦı": 8475,
      "æİĴæ°Ķ": 8476,
      "åŁĥ": 8477,
      "åıĹä¼¤": 8478,
      "èĮµ": 8479,
      "æĤ¨å¥½ä¸Ģä¸ĭ": 8480,
      "éĤ£å°±": 8481,
      "èĩªèº«åħįçĸ«åĬĽ": 8482,
      "ç½ķ": 8483,
      "è¿Ļç§įæĥħåĨµèĢĥèĻĳ": 8484,
      "æĢİæł·åĮ»æ²»": 8485,
      "æ¶ĪåĮĸåĨħç§ĳ": 8486,
      "æİ§åĪ¶è¡Ģç³ĸ": 8487,
      "åĪĩéĻ¤æīĭæľ¯": 8488,
      "åįĬèº«": 8489,
      "æŃ»æ°Ķæ²īæ²ī": 8490,
      "åıĮèĥį": 8491,
      "ç»ıå¸¸çļĦ": 8492,
      "å»ºè®®ä½łçĶ¨": 8493,
      "ç´§ç¼©": 8494,
      "è¿ŀæİ¥": 8495,
      "èĦ±èĤĽ": 8496,
      "ä¼łæŁĵçĹħ": 8497,
      "ä»¥åħįå¼ķèµ·": 8498,
      "æīģæ¡ĥä½ĵåĨħ": 8499,
      "åĽ°æģ¼": 8500,
      "æĬ½çŃĭ": 8501,
      "åĨħåĪĨæ³Įç§ĳ": 8502,
      "éĴĪå¯¹çĹħåĽł": 8503,
      "å¦ĪåĴª": 8504,
      "éļĲéļĲ": 8505,
      "ä»£è°¢ç´Ĭä¹±": 8506,
      "åĳĪçİ°": 8507,
      "æ²¹èħ»çļĦé£Łçī©": 8508,
      "çī©çĲĨçĸĹæ³ķ": 8509,
      "åĳ¼åĲ¸éģĵçĸ¾çĹħ": 8510,
      "æħ¢æħ¢çļĦ": 8511,
      "éĢĤå½ĵçļĦè¿ĲåĬ¨": 8512,
      "ä»·åĢ¼": 8513,
      "Xçº¿çīĩ": 8514,
      "æľīåħ³ç³»åĲĹ": 8515,
      "æĶ¯æŀ¶ç½®åħ¥": 8516,
      "å¥½åĥıæľīçĤ¹": 8517,
      "æľºä½ĵçļĦ": 8518,
      "è®ºæ²»": 8519,
      "å¿ĥå¾ĭä¸įé½Ĳ": 8520,
      "èģļéĽĨ": 8521,
      "å¤ļåıĳæĢ§éª¨é«ĵçĺ¤": 8522,
      "æĦıè¯Ĩéļľç¢į": 8523,
      "æĬĹçĹħæ¯Ĵæ²»çĸĹ": 8524,
      "çĬ¯äºĨ": 8525,
      "éĽĮæ¿Ģç´łæ°´å¹³": 8526,
      "æŁĶè½¯": 8527,
      "ç¨įå¾®": 8528,
      "åĽłæŃ¤æĤ£èĢħè¦ģåıĬæĹ¶å¯¹çĹĩä¸ĭèį¯": 8529,
      "åģľæŃ¢ä¸ĭæĿ¥": 8530,
      "æĳ¸åĪ°": 8531,
      "æł¹æį®ä»Ķç»Ĩæ£ĢæŁ¥ç»ĵæŀľåĨįèĢĥéĩıæķĳæ²»": 8532,
      "æĩĤ": 8533,
      "æĤ£èĢħèĥ½èİ·å¾Ĺ": 8534,
      "åĽłæŃ¤æ²»çĸĹä¸Ńä¸Ģå®ļå¯¹çĹĩä½¿çĶ¨èį¯çī©": 8535,
      "æĺĶæ´ĽéŁ¦": 8536,
      "åħħè¶³çļĦçĿ¡çľł": 8537,
      "èĽĽç½ĳèĨľ": 8538,
      "è¦ĨçĽĸ": 8539,
      "èĪĴéĢĤæĬ¤çĲĨ": 8540,
[...]
